{
  "version": "1.0",
  "truncation": null,
  "padding": null,
  "added_tokens": [
    {
      "id": 0,
      "content": "[PAD]",
      "single_word": false,
      "lstrip": false,
      "rstrip": false,
      "normalized": false,
      "special": true
    },
    {
      "id": 1,
      "content": "[BOS]",
      "single_word": false,
      "lstrip": false,
      "rstrip": false,
      "normalized": false,
      "special": true
    },
    {
      "id": 2,
      "content": "[EOS]",
      "single_word": false,
      "lstrip": false,
      "rstrip": false,
      "normalized": false,
      "special": true
    }
  ],
  "normalizer": null,
  "pre_tokenizer": {
    "type": "ByteLevel",
    "add_prefix_space": false,
    "trim_offsets": true,
    "use_regex": true
  },
  "post_processor": null,
  "decoder": {
    "type": "ByteLevel",
    "add_prefix_space": true,
    "trim_offsets": true,
    "use_regex": true
  },
  "model": {
    "type": "BPE",
    "dropout": null,
    "unk_token": null,
    "continuing_subword_prefix": null,
    "end_of_word_suffix": null,
    "fuse_unk": false,
    "byte_fallback": false,
    "ignore_merges": false,
    "vocab": {
      "[PAD]": 0,
      "[BOS]": 1,
      "[EOS]": 2,
      "!": 3,
      "\"": 4,
      "&": 5,
      "'": 6,
      "(": 7,
      ")": 8,
      "*": 9,
      ",": 10,
      "-": 11,
      ".": 12,
      "/": 13,
      "0": 14,
      "1": 15,
      "2": 16,
      "3": 17,
      "4": 18,
      "5": 19,
      "6": 20,
      "7": 21,
      "8": 22,
      "9": 23,
      ":": 24,
      ";": 25,
      "?": 26,
      "C": 27,
      "T": 28,
      "¡": 29,
      "¢": 30,
      "£": 31,
      "¤": 32,
      "¥": 33,
      "¦": 34,
      "§": 35,
      "¨": 36,
      "©": 37,
      "«": 38,
      "¬": 39,
      "®": 40,
      "¯": 41,
      "°": 42,
      "±": 43,
      "²": 44,
      "³": 45,
      "´": 46,
      "µ": 47,
      "¶": 48,
      "·": 49,
      "¸": 50,
      "¹": 51,
      "º": 52,
      "»": 53,
      "¼": 54,
      "½": 55,
      "¾": 56,
      "¿": 57,
      "Â": 58,
      "Ð": 59,
      "Ñ": 60,
      "â": 61,
      "Ċ": 62,
      "č": 63,
      "Ġ": 64,
      "Ģ": 65,
      "ģ": 66,
      "Ĥ": 67,
      "ĥ": 68,
      "Ħ": 69,
      "ħ": 70,
      "Ĩ": 71,
      "ĩ": 72,
      "Ī": 73,
      "ī": 74,
      "Ĭ": 75,
      "ĭ": 76,
      "Į": 77,
      "į": 78,
      "İ": 79,
      "ı": 80,
      "Ĳ": 81,
      "ĳ": 82,
      "Ĵ": 83,
      "ĵ": 84,
      "Ķ": 85,
      "ķ": 86,
      "ĸ": 87,
      "Ĺ": 88,
      "ĺ": 89,
      "Ļ": 90,
      "ļ": 91,
      "Ľ": 92,
      "ľ": 93,
      "Ŀ": 94,
      "ŀ": 95,
      "Ł": 96,
      "ł": 97,
      "Ń": 98,
      "ĠÐ": 99,
      "Ð¾": 100,
      "Ð°": 101,
      "Ðµ": 102,
      "Ð¸": 103,
      "ÑĤ": 104,
      "ÑĢ": 105,
      "Ñģ": 106,
      "Ð»": 107,
      "Ð½": 108,
      "Ð¾Ð": 109,
      "Ñĥ": 110,
      "Ð°Ð": 111,
      "ÑĮ": 112,
      "Ñı": 113,
      "ÐµÐ": 114,
      "ĠÐ¿": 115,
      "Ñĭ": 116,
      "ĠÑģ": 117,
      "ĠÐ½": 118,
      "ĠÐ²": 119,
      "Ñĩ": 120,
      "Ðº": 121,
      "âĢ": 122,
      "âĢĶ": 123,
      "Ð´": 124,
      "Ð²": 125,
      "Âł": 126,
      "Ð¼": 127,
      "ĠÐ¾": 128,
      "ÑĤÐ¾": 129,
      "ÑĢÐ¸": 130,
      "Ð°Ð»": 131,
      "ĠÐ¸": 132,
      "čĊ": 133,
      "ÑĪ": 134,
      "ĠÐº": 135,
      "Ñħ": 136,
      "ÐµÑĢ": 137,
      "ÑģÑĤ": 138,
      "Ð½Ð¸": 139,
      "..": 140,
      "Ð¾Ð²": 141,
      "ĠâĢĶ": 142,
      "Ð¾Ð»": 143,
      "Ð½Ð¾": 144,
      "ĠÐ´": 145,
      "Ð¾Ð¼": 146,
      "Ð»Ð¸": 147,
      "ĠÐ·": 148,
      "ĠÑĤ": 149,
      "ÑĤÑĮ": 150,
      "Ð°ÑĢ": 151,
      "ĠÐĵ": 152,
      "Ð³": 153,
      "ĠÐ¼": 154,
      "Ð¿": 155,
      "ĠÐ±": 156,
      "Ð±": 157,
      "ĠÑĩ": 158,
      "ÑĢÐ¾": 159,
      "ÑģÑı": 160,
      "ĠÑĥ": 161,
      "ÐµÐ»": 162,
      "ÐµÑĤ": 163,
      "Ñĳ": 164,
      "Ð¸Ð»": 165,
      "Ñİ": 166,
      "Ð·": 167,
      "Ð½Ð°": 168,
      "Ð°Ðº": 169,
      "ĠÐ½Ðµ": 170,
      "Ð°Ð·": 171,
      "Ð¶": 172,
      "ÐµÐ½": 173,
      "Ð¾Ð³": 174,
      "ĠÐ¿Ð¾": 175,
      "ĠÐ½Ð°": 176,
      "ÐµÐ¼": 177,
      "ÑģÑĮ": 178,
      "ĠÑĢ": 179,
      "Ð°ÑĢÑĢÐ¸": 180,
      "Ð½Ñĥ": 181,
      "ĠÐĵÐ°ÑĢÑĢÐ¸": 182,
      "Ð¾ÑĢ": 183,
      "ĠÐ³": 184,
      "Ð¾Ð´": 185,
      "Ð°Ð¼": 186,
      "Ð¾Ð¹": 187,
      "...": 188,
      "Ð½Ñĭ": 189,
      "Ð°Ð²": 190,
      "Ñī": 191,
      "ÐµÐ´": 192,
      "ĠÐµ": 193,
      "Ñį": 194,
      "ĠÑĩÑĤÐ¾": 195,
      "Ð¹": 196,
      "ÑĨ": 197,
      "Ð¾ÑĤ": 198,
      "Ð¾Ð½": 199,
      "ĠÐ¾ÑĤ": 200,
      "Ð»Ð°": 201,
      "Ð¾Ð±": 202,
      "Ð°ÑĤÑĮ": 203,
      "ĠÐ¿ÑĢ": 204,
      "Ð¼Ð¸": 205,
      "Ð°Ð´": 206,
      "ĠÐ»": 207,
      "ÑģÐº": 208,
      "ĠÐ±Ñĭ": 209,
      "Ð¾Ðº": 210,
      "Ð¸ÑĤ": 211,
      "ĠÐ·Ð°": 212,
      "ĠÑį": 213,
      "Ð´Ð°": 214,
      "ÑĢÐ°": 215,
      "ĠÐĶ": 216,
      "Ð¾Ð¶": 217,
      "ĠÐ¿ÑĢÐ¾": 218,
      "ÐµÐ½Ð¸": 219,
      "ÐµÐ³": 220,
      "ĠÐŀ": 221,
      "ÑĦ": 222,
      "ÐµÐ¹": 223,
      "Ð¸Ð½": 224,
      "ĠÐ²Ñĭ": 225,
      "ÐµÐ²": 226,
      "ĠÐŁ": 227,
      "ĠÑģÐº": 228,
      "ĠÐ²Ñģ": 229,
      "Ð²Ð°": 230,
      "ÐµÑģ": 231,
      "ÑĤÐ¸": 232,
      "ĠÐ¾Ð½": 233,
      "Ð¾Ð³Ð¾": 234,
      "Ð»ÑĮ": 235,
      "Ð°Ð»Ð°": 236,
      "Ð¾Ð»ÑĮ": 237,
      "ÐµÐ±": 238,
      "ĠÐ¾Ð±": 239,
      "ĠÐ¡": 240,
      "Ð»Ñı": 241,
      "ÑĥÐ¼": 242,
      "ĠÐ¿ÑĢÐ¸": 243,
      "ÑĢÑĥ": 244,
      "Ð»Ð¾": 245,
      "ĠÑģÑĤ": 246,
      "Ð°Ñģ": 247,
      "ĠÐĿ": 248,
      "ĠÑħ": 249,
      "ĠÐĴ": 250,
      "ĠÐł": 251,
      "ĠÐºÐ°Ðº": 252,
      "Ð¾Ð·": 253,
      "ĠÐ¿Ð¾Ð´": 254,
      "ÐºÐ¾": 255,
      "Ð²Ð¾": 256,
      "Ð°Ð»Ð¸": 257,
      "ĠÐļ": 258,
      "Ð¸Ð´": 259,
      "ĠÐ¶": 260,
      "ÐµÑģÑĤ": 261,
      "ĠÐ¸Ð·": 262,
      "ÑĢÑĭ": 263,
      "ĠÐ½Ð¸": 264,
      "ÐµÐ³Ð¾": 265,
      "Ð½ÑĥÐ»": 266,
      "ÐºÐ¸": 267,
      "ĠÑĤÐ¾": 268,
      "Ð°Ð½": 269,
      "ĠÑı": 270,
      "Ð¾Ñģ": 271,
      "Ð³Ð¾": 272,
      "ÑĪÐ¸": 273,
      "ÐµÐ»ÑĮ": 274,
      "ÐµÑĢÐ¼Ð¸": 275,
      "ĠÐĵÐµÑĢÐ¼Ð¸": 276,
      "Ð¾Ñĩ": 277,
      "Ð¾Ð¿": 278,
      "Ð¾Ð½Ð°": 279,
      "ĠÑĢÐ°Ð·": 280,
      "ÐµÐ·": 281,
      "ÑĥÐ´": 282,
      "ĠÑģÐ»": 283,
      "ĠÑģÐ¿": 284,
      "ĠÐ°": 285,
      "ÐºÑĥ": 286,
      "ĠÐľ": 287,
      "Ð¸Ð»Ð°": 288,
      "ÐµÐº": 289,
      "ĠÐ¿ÐµÑĢ": 290,
      "Ð°Ð¶": 291,
      "Ð°Ñı": 292,
      "ĠÐµÐ³Ð¾": 293,
      "ÑģÐ»Ð¸": 294,
      "ĠÑĪ": 295,
      "Ð°Ð¿": 296,
      "ÐµÑĪ": 297,
      "Ð°Ð¼Ð¸": 298,
      "ÐµÐ¿": 299,
      "Ð¸Ñģ": 300,
      "ĠÑįÑĤÐ¾": 301,
      "ĠÑĤÐ°Ðº": 302,
      "ĠÑģÐºÐ°Ð·": 303,
      "ÐºÐ°": 304,
      "ĠÐºÐ¾": 305,
      "Ð°Ð±": 306,
      "ÑĢÐ¸Ð´": 307,
      "Ð½Ñı": 308,
      "Ð°ÑĤ": 309,
      "ÐĿ": 310,
      "Ð°Ð³": 311,
      "ÐµÑĩ": 312,
      "Ð²ÐµÑĢ": 313,
      "ĠÑģÑĤÐ¾": 314,
      "Ð¸ÑĤÑĮ": 315,
      "Ð¸Ð¼": 316,
      "ÑĥÑģ": 317,
      "ĠÐĵÐµÑĢÐ¼Ð¸Ð¾Ð½Ð°": 318,
      "ÑĢÐ¾Ñģ": 319,
      "ÑĥÑĩ": 320,
      "Ð¸Ð²": 321,
      "ĠÐłÐ¾Ð½": 322,
      "ĠÐ»Ð¸": 323,
      "ĠÐ½Ð¾": 324,
      "ÐµÐ»Ð¸": 325,
      "ĠÐ£": 326,
      "ÐµÐ½ÑĮ": 327,
      "ĠÐ¢": 328,
      "Ðŀ": 329,
      "Ð°Ð»ÑģÑı": 330,
      "Ð½Ðµ": 331,
      "ĠÐ³Ð¾Ð»": 332,
      "Ð°Ð»ÑĮ": 333,
      "ĠÐ¿Ð¾Ñģ": 334,
      "ÐµÐ¶": 335,
      "ĠÐ¿Ð¾Ð»": 336,
      "Ð°Ð½Ð¸": 337,
      "Â«": 338,
      "Â»": 339,
      "ÐĲ": 340,
      "ÑģÑĤÐ²": 341,
      "ĠÂ«": 342,
      "Ð¾Ð³Ð´Ð°": 343,
      "Ð½Ð¾Ð¹": 344,
      "Ð½ÑĭÐ¹": 345,
      "Ð´Ð¾ÑĢ": 346,
      "ĠÑĤÑĭ": 347,
      "ÐµÐ½Ð½Ð¾": 348,
      "ĠÐ³Ð»": 349,
      "Ð´Ñĥ": 350,
      "Ð°Ð¹": 351,
      "Ð¾Ð²Ð¾": 352,
      "Ð¼Ñĥ": 353,
      "ĠÐ²Ð·": 354,
      "ÑģÑĤÑĮ": 355,
      "ĠÐĹ": 356,
      "Ð²ÐµÑĤ": 357,
      "Ð¼Ð¾ÑĤ": 358,
      "Ð°Ð»Ð¾": 359,
      "ÐµÐ±Ñı": 360,
      "ÑĪÐµ": 361,
      "Ð´Ðµ": 362,
      "ĠÐŀÐ½": 363,
      "ĠÐºÐ¾ÑĤÐ¾": 364,
      "ĠÑĥÐ¶": 365,
      "Ð¸Ñħ": 366,
      "ÐŁ": 367,
      "ĠÐ¾Ð½Ð°": 368,
      "Ð»Ðµ": 369,
      "Ð¢": 370,
      "ÑĥÑĤ": 371,
      "Ð½Ð¾Ð³Ð¾": 372,
      "Ð±Ð»ÑĮ": 373,
      "ĠÐ¤": 374,
      "Ð½ÑĭÐµ": 375,
      "Ð½ÑĭÐ¼": 376,
      "ĠÐĳ": 377,
      "ĠÐ²ÑģÑĳ": 378,
      "ÐĶ": 379,
      "Ð»Ñĭ": 380,
      "ÑĤÐ¾Ð¼": 381,
      "Ð¸Ð»Ð¸": 382,
      "Ð½ÑĥÐ»Ð°": 383,
      "ÑĢÑĥÐ³": 384,
      "ĠÐ²Ð¸Ð´": 385,
      "Ð¸Ð»ÑģÑı": 386,
      "ĠÐĺ": 387,
      "ÐµÐ½Ð¸Ðµ": 388,
      "Ð½Ð¸Ð¼": 389,
      "ĠÐ±ÑĭÐ»Ð¾": 390,
      "ĠÐ¶Ðµ": 391,
      "ÑİÑī": 392,
      "ĠÐ¼Ð¸": 393,
      "ÑĢÐ¾Ð²": 394,
      "ĠÐ¾Ñĩ": 395,
      "ĠÑģÐºÐ°Ð·Ð°Ð»": 396,
      "ĠÐĽ": 397,
      "ÑģÐ¿": 398,
      "ÑģÑĤÐ°Ð²": 399,
      "ĠÐĶÑĥÐ¼": 400,
      "ÐµÑģÑģ": 401,
      "Ð±Ð»ÑĮÐ´Ð¾ÑĢ": 402,
      "Ð¸ÑĢÐ¸": 403,
      "ĠÐ§": 404,
      "ÑħÐµÐ¼": 405,
      "ĠÐ²Ð¾": 406,
      "ĠÐ¿Ð¾Ð²": 407,
      "ĠÐ´Ð¾": 408,
      "ĠÐ¾Ð½Ð¸": 409,
      "Ð¸ÑĢÐ¸ÑĥÑģ": 410,
      "ĠÐĲ": 411,
      "ÑĢÐ°Ð²": 412,
      "ĠÐĶÐ¶": 413,
      "ĠÐĶÑĥÐ¼Ð±Ð»ÑĮÐ´Ð¾ÑĢ": 414,
      "ÑĢÐ¸Ð´Ð¶": 415,
      "ÑıÑĤ": 416,
      "Ð±ÑĢÐ¸Ð´Ð¶": 417,
      "ÑħÐ¾Ð´": 418,
      "ÑħÐµÐ¼Ð±ÑĢÐ¸Ð´Ð¶": 419,
      "ĠÐ·Ð½Ð°": 420,
      "ÑĳÑĤ": 421,
      "ÐĴ": 422,
      "ĠÐļÑħÐµÐ¼Ð±ÑĢÐ¸Ð´Ð¶": 423,
      "ÑĢÐ¾Ð¼": 424,
      "ĠÐ¡Ð¸ÑĢÐ¸ÑĥÑģ": 425,
      "ÐµÐ»Ð°": 426,
      "ÑĢÐµÐ¼": 427,
      "Ð¾Ð²Ð¾ÑĢÐ¸": 428,
      "ÑīÑĳ": 429,
      "ÐµÐ»ÑĮÐ½Ð¾": 430,
      "ÑĤÐ°": 431,
      "ĠÑĢÑĥ": 432,
      "ĠÑĢÐ°Ñģ": 433,
      "Ð»ÑıÐ´": 434,
      "ĠÐ¼Ñĭ": 435,
      "Ð¾Ð±Ñĭ": 436,
      "ĠÐ²Ð¾Ð·": 437,
      "ÐµÑĪÑĮ": 438,
      "ÑĦÐµÑģÑģ": 439,
      "ÑĦÐµÑģÑģÐ¾ÑĢ": 440,
      "ĠÐ¾Ð´": 441,
      "ÑĢÑı": 442,
      "ÑĤÐµ": 443,
      "ĠÐ½Ð°Ð´": 444,
      "ÑĤÐµÑĢ": 445,
      "ÑĢÐµÐ´": 446,
      "Ð½Ð¾Ð²": 447,
      "ĠÐ¿Ð¾Ðº": 448,
      "ÐµÐ¼Ñĥ": 449,
      "Ð¸Ðµ": 450,
      "Ð¡": 451,
      "ÑĥÐ¿": 452,
      "ĠÑģÐ²Ð¾": 453,
      "ĠÐ·Ð°Ðº": 454,
      "Ð½ÑĥÐ»ÑģÑı": 455,
      "ĠÐ³Ð»Ð°Ð·": 456,
      "ÑĥÐ¶": 457,
      "ÑĩÐ¸ÑĤ": 458,
      "ĠÐ±ÑĥÐ´": 459,
      "Ðļ": 460,
      "ÑģÑĤÐ¸": 461,
      "ÐµÑĢÐ¸": 462,
      "ÑĥÑİ": 463,
      "ÐµÐ½Ð¸Ñı": 464,
      "ĠÐ½Ð°Ð¿": 465,
      "ĠÐ±Ð¾Ð»ÑĮ": 466,
      "Ðķ": 467,
      "Ð½Ð¾Ðµ": 468,
      "ĠÑģÐ¾": 469,
      "ÐµÑĤÑģÑı": 470,
      "ÑĭÐ¹": 471,
      "ÑģÑĤÐ¾": 472,
      "Ð°ÑĤÑĮÑģÑı": 473,
      "Ð½Ð¾Ð¼": 474,
      "Ð¼Ð¾ÑĤÑĢ": 475,
      "Ðĺ": 476,
      "Ð²Ð¸": 477,
      "Ð¾ÑĢÐ¾": 478,
      "ÑįÑģÐ»Ð¸": 479,
      "Ð»ÑĮÐºÐ¾": 480,
      "ÑĳÐ»": 481,
      "ÐµÐ±Ðµ": 482,
      "ĠÐ¾ÑĩÐµÐ½ÑĮ": 483,
      "ĠÐ£ÑįÑģÐ»Ð¸": 484,
      "Ð¾Ð»Ð¶": 485,
      "ÑĥÑĢ": 486,
      "ĠÐµÑĳ": 487,
      "Ð½ÑĭÑħ": 488,
      "ÑģÑĤÐµÑĢ": 489,
      "ÑĤÐ¾Ð±Ñĭ": 490,
      "ÑĥÑĪ": 491,
      "ĠÐµÑīÑĳ": 492,
      "ĠÐ½ÐµÐ³Ð¾": 493,
      "ÑĢÐ°Ð·": 494,
      "Ð²Ð°Ñı": 495,
      "ĠÐºÐ¾Ð³Ð´Ð°": 496,
      "ÑĳÐ¼": 497,
      "ĠÐ¾Ð¿": 498,
      "ĠÑģÐ°Ð¼": 499,
      "ĠÐºÐ¾Ð½": 500,
      "ĠÐ¾ÑĤÐ²ÐµÑĤ": 501,
      "ÑĢÐ¾ÑģÐ¸Ð»": 502,
      "Ð°Ñħ": 503,
      "ĠÐ²ÑģÐµ": 504,
      "ĠÐ±ÑĭÐ»": 505,
      "ĠÐ¾Ðº": 506,
      "ĠÐŀÐ³": 507,
      "ÑĨÐµ": 508,
      "Ð¼Ðµ": 509,
      "ĠÑĩÑĤÐ¾Ð±Ñĭ": 510,
      "ĠÐ³Ð¾Ð»Ð¾Ð²": 511,
      "ĠÐºÐ¾ÑĤÐ¾ÑĢÑĭ": 512,
      "ĠÐ¿ÑĢÐ¾ÑĦÐµÑģÑģÐ¾ÑĢ": 513,
      "ÑĭÐ²": 514,
      "ÑĩÐ¸": 515,
      "Ð¸Ð·": 516,
      "Ð½Ð°Ñı": 517,
      "ĠÐ³Ð¾Ð»Ð¾Ñģ": 518,
      "Ð»Ð¸ÑģÑĮ": 519,
      "ÑİÑĤ": 520,
      "Ðľ": 521,
      "ĠÐ·Ð°Ð¼": 522,
      "ÐµÐ½Ñı": 523,
      "ÐµÐ»Ð¾": 524,
      "ĠÑģÐ¾Ð±": 525,
      "ĠÐ¿ÑĢÐµÐ´": 526,
      "ÑĳÑĢ": 527,
      "ĠÐµÐ¼Ñĥ": 528,
      "ÑĨÐ¸": 529,
      "Ð¯": 530,
      "ÑıÐ²": 531,
      "ĠÑģÐ²": 532,
      "ĠÐ¯": 533,
      "ĠÐ¼Ð¾Ð³": 534,
      "Ð°Ð»Ð¸ÑģÑĮ": 535,
      "ĠÐ²ÑĢÐµÐ¼": 536,
      "ĠÐºÐ¾Ð»": 537,
      "ĠÑĤÐ¾Ð»ÑĮÐºÐ¾": 538,
      "Ð½ÑĥÑİ": 539,
      "ÑĨÐ°": 540,
      "ĠÑĦ": 541,
      "ĠÑĥÐ¶Ðµ": 542,
      "ĠÐ¿Ð¾Ð¼": 543,
      "ĠÐ´ÑĢÑĥÐ³": 544,
      "ÑĳÐ½": 545,
      "ĠÐµÑģÐ»Ð¸": 546,
      "ĠÐ½Ð¸Ðº": 547,
      "Ð°Ð»Ð¾ÑģÑĮ": 548,
      "ĠÐ¾ÑģÑĤ": 549,
      "ĠÐ¸Ñħ": 550,
      "Ð»ÐµÐ´": 551,
      "ĠÐ±ÐµÐ·": 552,
      "ĠÐ¼Ð¾Ð¶": 553,
      "ÑĭÐ¼": 554,
      "ÑıÑĤÑĮ": 555,
      "ĠÐĿÐ¾": 556,
      "ÑĭÑĤ": 557,
      "Ð¸Ð»Ð¾": 558,
      "Ð»ÑģÑı": 559,
      "ÐµÑĤÐµ": 560,
      "ÐºÐµ": 561,
      "Ð»Ñİ": 562,
      "ÑĥÑģÑĤ": 563,
      "ÑĪÑĮ": 564,
      "Ð³Ð»ÑıÐ´": 565,
      "ÐºÐ¾Ð¼": 566,
      "ÐºÐ¾Ð¹": 567,
      "Ðł": 568,
      "ÐµÐµ": 569,
      "ĠÐ´Ð²": 570,
      "ĠÑĩÑĥ": 571,
      "ÑĥÐ±": 572,
      "Ðĵ": 573,
      "Ð¸Ð¹": 574,
      "ĠÐ¿Ð¾Ñĩ": 575,
      "ĠÐŃ": 576,
      "ĠÐŁÐ¾ÑĤ": 577,
      "ÑĤÑĥ": 578,
      "ÑĩÐµÐ³Ð¾": 579,
      "ĠÑĤÐµÐ±Ñı": 580,
      "ÑĩÐ°": 581,
      "ĠÐķ": 582,
      "ĠÐ¿Ð¾Ð¿": 583,
      "ĠÐ¿Ð°Ð»": 584,
      "ĠÑħÐ¾ÑĤ": 585,
      "Ð¾Ð»ÑĮÐºÐ¾": 586,
      "Ð¾ÑĢÐ´": 587,
      "ĠÐºÐ¾Ð¼": 588,
      "Ð¸ÑĢ": 589,
      "ÑĭÐµ": 590,
      "ĠÑģÐ¸Ð»": 591,
      "ĠÑģÐ¾Ð²": 592,
      "ĠÐŀÐ³ÑĢÐ¸Ð´": 593,
      "ÑĭÑħ": 594,
      "ĠÐ¿Ð°Ð»Ð¾Ñĩ": 595,
      "ÑĩÐµ": 596,
      "Ð²Ð¸Ð´": 597,
      "ĠÑĥÐ´": 598,
      "ĠÐ²Ð¾Ð»": 599,
      "Ð¸ÑģÑģ": 600,
      "Ð¾Ðµ": 601,
      "ĠÑģÑĤÑĢÐ°": 602,
      "ĠÐ²ÑģÑĤ": 603,
      "Ð§": 604,
      "ÐºÐ½ÑĥÐ»": 605,
      "ĠÐ¾Ñģ": 606,
      "ĠÑģÐ¿ÑĢÐ¾ÑģÐ¸Ð»": 607,
      "ÑĥÐ½": 608,
      "ĠÐ¾Ð³": 609,
      "ĠÐ¼ÐµÐ½Ñı": 610,
      "ĠÐ¿ÑĢÐ°Ð²": 611,
      "ĠÐ²ÐµÑĢ": 612,
      "ÑĢÐ¾Ðº": 613,
      "ĠÐ¸Ð¼": 614,
      "Ð¸Ð»Ð°ÑģÑĮ": 615,
      "ĠÑįÑĤ": 616,
      "ĠÐ¥": 617,
      "ÐĹ": 618,
      "Ð°Ð»Ð°ÑģÑĮ": 619,
      "Ð£": 620,
      "ĠÑģÐ¼": 621,
      "Ð°Ð¼ÐµÐ½": 622,
      "ĠÐ´Ð²ÐµÑĢ": 623,
      "ÑĬ": 624,
      "ĠÐ½ÐµÐ¿": 625,
      "ÐµÑĢÑĮ": 626,
      "Ð¸ÑĤÐµÐ»ÑĮÐ½Ð¾": 627,
      "ĠÐ³Ð¾Ð²Ð¾ÑĢÐ¸": 628,
      "ĠÐºÑĤÐ¾": 629,
      "ĠÐ¤ÑĢÐµÐ´": 630,
      "Ð½ÑĥÑĤ": 631,
      "ÑĩÐ°Ð»": 632,
      "Ð°ÑĪ": 633,
      "ÐĶÐ°": 634,
      "ÑıÐ´": 635,
      "ÐºÐ¾Ð²": 636,
      "ÐµÐ´ÑĮ": 637,
      "ÑĩÐ½Ð¾": 638,
      "ĠÐ»Ð¸ÑĨ": 639,
      "ĠÑģÐºÐ°Ð·Ð°Ð»Ð°": 640,
      "Ð¾Ñħ": 641,
      "ÐµÑĤÑĮ": 642,
      "ĠÑģÐ´": 643,
      "ĠÐ¼Ð½Ðµ": 644,
      "Ð¸ÑģÑģÐ¸Ñģ": 645,
      "ĠÐ²ÑĢÐµÐ¼Ñı": 646,
      "ÐµÐ²Ð¸Ð»": 647,
      "Ð¾Ð²Ð°": 648,
      "ĠÐ¿Ð¾ÑĤÐ¾Ð¼": 649,
      "Ð»ÐµÐ¹": 650,
      "Ð½ÑĭÐ¼Ð¸": 651,
      "Ð»Ð°Ñģ": 652,
      "ĠÐ½ÐµÑĤ": 653,
      "ĠÐ´ÑĥÐ¼": 654,
      "ĠÐ·Ð°Ð´": 655,
      "ĠÐĿÐµÐ²Ð¸Ð»": 656,
      "ĠÐ»Ñİ": 657,
      "ĠÐ³Ð»Ð°Ð·Ð°": 658,
      "ÑĪÐ»Ð¸": 659,
      "ĠÑģÐµÐ±Ñı": 660,
      "ĠÐ¸ÑģÐ¿": 661,
      "ÑĪÑĳÐ»": 662,
      "ĠÑĥÑģ": 663,
      "Ð¼Ð¾": 664,
      "ÐĽ": 665,
      "Ð¥": 666,
      "ĠÑĤÑĢ": 667,
      "Ð¾Ð¶Ðµ": 668,
      "Ð²Ð°ÑĤ": 669,
      "ÑĢÐ°Ð¶": 670,
      "ĠÐ´Ð»Ñı": 671,
      "ĠÐŁÐ¾ÑĤÑĤÐµÑĢ": 672,
      "Ð¾ÑĢÐ´Ð¶": 673,
      "ÑģÑĤÑĢÐ¾": 674,
      "ĠÐ¾ÑĤÐ²ÐµÑĤÐ¸Ð»": 675,
      "ĠÐ´Ð¾Ð¼": 676,
      "ĠÐ·Ð°Ð¿": 677,
      "Ð¸Ð»Ð¸ÑģÑĮ": 678,
      "ĠÐĶÐ¶Ð¾ÑĢÐ´Ð¶": 679,
      "Ð¼Ð¾ÑĤÑĢÐµÐ»": 680,
      "ÑĭÑĪ": 681,
      "ĠÐ·Ð°Ð±": 682,
      "Ð¾ÑģÑĤ": 683,
      "ĠÐ¿Ð»": 684,
      "ĠÑĤÐµÐ±Ðµ": 685,
      "ĠÐ¾ÑĤÐº": 686,
      "ĠÑģÑĤÐ¾ÑĢÐ¾": 687,
      "ĠÐ½Ð°Ñģ": 688,
      "ĠÑĨ": 689,
      "Ð¸ÑĤÐµ": 690,
      "Ð¸Ð½Ð½Ð¸": 691,
      "ĠÐłÐ¾Ð½Ð°": 692,
      "ÑĢÐµÑĤ": 693,
      "ĠÐ¿ÑĢÐ¾Ð´": 694,
      "Ð°ÐµÑĤ": 695,
      "ÑĤÐ¾ÑĢ": 696,
      "ĠÐ´Ð¾Ð»Ð¶": 697,
      "ĠÑĩÐµÑĢ": 698,
      "Ð¸Ð³": 699,
      "ĠÐ½ÐµÐ²": 700,
      "ĠÐŀÐ½Ð°": 701,
      "ÐµÑī": 702,
      "Ð½ÑĥÐ²": 703,
      "ĠÐ½Ð¸ÑĩÐµÐ³Ð¾": 704,
      "Ð°Ð½Ð¸Ñı": 705,
      "ĠÐ½Ð¸Ð¼": 706,
      "Ð½Ð¸Ñı": 707,
      "ĠÑĩÐµÐ¼": 708,
      "ĠÐ²Ð·Ð³Ð»ÑıÐ´": 709,
      "ĠÐĶÐ¶Ð¸Ð½Ð½Ð¸": 710,
      "ÑĪÐ¸ÑģÑĮ": 711,
      "Ð°Ñİ": 712,
      "ÑĢÐ°Ñģ": 713,
      "ĠÐºÑĢ": 714,
      "ĠÐ´Ð²ÐµÑĢÑĮ": 715,
      "ĠÑģÑĤÐ¾Ñı": 716,
      "ÐºÐ°Ð¼Ð¸": 717,
      "ÐµÐ»Ð¾Ð²": 718,
      "ÑĥÐ³": 719,
      "ĠÐ·Ð°Ð²": 720,
      "Ð¾Ð±Ñī": 721,
      "Ð¾ÑĢÐ¾ÑĪ": 722,
      "ĠÐ¼Ð¸ÑģÑģÐ¸Ñģ": 723,
      "ĠÐ¿ÐµÑĢÐµÐ´": 724,
      "ĠÐ½Ð¾Ð³": 725,
      "ĠÑĥÐ±": 726,
      "ĠÐ½Ð°Ð¼": 727,
      "Ð´Ð¸": 728,
      "ĠÐºÑĥ": 729,
      "ĠÑĤÐµÐ¼": 730,
      "Ð½Ð°Ð»": 731,
      "Ð»Ð°ÑģÑĮ": 732,
      "ĠÑįÑĤÐ¾Ð¼": 733,
      "Ð°Ð½Ð¸Ðµ": 734,
      "Ð¸ÑĤÑĮÑģÑı": 735,
      "ĠÐ³Ð¾ÑĢ": 736,
      "ĠÐ´Ð°": 737,
      "Ð½ÑĥÑĤÑĮ": 738,
      "ĠÐĹÐ»ÐµÐ¹": 739,
      "ÑĤÑĭ": 740,
      "ĠÐ¿Ð¾ÑĢ": 741,
      "Ð°Ð»ÑĦ": 742,
      "ĠÑģÐ»ÑĥÑĩ": 743,
      "ĠÐ¿Ð¾Ð²ÐµÑĢ": 744,
      "ĠÐ²Ð¿": 745,
      "ÑĢÐ°Ñī": 746,
      "ĠÑģÐ»ÐµÐ´": 747,
      "ĠÐ½Ð°Ð·": 748,
      "Ð·Ð°": 749,
      "ĠÐ³Ð´Ðµ": 750,
      "ĠÐĵÐµÑĢÐ¼Ð¸Ð¾": 751,
      "ĠÐ¼Ð¸Ð½Ð¸": 752,
      "Ð¼ÐµÑĢ": 753,
      "ĠÐľÐ°Ðº": 754,
      "ĠÐ¸Ð½": 755,
      "ÐµÑĢÐ¶": 756,
      "ĠÐ³ÑĢÐ¾Ð¼": 757,
      "ĠÑģÑĤÐ°ÑĢ": 758,
      "ÐµÐ¿ÐµÑĢÑĮ": 759,
      "Â»,": 760,
      "Ð»Ð°Ð´": 761,
      "ĠÑģÐµÑĢ": 762,
      "ĠÑĥÐ²Ð¸Ð´": 763,
      "ĠÑĪÐº": 764,
      "ÐŃ": 765,
      "ÑĦÑĦ": 766,
      "Ð°ÑıÑģÑĮ": 767,
      "ĠÐ¨": 768,
      "Ð¸Ð»Ð¾ÑģÑĮ": 769,
      "ÑĥÑī": 770,
      "ĠÐ²ÐµÐ´ÑĮ": 771,
      "ĠÐ¾Ð±ÑĬ": 772,
      "Ð°Ð¶Ðµ": 773,
      "ÑĤÑı": 774,
      "ÑģÑĤÐ²Ð¾": 775,
      "Ð¾Ð»Ð»": 776,
      "Ð¾Ð¼Ñĥ": 777,
      "ĠÐľÐ°Ð»ÑĦ": 778,
      "ÑģÐºÐ¸": 779,
      "ÑĢÐ°ÑĤ": 780,
      "Ð¸Ð¼Ð¾": 781,
      "ĠÐ¿Ð¾Ð·": 782,
      "Ð²ÑģÑĤÐ²": 783,
      "ÑģÐºÐ¾Ð»ÑĮÐºÐ¾": 784,
      "ÑģÐµ": 785,
      "Ð´ÐµÐ¼": 786,
      "Ð½Ð¸Ðµ": 787,
      "Ð»Ð¸Ð·": 788,
      "ĠÑĤÐ°Ð¼": 789,
      "Â».": 790,
      "Ð¼Ð°": 791,
      "Ð³Ð¾Ð½": 792,
      "ĠÐ¿Ð¾Ð½Ñı": 793,
      "ĠÐŁÑĢÐ¾": 794,
      "Ð½ÑĥÐ»Ð°ÑģÑĮ": 795,
      "ĠÐ¼Ð¸ÑģÑĤÐµÑĢ": 796,
      "Ð¸Ð¸": 797,
      "ÑĩÐ°Ñģ": 798,
      "ÑģÑĤÐ°": 799,
      "ÑıÑī": 800,
      "ĠÑĥÑģÐ¿": 801,
      "Ð´ÐµÐ¼Ð¾ÑĢ": 802,
      "ĠÐ±Ð¾Ð»": 803,
      "ĠÑħÐ¾Ñĩ": 804,
      "ĠÐ¿Ð¾Ð´Ð½Ñı": 805,
      "ĠÐ½ÐµÐ´": 806,
      "ĠÑĤÐ¾Ð¶Ðµ": 807,
      "ĠÐŀÐ½Ð¸": 808,
      "Ð¾Ð»ÑĮÐ´ÐµÐ¼Ð¾ÑĢ": 809,
      "ÑıÑģ": 810,
      "ĠÐ¿Ð¾Ð±": 811,
      "ĠÐ¿ÑĢÐ¾Ð²": 812,
      "Ð¾Ð¶Ð°Ð»": 813,
      "ĠÑĢÐ°Ð·Ð´": 814,
      "Ð»ÑĭÐ±": 815,
      "ĠÐ½Ð°Ð²": 816,
      "ĠÐºÐ°Ð¶": 817,
      "Ð¾Ð½Ðµ": 818,
      "ĠÐ¿ÑĢÐ¾ÑĪ": 819,
      "ĠÐĽÑİ": 820,
      "Ð°ÑİÑī": 821,
      "ÐµÐ½Ð¸ÐµÐ¼": 822,
      "Ð´ÐµÑģÑĮ": 823,
      "ĠÐ±Ð¾Ð»ÑĮÑĪÐµ": 824,
      "ÐµÑħ": 825,
      "Ð½Ð½Ð¾": 826,
      "ÑĤÐ¸Ð²": 827,
      "ÐµÑģÑĤÐ²": 828,
      "Ð°Ð³Ð¾Ð»Ð»": 829,
      "ĠÐľÐ°ÐºÐ³Ð¾Ð½": 830,
      "ĠÐľÐ°ÐºÐ³Ð¾Ð½Ð°Ð³Ð¾Ð»Ð»": 831,
      "Ð¸Ð±": 832,
      "ĠÐĿÐ°": 833,
      "ÐµÐ½ÑĤ": 834,
      "ĠÐ¸Ð»Ð¸": 835,
      "ÑĨÑĭ": 836,
      "Ð¸ÑĤÑģÑı": 837,
      "ĠÐĴÐ¾Ð»ÑĮÐ´ÐµÐ¼Ð¾ÑĢ": 838,
      "ĠÐ¿Ð¾Ð³": 839,
      "Ð½Ð¸Ðº": 840,
      "ĠÑĥÐ¿": 841,
      "ĠÑĢÐ°": 842,
      "ĠÐ²ÑĭÐ¿": 843,
      "ĠÐºÐ¾Ð¼Ð½Ð°": 844,
      "ĠÐ½Ð°Ðº": 845,
      "ĠÑĥÐ¶Ð°Ñģ": 846,
      "Ð¸Ð½Ð°": 847,
      "ĠÑģÐµÐ±Ðµ": 848,
      "Ð§ÑĤÐ¾": 849,
      "Ðĳ": 850,
      "ĠÐ¼Ð¾": 851,
      "ĠÐ²Ð¾ÑģÐº": 852,
      "ĠÐ¿ÑĢÐ¾Ð´Ð¾Ð»Ð¶": 853,
      "ÐºÐ½ÑĥÐ»Ð°": 854,
      "ĠÐ±ÑĥÐ´ÐµÑĤ": 855,
      "ĠÑģÐ½Ð¾Ð²": 856,
      "ÑģÑĤÑĥÐ¿": 857,
      "ĠÐĿÐµ": 858,
      "ĠÑĥÐ»ÑĭÐ±": 859,
      "ĠÐ¿Ð¾ÐºÐ°": 860,
      "ĠÑģÐ´ÐµÐ»": 861,
      "ĠÐ¿ÑĢÐ¾Ð±": 862,
      "ÐµÐ¹ÑĩÐ°Ñģ": 863,
      "ĠÑģÐ»Ð¾Ð²": 864,
      "ĠÐ¿Ð¾ÐºÐ°Ð·": 865,
      "Ð½ÐµÐ²": 866,
      "ĠÐ§ÑĤÐ¾": 867,
      "ĠÐ´ÐµÐ»": 868,
      "ĠÐ½ÐµÑĳ": 869,
      "Ð¾Ð¶Ð´": 870,
      "Ð½Ð³": 871,
      "ÐºÐ·": 872,
      "ĠÐºÑĢÐ¸": 873,
      "Ð°ÑĤÐµÐ»ÑĮ": 874,
      "Ð½ÐµÐµ": 875,
      "ĠÐ§Ñĥ": 876,
      "ÑĢÐ°Ð·Ñĥ": 877,
      "ĠÐºÐ¾ÑĤÐ¾ÑĢÑĭÐ¹": 878,
      "Ð¾ÑĢÐ¾ÑĪÐ¾": 879,
      "ÑıÐ·": 880,
      "ĠÐ²Ð¾ÑĤ": 881,
      "ÑģÑĤÑĮÑİ": 882,
      "ÑģÐ¸": 883,
      "ĠÐºÐ°Ð±": 884,
      "ĠÑĤÐ¾Ð³Ð¾": 885,
      "ĠÐ¿ÑĢÐ¾Ð³": 886,
      "ĠÐ»ÑĥÑĩ": 887,
      "ĠÐ¾ÑĤÐºÑĢÑĭ": 888,
      "ÐµÑģÑı": 889,
      "ĠÐ²Ð´": 890,
      "ĠÐ·Ð°Ð³": 891,
      "ÑĢÐ¾ÑĤ": 892,
      "ĠÐŃÑĤÐ¾": 893,
      "Ð¸ÑģÑĮ": 894,
      "Ð¾Ð¶Ð½Ð¾": 895,
      "ĠÐ½Ð¸Ñħ": 896,
      "ÑĥÐ´Ð¶": 897,
      "ĠÐ¤ÑĥÐ´Ð¶": 898,
      "ĠÐ²Ð¾ÑģÐºÐ»Ð¸": 899,
      "ĠÐ²Ð°Ñģ": 900,
      "ÐµÑĢÐ½Ð¾": 901,
      "ÑģÐºÐ°Ð·": 902,
      "ÑĢÑĥÐ¶": 903,
      "ÑĥÐ´ÑĮ": 904,
      "ĠÐ·Ð´ÐµÑģÑĮ": 905,
      "ĠÐ±ÑĭÑĤÑĮ": 906,
      "ĠÐ²ÑĭÑģ": 907,
      "ÑĭÐ²Ð°": 908,
      "Ð»Ð¸Ð½": 909,
      "ÑĪÐ¸Ð¹": 910,
      "ĠÑģÐ»ÑĭÑĪ": 911,
      "Ð°ÑĤÐµÐ»ÑĮÐ½Ð¾": 912,
      "ĠÑĢÐ°ÑģÐ¿": 913,
      "Ð¸Ð²Ð°": 914,
      "Ð°Ð±Ð¾ÑĤ": 915,
      "ĠÑĩÑĥÑĤÑĮ": 916,
      "Ð»ÐµÐ½": 917,
      "ÑĮÑİ": 918,
      "ĠÑĤÐµÐ¿ÐµÑĢÑĮ": 919,
      "ĠÑĥÐ·": 920,
      "ĠÑĤÐ¸Ñħ": 921,
      "ĠÐ±ÐµÑģ": 922,
      "ĠÐ¿ÑĢÐ¾Ð¸Ð·": 923,
      "ÐµÐ½Ð¸Ð¸": 924,
      "ĠÐĿÐµÐ²Ð¸Ð»Ð»ÑĮ": 925,
      "ĠÑĩÐµÑĢÐµÐ·": 926,
      "ĠÑģÐ¸Ð´": 927,
      "ĠÑĤÐ²Ð¾": 928,
      "ĠÐ¿Ð¾Ð½Ð¸Ð¼": 929,
      "ĠÑĢÐµÑĪ": 930,
      "ÑĢÐ°Ðº": 931,
      "ÑĭÐ²Ð°Ñı": 932,
      "ĠÐ±ÑĭÐ»Ð¸": 933,
      "ĠÐ¿ÐµÑĢÐ²": 934,
      "ĠÑģÑĤÐ¾Ð»": 935,
      "ĠÐ¼Ð¸Ð½Ð¸ÑģÑĤÐµÑĢ": 936,
      "ĠÑģÐ½Ð¾Ð²Ð°": 937,
      "Ð¾Ð²Ð°Ð»": 938,
      "ĠÐ´Ð°Ð¶Ðµ": 939,
      "ĠÐ¿Ð¾ÑģÐ»Ðµ": 940,
      "ĠÐ²Ð½Ð¸Ð¼": 941,
      "Ð²Ð°ÑĢ": 942,
      "....": 943,
      "ÑĢÐ¾Ñĩ": 944,
      "ĠÑįÑĤÐ¾Ð³Ð¾": 945,
      "Ð½Ð¸Ð»": 946,
      "ĠÐ¿ÑĢÐ¾ÑģÑĤÐ¾": 947,
      "ÐĿÐµ": 948,
      "ÐµÑĩÐ½Ð¾": 949,
      "ÑĤÐµÑĢÐµÑģ": 950,
      "Ð´ÑĳÑĤ": 951,
      "ĠÐ´Ð¾Ð±": 952,
      "ĠÑĩÐµÐ»Ð¾Ð²": 953,
      "ĠÐ»Ð¸ÑĨÐ¾": 954,
      "ÑģÑĤÐ²Ð°": 955,
      "Ð½Ð¸Ð¹": 956,
      "ĠÐ¼Ð¾Ð»": 957,
      "Ð¸Ð½Ð¾Ð¹": 958,
      "ĠÐĽÑĥ": 959,
      "ĠÐĽÑİÐ¿": 960,
      "ĠÑģÑĢÐ°Ð·Ñĥ": 961,
      "ĠÑįÑĤÐ¸": 962,
      "ÐµÐ¶Ð´Ñĥ": 963,
      "ĠÐ¼Ð¾Ð¶ÐµÑĤ": 964,
      "ĠÐºÐ°Ð±Ð¸Ð½": 965,
      "ĠÐ»ÑİÐ±": 966,
      "ÑĮÐ½Ð¾": 967,
      "ĠÐ¿Ð°ÑĢ": 968,
      "ÑĪÐ»Ð°": 969,
      "ĠÐºÐ°ÑĢ": 970,
      "ĠÐ²ÑģÐµÐ³Ð¾": 971,
      "ĠÐ¿Ð°Ð»Ð¾ÑĩÐºÑĥ": 972,
      "Ð¾ÑĤÐ¾": 973,
      "ĠÑģÐºÐ°Ð·Ð°ÑĤÑĮ": 974,
      "Ð¸Ðº": 975,
      "ÑĥÑħ": 976,
      "ĠÐ·Ð²": 977,
      "ÐµÐ³Ð´Ð°": 978,
      "ĠÐ½Ð°Ð´Ð¾": 979,
      "ÐºÐ°Ð·": 980,
      "ĠÐŁÐ¾": 981,
      "Ð»Ð¾ÑģÑĮ": 982,
      "ĠÐ´Ð²ÐµÑĢÐ¸": 983,
      "ĠÑģÐµÐ¹ÑĩÐ°Ñģ": 984,
      "Ð¾Ð²Ð¾Ð»ÑĮ": 985,
      "Ð¿Ð¾Ð¼": 986,
      "Ð»ÑĭÑĪ": 987,
      "Ð»ÐµÑĤ": 988,
      "ÑıÑģÑĮ": 989,
      "ÑĪÐµÐ±": 990,
      "ĠÑĤÑĥÑĤ": 991,
      "Ð°Ð»ÑĮÐ½Ð¾": 992,
      "Ð»Ð¾Ð²": 993,
      "ĠÑĥÐ³": 994,
      "ÑĳÑģ": 995,
      "ÐµÑģÑĤÐµ": 996,
      "Ð°Ð½ÑĮ": 997,
      "ÑĢÐ¾ÑģÐ¸Ð»Ð°": 998,
      "ĠÐ¼Ð°Ð³": 999,
      "ĠÐ³ÑĢÑĥ": 1000,
      "ĠÐ¿Ð¾ÑģÐ»ÐµÐ´": 1001,
      "Ð°ÐµÑĪÑĮ": 1002,
      "ĠÐ¸ÑģÐº": 1003,
      "ĠÑĤÑĢÑĥ": 1004,
      "ĠÐ¿Ð¾ÑĤ": 1005,
      "ĠÐ·Ð°Ð¼ÐµÑĤ": 1006,
      "Ð²Ð°Ð»": 1007,
      "ĠÐ¾ÑĤÐ¿": 1008,
      "ĠÑĤÐ¾ÑĤ": 1009,
      "ĠÑĢÐ°Ð·Ð³": 1010,
      "ĠÐ²Ð¸Ð´ÐµÐ»": 1011,
      "ÑĩÐ°Ð»Ð°": 1012,
      "ĠÐļÐ°Ðº": 1013,
      "ĠÐ²Ð¼": 1014,
      "ĠÐ²Ð°Ð¼": 1015,
      "ĠÐ²Ð¾Ð¿": 1016,
      "Ð¾ÑĢÐ°": 1017,
      "ĠÐ²Ð¾Ð»ÑĪÐµÐ±": 1018,
      "ÑĥÐ½Ð´Ñĥ": 1019,
      "ĠÐ¿Ð»ÐµÑĩ": 1020,
      "ĠÐ²Ð¾Ñģ": 1021,
      "ĠÑĤÐ¾Ð¼": 1022,
      "Ð¾Ð´Ñĥ": 1023,
      "ĠÐ¾ÐºÐ°Ð·": 1024,
      "Ð»ÐµÐ½Ð½Ð¾": 1025,
      "ĠÐ±Ð»": 1026,
      "ĠÑĥÑĢÐ¾Ðº": 1027,
      "ĠÑĢÐ°Ð´": 1028,
      "ĠÐ±ÑĭÐ»Ð°": 1029,
      "ĠÐ²ÑģÐµÑħ": 1030,
      "ĠÐ½ÐµÐ¼": 1031,
      "Ð½Ð¸Ð·": 1032,
      "Ð¾Ð²Ð¾ÑĢÐ¸Ð»": 1033,
      "ÑĳÐ½Ð½Ð¾": 1034,
      "ĠÐ¿Ð¾Ð¹": 1035,
      "ĠÐ½ÑĥÐ¶": 1036,
      "ĠÑĥÑĩ": 1037,
      "ĠÐ»Ð¸ÑĪÑĮ": 1038,
      "Ð½Ð°Ð´": 1039,
      "ĠÐ±ÑĭÑģÑĤÑĢÐ¾": 1040,
      "ÐµÑģÑĤÐ¾": 1041,
      "ĠÑĩÐµÐ»Ð¾Ð²ÐµÐº": 1042,
      "Ð½ÐµÐ¹": 1043,
      "Ð»Ð¸Ð²": 1044,
      "ĠÐ¾Ð±Ñī": 1045,
      "ĠÑĪÐºÐ¾Ð»": 1046,
      "Ð°ÑĢÐ¸": 1047,
      "ÑıÐ¼Ð¸": 1048,
      "ÐĿÑĥ": 1049,
      "ÐĿÐµÑĤ": 1050,
      "ĠÐ¿Ð¾Ð»ÑĥÑĩ": 1051,
      "Ð¢Ñĭ": 1052,
      "ÐĹÐ½Ð°": 1053,
      "ĠÐ¿Ð¾ÑıÐ²": 1054,
      "ĠÐ¡Ð¸ÑĢÐ¸ÑĥÑģÐ°": 1055,
      "ĠÑĤÐ¸ÑħÐ¾": 1056,
      "ĠÐĽÑİÐ¿Ð¸Ð½": 1057,
      "ĠÐ´Ð°Ð²": 1058,
      "Ð¶Ðµ": 1059,
      "Ð¾Ð³Ð²Ð°ÑĢ": 1060,
      "ĠÑģÐ²ÐµÑĤ": 1061,
      "ÑĨÑĥ": 1062,
      "Ð°Ð½Ð¾Ð²": 1063,
      "ÑĪÐ¸Ñħ": 1064,
      "Ð¼ÑĥÑĢÐ¸": 1065,
      "ĠÐ¿Ð»Ð°": 1066,
      "ĠÐ²ÑģÐº": 1067,
      "Ð½Ð¸Ð±": 1068,
      "ÑĤÑĮÑģÑı": 1069,
      "ĠÐµÐ¹": 1070,
      "ÐĿÐ¾": 1071,
      "ÑģÑĤÐ²ÐµÐ½": 1072,
      "ĠÑĢÑĥÐºÑĥ": 1073,
      "Ð½Ð¸Ð±ÑĥÐ´ÑĮ": 1074,
      "ĠÑģÑĩÐ¸ÑĤ": 1075,
      "ÐµÑĢÑĪ": 1076,
      "ĠÐ²ÑģÐµÐ³Ð´Ð°": 1077,
      "ĠÐºÐ¾ÑĤÐ¾ÑĢÑĭÐµ": 1078,
      "ĠÐľÐ°Ð»ÑĦÐ¾Ð¹": 1079,
      "ÑĥÐº": 1080,
      "ÑĭÑĢ": 1081,
      "ĠÐ¿Ð¾ÑģÐ¼Ð¾ÑĤÑĢÐµÐ»": 1082,
      "ĠÑĩÐ°Ñģ": 1083,
      "ĠÑĩÑĳÐ¼": 1084,
      "Ð½ÑĥÐ»Ð¸ÑģÑĮ": 1085,
      "Ð°Ð¹ÑĤÐµ": 1086,
      "ĠÐĶÑĥÐ¼Ð±Ð»ÑĮÐ´Ð¾ÑĢÐ°": 1087,
      "Ð¥Ð¾Ð³Ð²Ð°ÑĢ": 1088,
      "ÑĤÐ°Ðº": 1089,
      "Ð²Ð°Ð»ÑģÑı": 1090,
      "Ð»Ð¸Ð²Ð¾": 1091,
      "Ð¾ÑĢÐ¼Ð¾ÑĤ": 1092,
      "ĠÐ»ÐµÑĤ": 1093,
      "Ð¾ÐºÐ¾": 1094,
      "Ð¾Ð»ÑĮÐ·": 1095,
      "Ð»ÑıÑĤÐ¸": 1096,
      "Ð»ÑĥÑĪ": 1097,
      "ĠÐ½ÐµÐ¹": 1098,
      "Ð´Ð¾Ð²": 1099,
      "ĠÐºÑĢÐ¾Ð²": 1100,
      "ĠÑħÐ¾Ð»": 1101,
      "ĠÐ¼Ð¾Ð¶Ð½Ð¾": 1102,
      "ĠÐ¿Ð¾Ð¶Ð°Ð»": 1103,
      "ĠÐ½ÐµÑģÐºÐ¾Ð»ÑĮÐºÐ¾": 1104,
      "ĠÑħÐ¾ÑĢÐ¾ÑĪÐ¾": 1105,
      "ĠÐ¢Ñĭ": 1106,
      "ĠÐ·Ð½Ð°Ñİ": 1107,
      "Ð½Ð¾Ð¼Ñĥ": 1108,
      "ĠÐ½ÐµÐº": 1109,
      "ĠÐ¸Ð³": 1110,
      "ÑĢÐ¾Ðµ": 1111,
      "ÐµÑĤÑĥ": 1112,
      "ĠÐ¿Ð¾Ñħ": 1113,
      "Ð¾ÐºÐ¾Ð¹": 1114,
      "ĠÐĹÐ»Ðµ": 1115,
      "ÐĵÐ°ÑĢÑĢÐ¸": 1116,
      "Ð½Ð°Ðº": 1117,
      "ĠÐ¸Ð¼Ðµ": 1118,
      "ĠÑĢÐ°Ð±Ð¾ÑĤ": 1119,
      "ĠÐ¾Ð´Ð¸Ð½": 1120,
      "ĠÐ³Ð¾Ð»Ð¾ÑģÐ¾Ð¼": 1121,
      "ÑĥÐ¹": 1122,
      "Ð¼Ñĭ": 1123,
      "ÑĢÐ°Ñı": 1124,
      "ĠÐ³Ð¾Ð»Ð¾Ð²Ñĥ": 1125,
      "ÐµÐ½Ð°": 1126,
      "ÑĥÑģÐº": 1127,
      "ÑĪÐµÐ¹": 1128,
      "ÑħÐ²Ð°ÑĤ": 1129,
      "ĠÐµÐ´": 1130,
      "ÐļÐ°Ðº": 1131,
      "ĠÐ¿Ð¾ÑĩÑĤÐ¸": 1132,
      "Ð½ÐµÑģ": 1133,
      "ĠÐ½Ð°Ð±": 1134,
      "ĠÐ·Ð°ÑĤ": 1135,
      "ĠÑĢÑĥÐºÐ¸": 1136,
      "Ð¸Ð¼Ð¸": 1137,
      "ÑĢÐµÐ²": 1138,
      "Ð½Ð°Ð²": 1139,
      "Ð¾Ð²Ð¾ÑĢ": 1140,
      "ĠÐ¾ÑĤÐ²": 1141,
      "ĠÐ·Ð°Ñī": 1142,
      "ĠÐ±ÑĥÐ´ÑĤÐ¾": 1143,
      "Ð»Ð°ÑģÑģ": 1144,
      "ĠÐ¿Ð»Ð¾": 1145,
      "ĠÐ¼Ð°Ð»": 1146,
      "ĠÑĩÑĳÑĢ": 1147,
      "ĠÑĥÐ²ÐµÑĢ": 1148,
      "Ð¾ÑĤÐ¾Ð²": 1149,
      "ÐµÐ½Ð¸Ñİ": 1150,
      "ĠÐ¢Ð°Ðº": 1151,
      "Ð½Ñİ": 1152,
      "ĠÑĢÑıÐ´": 1153,
      "ÐµÐ´Ð»ÐµÐ½Ð½Ð¾": 1154,
      "ĠÐ±Ð¾Ð»ÑĮÑĪ": 1155,
      "ĠÐ¿Ð¾ÑĩÐµÐ¼Ñĥ": 1156,
      "ĠÐ¿Ð¸ÑģÑĮ": 1157,
      "ĠÑģÐ¼Ð¾ÑĤÑĢ": 1158,
      "ĠÐµÑģÑĤÑĮ": 1159,
      "ĠÑįÐºÐ·": 1160,
      "ĠÐ²Ð¾Ð·Ð´Ñĥ": 1161,
      "ĠÐ¾Ð¿ÑıÑĤÑĮ": 1162,
      "ĠÐºÐ¾Ð»Ð´Ñĥ": 1163,
      "ĠÑĥÐ´Ð¸Ð²": 1164,
      "Ð¸Ñı": 1165,
      "ÑĢÐµÑĩ": 1166,
      "ĠÑģÐ¾Ñģ": 1167,
      "ÐµÐ¼ÐµÐ½": 1168,
      "ÐºÐ¸Ð¹": 1169,
      "ĠÐĹÐ°": 1170,
      "ÐŁÑĢÐ¾": 1171,
      "ĠÑĢÐ°ÑģÑģ": 1172,
      "Ð»Ð¾Ð¿": 1173,
      "ÑĢÐ¸ÑĦÑĦ": 1174,
      "ÐµÑĢÐ²": 1175,
      "ÐµÑĢÐµÐ´": 1176,
      "Ð¸Ð½Ðµ": 1177,
      "ÑĢÐ°Ð¼": 1178,
      "ĠÐ½Ð¾Ñģ": 1179,
      "ĠÐ¾ÑģÑĤÐ°Ð²": 1180,
      "ĠÐ·Ð½Ð°Ð»": 1181,
      "ĠÐ³Ð»ÑıÐ´": 1182,
      "ÑģÐºÐ¾Ð¹": 1183,
      "ÐµÐ¹ÑģÑĤÐ²": 1184,
      "ĠÑĩÑĥÐ²ÑģÑĤÐ²": 1185,
      "ĠÑĥÐ²Ð¸Ð´ÐµÐ»": 1186,
      "ÐµÑģÑĮ": 1187,
      "Ð¸Ð½Ñĥ": 1188,
      "ÑĢÐ¾Ð´": 1189,
      "ĠÐ½Ð¾Ð²": 1190,
      "ÑĢÐ¸ÑĤ": 1191,
      "ĠÐ¸Ñģ": 1192,
      "ĠÐºÐ¸Ð²": 1193,
      "ĠÐ±ÑĢÐ¾Ñģ": 1194,
      "Ð¸Ð½Ð´Ð¾ÑĢ": 1195,
      "ĠÑĤÐ¾Ð»": 1196,
      "ĠÐ³Ð¾Ð»Ð¾Ð²Ð¾Ð¹": 1197,
      "Ð¸ÑĪ": 1198,
      "Ð»Ñĥ": 1199,
      "ÐºÑģ": 1200,
      "ĠÐ¿ÑĢÐµÐº": 1201,
      "ÐµÑģÑĤÐ²Ð¾": 1202,
      "ĠÐºÐ¾ÑĢÐ¸Ð´": 1203,
      "ĠÐºÐ¾ÑĤÐ¾ÑĢ": 1204,
      "Ð²Ð¸Ð³": 1205,
      "ĠÑģÑĤÑĢÐ°ÑĪ": 1206,
      "ĠÐ´Ð¾Ð»Ð¶ÐµÐ½": 1207,
      "Ð¾Ð±ÑīÐµ": 1208,
      "ĠÐ³ÑĢÐ¾Ð¼ÐºÐ¾": 1209,
      "ÐŃÑĤÐ¾": 1210,
      "Ð¸Ð²Ð°ÑİÑī": 1211,
      "ÐºÐ²ÐµÑĢ": 1212,
      "ĠÑģÑĤÐ°Ð»": 1213,
      "ĠÐ¸Ð·Ð²": 1214,
      "ÐºÐ°Ñħ": 1215,
      "ĠÐ²Ð¾Ð·Ð´ÑĥÑħ": 1216,
      "ÑĢÐ¸ÑĦÑĦÐ¸Ð½Ð´Ð¾ÑĢ": 1217,
      "ÐºÐ²ÐµÑĢÑĩ": 1218,
      "Ð°ÐµÑĤÑģÑı": 1219,
      "ÑĢÐµÐ»": 1220,
      "ĠÐ¿Ð¾ÑģÑĤ": 1221,
      "ĠÐ·Ð°Ñħ": 1222,
      "ÑĭÐ²Ð°ÑĤÑĮ": 1223,
      "ĠÐ½Ð¸ÐºÐ°Ðº": 1224,
      "ĠÐĽÑĥÐ½Ð°": 1225,
      "ĠÐ¼ÐµÐ¶Ð´Ñĥ": 1226,
      "ĠÐ¿ÑĢÑı": 1227,
      "Ð°Ð´Ð¸": 1228,
      "ÐµÐ¶Ð°Ð»": 1229,
      "ĠÑĢÐ°ÑģÑģÐºÐ°Ð·": 1230,
      "ĠÐ½Ð°Ð¿ÑĢÐ°Ð²": 1231,
      "Ð¾Ð´Ð½Ñı": 1232,
      "ÐµÑģÑĤÐ¸": 1233,
      "ĠÐĵÐµÑĢÐ¼Ð¸Ð¾Ð½Ñĭ": 1234,
      "ĠÐºÐ°Ð¶Ð´": 1235,
      "ĠÐ»ÑĥÑĩÑĪÐµ": 1236,
      "ÑĢÐµÐ¶": 1237,
      "ÐµÑĢÐ°": 1238,
      "Ð½Ð¾Ñģ": 1239,
      "ĠÐ¼ÐµÑĤ": 1240,
      "ĠÑĥÑĤ": 1241,
      "Ð¾Ð´Ð°": 1242,
      "ĠÐĴÑĭ": 1243,
      "ÑĪÐ¸Ð¼": 1244,
      "ĠÑģÐ»Ð¾Ð²Ð½Ð¾": 1245,
      "ÑĢÐ¾Ð¶": 1246,
      "ĠÐ²ÑģÑı": 1247,
      "ĠÑĥÐ²": 1248,
      "ĠÐ¿ÑĢÐ¸Ð²": 1249,
      "ĠÑĤÐ°ÐºÐ¾Ð¹": 1250,
      "ĠÐºÐ°Ð±Ð¸Ð½ÐµÑĤ": 1251,
      "Ð¸Ð´Ð°": 1252,
      "ÑĭÐ»": 1253,
      "ĠÑĥÑħ": 1254,
      "ÑĳÐ·": 1255,
      "Ð¸ÑĤÐµÐ»ÑĮ": 1256,
      "ĠÐ·Ð°Ñģ": 1257,
      "ĠÑģÑĤÐµÐ½": 1258,
      "ÑıÑĤÐ½Ð¾": 1259,
      "ĠÑģÐ¾Ð¾Ð±Ñī": 1260,
      "ĠÐ¾Ð³ÑĢÐ¾Ð¼": 1261,
      "ĠÐ¾Ð±ÑĬÑıÑģ": 1262,
      "Ð°ÑİÑĤ": 1263,
      "ĠÐ¿ÑĭÑĤ": 1264,
      "ĠÑģÑĥÐ¼": 1265,
      "ĠÑģÐµÐº": 1266,
      "Ð´Ñĭ": 1267,
      "Ð´Ð°Ð»": 1268,
      "ÑĢÑĭÐ²": 1269,
      "ÑĮÑı": 1270,
      "ÑıÐ»": 1271,
      "ĠÐ´ÐµÐ½ÑĮ": 1272,
      "Ð¾Ð¼Ñģ": 1273,
      "ĠÑĢÐµÐ·": 1274,
      "ĠÐľÑĭ": 1275,
      "ÑĩÐ°ÑģÑĤ": 1276,
      "ĠÑħÐ¾ÑĤÐµÐ»": 1277,
      "ĠÑģÐ»ÐµÐ´Ñĥ": 1278,
      "ĠÐĵÐµÑĢÐ¼Ð¸Ð¾Ð½Ñĥ": 1279,
      "ÑĢÐ°Ð»": 1280,
      "Ð¼ÐµÐ½": 1281,
      "ÑĨÐ°ÑĤÑĮ": 1282,
      "ĠÑģÐºÐ¾ÑĢÐ¾": 1283,
      "ĠÐ¶Ð¸Ð²": 1284,
      "ĠÐ²Ð¾Ð¾Ð±ÑīÐµ": 1285,
      "ĠÐŁÑĢÐ¾ÑĦÐµÑģÑģÐ¾ÑĢ": 1286,
      "ĠÐĶÑĥÐ´": 1287,
      "ĠÐĳÐ¾Ð¼Ñģ": 1288,
      "Ð²Ð¸Ð¶": 1289,
      "ĠÐ²Ð¾Ð»Ð¾Ñģ": 1290,
      "Ð½ÑĳÑģ": 1291,
      "ĠÐ¿Ñĥ": 1292,
      "ĠÑĤÐ¾Ð³Ð´Ð°": 1293,
      "Ð¾Ð·ÑĮ": 1294,
      "ĠÐ³Ð»Ð°Ð·Ð°Ð¼Ð¸": 1295,
      "ÑĨÐ¸Ð¸": 1296,
      "ĠÑģÐ¾Ð²ÐµÑĢÑĪ": 1297,
      "ĠÐ½Ð°Ð·Ð°Ð´": 1298,
      "ĠÐ²ÐµÑĩ": 1299,
      "ĠÐ½ÐµÑģ": 1300,
      "ĠÐ·Ð°Ð½Ñı": 1301,
      "Ð»ÑĮÑĦ": 1302,
      "ĠÐĴÐµÑĢÐ½Ð¾": 1303,
      "Ð²ÐµÑĢÑħ": 1304,
      "ĠÐ¼Ð¸Ð½ÑĥÑĤ": 1305,
      "ĠÐ½Ð¸ÐºÑĤÐ¾": 1306,
      "ĠÐ¨ÐºÐ²ÐµÑĢÑĩ": 1307,
      "Ð¬": 1308,
      "ÑĤÑĢÐ¸": 1309,
      "ĠÐ½ÐµÐ±": 1310,
      "ÐµÑĢÐµÐ²": 1311,
      "Ð¾Ð²Ð°ÑĢÐ¸": 1312,
      "ĠÐ¼Ð°Ð³Ð¸Ð¸": 1313,
      "ĠÑĢÑıÐ´Ð¾Ð¼": 1314,
      "ĠÐĶÑĥÐ´Ð»Ð¸": 1315,
      "ÑĢÐ°ÑĤÑĮ": 1316,
      "ĠÑĤÑĢÐ¸": 1317,
      "ĠÑĩÐµÐ³Ð¾": 1318,
      "ĠÑĥÑģÑĤÐ°Ð²": 1319,
      "ĠÐ¡Ð¼ÐµÑĢ": 1320,
      "ĠÑįÑĤÐ¾ÑĤ": 1321,
      "ĠÑģÐ¾Ð±Ð¾Ð¹": 1322,
      "ĠÑģÐ¸Ð»ÑĮÐ½Ð¾": 1323,
      "ĠÑģÐ¼Ð¾ÑĤÑĢÐµÐ»": 1324,
      "ĠÐ´Ð¾Ð»": 1325,
      "ÑĤÑĮÑİ": 1326,
      "ĠÐ¼Ð½": 1327,
      "Ð°Ð´Ð½Ð¾": 1328,
      "Ð¾Ð¶ÐµÑĤ": 1329,
      "ĠÐ¿ÑĢÐ¾Ñģ": 1330,
      "ÐµÐ³Ð¾Ð´Ð½Ñı": 1331,
      "ĠÐ¿ÑĢÐ¸Ð·": 1332,
      "ĠÐ¿Ð¾Ð´ÑĥÐ¼": 1333,
      "ÐµÑģÑĤÐ½Ð¸": 1334,
      "ĠÐ¥Ð¼ÑĥÑĢÐ¸": 1335,
      "ĠÐ²ÐµÑģÑĮ": 1336,
      "ĠÑĤÑı": 1337,
      "Ð³Ð¸": 1338,
      "ĠÐ¼Ð½Ð¾Ð³Ð¾": 1339,
      "ÐµÐ»Ñı": 1340,
      "ÑĪÐ¸Ðµ": 1341,
      "ĠÑģÐ»ÑĥÑĪ": 1342,
      "ĠÑĪÐ°Ð³": 1343,
      "ĠÑģÑĤÐ¾Ð»Ð°": 1344,
      "ĠÐķÑģÐ»Ð¸": 1345,
      "ĠÐ¿ÑĢÐ°Ð²Ð´Ð°": 1346,
      "ĠÐĴÐ¾Ð»ÑĮÐ´ÐµÐ¼Ð¾ÑĢÑĤ": 1347,
      "Ð°Ñī": 1348,
      "Ð¸Ð¶": 1349,
      "Ð½Ð¸ÑĤÑĮ": 1350,
      "Ð¾Ð²Ð°ÑĤÑĮ": 1351,
      "ĠÐ´ÐµÐ²": 1352,
      "ĠÐ´Ð»Ð¸Ð½": 1353,
      "Ð¾Ð½Ñĩ": 1354,
      "ÑĢÐ°Ð½": 1355,
      "ĠÐ¿ÑĢÐ¸Ñģ": 1356,
      "ĠÐ³Ð»ÑĥÐ±": 1357,
      "ĠÐ²Ð·Ð´": 1358,
      "ĠÑģÑĤÐ¾ÑıÐ»": 1359,
      "ÑģÐµÐ¼": 1360,
      "ÑĥÐ´Ð°": 1361,
      "ĠÐ¿Ð°Ð»ÑĮ": 1362,
      "ÑĭÐ¼Ð¸": 1363,
      "Ð´Ð¾": 1364,
      "ĠÑĩÐµÑĤ": 1365,
      "Ð¾ÑĢÐ¾Ð³": 1366,
      "ĠÐĲÐ½Ð³": 1367,
      "Ð²Ð°ÑıÑģÑĮ": 1368,
      "ĠÐ¸ÑģÐ¿ÑĥÐ³": 1369,
      "ĠÐ²Ð´ÑĢÑĥÐ³": 1370,
      "ĠÐ¸ÑģÑĩ": 1371,
      "ĠÐºÐ¾ÑĢÐ¸Ð´Ð¾ÑĢ": 1372,
      "ÐµÑĨ": 1373,
      "ÑĢÐ¸Ð´Ð°": 1374,
      "ĠÐ´Ð²Ð°": 1375,
      "ĠÐ´ÐµÐ¹ÑģÑĤÐ²": 1376,
      "ÐµÐ»ÐµÐ¹": 1377,
      "ÑİÐ´Ð°": 1378,
      "ĠÐ»ÐµÑģÑĤÐ½Ð¸": 1379,
      "ĠÐ²ÑĭÐ±": 1380,
      "ĠÐ²ÑģÐ¿Ð¾Ð¼": 1381,
      "ĠÑģÐ¿ÑĢÐ¾ÑģÐ¸Ð»Ð°": 1382,
      "ĠÐ¾ÑĤÐ²ÐµÑĤÐ¸Ð»Ð°": 1383,
      "Ð¾Ð½ÐµÑĨ": 1384,
      "ĠÐĲÐ½Ð³ÐµÐ»Ð¸": 1385,
      "ĠÑĪÐ¸": 1386,
      "Ð²Ðµ": 1387,
      "ÑĢÐ¸ÑĨ": 1388,
      "ĠÐ´ÐµÐ»Ð¾": 1389,
      "ĠÐ¼ÐµÑģÑĤÐ¾": 1390,
      "Ð¿Ð¸Ð²Ð°ÑİÑī": 1391,
      "ĠÑĢÐ°Ð²": 1392,
      "Ð½ÑĥÐ»Ð¸": 1393,
      "ĠÐ¿ÑĢÐ¸Ð±": 1394,
      "ĠÐ¿Ð¾Ð´Ð¾": 1395,
      "ĠÐŀÐ³ÑĢÐ¸Ð´Ð°": 1396,
      "ÑĭÐ²Ð°Ð»": 1397,
      "ĠÐºÑĥÐ´Ð°": 1398,
      "ĠÐ¿ÑĢÐ¾Ð³Ð¾Ð²Ð¾ÑĢÐ¸Ð»": 1399,
      "ĠÐ¡Ð¼ÐµÑĢÑĤÑĮÑİ": 1400,
      "ĠÑģÐ¾Ð³": 1401,
      "ÑĤÐ¾Ð»": 1402,
      "ĠÐ´ÑıÐ´": 1403,
      "ĠÑĥÐ¼": 1404,
      "ĠÑĥÑĩÐ¸ÑĤ": 1405,
      "ĠÐ½Ð°Ñĩ": 1406,
      "ĠÑĢÐ¾Ð´": 1407,
      "ĠÐŁÑĢÐ¸": 1408,
      "ĠÑģÐºÐ²": 1409,
      "ĠÐĴÑģÐµ": 1410,
      "Ð°Ð½Ð½Ð¾": 1411,
      "ĠÐ²Ð¸Ð´Ð¾Ð¼": 1412,
      "ĠÐ¿Ð¾Ð²ÑĤÐ¾": 1413,
      "ĠÐ½Ð¸ÐºÐ¾Ð³Ð´Ð°": 1414,
      "ĠÐ¿Ð¾Ð½ÑıÐ»": 1415,
      "ĠÐ¿ÑĢÐ¾Ð±Ð¾ÑĢÐ¼Ð¾ÑĤ": 1416,
      "ĠÐ³Ð»ÑıÐ´Ñı": 1417,
      "ĠÐ¸ÑģÑĩÐµÐ·": 1418,
      "ĠÐ¿ÑĢÐ¸Ð½Ñı": 1419,
      "ĠÐ£Ð¿Ð¸Ð²Ð°ÑİÑī": 1420,
      "ĠÐ¿Ð¾ÑģÐ¼Ð¾ÑĤÑĢ": 1421,
      "ÑĢÑıÑģ": 1422,
      "ĠÐ¿ÑĢÐ¾ÑĦÐµÑģÑģÐ¾ÑĢÐ°": 1423,
      "ĠÐ²ÑģÑĤÑĢÐµÑĩ": 1424,
      "ĠÐ²Ð¾ÑģÐºÐ»Ð¸ÐºÐ½ÑĥÐ»": 1425,
      "Ð¾Ñı": 1426,
      "ĠÐ²Ð½Ð¸Ð·": 1427,
      "ÑĢÐ¸Ð»": 1428,
      "ĠÐºÐ¾ÑĢ": 1429,
      "ĠÐºÑĢÐ°Ñģ": 1430,
      "Ð³Ð°Ð¼ÐµÐ½": 1431,
      "ĠÑĢÐµÐ±Ñı": 1432,
      "ĠÐ³Ð°Ð·": 1433,
      "ĠÑįÐ»ÑĮÑĦ": 1434,
      "ĠÐ²ÑĭÑħÐ¾Ð´": 1435,
      "Ð»ÐµÐ½Ð¸Ðµ": 1436,
      "ĠÐ·Ð°Ð»": 1437,
      "ĠÐ¾ÑĤÑĩ": 1438,
      "ÐµÐ¿ÑĤ": 1439,
      "ĠÐ¾ÑģÑĤÐ°Ð»ÑĮ": 1440,
      "ĠÑģÑĤÐ¾ÑĢÐ¾Ð½Ñĥ": 1441,
      "ĠÐ´Ð¾Ð±Ð°Ð²": 1442,
      "ĠÑĤÑĢÑĥÐ´": 1443,
      "ĠÐ²Ð¼ÐµÑģÑĤÐµ": 1444,
      "ĠÐ½ÑĥÐ¶Ð½Ð¾": 1445,
      "ÐµÐ¼ÐµÐ½ÑĤÐ¾": 1446,
      "ÑĢÐµÐ»Ð°Ð½Ð¸": 1447,
      "ÑĪÐµÐ³Ð¾": 1448,
      "ĠÐºÐ°Ð·": 1449,
      "ĠÑĥÐ´Ð°": 1450,
      "ÑĳÐ¿": 1451,
      "ĠÐ½Ð°ÑĩÐ°Ð»": 1452,
      "ĠÑıÐ²": 1453,
      "ĠÐ¿ÐµÑĢÐ³Ð°Ð¼ÐµÐ½": 1454,
      "ĠÐ¢ÑĢÐµÐ»Ð°Ð½Ð¸": 1455,
      "ĠÐ·Ð½Ð°ÑĩÐ¸ÑĤ": 1456,
      "ĠÑĥÑģÐ»ÑĭÑĪ": 1457,
      "ÑĢÐµÐ·": 1458,
      "ĠÑģÐ¾Ð·": 1459,
      "ĠÐ´ÐµÐ»Ð°": 1460,
      "ĠÐ´ÐµÑĢÐ¶": 1461,
      "ĠÐ¼ÐµÐ´Ð»ÐµÐ½Ð½Ð¾": 1462,
      "ĠÑĥÑģÑĤ": 1463,
      "ĠÐ¾ÑĤÐ´": 1464,
      "ĠÐŀÑĤ": 1465,
      "ÑĢÑĥÐ·": 1466,
      "ĠÐ°Ð²": 1467,
      "ÑĩÐµÑģÐº": 1468,
      "ĠÐ¿Ð¾ÑĤÐ¾Ð¼Ñĥ": 1469,
      "ĠÐ¸Ð½ÑĤÐµÑĢÐµÑģ": 1470,
      "Ð°Ð½ÑĮÑĪÐµ": 1471,
      "ĠÐ²Ð¾Ð¿ÑĢÐ¾Ñģ": 1472,
      "ĠÐĹÐ»ÐµÑı": 1473,
      "Ġ(": 1474,
      "ÑĢÐµ": 1475,
      "ĠÐ½Ð°ÑĢ": 1476,
      "ĠÐ¾Ð·": 1477,
      "Ð±Ð¸": 1478,
      "Ð¸Ð½Ð¾Ð²": 1479,
      "ĠÐºÐ°ÐºÐ¾Ð¹": 1480,
      "ĠÐºÐ¾Ð»Ð´Ð¾Ð²": 1481,
      "ĠÐ¸ÑģÐ¿ÑĭÑĤ": 1482,
      "ĠÑħÐ¾Ð»Ð¾Ð´": 1483,
      "ĠÐ½ÐµÐºÐ¾ÑĤÐ¾": 1484,
      "ĠÑģÐºÐ²Ð¾Ð·ÑĮ": 1485,
      "Ð«": 1486,
      "Ð»ÐµÐ½Ð¸Ñı": 1487,
      "ĠÐ½ÐµÐ¼Ñĥ": 1488,
      "Ð¼Ð¾Ð¶Ð½Ð¾": 1489,
      "ĠÐ±Ð»Ð¸Ð·": 1490,
      "ÑİÑģÑĮ": 1491,
      "Ð¾Ð½Ð¾Ð¹": 1492,
      "ĠÐ¿ÑĢÐ¾Ð¿": 1493,
      "ĠÐ¿ÑĢÐ¾ÑĤÑı": 1494,
      "ÐµÐ½Ð¸Ð¹": 1495,
      "ÐµÑģÑĤÐ½Ð¾": 1496,
      "ĠÐ½Ð¾Ð³Ð¸": 1497,
      "ĠÐ¿Ð¾Ð²ÐµÑĢÐ½ÑĥÐ»ÑģÑı": 1498,
      "ĠÑģÐ¾Ð²ÐµÑĢÑĪÐµÐ½Ð½Ð¾": 1499,
      "Ð¾ÑĪ": 1500,
      "ĠÐ½Ð¾Ñĩ": 1501,
      "Ð½Ð¸ÐºÐ¸": 1502,
      "Ð»Ð¸ÑĪ": 1503,
      "ĠÐ¼ÐµÑĢ": 1504,
      "Ð·Ñı": 1505,
      "ĠÐ¾ÑĤÐ¾Ð·": 1506,
      "ĠÐ¿ÑĢÐ¾ÑĤÐ¸Ð²": 1507,
      "ĠÐĶÐ¶ÐµÐ¹": 1508,
      "ĠÐ¿ÑĢÐµÐ´ÑģÑĤÐ°Ð²": 1509,
      "ÑĩÐµÑģÐºÐ¸": 1510,
      "ĠÐ²Ð·Ð³Ð»ÑıÐ´Ð¾Ð¼": 1511,
      "ĠÐºÑĢÐµÑģ": 1512,
      "ĠÐ¾Ð±ÑĬÑıÐ²": 1513,
      "ĠÐ²ÐµÑĩÐµÑĢ": 1514,
      "Ð¾Ð½Ñĥ": 1515,
      "ĠÐ¿ÑıÑĤ": 1516,
      "Ð²Ð°ÑĤÑĮ": 1517,
      "ÑĪÐ°Ñı": 1518,
      "ĠÐºÐ¾Ð³Ð¾": 1519,
      "ĠÐ´Ð°Ð»ÑĮ": 1520,
      "ĠÐ±ÑĢÐ¾ÑģÐ¸Ð»": 1521,
      "ĠÐ¡ÑĤ": 1522,
      "ĠÐĴÐ¾ÑĤ": 1523,
      "ĠÑĤÐ¾ÑĢ": 1524,
      "ĠÐĳÐµÐ»": 1525,
      "ĠÑģÐ²Ð¾Ñİ": 1526,
      "ĠÐ¾Ð¿Ð°Ñģ": 1527,
      "ĠÐķÐ³Ð¾": 1528,
      "ĠÐ±ÐµÑģÐ¿": 1529,
      "ÑģÑĳ": 1530,
      "Ð»Ð¾Ð¼": 1531,
      "Ð»Ð¾Ð¶": 1532,
      "ĠÐ¶Ð¸Ð·": 1533,
      "ÐµÐ»ÑĮÐ·Ñı": 1534,
      "ÑĢÑıÐ´": 1535,
      "ĠÐ²ÑĢÐµÐ¼ÐµÐ½Ð¸": 1536,
      "ĠÐ¿Ð¾ÑĢÑĤ": 1537,
      "Ð»Ð°Ð²": 1538,
      "ĠÑģÐµÐ³Ð¾Ð´Ð½Ñı": 1539,
      "ÑĩÐµÐ¼": 1540,
      "ÑħÐ¾ÑĤ": 1541,
      "Ð¾Ð½ÑĮ": 1542,
      "ĠÐ²ÑģÐµÐ¼": 1543,
      "ĠÐ¾Ð±Ñĭ": 1544,
      "ĠÑģÐ¿Ð¸Ð½Ð¾Ð¹": 1545,
      "ĠÐ²Ð¾Ð·Ð²": 1546,
      "ĠÐ·Ð°ÐºÑĢÑĭ": 1547,
      "ĠÑįÐºÐ·Ð°Ð¼ÐµÐ½": 1548,
      "ĠÑĢÐ¾ÑĤ": 1549,
      "ÑģÐ°": 1550,
      "Ð²Ð¾Ð»": 1551,
      "ÑħÐ¾": 1552,
      "ĠÐ´ÐµÑĢÐµÐ²": 1553,
      "ĠÐ´Ð¾ÑĢÐ¾Ð³": 1554,
      "ĠÐĶÐ°": 1555,
      "ĠÐĵÐµÑĢÐ¼Ð¸Ð¾Ð½Ð¾Ð¹": 1556,
      "ĠÑĤÐ°ÐºÐ¾Ðµ": 1557,
      "ÑĤÐ¾Ð¼Ñĥ": 1558,
      "ĠÑģÑĤÐ¾ÑĢÐ¾Ð½Ñĭ": 1559,
      "ĠÐ¾ÑĤÐ¿ÑĢÐ°Ð²": 1560,
      "ĠÑģÐ²Ð¸": 1561,
      "Ð»Ð¸Ð½Ð°": 1562,
      "ĠÑĤÐµ": 1563,
      "ĠÐ½Ð°ÑħÐ¾Ð´": 1564,
      "ÑįÑĤ": 1565,
      "ÑįÐ½": 1566,
      "ĠÐŁÐ¾Ñģ": 1567,
      "ĠÐ¿ÐµÑĢÐµÐ²": 1568,
      "ÑĳÑĤÑģÑı": 1569,
      "ĠÐºÐ¾Ð½ÑĨÐµ": 1570,
      "Ð»ÑİÑĩ": 1571,
      "ĠÐ¿Ð¾Ð¿ÑĭÑĤ": 1572,
      "Ð¸Ð³Ð°Ð½": 1573,
      "ĠÐ¿ÑĢÑıÐ¼Ð¾": 1574,
      "ĠÑģÐ¼Ðµ": 1575,
      "ÑģÑĤÑĢ": 1576,
      "ĠÐ¼Ð¸Ð¼Ð¾": 1577,
      "Ð¾ÑĢÐ¼": 1578,
      "ĠÐŁÐ°ÑĢ": 1579,
      "ĠÑģÐºÐ°Ð¶": 1580,
      "ĠÐ¾Ð±ÑĢÐ°ÑĤ": 1581,
      "ĠÐ¿ÑĢÐ¸ÑĪ": 1582,
      "ĠÑģÐ»Ð¾Ð²Ð°": 1583,
      "ÐºÑĥÐ´Ð°": 1584,
      "ĠÐ·Ð°ÐºÐ»ÑıÑĤÐ¸": 1585,
      "ĠÐ³Ð¾Ð²Ð¾ÑĢÐ¸Ð»": 1586,
      "ĠÑĥÐ·Ð½Ð°": 1587,
      "ĠÐĶÐ¶ÐµÐ¹Ð¼": 1588,
      "Ð¾ÑģÑĤÐ¸": 1589,
      "Ð°ÐµÐ¼": 1590,
      "ĠÑģÐµÐ¼": 1591,
      "ĠÐ¾Ð¶": 1592,
      "ĠÐ´ÐµÑģÑı": 1593,
      "ĠÐ³Ð¾ÑĤÐ¾Ð²": 1594,
      "ĠÐŁÐµÑĢ": 1595,
      "ÑĥÐ¼Ðµ": 1596,
      "ĠÐļÐ¾Ð³Ð´Ð°": 1597,
      "ÐºÐ¸Ðµ": 1598,
      "ÐºÐ¸Ð¼": 1599,
      "ĠÐºÐ¾Ð½ÐµÑĩÐ½Ð¾": 1600,
      "ĠÐºÐ¾Ð¼Ð°Ð½": 1601,
      "Ð¾Ñī": 1602,
      "ÑĢÐ¾Ð±": 1603,
      "ĠÑģÑĥ": 1604,
      "ĠÐ²ÐµÑī": 1605,
      "Ð½Ð¸Ð¸": 1606,
      "ĠÐ¼ÐµÑģÑĤ": 1607,
      "ĠÑĢÐ°Ð½ÑĮÑĪÐµ": 1608,
      "ĠÐ³Ð½ÐµÐ²": 1609,
      "ÑįÑĤÐ¾Ð¼Ñĥ": 1610,
      "ĠÐ²ÑĭÐ´": 1611,
      "Ð¾ÑģÐ¾Ð±": 1612,
      "ĠÑģÐ¾Ð²ÑģÐµÐ¼": 1613,
      "Ð»Ð¸Ð·ÐµÑĢÐ¸": 1614,
      "ĠÐºÐ¸Ð²Ð½ÑĥÐ»": 1615,
      "ĠÑĤÑıÐ¶": 1616,
      "ĠÑģÐ¾Ð³Ð»Ð°Ñģ": 1617,
      "!...": 1618,
      "Ð¸ÑģÑĤ": 1619,
      "ÑĥÐ²ÑģÑĤÐ²": 1620,
      "ÑħÐ°": 1621,
      "Ð°ÑĢÑĤ": 1622,
      "ĠÐ¼Ñı": 1623,
      "ĠÐ¿ÑĢÐ¾Ð»": 1624,
      "ĠÐ¿ÑĢÐ¾Ð¼": 1625,
      "ĠÐ·Ð°ÑģÑĤÐ°Ð²": 1626,
      "ĠÐĿÑĥ": 1627,
      "ÑģÑĤÐ²ÐµÐ½Ð½Ð¾": 1628,
      "ĠÐ·Ð°ÐºÑĢÐ¸": 1629,
      "ÐµÐ½ÑĤÐ°Ð²": 1630,
      "ĠÐ²Ð¾ÑģÐºÐ»Ð¸ÐºÐ½ÑĥÐ»Ð°": 1631,
      "ĠÐĴÐµÑĢÐ½Ð¾Ð½": 1632,
      "ÑıÑĤÐ¸": 1633,
      "Ð½Ð¾ÑģÑĤÐ¸": 1634,
      "ĠÐ´Ð¾Ð²Ð¾Ð»ÑĮ": 1635,
      "ĠÐ·ÐµÐ¼": 1636,
      "ĠÑĤÐ²": 1637,
      "ĠÐ¼Ð°Ð¼": 1638,
      "ĠÐ½Ð°ÑģÑĤÐ¾": 1639,
      "ĠÐ²ÑĭÑĢÐ°Ð¶": 1640,
      "ĠÐ¶ÐµÐ»": 1641,
      "ĠÑĤÐ¾ÑĩÐ½Ð¾": 1642,
      "ĠÐ¿ÐµÑĢÐµÐ±": 1643,
      "ĠÐ¿ÐµÑĢÐµÑģÑĤ": 1644,
      "ĠÐĺÐ·": 1645,
      "ĠÐ´Ð¾ÑģÑĤ": 1646,
      "ÐĴÑĭ": 1647,
      "ĠÐĿÐµÐ²Ð¸Ð»Ð»Ñı": 1648,
      "ĠÐ¿Ð¾Ð³Ð»ÑıÐ´": 1649,
      "ĠÐ·Ð°ÑīÐ¸ÑĤ": 1650,
      "ĠÑĥÐ²ÐµÑĢÐµÐ½": 1651,
      "ÑĩÑĤÐ¾": 1652,
      "ĠÐºÑĢÑĭ": 1653,
      "Ð¾Ð²Ð°Ð»ÑģÑı": 1654,
      "ÑĨÐµÐ²": 1655,
      "ĠÐ¿ÑĢÐ¸Ð³": 1656,
      "ĠÐ»Ð¸ÑĨÐ°": 1657,
      "ĠÐ±Ð¾Ð»ÐµÐµ": 1658,
      "ĠÐĲÐ½Ð³ÐµÐ»Ð¸Ð½Ð°": 1659,
      "?...": 1660,
      "Ð¸Ñī": 1661,
      "ÑĢÐ°Ð´": 1662,
      "ĠÐ²Ð¾Ðº": 1663,
      "Ð½Ð¸ÐºÐ¾Ð²": 1664,
      "ĠÐ´ÐµÐ¼ÐµÐ½ÑĤÐ¾": 1665,
      "Ð±Ð¾": 1666,
      "ĠÐłÐ¾Ð½Ñĥ": 1667,
      "ĠÐ¿Ð¾Ð»Ñĥ": 1668,
      "ĠÑģÐ²Ð¾ÐµÐ¹": 1669,
      "Ð¸ÑĢÐµÐº": 1670,
      "ĠÑĪÐºÐ¾Ð»ÑĮ": 1671,
      "ĠÑĢÐ°ÑģÐº": 1672,
      "**": 1673,
      "Ð¸ÑĪÑĮ": 1674,
      "ÑĳÐº": 1675,
      "ÑĳÐ´": 1676,
      "Ð½ÑĥÑģ": 1677,
      "Ð¾Ð»ÑĮÑĪ": 1678,
      "ĠÑĢÐ°Ð·Ð±": 1679,
      "ĠÑħÐ¾ÑĤÑı": 1680,
      "ĠÑģÑĤÑĢÐ°Ð½": 1681,
      "ĠÑĥÑģÐ¿ÐµÐ»": 1682,
      "ĠÐ¿Ð¾Ð´Ð½ÑıÐ»": 1683,
      "ĠÐ½Ð°ÐºÐ¾Ð½ÐµÑĨ": 1684,
      "ĠÐ´ÐµÐ»Ð°ÑĤÑĮ": 1685,
      "ĠÐ½ÐµÐ¼Ð½Ð¾Ð³Ð¾": 1686,
      "ÑıÐ»ÑģÑı": 1687,
      "ĠÐ¿Ð°Ð¿": 1688,
      "Ð¼ÐµÑĤ": 1689,
      "ÑĤÐ¾Ñĩ": 1690,
      "ÑĢÐ¸Ð¿": 1691,
      "Ð»Ð¸Ñĩ": 1692,
      "Ð¿Ñĥ": 1693,
      "Ð¾ÑĢÐµÐµ": 1694,
      "ĠÐ³Ð¸Ð³Ð°Ð½": 1695,
      "ĠÐ»ÐµÑģ": 1696,
      "ĠÐŀÐ´": 1697,
      "ĠÐ¾Ð±ÐµÑĢ": 1698,
      "ĠÐ´ÑĥÐ¼Ð°Ð»": 1699,
      "ĠÑĨÐµÐ»": 1700,
      "Ð½ÑĥÐ²ÑĪÐ¸ÑģÑĮ": 1701,
      "ĠÐ²Ð½Ð¸Ð¼Ð°ÑĤÐµÐ»ÑĮÐ½Ð¾": 1702,
      "ĠÑĢÐ°Ð·Ð³Ð¾Ð²Ð°ÑĢÐ¸": 1703,
      "ĠÐ¿ÑĢÐ¾Ð±Ð¾ÑĢÐ¼Ð¾ÑĤÐ°Ð»": 1704,
      "Ð°Ñĩ": 1705,
      "ĠÐ¿Ñĭ": 1706,
      "ĠÐ½ÐµÐ»ÑĮÐ·Ñı": 1707,
      "ĠÐ²Ð½ÑĥÑĤ": 1708,
      "ÑĤÐ¾Ñı": 1709,
      "ĠÐºÐ²Ð¸Ð´": 1710,
      "Ð¾Ð»Ð¾ÑĤ": 1711,
      "ĠÐ´Ñĥ": 1712,
      "ĠÐ´ÑĢÑĥÐ·": 1713,
      "Ð¾Ð±Ð¾Ð¹": 1714,
      "ĠÐ¿ÑĢÐµÐ²": 1715,
      "Ð°Ð´Ð¾": 1716,
      "ĠÑģÐ¿Ð¾ÐºÐ¾Ð¹": 1717,
      "ĠÐŁÐ¾ÑĤÐ¾Ð¼": 1718,
      "ĠÐ¿Ð°Ð»Ð¾ÑĩÐºÐ¾Ð¹": 1719,
      "ĠÐ¸Ð¼ÐµÐ½Ð½Ð¾": 1720,
      "Ð½ÑĥÑĤÑĮÑģÑı": 1721,
      "ĠÐºÐ°Ð¶ÐµÑĤÑģÑı": 1722,
      "ĠÑįÑĤÐ¸Ð¼": 1723,
      "Ð»Ð¸ÑĪÐºÐ¾Ð¼": 1724,
      "ĠÐ²Ð¾Ð·Ð²ÑĢÐ°Ñī": 1725,
      "ĠÐ²Ð²ÐµÑĢÑħ": 1726,
      "ĠÐºÐ½Ð¸": 1727,
      "Ð½Ð¸Ñħ": 1728,
      "ĠÐ¿ÑĢÐ¾Ðº": 1729,
      "ÑĢÐ°ÑĤÐ¸": 1730,
      "ĠÐ¿ÑĢÐ¾Ñĩ": 1731,
      "ĠÐŀÑĢ": 1732,
      "ÐµÑģÑĤÐ²Ð°": 1733,
      "ĠÑģÐ¿Ð¾ÑģÐ¾Ð±": 1734,
      "Ð°Ð¹Ð½Ð¾": 1735,
      "ĠÐ·Ð½Ð°ÐµÑĤ": 1736,
      "ÐļÑĤÐ¾": 1737,
      "ÑİÑĤÑģÑı": 1738,
      "ĠÐ»ÑİÐ´": 1739,
      "ĠÐ¿ÑĥÑģÑĤ": 1740,
      "ĠÑģÑĥÑī": 1741,
      "ĠÑģÐ»Ð¸ÑĪÐºÐ¾Ð¼": 1742,
      "ĠÐ´Ð¸ÑĢÐµÐº": 1743,
      "ĠÐ¼Ð°ÑĤ": 1744,
      "ĠÐ±Ð¾ÑĢ": 1745,
      "ĠÐ¾Ð±ÑĢÐ°Ð·": 1746,
      "ĠÐ¾Ð±ÑĢÐ°Ñī": 1747,
      "ĠÐłÐ°Ð·": 1748,
      "ĠÐ¿Ð¾Ð´Ð¾Ð±": 1749,
      "ÐµÑĪÐ½Ð¾": 1750,
      "ĠÐ·Ð°ÐºÐ¾Ð½Ñĩ": 1751,
      "ÐµÐ»Ð¾ÑģÑĮ": 1752,
      "ĠÐ¼Ð¾Ð³Ñĥ": 1753,
      "ĠÐ¿ÑĢÐµÐºÑĢÐ°Ñģ": 1754,
      "Ð°ÐµÑĤÐµ": 1755,
      "Ð¸ÑĢÐ¾Ð²": 1756,
      "Ð¾Ð»Ð½": 1757,
      "ĠÑĤÐ¾Ð±Ð¾Ð¹": 1758,
      "Ð¿Ð¾Ð´": 1759,
      "ĠÐ·Ð°Ð½Ð¸Ð¼": 1760,
      "ĠÐ¿Ð¾Ð´Ð½Ð¸Ð¼": 1761,
      "Ð°Ð½Ð¸Ð¸": 1762,
      "ĠÐ³Ð»ÑĥÐ¿": 1763,
      "ĠÐ·Ð½Ð°ÑĤÑĮ": 1764,
      "ÐĴÐ¾ÑĤ": 1765,
      "ÑĢÐ¾Ð¼Ðµ": 1766,
      "ĠÐ½ÐµÐ¿ÑĢÐ¸": 1767,
      "........": 1768,
      "ĠÐ¿Ð¾ÑĢÑĤÑĢÐµÑĤ": 1769,
      "Ð¸ÑģÐº": 1770,
      "Ð¸ÑĢÐ°": 1771,
      "ÑĥÐ»ÑĮ": 1772,
      "ÑĭÑģ": 1773,
      "ĠÑģÑħÐ²Ð°ÑĤ": 1774,
      "ĠÐºÐµÐ½ÑĤÐ°Ð²": 1775,
      "Ð½Ð¸ÑĤ": 1776,
      "ĠÑĤÐµÑħ": 1777,
      "ĠÐ¼ÑĥÐ³": 1778,
      "ĠÑĩÐ¸ÑĤ": 1779,
      "ÐµÐ½Ð½ÑĭÐ¹": 1780,
      "ĠÐ½Ð°ÑĪ": 1781,
      "ĠÐ³ÑĢÐ¸ÑĦÑĦÐ¸Ð½Ð´Ð¾ÑĢ": 1782,
      "Ð»Ð°ÑĤÑĢÐ¸": 1783,
      "Ð¾ÐºÐ°": 1784,
      "ĠÐ¿ÑĢÐ¸Ð´ÑĳÑĤ": 1785,
      "Ð»Ð¾Ð½Ð¸": 1786,
      "ĠÐ¶ÐµÐ½": 1787,
      "ĠÐ½Ð¸Ð¼Ð¸": 1788,
      "ÑĪÐ¸Ð±": 1789,
      "ÐŀÐ½": 1790,
      "ĠÐºÐ¾ÑĤÐ¾ÑĢÐ°Ñı": 1791,
      "Ð¢Ð°Ðº": 1792,
      "Ð¢Ðŀ": 1793,
      "ÑĥÑģÑĤÐ¸Ð»": 1794,
      "ĠÐ´Ð¾Ð»Ð¶Ð½Ñĭ": 1795,
      "ĠÑģÐµÑĢÐµÐ±": 1796,
      "ÑĥÐ¹ÑģÑĤÐ°": 1797,
      "Ð»Ð°ÑĤÑĢÐ¸ÐºÑģ": 1798,
      "Ð°ÑĤÐ¸": 1799,
      "ÑĥÐ»": 1800,
      "ĠÐ¿ÑıÑĤÑĮ": 1801,
      "Ð½Ð¸ÐºÐ°": 1802,
      "Ð³Ð½Ð¾Ð²": 1803,
      "ĠÐ¼Ð½Ð¾Ð¹": 1804,
      "ĠÑĢÐ¾Ð±": 1805,
      "ĠÑģÑĤÐ°Ð»Ð¾": 1806,
      "ĠÐłÐ¾Ð½Ð¾Ð¼": 1807,
      "ÑģÑĤÐ²Ðµ": 1808,
      "ĠÑħÐ¾ÑĩÐµÑĤ": 1809,
      "ĠÑģÐ´ÐµÐ»Ð°Ð»": 1810,
      "ĠÐ·Ð°ÑĤÐµÐ¼": 1811,
      "ÑĥÐ¼ÐµÐµÑĤÑģÑı": 1812,
      "ĠÐºÐ²Ð¸Ð´Ð¸ÑĪ": 1813,
      "ÐĻ": 1814,
      "ÐµÑģÐº": 1815,
      "Ð¸Ð½Ñĭ": 1816,
      "ĠÑģÐ²ÐµÑĢ": 1817,
      "ĠÐ½Ð°Ð¹": 1818,
      "Ð´ÑĨÐµ": 1819,
      "ĠÑĤÐ°Ð¹": 1820,
      "ĠÐ¼Ð³Ð½Ð¾Ð²": 1821,
      "ĠÑĥÐ»Ð¸": 1822,
      "ĠÑĢÑĭ": 1823,
      "ĠÐŁÐµÑĤÑĥ": 1824,
      "Ð°Ð»ÑĮÑĩÐ¸": 1825,
      "ÑĢÐµÐ´Ð¸": 1826,
      "ĠÐ½Ð°Ð¿Ð¾Ð¼": 1827,
      "ĠÐ½Ð°Ð¿Ð¸Ñģ": 1828,
      "ÐľÑĭ": 1829,
      "ĠÐ³Ð¾Ð²Ð¾ÑĢÐ¸ÑĤ": 1830,
      "ÑĢÐ¾ÑĩÐµÐ¼": 1831,
      "ÑĤÐ°ÐºÐ¸": 1832,
      "ĠÐ¿Ð¾ÑħÐ¾Ð¶": 1833,
      "Ð»ÐµÐº": 1834,
      "ÑıÐ¼": 1835,
      "ĠÐºÐ°Ð¼": 1836,
      "Ð³Ð°": 1837,
      "ĠÐ¿Ð¾ÑģÐº": 1838,
      "ÐµÐ´Ð¾Ð¼": 1839,
      "Ð°Ð´Ð°Ð¼": 1840,
      "ÐµÑģÐ¿": 1841,
      "ĠÐ¡Ð°Ð¼": 1842,
      "ĠÐĿÐ¸Ðº": 1843,
      "Ð²Ð¾Ðµ": 1844,
      "ĠÑĪÑĢÐ°Ð¼": 1845,
      "ĠÐ¢Ð¾ÑĤ": 1846,
      "ÐŀÑĤ": 1847,
      "ĠÐ²Ð¸Ð´Ñĥ": 1848,
      "ÑĳÑĢÑĤ": 1849,
      "ĠÐ¾ÑģÑĤÐ°Ð½Ð¾Ð²": 1850,
      "ĠÐ¾ÑģÐ²": 1851,
      "ĠÑģÑĤÐ¾ÑıÐ»Ð¸": 1852,
      "ĠÐºÑĥÑħ": 1853,
      "ĠÑģÐ»ÑĥÑĩÐ°": 1854,
      "ĠÑħÐ¾ÑĩÑĥ": 1855,
      "ĠÑģÑĩÐ°ÑģÑĤ": 1856,
      "Ð´Ð°ÑĤÑĮ": 1857,
      "ÑĢÐ¾ÑģÑĤ": 1858,
      "Ð¾Ð±Ð±Ð¸": 1859,
      "ĠÑģÑĤÑĢÐµÐ¼": 1860,
      "ĠÑıÑģ": 1861,
      "ĠÐ¿Ð¾ÑģÐ¿": 1862,
      "Ð¼Ð¾ÑĤÑĢÐ¸": 1863,
      "ÑģÐ¿ÐµÐº": 1864,
      "ĠÑĢÐ°Ð·Ð´ÑĢÐ°Ð¶": 1865,
      "ĠÐĳÐµÐ»Ð»Ð°ÑĤÑĢÐ¸ÐºÑģ": 1866,
      "ĠÐ²Ð¾ÐºÑĢÑĥÐ³": 1867,
      "ĠÑī": 1868,
      "ÑĢÐ¾Ð·": 1869,
      "ÑĢÐ°Ð±": 1870,
      "Ð¼Ð°Ñħ": 1871,
      "ĠÐŁÐ¾Ð´": 1872,
      "ĠÐ¸Ð·Ð±": 1873,
      "ĠÑĪÐ°ÑĢ": 1874,
      "ĠÑģÐ²Ð¾Ð¸Ñħ": 1875,
      "ĠÐ·Ð°ÐºÐ»Ð¸Ð½Ð°": 1876,
      "ÑĥÐ±Ñĭ": 1877,
      "ĠÑįÑĤÐ¾Ð¹": 1878,
      "ĠÐºÐ¾Ð¼Ð½Ð°ÑĤÑĭ": 1879,
      "ĠÑĪÐ¸ÑĢÐ¾Ðº": 1880,
      "ÑĢÐ¸ÑĨÐ°ÑĤÐµÐ»ÑĮ": 1881,
      "ĠÐ´ÑıÐ´Ñı": 1882,
      "Ð°ÑģÑĤÑĮ": 1883,
      "Ð´ÑĥÐ¼": 1884,
      "Ð²Ñĭ": 1885,
      "ĠÐ·ÐµÐ»ÑĮ": 1886,
      "ĠÑĤÐ°": 1887,
      "ĠÐĵÑĥÑĢ": 1888,
      "ĠÐ¼ÑĢÐ°": 1889,
      "ĠÑĢÐµ": 1890,
      "Ð¾Ð½ÐµÑĩÐ½Ð¾": 1891,
      "Ð»Ð°Ð½": 1892,
      "ĠÐ¾Ð±Ð»": 1893,
      "ĠÐ¡Ð¿": 1894,
      "ĠÐ¿ÑĢÐ¸ÐºÐ°Ð·": 1895,
      "ĠÐĵÐµÑĢÐ¼Ð¸Ð¾Ð½Ðµ": 1896,
      "Ð¾ÑĩÐµÐ¼Ñĥ": 1897,
      "Ð¸Ð¼ÑĥÑģ": 1898,
      "Ð¸Ð²Ð°ÑĤÑĮ": 1899,
      "ÐµÑĢÐ¸ÑĤÑĮ": 1900,
      "ĠÐ²ÐµÑĢÐ½ÑĥÐ»ÑģÑı": 1901,
      "ĠÑģÐ¼ÐµÑĢ": 1902,
      "ĠÐ»Ð¸ÑĨÐ¾Ð¼": 1903,
      "ĠÐ·Ð°Ð²ÑĤ": 1904,
      "ĠÐ·Ð°Ð¼ÐµÑĤÐ¸Ð»": 1905,
      "ĠÐ¿Ð»Ð°Ñī": 1906,
      "ĠÐºÐ¾ÑĤÐ¾ÑĢÐ¾Ð¹": 1907,
      "ĠÐºÐ°Ð·Ð°Ð»Ð¾ÑģÑĮ": 1908,
      "Ð½Ð°ÑĢ": 1909,
      "ĠÑģÑİÐ´Ð°": 1910,
      "ĠÐºÐ»Ð°ÑģÑģ": 1911,
      "ĠÐ´Ð¾Ð³": 1912,
      "ĠÐ·Ð¾Ð»Ð¾ÑĤ": 1913,
      "ÐµÐ»Ñĳ": 1914,
      "ĠÐ·Ð°ÑĪ": 1915,
      "ĠÐ²ÑĭÐº": 1916,
      "ĠÑģÐºÑĢÑĭ": 1917,
      "ĠÐ¡Ð¸Ð¼ÑĥÑģ": 1918,
      "ÑĢÑĥÑİ": 1919,
      "ÐµÑģÑĤÑĮ": 1920,
      "ĠÐ°ÑĢ": 1921,
      "ÐµÐ¿Ð°ÑĢÑĤ": 1922,
      "ÐµÐ¶Ð´Ðµ": 1923,
      "ĠÐ¼ÑĭÑģÐ»Ð¸": 1924,
      "Ð¸ÐµÑģÑı": 1925,
      "ĠÐºÐ¾ÑĤÐ¾ÑĢÑĭÑħ": 1926,
      "ĠÑģÐ¾Ð±ÑģÑĤÐ²ÐµÐ½": 1927,
      "ĠÐ²ÑģÑĤÑĢÐµÑĤ": 1928,
      "ĠÐ¾ÑģÐ¾Ð±": 1929,
      "ĠÐ´Ð¾Ð¼Ð°": 1930,
      "ĠÐºÐ¾Ð¼Ð½Ð°ÑĤÐµ": 1931,
      "ĠÐ¿Ð¾ÑĤÑĢÑıÑģ": 1932,
      "ĠÐ¼Ð°Ð»ÐµÐ½ÑĮ": 1933,
      "ĠÐ¿ÑĢÐ¸ÑĪÐ»Ð¾ÑģÑĮ": 1934,
      "ÐµÐ¿Ð°ÑĢÑĤÐ°Ð¼ÐµÐ½": 1935,
      "Ð¾ÑĤÑĮ": 1936,
      "Ð½Ð·": 1937,
      "ĠÐ¸Ð´": 1938,
      "ĠÐ¸ÑģÑĤÐ¾": 1939,
      "ÐµÑĢÐ¿": 1940,
      "Ð½Ð¾ÑģÑĤÑĮ": 1941,
      "ĠÐ·Ð»Ð°": 1942,
      "ÑĢÐ¾ÑħÐ¾ÑĤ": 1943,
      "ĠÑĥÐºÐ°Ð·": 1944,
      "ÑĳÑĪÑĮ": 1945,
      "Ð¾ÑĢÐµ": 1946,
      "ÐµÐ´Ð²Ð¸Ð³": 1947,
      "ĠÐ¿ÑĢÐ¾ÑĢÐ¾Ñĩ": 1948,
      "ĠÐ¿ÑĢÐ¸ÑħÐ¾Ð´": 1949,
      "ĠÑģÑĤÐµÐº": 1950,
      "ĠÑħÐ²Ð°ÑĤ": 1951,
      "ĠÑıÑĢ": 1952,
      "Ð¾Ð¿ÑĭÑĤ": 1953,
      "ĠÑĪÑĥÐ¼": 1954,
      "Ð¸Ð²ÑĪÐ¸ÑģÑĮ": 1955,
      "ĠÐ»Ð¸ÑĨÐµ": 1956,
      "Ð¸ÑħÑģÑı": 1957,
      "ÑĤÐ°Ñī": 1958,
      "ĠÐ²Ð¾Ð·Ð¼Ñĥ": 1959,
      "ĠÐ³Ð¾Ð»Ð¾Ð²Ðµ": 1960,
      "ĠÐ½Ð°Ð²ÐµÑĢ": 1961,
      "ĠÐ¿ÑĢÐ¾ÑĪÐµÐ¿ÑĤ": 1962,
      "Ð¸Ð±Ð¾": 1963,
      "ĠÐĴÐ¾Ð»ÑĮÐ´ÐµÐ¼Ð¾ÑĢÑĤÐ°": 1964,
      "ĠÐ±Ð»Ð°Ð³": 1965,
      "ĠÑĢÐ°Ð´Ð¾ÑģÑĤ": 1966,
      "ĠÑĩÐµÑĤÑĭÑĢ": 1967,
      "ĠÐŁÐµÑĢÑģÐ¸": 1968,
      "Ð¨": 1969,
      "ĠÑģÑĭ": 1970,
      "ĠÐ½Ñĥ": 1971,
      "Ð´ÐµÐ½": 1972,
      "ÐµÑĤÑĭ": 1973,
      "Ð¸Ð»ÑĮÐ½Ð¾": 1974,
      "ĠÐ³Ð¾ÑģÑĤ": 1975,
      "Ð¾Ð¶Ð¸Ð´Ð°": 1976,
      "ĠÐ¿ÑĢÐ¾ÑħÐ¾Ð´": 1977,
      "Ð²Ð°ÐµÑĤ": 1978,
      "Ð°ÑģÐ¸Ð±Ð¾": 1979,
      "Ð°Ð½Ð½ÑĭÐ¹": 1980,
      "ĠÑģÐ¿Ð°Ð»ÑĮ": 1981,
      "ĠÐ¤Ð¸Ð»": 1982,
      "ĠÐ·Ð½Ð°ÐµÑĪÑĮ": 1983,
      "Ð¾Ð²Ð¾ÑĢÐ¸Ð»Ð°": 1984,
      "ĠÐ¥ÐµÐ´Ð²Ð¸Ð³": 1985,
      "ÑģÑĤÐ°ÑĤÐ¸": 1986,
      "ĠÐºÑĢÐ¸ÐºÐ½ÑĥÐ»": 1987,
      "ĠÐ¿ÑĢÐ¾Ð¸Ð·Ð½ÑĳÑģ": 1988,
      "ĠÑģÐµÐºÑĥÐ½": 1989,
      "ĠÐ·Ð°Ð½ÑıÑĤÐ¸": 1990,
      "ĠÐ¾ÑĤÐ¾Ð·Ð²Ð°Ð»ÑģÑı": 1991,
      "Ð¸ÑĩÐµÐ³Ð¾": 1992,
      "ÑĢÐ¾Ð³": 1993,
      "ÑĪÑĥÑİ": 1994,
      "ĠÐºÑĢÑĥÐ³": 1995,
      "Ð½Ð¸ÑĨÑĥ": 1996,
      "ĠÑĤÑĳÑĤ": 1997,
      "ĠÐ±Ð°Ð»": 1998,
      "ĠÐ»ÐµÐ³": 1999,
      "ĠÐ»ÐµÐ¶": 2000,
      "ĠÐ²ÑģÐ»ÐµÐ´": 2001,
      "ĠÐ¾Ð±ÑıÐ·": 2002,
      "ĠÑĤÐ°ÐºÐ¸Ð¼": 2003,
      "Ð²ÐµÑĢÐ´": 2004,
      "ĠÐ¿Ð¾Ð»Ð¾Ð¶": 2005,
      "ĠÐ³Ð»Ð°Ð²": 2006,
      "ĠÐĳÐ¾Ð»ÑĮÑĪ": 2007,
      "ĠÑĢÑĥÐº": 2008,
      "ĠÑģÐ²Ð¾Ð¸": 2009,
      "ĠÑģÐ²Ð¾Ñĳ": 2010,
      "ĠÐ¿Ð¾Ð¼Ð¾Ñī": 2011,
      "ĠÐ³Ð¾Ð²Ð¾ÑĢÐ¸ÑĤÑĮ": 2012,
      "ĠÐ½ÐµÐ²Ð¾Ð·": 2013,
      "ĠÐľÐ°Ð»ÑĦÐ¾Ñı": 2014,
      "ĠÑģÐ´ÐµÐ»Ð°ÑĤÑĮ": 2015,
      "ĠÑģÐ»ÑĭÑĪÐ°Ð»": 2016,
      "ÑĥÐ½Ð´ÑĥÐ³": 2017,
      "Ð¥Ð¾Ð³Ð²Ð°ÑĢÑĨÐ°": 2018,
      "ĠÐµÐ´Ð¸Ð½": 2019,
      "ĠÐ»ÐµÑģÑĤÐ½Ð¸ÑĨÐµ": 2020,
      "ĠÐĶÐ¶ÐµÐ¹Ð¼Ñģ": 2021,
      "ĠÐ¿Ð¾Ð¶": 2022,
      "ĠÑģÐ¶": 2023,
      "ĠÐ½Ð¾ÑĢÐ¼": 2024,
      "ĠÐ²ÐµÑĤ": 2025,
      "ÑĩÐ°Ð»Ð¸": 2026,
      "Ð´Ð°Ð²": 2027,
      "ÐµÑĢÐ¾": 2028,
      "ĠÐ¼Ð°Ð»ÑĮÑĩÐ¸": 2029,
      "ĠÐ¼Ð°Ð´Ð°Ð¼": 2030,
      "ĠÐ±Ð»Ð¸": 2031,
      "ÑįÑĢ": 2032,
      "ĠÐ·Ð°ÑıÐ²": 2033,
      "ĠÐĶÐ¾Ð±Ð±Ð¸": 2034,
      "ĠÐĴÐ¿": 2035,
      "Ð¾ÑĩÐºÐ¸": 2036,
      "ĠÐºÐ¾ÑĢÐ¾ÑĤ": 2037,
      "ÐµÑĩÐ°ÑĤ": 2038,
      "ĠÐĹÐ½Ð°": 2039,
      "Ð»ÑĭÐ¹": 2040,
      "ÑİÑīÐ¸Ð¹": 2041,
      "ĠÐ¿Ð¾ÑĩÑĥÐ²ÑģÑĤÐ²": 2042,
      "ĠÐ½ÐµÐ¿Ð¾Ð´": 2043,
      "ĠÑģÐ»ÑĥÑĩÐ¸Ð»Ð¾ÑģÑĮ": 2044,
      "ĠÐ²ÑģÐºÑĢÐ¸": 2045,
      "ÐŁÑĢÐ¾ÑĢÐ¸ÑĨÐ°ÑĤÐµÐ»ÑĮ": 2046,
      "ĠÐºÐ¾ÑĤÐ¾ÑĢÐ¾Ð³Ð¾": 2047,
      "ĠÐ¶Ð¸Ð²Ð¾ÑĤ": 2048,
      "Ð»Ð¸Ð·ÐµÑĢÐ¸Ð½": 2049,
      "ÑĢÐµÐ½": 2050,
      "Ð»Ð°Ð·": 2051,
      "ĠÑģÑĥÐ½Ð´Ñĥ": 2052,
      "ĠÐ½ÐµÐ·": 2053,
      "ÑĢÐ¸Ð»Ð°": 2054,
      "ĠÐºÐ¾ÑĤ": 2055,
      "ĠÑĤÐµÐ»": 2056,
      "ĠÑĤÑĥÐ´Ð°": 2057,
      "ĠÐ¼ÐµÑģÑĤÐµ": 2058,
      "ĠÐ¿Ð¾ÑĤÐ¾Ð»": 2059,
      "ĠÐ¾ÑĤÑģ": 2060,
      "Ð¾Ð±Ð¾Ð´": 2061,
      "ÑģÐºÐ¸Ð¹": 2062,
      "ĠÐ²ÑĭÑĪ": 2063,
      "ĠÐ¾Ð±Ð²": 2064,
      "ĠÑģÐ¿ÑĢÐ°Ð²": 2065,
      "ÑĥÑĤÑģÑĤÐ²": 2066,
      "ĠÐ´ÑĢÑĥÐ³Ð¾Ð¹": 2067,
      "ĠÐ¿Ð°Ð»Ð¾ÑĩÐºÐ¸": 2068,
      "ÐµÑĢÑĮÑĳÐ·": 2069,
      "ĠÑĥÐ¿Ð°Ð»": 2070,
      "ĠÑĥÐ¶Ð°ÑģÐ½Ð¾": 2071,
      "ĠÐ²ÑĭÑģÐ¾Ðº": 2072,
      "Ð½Ð°ÐºÐ¾": 2073,
      "ĠÐ½Ð°Ð±Ð»Ñİ": 2074,
      "ĠÑĢÐµÐ·ÐºÐ¾": 2075,
      "ĠÐ²Ð¾Ð»Ð¾ÑģÑĭ": 2076,
      "ĠÑĢÐ¾Ð´Ð¸ÑĤ": 2077,
      "ĠÑĢÐµÐ±ÑıÑĤ": 2078,
      "ĠÐ¾ÑĤÑĩÐ°Ñı": 2079,
      "Ð½Ð°Ð¼": 2080,
      "Ð½ÐµÐ³Ð¾": 2081,
      "ĠÐ¾ÑģÑĤÐ¾": 2082,
      "Ð½Ð¾ÑģÑĤÑĮÑİ": 2083,
      "ĠÐ´ÑĢÐ¾Ð¶": 2084,
      "ĠÐ·Ð¼Ðµ": 2085,
      "ĠÐ¼Ð¾Ð¼": 2086,
      "Ð±Ðµ": 2087,
      "ÑĨÐ¾Ð²": 2088,
      "ÐµÐ½Ð¸ÑĢÐ¾Ð²": 2089,
      "ĠÐ¾Ð±Ð¾": 2090,
      "ĠÑħÐ¾Ñħ": 2091,
      "ĠÑĤÐ¾Ð½Ð¾Ð¼": 2092,
      "ĠÐĳÐ»": 2093,
      "ĠÐĽÐ¸": 2094,
      "ĠÐĲÑĢ": 2095,
      "ĠÐ½Ð°Ð´Ðµ": 2096,
      "ĠÐ³Ð¾Ð»Ð¾Ð²Ñĭ": 2097,
      "ĠÐ¼Ð¾Ð³ÑĥÑĤ": 2098,
      "ĠÐĶÐ¶Ð¾ÑĢÐ´Ð¶ÐµÐ¼": 2099,
      "ĠÑħÐ¾ÑĩÐµÑĪÑĮ": 2100,
      "ĠÐ´Ð°Ð²Ð½Ð¾": 2101,
      "ĠÐµÐ´Ð²Ð°": 2102,
      "ĠÐ¨ÐºÐ²ÐµÑĢÑĩÐ¾Ðº": 2103,
      "ĠÐ´Ð¾Ð»Ð³Ð¾": 2104,
      "ĠÐ±Ð»Ð¸Ð·Ð½Ðµ": 2105,
      "ĠÐ´ÐµÑģÑıÑĤÑĮ": 2106,
      "ĠÐ¿ÑĢÐ¸Ð´ÑĳÑĤÑģÑı": 2107,
      "ĠÑĢÐ¸": 2108,
      "Ð¾ÑĢÐ¸": 2109,
      "ĠÐ²Ð°Ð¶": 2110,
      "ĠÐ²Ð°ÑĪ": 2111,
      "ÑĩÐµÐ½ÑĮ": 2112,
      "Ð²Ð°Ð»Ð¸": 2113,
      "ĠÐ¾Ð½Ð¾": 2114,
      "Ð¾Ð²ÑĭÐ¹": 2115,
      "ĠÐ±ÑĢÐ¾Ð²": 2116,
      "ÑĢÐ¾ÑĤÐ¸Ð²": 2117,
      "Ð¾Ð½ÑĤ": 2118,
      "ĠÐ²ÑĭÐ·": 2119,
      "ĠÑģÐºÐ¾Ð»ÑĮÐºÐ¾": 2120,
      "ĠÑģÑĤÑĥÐ¿": 2121,
      "ÐµÐ·Ð°Ð¿": 2122,
      "ĠÐ¿ÐµÑĢÐµ": 2123,
      "ÐĶÑĥÐ¼": 2124,
      "Ð¡Ð¢": 2125,
      "Ð¼Ð¾ÐµÐ¼Ñĥ": 2126,
      "ĠÑĢÐµÑĪÐ¸ÑĤÐµÐ»ÑĮÐ½Ð¾": 2127,
      "ĠÐ¼Ð¸Ð½Ð¸ÑģÑĤÐµÑĢÑģÑĤÐ²Ð¾": 2128,
      "ĠÑĪÐºÐ¾Ð»Ñĭ": 2129,
      "Ð½ÐµÑģÐ»Ð°": 2130,
      "ĠÑģÐ»ÐµÐ´ÑĥÐµÑĤ": 2131,
      "ĠÐ²Ð·Ð´Ð¾Ñħ": 2132,
      "ĠÐ´Ð°Ð»ÑĮÑĪÐµ": 2133,
      "ĠÑģÐ»ÑĥÑĩÐ°Ðµ": 2134,
      "Ðĸ": 2135,
      "ĠÐ¿Ð°": 2136,
      "ÑĩÑĥ": 2137,
      "ÐºÐ°Ñı": 2138,
      "Ð²Ð°Ð»Ð°": 2139,
      "ĠÐ´Ð²Ð¸Ð¶": 2140,
      "Ð³Ð»Ñı": 2141,
      "ĠÐ¼Ð¾Ð·": 2142,
      "Ð¿Ð¿": 2143,
      "ĠÐ±Ð¾": 2144,
      "Ð±Ñĭ": 2145,
      "ÑİÐºÐ·": 2146,
      "Ð°Ð´ÑĨÐ°ÑĤÑĮ": 2147,
      "ÑĢÐ°ÑĦ": 2148,
      "Ð¸Ð½ÑĤÐµÑĢÐµÑģ": 2149,
      "ĠÑħÐ¾ÑĤÑĮ": 2150,
      "ÐºÐ¸Ñħ": 2151,
      "ĠÐľÑĥÐ½Ð´ÑĥÐ³": 2152,
      "ÐµÑĩÑĮ": 2153,
      "Ð°Ð½Ð¸Ð¹": 2154,
      "ĠÐĽÐ°Ð²": 2155,
      "Ð¾Ð²Ð¾ÑĢÐ¸ÑĤÑĮ": 2156,
      "ÑīÑĳÐ½": 2157,
      "ĠÐ²Ð¾Ð·ÑĢÐ°Ð·": 2158,
      "ĠÑģÐ²Ð¾ÐµÐ³Ð¾": 2159,
      "ĠÑģÐ¾Ð±ÑĢÐ°": 2160,
      "ĠÐ¿ÑĢÐµÐ´ÑĥÐ¿": 2161,
      "ĠÑģÐ¼Ð¾Ð³": 2162,
      "ĠÐ²Ð¿Ð¾Ð»": 2163,
      "ĠÐ¿Ð¾Ð½ÑıÑĤÑĮ": 2164,
      "ĠÐ½Ð°ÐºÐ°Ð·": 2165,
      "ĠÐ²Ð½Ð¸Ð¼Ð°Ð½Ð¸Ñı": 2166,
      "ĠÑĥÑĩÐµÐ½Ð¸": 2167,
      "ĠÐºÐ°Ð±Ð¸Ð½ÐµÑĤÐ°": 2168,
      "ĠÑĢÐ°Ð²Ð½Ð¾": 2169,
      "ĠÑıÐ²Ð½Ð¾": 2170,
      "ĠÑģÐ¾Ð·Ð½Ð°": 2171,
      "ĠÑģÑĩÐ°ÑģÑĤÐ»Ð¸Ð²": 2172,
      "ÑİÐºÐ·Ð°Ðº": 2173,
      "ÑĤÐ½Ð¾": 2174,
      "Ð½ÑĮ": 2175,
      "Ð½ÐµÐ¼": 2176,
      "ÑĭÐ¿": 2177,
      "ĠÐ¾Ð³Ð»ÑıÐ´": 2178,
      "ĠÐ´Ð°Ð»": 2179,
      "ĠÐ´ÐµÐ¿Ð°ÑĢÑĤÐ°Ð¼ÐµÐ½": 2180,
      "ĠÑĤÐ¾Ð¼Ñĥ": 2181,
      "ĠÐ¿Ð¾ÑįÑĤÐ¾Ð¼Ñĥ": 2182,
      "ĠÑĢÑİÐºÐ·Ð°Ðº": 2183,
      "ĠÐ³ÑĢÑı": 2184,
      "ĠÐ³Ð¾Ð²Ð¾ÑĢ": 2185,
      "ĠÐ³Ð¾Ð´Ð°": 2186,
      "Ð¾Ð´Ñı": 2187,
      "ÑĨÐ°Ð¼Ð¸": 2188,
      "ĠÐ¿ÑĢÐ¾Ð¸Ñģ": 2189,
      "ĠÐĴÑģÑĳ": 2190,
      "Ð¾ÑĩÐ¸Ð»": 2191,
      "ÑģÑĤÐ²Ð¾Ð¼": 2192,
      "Ð´ÐµÐ½Ð°": 2193,
      "ÐŁÐ¾": 2194,
      "ÐķÐĿ": 2195,
      "ĠÑģÐ¾Ð±Ð¸ÑĢ": 2196,
      "ĠÑģÐ²ÑıÐ·": 2197,
      "ĠÑģÐ¸Ð»ÑĮ": 2198,
      "ĠÑĤÑĢÐµÐ½Ð¸ÑĢÐ¾Ð²": 2199,
      "ĠÑĢÐ°ÑģÐ¿Ð°Ñħ": 2200,
      "ĠÐ¼Ð¸Ð½Ð¸ÑģÑĤÐµÑĢÑģÑĤÐ²Ð°": 2201,
      "ĠÐ²Ð¾Ð»ÑĪÐµÐ±Ð½ÑĥÑİ": 2202,
      "ĠÐ¿Ð¾Ð¶Ð°Ð»ÑĥÐ¹ÑģÑĤÐ°": 2203,
      "ĠÐ¿Ð¸ÑģÑĮÐ¼Ð¾": 2204,
      "ĠÑģÐ¿Ð¾ÐºÐ¾Ð¹Ð½Ð¾": 2205,
      "ĠÐ¿Ð¾ÑĩÑĥÐ²ÑģÑĤÐ²Ð¾Ð²Ð°Ð»": 2206,
      "Ð°Ð½Ð°": 2207,
      "ÑĢÑİ": 2208,
      "ĠÑģÐ½": 2209,
      "ĠÑģÐ¾Ð¼": 2210,
      "ĠÑģÑĥÐ´": 2211,
      "ĠÐ²ÑĤÐ¾ÑĢ": 2212,
      "ĠÐ¾Ñħ": 2213,
      "ĠÑĤÑĳÐ¼": 2214,
      "ĠÐ¼ÐµÑģÑı": 2215,
      "Ð½Ð°Ñĩ": 2216,
      "ĠÐ½ÐµÐ¾Ð±": 2217,
      "ĠÐ¿Ð¾ÑĢÑıÐ´": 2218,
      "Ð¾ÑĤÐ¾Ð¼": 2219,
      "ĠÐĿÐķ": 2220,
      "ĠÑħÐ¾Ð´": 2221,
      "ÑĪÐ¸Ð¼Ð¸": 2222,
      "Ð¾ÑĩÐºÐ°": 2223,
      "Â»?": 2224,
      "ĠÐ¾ÑĩÐµÑĢÐµÐ´": 2225,
      "ĠÐ·Ð½Ð°Ñĩ": 2226,
      "ÑĢÐµÐ¼ÐµÐ½Ð½Ð¾": 2227,
      "ÑĩÐ¸Ð½Ð°": 2228,
      "ĠÐ´ÑĢÑĥÐ³Ð°": 2229,
      "ÐłÐŀ": 2230,
      "ĠÐ¾Ð³Ð»Ñı": 2231,
      "ĠÑĤÐµÐ¼Ð½Ð¾": 2232,
      "ĠÐ¿Ð»ÐµÑĩÐ¾": 2233,
      "ĠÐ¿Ð¾Ð¹Ð¼": 2234,
      "ÐĹÐ½Ð°ÐµÑĪÑĮ": 2235,
      "ĠÐ¸Ð·Ð²ÐµÑģÑĤÐ½Ð¾": 2236,
      "ĠÑĥÑģÑĤÐ°Ð²Ð¸Ð»ÑģÑı": 2237,
      "ĠÐŁÐµÑĤÑĥÐ½Ð¸Ñı": 2238,
      "ÑĤÑĥÑĢ": 2239,
      "ÑıÐ»Ð¸": 2240,
      "ĠÐ¿Ð¸Ñģ": 2241,
      "ĠÐ²ÐµÐ»": 2242,
      "ĠÐ²ÐµÑģ": 2243,
      "ĠÐºÑĢÑĥÐ¶": 2244,
      "ÐµÑĢÑĳÐ´": 2245,
      "Ð»Ð¸ÑĤ": 2246,
      "ÑĳÐ³": 2247,
      "ĠÐ¿Ð¾ÑģÑĤÑĥÐ¿": 2248,
      "ĠÐ½Ð°ÑĩÐ°Ð»Ð°": 2249,
      "ĠÐ¿ÑĢÐ¸Ñĩ": 2250,
      "ĠÑģÑĤÐ°Ð»Ð¸": 2251,
      "ĠÑħÐ¾ÑĢÐ¾ÑĪ": 2252,
      "Ð¾ÑĩÐ½Ð¾": 2253,
      "ĠÑĢÐ°Ð·Ð²ÐµÑĢ": 2254,
      "ÑĥÑĩÐ°Ð»": 2255,
      "ĠÐ¢Ð°Ð¼": 2256,
      "ĠÑĢÑĥÐºÐ¾Ð¹": 2257,
      "ĠÐ¼ÑĭÑģ": 2258,
      "ĠÐ²Ð¾Ð·Ð¼Ð¾Ð¶Ð½Ð¾": 2259,
      "ĠÑģÐ²Ð¾Ð¸Ð¼": 2260,
      "ÑĥÐ¶Ð´": 2261,
      "ĠÐ¾ÐºÐ½Ð°": 2262,
      "ĠÐ¼Ð¾Ð³Ð»Ð¸": 2263,
      "ĠÐ¿Ð¾Ð¼Ð¾Ð³": 2264,
      "ĠÐ½Ð¸ÐºÐ¾Ð³Ð¾": 2265,
      "ĠÑħÐ¾ÑĤÐµÐ»Ð¾ÑģÑĮ": 2266,
      "ĠÐ²ÑģÑĤÐ°Ð»": 2267,
      "Ð²Ð°ÑĤÑĤÐ¸": 2268,
      "ĠÐºÑĢÐµÐ¿": 2269,
      "ĠÑĢÐ°Ð·Ð´Ð°Ð»ÑģÑı": 2270,
      "ĠÐºÐ¾Ð¼Ð½Ð°ÑĤÑĥ": 2271,
      "ĠÐ¾ÑĤÐºÑĢÑĭÐ»": 2272,
      "ĠÐ¿Ð»Ð¾ÑħÐ¾": 2273,
      "ĠÐ²Ð¾Ð·Ð´ÑĥÑħÐµ": 2274,
      "ĠÐ¿ÐµÑĢÐ³Ð°Ð¼ÐµÐ½ÑĤ": 2275,
      "ĠÐ½ÐµÐºÐ¾ÑĤÐ¾ÑĢÑĭ": 2276,
      "ĠÐ¿ÑĢÐ¾ÑĤÑıÐ½ÑĥÐ»": 2277,
      "ĠÐĳÐ»Ñį": 2278,
      "ÑĢÐµÐ¿": 2279,
      "ĠÐ²ÐµÐ´": 2280,
      "ĠÐ²Ð¸Ñģ": 2281,
      "ÐºÐ»": 2282,
      "ĠÐ´Ð¾Ð¿": 2283,
      "ĠÐ´Ð½Ñı": 2284,
      "ĠÐ·Ð°ÑĢ": 2285,
      "ÐµÐ½ÑĨÐµ": 2286,
      "Ð¾Ð³Ñģ": 2287,
      "Ð¾Ð´Ð°Ð²": 2288,
      "Ð¹ÑĤÐ¸": 2289,
      "Ð¾Ð½Ð¾Ð¼": 2290,
      "ĠÐ¿ÑĢÐµÐ¿": 2291,
      "ÑģÐºÑĥÑİ": 2292,
      "ĠÐ¿ÑĢÐ¾Ð½Ð·": 2293,
      "ĠÑģÑĤÐ°Ð½": 2294,
      "ĠÑģÑĤÐ°Ð½Ð¾Ð²": 2295,
      "ĠÑĤÐ°ÐºÐ¸Ðµ": 2296,
      "ĠÐºÐ¾ÑĤÐ¾ÑĢÐ¾Ðµ": 2297,
      "ĠÑĢÑĥÐºÐ°Ð¼Ð¸": 2298,
      "ÑĥÐ¶Ðµ": 2299,
      "ÑĩÐ¸Ð²Ð¾": 2300,
      "ĠÑģÐ¸Ð´ÐµÐ»": 2301,
      "ĠÐ¸ÑģÐºÐ»ÑİÑĩ": 2302,
      "Ð¾ÑĢÐ°ÑĩÐ¸": 2303,
      "ĠÐ²Ð¾ÑģÐ¿": 2304,
      "ĠÐ¾ÐºÐ°Ð·Ð°Ð»ÑģÑı": 2305,
      "ĠÐ¿Ð¾Ð²ÑĤÐ¾ÑĢÐ¸Ð»": 2306,
      "ĠÐ´Ð¾Ð±Ð°Ð²Ð¸Ð»": 2307,
      "ĠÐŁÐ°ÑĢÐ²Ð°ÑĤÑĤÐ¸": 2308,
      "ĠÑĥÐ·Ð½Ð°ÑĤÑĮ": 2309,
      "Ð¸Ð½Ð¸": 2310,
      "ÑĢÐ°Ð»Ð¸": 2311,
      "Ð½Ð°Ð»Ð¸": 2312,
      "Ð½ÐµÐ¼Ñĥ": 2313,
      "ĠÑģÐ¾Ñĩ": 2314,
      "ĠÐ²Ð¾Ð²": 2315,
      "Ð¼Ð°ÑĤ": 2316,
      "Ð½Ð¸Ñĩ": 2317,
      "Ð½Ð¸ÑĨÐ°": 2318,
      "Ð¾Ð»Ð¾Ð¶": 2319,
      "ĠÐ±ÐµÐ´": 2320,
      "Ð¾Ð³ÑĢÐ°ÑĦ": 2321,
      "ĠÐ¿Ð¾ÑĤÐµÑĢ": 2322,
      "Ð½ÑĥÐ»Ð¾": 2323,
      "Ð°Ð²ÑĪÐ¸Ð¹": 2324,
      "ĠÐµÐ»Ðµ": 2325,
      "ĠÐ¿ÑĢÐµÐ¶Ð´Ðµ": 2326,
      "ĠÑģÐºÐ¾ÑĢÐµÐµ": 2327,
      "Ð»ÑıÑĤÑĮ": 2328,
      "ĠÐĿÐµÑĤ": 2329,
      "ĠÐ¿Ð¾Ð´ÑĤ": 2330,
      "ĠÐ¿Ð¾Ð´Ð¿": 2331,
      "ĠÐļÐ¸Ð½": 2332,
      "Ð¸Ð¼ÑģÑı": 2333,
      "ÐµÐ½Ð½Ð¾Ðµ": 2334,
      "ÑĪÐµÐµ": 2335,
      "Ð¡Ð¿": 2336,
      "ĠÐ´ÑĥÐ¼Ð°Ñİ": 2337,
      "ĠÐ¿Ð¾Ð±ÐµÐ´": 2338,
      "ĠÐ¿ÑĢÐ¾Ð¸Ð·Ð½ÐµÑģÐ»Ð°": 2339,
      "Ð¥Ð¾Ð³Ð²Ð°ÑĢÑĨ": 2340,
      "ĠÐ´ÐµÐ¹ÑģÑĤÐ²Ð¸ÑĤÐµÐ»ÑĮÐ½Ð¾": 2341,
      "ĠÐ¶Ð¸Ð·Ð½Ð¸": 2342,
      "ĠÐ²ÐµÑīÐ¸": 2343,
      "ĠÐ´Ð¾Ð²Ð¾Ð»ÑĮÐ½Ð¾": 2344,
      "ĠÐ¾Ð±ÐµÑĢÐ½ÑĥÐ»ÑģÑı": 2345,
      "ĠÐ¿ÑĢÐµÐºÑĢÐ°ÑģÐ½Ð¾": 2346,
      "ĠÐ³Ð¾ÑģÑĤÐ¸Ð½Ð¾Ð¹": 2347,
      "ĠÐ³ÑĢÑıÐ·": 2348,
      "Ġ\"": 2349,
      "Ð¸Ð²Ð°Ñı": 2350,
      "Ð»ÐµÐ¼": 2351,
      "Ð½ÐµÐ·Ð°Ð¿": 2352,
      "ĠÑģÑįÑĢ": 2353,
      "ĠÑģÐµÑĢÑĮÑĳÐ·": 2354,
      "ĠÐºÐ°Ð¼ÐµÐ½": 2355,
      "ĠÐºÑĢÐ¾Ð¼Ðµ": 2356,
      "Ð½Ð¸ÑĨÑĭ": 2357,
      "Ð¾Ð»Ð¾Ñģ": 2358,
      "ĠÐ´ÐµÑĤ": 2359,
      "ĠÐĵÐ»Ð°Ð²": 2360,
      "ĠÐ±ÐµÐ³": 2361,
      "ÐµÐ»ÑģÑı": 2362,
      "Ð·Ñĭ": 2363,
      "Ð½Ð°ÑĩÐµ": 2364,
      "ĠÐ½Ð°Ñħ": 2365,
      "Ð°Ð²ÑĪÐ¸ÑģÑĮ": 2366,
      "Ð¾Ð±ÑĢÐ°Ð·": 2367,
      "ĠÑįÑĤÑĥ": 2368,
      "ĠÐĶÐ¾Ð»": 2369,
      "ĠÐ¿Ð¾Ð´Ñģ": 2370,
      "ĠÐļÐ¾ÑĢ": 2371,
      "ÑĢÑĭÐ³": 2372,
      "ĠÑģÐ»Ð°Ð±": 2373,
      "Ð½ÑıÑĤÑĮ": 2374,
      "ĠÐ²Ð·Ð³Ð»Ñı": 2375,
      "ĠÐ¤Ð¸Ð³": 2376,
      "ÑħÐ¾Ð´Ð¸ÑĤ": 2377,
      "ÑıÑĤÑĮÑģÑı": 2378,
      "ĠÑįÑĤÐ°Ð¶": 2379,
      "ĠÐ¿ÑĢÐ¾Ð´Ð¾Ð»Ð¶Ð°Ð»": 2380,
      "ĠÑĩÐµÐ»Ð¾Ð²ÐµÐºÐ°": 2381,
      "Ð½Ð°ÐºÐ¾Ð¼": 2382,
      "ĠÑĢÐ°Ð±Ð¾ÑĤÑĥ": 2383,
      "ĠÐ»ÑİÐ´ÐµÐ¹": 2384,
      "ĠÐĴÐ¿ÑĢÐ¾ÑĩÐµÐ¼": 2385,
      "Ð¤": 2386,
      "ÑĥÐµÑĤ": 2387,
      "ĠÐ¿ÐµÑĩ": 2388,
      "Ð²Ð¾ÑĢ": 2389,
      "ĠÐºÐ°Ð¿": 2390,
      "ĠÑĤÐ°ÑĢ": 2391,
      "ĠÐĵÑĢÑĥ": 2392,
      "Ð³Ñĥ": 2393,
      "Ð¸Ð»ÑĮ": 2394,
      "Ð·Ð³": 2395,
      "ĠÐ½ÐµÐ¾Ð¶Ð¸Ð´Ð°": 2396,
      "ĠÐ·Ð°ÑģÑĤ": 2397,
      "ĠÑĪÐ»Ñı": 2398,
      "ĠÑģÑĤÐ¾Ð»ÑĮÐºÐ¾": 2399,
      "Ð¸Ð²Ð°Ð»": 2400,
      "ĠÐ²Ð·ÑıÐ»": 2401,
      "ĠÐ²Ð¸Ð´Ð¸Ð¼Ð¾": 2402,
      "ÐĴÐĲ": 2403,
      "ĠÐ¾Ð´Ð½Ð¾Ð¹": 2404,
      "ÐķÑģÐ»Ð¸": 2405,
      "ĠÑģÐ°Ð¼Ð¾Ð¼": 2406,
      "ĠÐ¿ÑĢÐµÐ´Ð¿": 2407,
      "ÑĨÐ¸Ñı": 2408,
      "Ð¸ÑĢÐµÐ½ÑĨÐµ": 2409,
      "ĠÐ¤ÑĢÐµÐ´Ð°": 2410,
      "ĠÐ´Ð¾Ð¼Ð°ÑĪ": 2411,
      "ĠÑĨÐ²ÐµÑĤ": 2412,
      "ĠÐ²Ð¿ÐµÑĢÑĳÐ´": 2413,
      "ĠÐ½ÐµÐ´Ð¾Ð²Ð¾Ð»ÑĮ": 2414,
      "Ð°ÑİÑīÐµ": 2415,
      "ĠÑĢÐ°Ð·Ð³Ð¾Ð²Ð¾ÑĢ": 2416,
      "ĠÑĪÐºÐ¾Ð»Ðµ": 2417,
      "ĠÑĥÑģÐ»ÑĭÑĪÐ°Ð»": 2418,
      "ĠÐ¼ÐµÑģÑĤÐ°": 2419,
      "ĠÐ³Ð¸Ð³Ð°Ð½ÑĤ": 2420,
      "ĠÐĵÑĥÑĢÐ¿": 2421,
      "ĠÐ²ÑĭÐºÑĢÐ¸": 2422,
      "ĠÑģÐµÐºÑĥÐ½Ð´": 2423,
      "ĠÐļÐ¸Ð½ÑģÐ»Ð¸": 2424,
      "Ġ...": 2425,
      "ĠÑģÐµÐ»": 2426,
      "ĠÐ½Ð°Ð³": 2427,
      "ĠÐ²ÐµÑģÑĤ": 2428,
      "Ð¼Ð°Ð½": 2429,
      "Ð½Ð¸Ð»Ð°": 2430,
      "ĠÐ¼ÑĥÐ¶": 2431,
      "ĠÑĥÐ¼Ðµ": 2432,
      "Ð¾ÑĢÐ°Ð»": 2433,
      "ÐµÐ²Ð¸Ð´": 2434,
      "ĠÐ²ÑģÑİ": 2435,
      "ĠÐ¾Ð±Ñģ": 2436,
      "ĠÐ¡Ðº": 2437,
      "ĠÐ¿ÑĢÐ¸Ðº": 2438,
      "ĠÐĴÐ¸Ð´": 2439,
      "ĠÐºÐ°ÐºÐ¸Ðµ": 2440,
      "Ð²Ð¾ÑģÑĤ": 2441,
      "ĠÐľÐ½Ðµ": 2442,
      "ÐºÐ°ÑĦ": 2443,
      "ĠÑģÑĤÐ¾Ð»Ð¸": 2444,
      "ĠÐºÐ¾ÑĤÐ¾ÑĢÑĥÑİ": 2445,
      "ĠÐ²Ð¸Ð´Ð½Ð¾": 2446,
      "ĠÐ²Ð¸Ð´ÐµÑĤÑĮ": 2447,
      "ĠÑĢÑĥÐºÐµ": 2448,
      "ĠÐ³Ð¾Ð»Ð¾Ð²Ð°": 2449,
      "ĠÑģÐ²Ð¾Ð¹": 2450,
      "ĠÑĩÑĥÐ²": 2451,
      "ĠÑĥÐ´Ð°Ð»Ð¾ÑģÑĮ": 2452,
      "ĠÑģÑĤÐ¾ÑıÐ»Ð°": 2453,
      "ĠÑģÑĤÐ°ÑĢÐ¾ÑģÑĤ": 2454,
      "ĠÐ¼Ð¸ÑģÑĤÐµÑĢÐ°": 2455,
      "Ð¸Ð±Ñİ": 2456,
      "ĠÐ³ÑĢÑĥÐ´Ð¸": 2457,
      "Ð½Ð°Ð´ÑĨÐ°ÑĤÑĮ": 2458,
      "ĠÐºÐ¾Ð»Ð´ÑĥÐ½": 2459,
      "ĠÑģÑĤÑĢÐ°ÑĪÐ½Ð¾": 2460,
      "ĠÑĥÑħÐ¼Ñĭ": 2461,
      "ĠÐ¿Ð¾Ð´ÑĥÐ¼Ð°Ð»": 2462,
      "ĠÐ¿Ð¾ÑģÐ¼Ð¾ÑĤÑĢÐµÐ»Ð°": 2463,
      "ĠÐŀÑĢÐ´ÐµÐ½Ð°": 2464,
      "ĠÑıÑģÐ½Ð¾": 2465,
      "ĠÐ¸Ð´ÑĤÐ¸": 2466,
      "ĠÑĤÑĳÑĤÑı": 2467,
      "ĠÐ±ÑĢÐ¾Ð²Ð¸": 2468,
      "ĠÐľÑĥÐ½Ð´ÑĥÐ³Ð½ÑĥÑģ": 2469,
      "!Â»": 2470,
      "Ð»Ð°Ð³": 2471,
      "Ð²Ð°Ð»Ð°ÑģÑĮ": 2472,
      "ĠÐºÑĢÑĥ": 2473,
      "Ð¾Ð²Ð¾Ð¹": 2474,
      "Ð¾Ð»ÐµÑĤ": 2475,
      "ĠÐ´Ð¾Ð²": 2476,
      "ĠÐ¼ÐµÑĪ": 2477,
      "Ð±Ñĥ": 2478,
      "ĠÑĥÐº": 2479,
      "Ð·Ðº": 2480,
      "Ð°Ð·Ð´Ð¾": 2481,
      "ÐµÐ½Ñĭ": 2482,
      "ÐµÐ½Ð½ÑĭÐµ": 2483,
      "ĠÐ¿Ð¾ÑģÑĤÐ°Ð²": 2484,
      "ĠÐĶÐ¸Ð½": 2485,
      "ĠÐ¿Ð¾Ð´Ð¾Ð·": 2486,
      "ĠÑģÐ¿ÑĥÑģÑĤ": 2487,
      "ĠÐľÐ¸ÑģÑģÐ¸Ñģ": 2488,
      "ĠÐ¿ÐµÑĢÐ¾": 2489,
      "ÑĥÐ¶ÐµÐ»Ð¸": 2490,
      "ÑĭÐ²Ð°Ð»Ð°": 2491,
      "ÑĭÐ²Ð°Ð»Ð¸": 2492,
      "ĠÐ·Ð°Ð¼ÐµÑĩ": 2493,
      "ÐłÐĺ": 2494,
      "ĠÐ´ÑĥÐ¼Ð°ÑĤÑĮ": 2495,
      "ĠÐ¿Ð¾Ð²ÐµÑĢÑħ": 2496,
      "ĠÑģÐ»ÑĭÑĪÐ½Ð¾": 2497,
      "ĠÐ±Ð»Ð¾Ðº": 2498,
      "ĠÐ¾Ð±ÑīÐµÐ¼": 2499,
      "ÐĹÐ½Ð°ÐµÑĤÐµ": 2500,
      "ĠÐ±Ð¾Ð»ÑĮÑĪÐ¾Ð¹": 2501,
      "Ð»ÑĥÑĪÐ¸": 2502,
      "ĠÐ¸ÑģÐ¿ÑĥÐ³Ð°Ð½Ð½Ð¾": 2503,
      "ĠÐ·Ð°ÐºÑĢÐ¸ÑĩÐ°Ð»": 2504,
      "ĠÐ¶ÐµÐ½Ñī": 2505,
      "ĠÑĤÐ°Ð¹Ð½": 2506,
      "ĠÑģÑĤÑĢÐµÐ¼Ð¸ÑĤÐµÐ»ÑĮÐ½Ð¾": 2507,
      "ĠÐ²ÐµÑģÑĤÐ¸Ð±Ñİ": 2508,
      "Ð¾ÑģÐº": 2509,
      "Ð°Ð½Ð¾": 2510,
      "Ð½ÐµÑĤ": 2511,
      "ĠÑģÐ¾Ð¿": 2512,
      "ĠÐ½ÐµÐ³": 2513,
      "Ð´Ð½Ð¾": 2514,
      "ÐµÑĢÐº": 2515,
      "ĠÐ´Ð¾Ð¶Ð´": 2516,
      "ĠÑĤÐµÑģÑĤ": 2517,
      "ĠÐ¼ÐµÑĩ": 2518,
      "ĠÐ¼ÐµÐ½ÑĮ": 2519,
      "Ð¿ÑĢÐµÐ¶": 2520,
      "Ð±Ñģ": 2521,
      "ĠÐ½ÐµÐ½Ð°Ð²": 2522,
      "ÐµÐ½Ð½ÑĭÐ¼": 2523,
      "Ð°Ð¼ÐµÐ½Ð°": 2524,
      "ĠÑįÑĤÐ°": 2525,
      "ÐµÐ³Ñĩ": 2526,
      "ĠÐ²ÑĭÑĪÐ»Ð¸": 2527,
      "ĠÐ¡ÐµÐ´": 2528,
      "ĠÐ°Ðº": 2529,
      "ĠÐ¿ÐµÑĢÐµÐ¿": 2530,
      "ĠÑĪÑĳÐ¿": 2531,
      "ĠÐºÐ¾Ðµ": 2532,
      "ĠÐºÐ¾ÑĪ": 2533,
      "ĠÐ¿Ð¾ÑģÑĤÐ¾Ñı": 2534,
      "ÐŁÐ»Ð°Ð½": 2535,
      "ĠÐ¤Ð¸ÑĢÐµÐ½ÑĨÐµ": 2536,
      "ÑĥÑĢÑģ": 2537,
      "ĠÐ¾Ð¿ÑĥÑģÑĤ": 2538,
      "ÐĵÑĢÐ¸ÑĦÑĦÐ¸Ð½Ð´Ð¾ÑĢ": 2539,
      "ĠÐºÑĢÐ°Ð¹": 2540,
      "ĠÐ½Ð¾Ð³Ð°Ð¼Ð¸": 2541,
      "Ð´Ð¸ÑĤÐ¾": 2542,
      "ĠÐ¸Ð½ÑģÐ¿ÐµÐº": 2543,
      "ĠÑģÐµÑĢÐ´Ð¸ÑĤÐ¾": 2544,
      "ĠÐ¿ÑĢÐ¾Ð²ÐµÑĢ": 2545,
      "ÐµÑģÑĤÐ²ÐµÐ½Ð½Ð¾": 2546,
      "ĠÑĢÐµÑĪÐ¸Ð»": 2547,
      "ĠÐ¿ÐµÑĢÐ²ÑĭÐ¹": 2548,
      "ĠÐ¼Ð½Ð¾Ð³": 2549,
      "ĠÐ²ÐµÑģÑĮÐ¼Ð°": 2550,
      "ĠÑĤÐ¾ÑĢÐ¾Ð¿": 2551,
      "ĠÐ½ÐµÐ¿Ð¾Ð´Ð²Ð¸Ð¶": 2552,
      "ĠÐ¤Ð¸Ð³Ð³": 2553,
      "ĠÐĵÑĢÑĥÐ±Ð»ÑĮ": 2554,
      "Ð¿ÑĢÐµÐ¶Ð½ÐµÐ¼Ñĥ": 2555,
      "ÐŁÐ»Ð°Ð½Ðº": 2556,
      "ÐµÐ½Ð¾": 2557,
      "ÑıÐ½": 2558,
      "ĠÐ²ÑĤÐ¾": 2559,
      "ĠÐ¾Ñī": 2560,
      "ĠÐ¸Ð´Ð¸": 2561,
      "ÑģÑĤÑĢÐ°": 2562,
      "ĠÑĤÐ¸": 2563,
      "ĠÐ¼Ð¾ÑĢ": 2564,
      "ĠÐ±Ð»ÐµÐ´": 2565,
      "ĠÐ±Ð°ÑĪ": 2566,
      "ÐµÐ½Ð½ÑĭÑħ": 2567,
      "ĠÐ¿Ð¾Ð½Ð°Ð´": 2568,
      "Ð¾ÑĢÐ¾Ð¼": 2569,
      "Ð¾Ð¹ÑĤÐ¸": 2570,
      "ĠÐ¿ÑĢÐ¾ÑĨ": 2571,
      "ĠÐ¿ÑĢÐ¾ÑĪÑĳÐ»": 2572,
      "Ð¸Ð½Ñı": 2573,
      "ÑĤÐ¸ÑĤÑĮ": 2574,
      "ĠÑģÑĤÐ°ÑĤÑĮ": 2575,
      "ĠÑħÐ¾ÑĢÐ¾": 2576,
      "ĠÑħÐ»Ð¾Ð¿": 2577,
      "Ð¾Ð·Ñı": 2578,
      "ĠÐ¶Ð°Ð»": 2579,
      "ĠÐ¸Ð·ÑĥÑĩ": 2580,
      "ĠÑĤÐ¾Ð½": 2581,
      "Ð°Ð½Ð´": 2582,
      "ĠÑĪÐµÑģÑĤ": 2583,
      "ĠÑĪÐºÐ°ÑĦ": 2584,
      "ÐĿÐ¸ÑĩÐµÐ³Ð¾": 2585,
      "ĠÑģÑĤÐ¾Ð¸ÑĤ": 2586,
      "ÐŀÐĽ": 2587,
      "ĠÐ§ÑĳÑĢ": 2588,
      "ĠÐ¾Ð´Ð½Ð¾Ð³Ð¾": 2589,
      "Ð½Ð¾Ð²ÑĮ": 2590,
      "ĠÑĦÑĥÑĤ": 2591,
      "ÐłÐ°Ð·": 2592,
      "ĠÐ´Ð²Ðµ": 2593,
      "ĠÐ³Ð¾ÑĢÐ°Ð·Ð´Ð¾": 2594,
      "ĠÑĢÐ°ÑģÑĤ": 2595,
      "ĠÐºÐ°Ð±Ð¸Ð½ÐµÑĤÐµ": 2596,
      "ĠÑģÐ¼Ð¾ÑĤÑĢÐµÐ»Ð¸": 2597,
      "ĠÑĩÑĥÐ²ÑģÑĤÐ²Ð¾Ð²Ð°Ð»": 2598,
      "ĠÐ¿ÑĭÑĤÐ°Ð»ÑģÑı": 2599,
      "ĠÐ²ÐµÑĩÐµÑĢÐ¾Ð¼": 2600,
      "ĠÑĤÐ²ÑĳÑĢ": 2601,
      "ĠÑģÑĥÑīÐµÑģÑĤÐ²": 2602,
      "ĠÑģÑħÐ²Ð°ÑĤÐ¸Ð»": 2603,
      "ĠÑĪÐ¸ÑĢÐ¾ÐºÐ¾": 2604,
      "ĠÐ¾Ð±Ð»ÐµÐ³Ñĩ": 2605,
      "ĠÐ²Ð¿Ð¾Ð»Ð½Ðµ": 2606,
      "Ð½ÐµÐ·Ð°Ð¿Ð½Ð¾": 2607,
      "ÑĤÑĢ": 2608,
      "ÑĢÐ½Ð¸": 2609,
      "ĠÑģÑĩÐ°": 2610,
      "ĠÑģÐ»Ð¸Ð·ÐµÑĢÐ¸Ð½": 2611,
      "ĠÐ²Ð°Ð¼Ð¸": 2612,
      "ĠÐ²Ð½Ð¾Ð²ÑĮ": 2613,
      "ÑĤÐ¾ÑĢÐ°": 2614,
      "ĠÐ¸Ð½Ð°ÑĩÐµ": 2615,
      "ĠÐºÐ¸": 2616,
      "Ð½Ð¸ÑĤÐµ": 2617,
      "Ð¾Ð²Ð°Ð»Ð¾": 2618,
      "Ð¾Ð»Ð»Ð¸": 2619,
      "ĠÐ´ÑĢÑĥÐ¶": 2620,
      "Ð»Ð¸ÑĩÐ½Ð¾": 2621,
      "ĠÐĵÐ¾Ð»": 2622,
      "ÐµÐ»Ñİ": 2623,
      "ÑİÑĩ": 2624,
      "ĠÑĢÐµÐ´": 2625,
      "ĠÐ³ÑĢÐ¾Ð·": 2626,
      "ĠÐ¾ÑĤÐºÑĥÐ´Ð°": 2627,
      "Ð¾Ð±ÑĢ": 2628,
      "Ð¸ÑĤÐ°": 2629,
      "ĠÐ¿ÑĢÐ¾ÑģÑĤ": 2630,
      "ÑĦÐ¾ÑĢ": 2631,
      "ÑĤÐ¸Ñħ": 2632,
      "ĠÑģÑĤÐ°Ð»Ð°": 2633,
      "ÐºÐ¾Ðµ": 2634,
      "ĠÐľÐ¾Ð¶ÐµÑĤ": 2635,
      "Ð°Ð¶Ð¸": 2636,
      "ÑĥÑģÐ°": 2637,
      "ÑİÑīÐ¸Ñħ": 2638,
      "ÑĢÐ°Ð²Ð´Ð°": 2639,
      "ĠÐ·Ð½Ð°ÐµÑĤÐµ": 2640,
      "ĠÑĢÑĥÐºÐ°Ñħ": 2641,
      "ĠÐ¾Ð´Ð½Ð¾": 2642,
      "ĠÐ³Ð¾Ð»Ð¾ÑģÐµ": 2643,
      "ÐľÐ½Ðµ": 2644,
      "ĠÐ¿ÑĢÐµÐ´Ð»Ð¾Ð¶": 2645,
      "ĠÐ´ÑĢÑĥÐ³Ð¸Ðµ": 2646,
      "ÐĵÐŀ": 2647,
      "ĠÑĤÑĢÐµÐ²": 2648,
      "ĠÐ·Ð°Ð±Ñĭ": 2649,
      "ĠÐ½ÐµÐ²ÐµÑĢÐ¾": 2650,
      "ĠÑģÐµÑĢÐ´ÑĨÐµ": 2651,
      "ĠÐ±Ð¾Ð»Ð¸": 2652,
      "ĠÐ½Ð°Ð²ÐµÑĢÐ½Ð¾": 2653,
      "ÑĭÐ²Ð°ÐµÑĤ": 2654,
      "ĠÐ¿Ð°ÑĢÑĥ": 2655,
      "ĠÐ²Ð¾Ð»ÑĪÐµÐ±Ð½Ð¾Ð¹": 2656,
      "ĠÐºÑĢÐ¾Ð²Ð°ÑĤÐ¸": 2657,
      "ĠÐ¿Ð»Ð¾Ñī": 2658,
      "ĠÐ³Ð»ÑĥÐ±Ð¾Ðº": 2659,
      "ĠÐ²ÑģÐ¿Ð¾Ð¼Ð½Ð¸Ð»": 2660,
      "ĠÐ½ÐµÐºÐ¾ÑĤÐ¾ÑĢÐ¾Ðµ": 2661,
      "ÑĢÐ°Ð±Ð±Ðµ": 2662,
      "ĠÑĢÐµÑĪÐ¸": 2663,
      "ĠÐ´Ð¾Ð³Ð°Ð´": 2664,
      "ĠÐĵÐ»Ð°Ð²Ð°": 2665,
      "ĠÐ¿Ð¾Ð½Ð°Ð´Ð¾Ð±": 2666,
      "Ġ1": 2667,
      "ÑģÐ¾Ð½": 2668,
      "Ð»Ð°Ðº": 2669,
      "ĠÑģÐ±": 2670,
      "ĠÐ½Ð¾Ð²Ð¾": 2671,
      "ĠÐ²Ð°": 2672,
      "ÑĩÐ¸Ð²": 2673,
      "ÐºÐ¾Ð³Ð¾": 2674,
      "ĠÐ¾ÑĢ": 2675,
      "ĠÐ¾ÑĪÐ¸Ð±": 2676,
      "ĠÐ¸ÑģÑĤ": 2677,
      "ĠÐºÐ»": 2678,
      "ĠÐºÐ¾Ð»ÑĮ": 2679,
      "ĠÐ´Ð¾Ð½": 2680,
      "ĠÐ·Ð»Ð¾": 2681,
      "ĠÐĵÐ¾Ð¹": 2682,
      "ĠÐ¿Ð¾Ð½": 2683,
      "ĠÐ¿Ð¾ÑĤÑı": 2684,
      "ĠÐ³Ð¾Ð´Ñĥ": 2685,
      "ĠÐ»ÐµÐ¶Ð°Ð»": 2686,
      "ĠÐ·Ð°ÑĩÐµÐ¼": 2687,
      "ÑĢÐ°ÑĪÐ¸": 2688,
      "ÑĥÐ¼ÐµÐ½": 2689,
      "ĠÐ¿ÐµÑĢÐµÐ³": 2690,
      "ÐĿÐĲ": 2691,
      "ÐŁÑĢÐ¸": 2692,
      "ĠÐĳÐ¾": 2693,
      "ÑĢÐ¾Ð²Ð°ÑĤÑĮ": 2694,
      "ĠÐĶÑĥÐ¼Ð±Ð»ÑĮÐ´Ð¾ÑĢÑĥ": 2695,
      "ĠÑģÐ°Ð¼ÑĭÐ¹": 2696,
      "ĠÐ¾ÐºÐ½Ð¾": 2697,
      "ĠÐ·Ð°Ð¼Ð¾Ð»": 2698,
      "ÑĨÐ¸Ð¾Ð½": 2699,
      "ĠÐ¾ÑģÑĤÐ°Ð»Ð¾ÑģÑĮ": 2700,
      "ĠÐ¼Ð¾Ð¶ÐµÑĪÑĮ": 2701,
      "ĠÐ´Ð²Ð°Ð´ÑĨÐ°ÑĤÑĮ": 2702,
      "ĠÐ·Ð°Ð´ÑĥÐ¼": 2703,
      "ĠÑĥÑģÐ¸Ð»Ð¸": 2704,
      "ĠÐ¼Ð¸Ð½Ð¸ÑģÑĤÐµÑĢÑģÑĤÐ²Ðµ": 2705,
      "ÐĹÐ½Ð°ÑĩÐ¸ÑĤ": 2706,
      "ĠÐ½Ð°ÑģÑĤÐ¾ÑıÑī": 2707,
      "ĠÐ½Ð°Ð¹ÑĤÐ¸": 2708,
      "ĠÐ¼Ð³Ð½Ð¾Ð²ÐµÐ½Ð¸Ðµ": 2709,
      "ĠÐ¿ÑĢÐ¾ÑĢÐ¾ÑĩÐµÑģÑĤÐ²Ð¾": 2710,
      "ĠÐ¿Ð¾Ð´ÑĤÐ²ÐµÑĢÐ´": 2711,
      "ĠÐ½ÐµÐ¾Ð¶Ð¸Ð´Ð°Ð½Ð½Ð¾": 2712,
      "Ð·ÐºÐ°Ð±": 2713,
      "ĠÐ¡ÐµÐ´ÑĢÐ¸": 2714,
      "Ð¸ÑĩÐµÑģÐº": 2715,
      "ÑĢÐµÐº": 2716,
      "ÑĢÑıÑĤ": 2717,
      "Ð»Ð¾Ð½": 2718,
      "Ð½Ð¾Ð¿": 2719,
      "ÑıÑħ": 2720,
      "ĠÐ½Ð°Ð»": 2721,
      "ĠÐ²ÐµÐ»Ð¸": 2722,
      "Ð´ÑĳÐ¼": 2723,
      "ÑĢÐ¸Ð»ÑģÑı": 2724,
      "ĠÐºÐ°Ð¼Ð¸": 2725,
      "ÑħÐ¾Ð¼": 2726,
      "Ð¾Ð²Ð°Ð»Ð°": 2727,
      "Ð¾Ð²Ð°Ð»Ð¸": 2728,
      "Ð¾Ð»ÑİÑĤ": 2729,
      "ĠÐ·ÐµÐ»Ñĳ": 2730,
      "Ð¿Ñĭ": 2731,
      "ĠÐ±ÑĥÑĢ": 2732,
      "ÑĢÐ¾ÑĪ": 2733,
      "Ð°ÐºÑĤÐ¸": 2734,
      "ÐµÐ½ÐµÐµ": 2735,
      "ĠÐ³Ð¾Ð±": 2736,
      "Ð¾Ð´Ð°ÑĢ": 2737,
      "Ð°Ð²Ð°Ñı": 2738,
      "Ð¾ÐºÐ¾Ð»": 2739,
      "ĠÐĶÑĥÑĢÑģ": 2740,
      "ĠÐ²ÑĭÐ³Ð»ÑıÐ´": 2741,
      "Ð¾Ð»ÑĮÐºÑĥ": 2742,
      "ĠÑģÑĤÑĥ": 2743,
      "ĠÐļÑĢÐ°Ð±Ð±Ðµ": 2744,
      "ĠÑĢÐ°Ð·ÑĢ": 2745,
      "ĠÐľÐ°ÑĢÐ¸": 2746,
      "ĠÑĪÐµÐ¿": 2747,
      "ĠÐ¢Ð¾": 2748,
      "ĠÐĹÐ°Ðº": 2749,
      "ÐŁÐ¾ÑĤ": 2750,
      "Ð¢Ðķ": 2751,
      "ĠÐ²Ð¾ÑĪÐ»Ð¸": 2752,
      "ĠÐĲÐ·ÐºÐ°Ð±": 2753,
      "ÑĢÐµÐ´ÐµÐ»": 2754,
      "ĠÐ±ÑĥÐ´ÐµÐ¼": 2755,
      "ĠÐ½Ð°Ð¿ÑĢÑı": 2756,
      "ĠÑģÐ°Ð¼Ð°": 2757,
      "ĠÐºÐ¾ÑĤÐ¾ÑĢÑĭÐ¼": 2758,
      "ĠÑģÐ¾Ð±Ð¸ÑĢÐ°": 2759,
      "ÑĳÐ½Ð½ÑĭÐ¹": 2760,
      "ĠÐķÑĳ": 2761,
      "ĠÑģÐ¼ÑĭÑģ": 2762,
      "ĠÐ·Ð°Ð²Ð¾Ð¿": 2763,
      "ÑĭÐ²Ð°ÑİÑĤ": 2764,
      "ĠÑģÑĤÐµÐ½Ñĭ": 2765,
      "ĠÐºÐ¾ÑĢÐ¸Ð´Ð¾ÑĢÑĥ": 2766,
      "ĠÑĢÐµÐ±ÑıÑĤÐ°": 2767,
      "ĠÐ³Ð°Ð·ÐµÑĤÑĥ": 2768,
      "ĠÐ¾Ð±ÑĬÑıÐ²Ð¸Ð»": 2769,
      "ĠÐ¾Ð±ÑĢÐ°ÑĤÐ½Ð¾": 2770,
      "ĠÑĩÐµÑĤÑĭÑĢÐµ": 2771,
      "ĠÐµÐ´Ð¸Ð½ÑģÑĤÐ²ÐµÐ½": 2772,
      "ĠÐ¼Ð¾Ð¼ÐµÐ½ÑĤ": 2773,
      "ĠÐ¿ÑĢÐµÐ¿Ð¾Ð´Ð°Ð²": 2774,
      "Ġ**": 2775,
      "Ð½ÐµÐ»Ð¸": 2776,
      "ĠÐ½ÐµÑĢÐ²": 2777,
      "ÐºÐ°Ð¼": 2778,
      "ÑĢÐ¸ÑģÑĤ": 2779,
      "ÑħÐ²Ð°": 2780,
      "Ð°ÑĢÐ¾Ð²": 2781,
      "ĠÐ¼ÐµÐ½ÐµÐµ": 2782,
      "ĠÑĩÐ»ÐµÐ½": 2783,
      "ÑĳÐ¶": 2784,
      "Ð½Ð°ÑĩÐ°Ð»Ð°": 2785,
      "ĠÐ¿Ð¾Ð¸Ð½ÑĤÐµÑĢÐµÑģ": 2786,
      "Ð´Ð°Ñı": 2787,
      "ĠÑħÑĥÐ¶Ðµ": 2788,
      "ĠÑĤÐ°ÐºÐ¾Ð³Ð¾": 2789,
      "Ð²ÐµÑĢÑĮ": 2790,
      "ĠÑģÑĤÐ¾Ð»ÑĮ": 2791,
      "ÑĥÑģÑĤÐ¾": 2792,
      "ĠÐ¢ÐµÐ¿ÐµÑĢÑĮ": 2793,
      "ÐµÐ¶Ð´": 2794,
      "ĠÐ¿Ð¾Ð»Ð¾Ð²": 2795,
      "Â»...": 2796,
      "Ð´Ð¾ÑĢÐ¾Ð²": 2797,
      "Ð´ÑĥÑĤ": 2798,
      "ĠÐºÐ¾ÑĤÐ¾ÑĢÐ¾Ð¼": 2799,
      "ÑĨÐ¸Ð¿": 2800,
      "ÐłÐĲ": 2801,
      "ĠÐŃÑĢÐ½Ð¸": 2802,
      "ĠÐķÐ¼Ñĥ": 2803,
      "ĠÑħÐ¾ÑĤÐµÐ»Ð°": 2804,
      "ĠÐ»Ð¸ÑĨÑĥ": 2805,
      "ĠÐ´Ð²ÐµÑĢÑĮÑİ": 2806,
      "ĠÑģÐ»ÑĥÑĩÐ°Ð¹Ð½Ð¾": 2807,
      "ĠÐ¿Ð¾Ð·Ð²Ð¾Ð»": 2808,
      "ĠÐŁÑĢÐ¾Ð½Ñĭ": 2809,
      "ĠÐ¿ÑĢÐ¾Ð´Ð¾Ð»Ð¶Ð¸Ð»": 2810,
      "ĠÐ¼Ð¾Ð»ÑĩÐ°": 2811,
      "ĠÐ»ÑİÐ±Ð¾Ð¿ÑĭÑĤ": 2812,
      "ĠÑĥÐ³Ð¾Ð»": 2813,
      "ĠÐ¿Ð¾ÑģÐ»ÐµÐ´Ð½Ð¸Ð¹": 2814,
      "ĠÐ¿Ð»ÐµÑĩÐ°Ð¼Ð¸": 2815,
      "ĠÐ¿Ð¾ÑıÐ²Ð»Ñı": 2816,
      "ĠÑģÑĩÐ¸ÑĤÐ°ÐµÑĤ": 2817,
      "ĠÑģÐ¼Ð¾ÑĤÑĢÐµÐ»Ð°": 2818,
      "ĠÑįÐºÐ·Ð°Ð¼ÐµÐ½Ð°": 2819,
      "ĠÐ·Ð°ÑħÐ»Ð¾Ð¿": 2820,
      "ĠÑģÐ¾Ð¾Ð±ÑīÐ¸Ð»": 2821,
      "ĠÑĥÑĩÐ¸ÑĤÐµÐ»ÑĮ": 2822,
      "ĠÐ¾Ð±ÑĭÑĩ": 2823,
      "ĠÑģÐµÐ¼ÑĮ": 2824,
      "ĠÐ¼ÑĢÐ°ÑĩÐ½Ð¾": 2825,
      "ĠÑĢÐ°Ð´Ð¾ÑģÑĤÐ½Ð¾": 2826,
      "ĠÐ²ÑĭÑĪÐµÐ»": 2827,
      "ĠÐ½ÐµÐ¾Ð±ÑħÐ¾Ð´": 2828,
      "ĠÐºÑĢÐµÐ¿ÐºÐ¾": 2829,
      "ÐµÐ²Ð¸Ð´Ð½Ð¾": 2830,
      "ĠÐ¼ÐµÐ½ÑĮÑĪÐµ": 2831,
      "Ð±ÑģÐ¾Ð»ÑİÑĤ": 2832,
      "ĠÐľÐ°ÑĢÐ¸ÑįÑĤ": 2833,
      "Ġ***": 2834,
      "Ð¸Ñĩ": 2835,
      "ÑĤÐ¾Ð³Ð¾": 2836,
      "ÑĢÑĮ": 2837,
      "ÑĢÐ¾Ð¹": 2838,
      "Ð»ÑĳÐ½Ð½Ð¾": 2839,
      "ÑıÐ»Ð°": 2840,
      "ĠÐ¿Ð°Ð¼": 2841,
      "ĠÑģÐ°Ð¼Ð¸": 2842,
      "ĠÐ½Ð¾Ð¶": 2843,
      "Ð²ÑĪÐ¸ÑģÑĮ": 2844,
      "ĠÐ¾ÑģÐº": 2845,
      "ÑĢÐ¸Ð»Ð°ÑģÑĮ": 2846,
      "ĠÐºÐ¾Ð¶": 2847,
      "ÑģÑĤÐ°Ð»ÑĮ": 2848,
      "ĠÐ·Ð»": 2849,
      "ĠÐ·Ð°Ð»Ð°": 2850,
      "ĠÑĤÑĥ": 2851,
      "ĠÑĥÑħÐ¾Ð´": 2852,
      "ÑĳÐ²": 2853,
      "Ð¾Ð³Ð»Ð°Ð·": 2854,
      "ĠÐ¿Ð¾ÑĪÑĳÐ»": 2855,
      "ĠÐ½Ð°ÑĥÑĩ": 2856,
      "ĠÐ³ÑĥÐ±": 2857,
      "ÑĨÐµÐ¼": 2858,
      "ĠÐ¿ÑĢÐ¾Ð·": 2859,
      "ĠÐ»ÑĳÐ³": 2860,
      "ÑģÐºÐ¸Ðµ": 2861,
      "ĠÐĶÐ°Ð²": 2862,
      "ĠÐ²ÑĭÑģÐº": 2863,
      "ĠÐŁÐ¾Ð¼": 2864,
      "ĠÐ²ÑģÐ¿": 2865,
      "ĠÐ¾Ð±Ð¼": 2866,
      "Ð¸Ð´Ð¸Ð¼": 2867,
      "ĠÑĢÐ°Ð·Ñĥ": 2868,
      "ĠÑģÐ¿Ð°ÑĤÑĮ": 2869,
      "ÐµÐºÐ¾": 2870,
      "ÐµÐºÑĢÐµÑĤ": 2871,
      "ĠÐ¿ÐµÑĢÐµÐº": 2872,
      "ÐĿÐŀ": 2873,
      "ÐĿÐĺ": 2874,
      "ÑĢÐ¾ÑģÐ¸ÑĤÑĮ": 2875,
      "ÐµÐ¶Ð°ÑĤÑĮ": 2876,
      "Ð°Ð½Ð¸ÐºÑĥ": 2877,
      "ĠÐ´Ð¾ÑģÑĤÐ°Ð²": 2878,
      "ĠÐ¡Ð¸ÑĢÐ¸ÑĥÑģÑĥ": 2879,
      "ĠÑģÐ²Ð¾ÑĳÐ¼": 2880,
      "Ð¾ÑĢÐ¾ÑĤ": 2881,
      "ĠÑģÐ°Ð¼Ð¾Ð³Ð¾": 2882,
      "ĠÐºÐ¾Ð½ÑĨÐ°": 2883,
      "ĠÐ¿Ð¾Ð¿ÑĢÐ°Ð²": 2884,
      "ĠÑģÐ¸Ð»Ð¾Ð¹": 2885,
      "ĠÐ¿ÑĢÐ°Ð²Ð°": 2886,
      "ĠÐ³Ð¾Ð²Ð¾ÑĢÐ¸Ð»Ð°": 2887,
      "ĠÐ½ÐµÑĤÐµÑĢÐ¿": 2888,
      "ĠÑĥÐ±ÐµÐ´": 2889,
      "ĠÐ¤ÑĥÐ´Ð¶Ð°": 2890,
      "ĠÐ¿Ð¾Ð¹ÑĤÐ¸": 2891,
      "ĠÑĥÑĩÐµÐ±": 2892,
      "Ð¾Ð»ÑĮÐ·Ð¾Ð²": 2893,
      "ĠÐ¿Ð¸ÑģÑĮÐ¼ÐµÐ½": 2894,
      "ÑĢÐ¾Ð´Ðµ": 2895,
      "ĠÑĢÐ°ÑģÑģÐºÐ°Ð·Ð°ÑĤÑĮ": 2896,
      "ĠÑħÐ¾Ð»Ð¾Ð´Ð½Ð¾": 2897,
      "ĠÐ¿Ð¾Ð¿ÑĭÑĤÐ°Ð»ÑģÑı": 2898,
      "ĠÐ´ÑĢÑĥÐ·ÐµÐ¹": 2899,
      "ĠÐ¿ÑĢÐ¾ÐºÐ»ÑıÑĤÐ¸": 2900,
      "Ð»Ð¾Ð½Ð¸Ð»ÑģÑı": 2901,
      "ĠÐ¾ÑģÐ²ÐµÐ´Ð¾Ð¼": 2902,
      "ĠÐ¤Ð¸Ð»Ñĩ": 2903,
      "ĠÐ½Ð¾ÑĢÐ¼Ð°Ð»ÑĮÐ½Ð¾": 2904,
      "ĠÐ²Ð¾Ð·ÑĢÐ°Ð·Ð¸Ð»": 2905,
      "ÑĢÐµÐ±": 2906,
      "Ð½Ð°Ð»Ð°": 2907,
      "ÑıÐ»Ð¸ÑģÑĮ": 2908,
      "ĠÑģÑĢÐµÐ´Ð¸": 2909,
      "ÑĩÐµÑĢÐ°": 2910,
      "Ð¼ÐµÐ»Ð¸": 2911,
      "ÑĤÐ¾ÑĩÐ½Ð¾": 2912,
      "ĠÐºÑĥÐ¿": 2913,
      "ĠÐ´Ð¾Ðº": 2914,
      "ĠÐ±ÐµÐ»": 2915,
      "ĠÐ±ÐµÑĪ": 2916,
      "ĠÐ±ÐµÑģÑģ": 2917,
      "ĠÐ±ÑĥÐº": 2918,
      "ĠÐ½ÐµÐ¾Ð±Ñĭ": 2919,
      "ĠÐ½ÐµÑĩÑĤÐ¾": 2920,
      "ÐµÐ½Ð½Ð¾Ð³Ð¾": 2921,
      "ÐµÐ½Ð½Ð°Ñı": 2922,
      "ĠÑĢÐ°Ð½": 2923,
      "Ð¾ÑĢÐ¾Ð´": 2924,
      "Ð¾Ð´ÑĥÑĪ": 2925,
      "ÑĨÐ¾": 2926,
      "Ð¾ÑĤÐ°Ð»": 2927,
      "Ð¾ÑĤÐ¾Ð³ÑĢÐ°ÑĦ": 2928,
      "ĠÐ¾ÑĤÐ±": 2929,
      "ÑģÐºÐ¸Ñħ": 2930,
      "ĠÐĶÐ²ÐµÑĢÑĮ": 2931,
      "ĠÐ¿ÑĢÐ¾Ð½Ð¸Ðº": 2932,
      "ÑĦÐ¸": 2933,
      "Ð¸Ð½Ð³": 2934,
      "ĠÐŁÐ¾ÑĩÐµÐ¼Ñĥ": 2935,
      "ĠÐĿÐ°Ð´Ð¾": 2936,
      "ÐºÐ¸Ð¼Ð¸": 2937,
      "ĠÐ°Ð±ÑģÐ¾Ð»ÑİÑĤ": 2938,
      "ÐºÑĥÑģ": 2939,
      "ĠÐ¿ÐµÑĢÐµÑģÐ¿": 2940,
      "ÐµÐ¿ÐµÑĤ": 2941,
      "Ð°ÑĤÑĥ": 2942,
      "ĠÐ¢Ð¾Ð»ÑĮÐºÐ¾": 2943,
      "ĠÐĳÑĭ": 2944,
      "Ð»ÑĭÐµ": 2945,
      "ĠÐ²Ð¸Ð´ÐµÐ»Ð¸": 2946,
      "ÑİÑīÐµ": 2947,
      "ĠÐ´Ð¾ÑģÑĤÐ°": 2948,
      "ĠÐĲÐ»Ð¸": 2949,
      "ÑĢÐ°Ð²Ð´": 2950,
      "ĠÐ±ÑĥÐ´ÑĥÑĤ": 2951,
      "ÑĨÐ¸Ñİ": 2952,
      "ĠÑģÐ²Ð¸ÑĤ": 2953,
      "ĠÑĦÐ¾ÑĤÐ¾Ð³ÑĢÐ°ÑĦ": 2954,
      "ĠÐ´ÑĢÑĥÐ³Ð¸Ñħ": 2955,
      "ĠÐ¿Ð¾Ð´Ð½ÑıÐ»Ð°": 2956,
      "ĠÐ¿Ð¾Ð½Ð¸Ð¼Ð°Ñİ": 2957,
      "ĠÐ¸Ð¼ÐµÑİ": 2958,
      "ĠÐ¿ÑĥÑģÑĤÑĮ": 2959,
      "ĠÐ¿Ð¾Ð´Ð¾ÑĪÑĳÐ»": 2960,
      "Ð¾ÑĪÐ»Ð¾": 2961,
      "ĠÐŁÐ¾ÑģÐ»Ðµ": 2962,
      "ĠÐ¿ÑĭÑĤÐ°": 2963,
      "ĠÐ¼Ð°ÑĤÐµÑĢÐ¸": 2964,
      "ĠÐ¿Ð¾ÑģÐºÐ¾Ð»ÑĮÐºÑĥ": 2965,
      "ĠÐ·Ð°Ð²ÑĤÑĢÐ°": 2966,
      "ĠÐ¸ÑģÑĤÐ¾ÑĢÐ¸": 2967,
      "ĠÐ¿ÑĢÐ¾ÑĪÐµÐ¿ÑĤÐ°Ð»": 2968,
      "ÐºÐ»ÑĥÐ¼ÐµÐ½": 2969,
      "ĠÑĤÐ²ÑĳÑĢÐ´Ð¾": 2970,
      "ĠÐĶÑĥÑĢÑģÐ»Ðµ": 2971,
      "ĠÐĸ": 2972,
      "ÑĤÐ¾Ð¹": 2973,
      "ÑĢÐ¾Ð¶Ð½Ð¾": 2974,
      "ÑĥÐºÐ°": 2975,
      "ĠÑģÐ°Ð´": 2976,
      "ĠÐ½Ð¾Ð¼": 2977,
      "ĠÐ²Ð¾ÑĢ": 2978,
      "ĠÐ²Ð½ÐµÐ·Ð°Ð¿Ð½Ð¾": 2979,
      "Ð´ÑĮ": 2980,
      "ĠÐºÐ»Ð°Ñģ": 2981,
      "ĠÐºÐ°Ð½Ð¸ÐºÑĥ": 2982,
      "Ð¾Ð»Ð°Ð¿": 2983,
      "ĠÑĩÐ¸Ñģ": 2984,
      "ĠÑĥÑĪ": 2985,
      "Ð¶ÐµÑĢ": 2986,
      "ĠÐ¿Ð¾ÑĪÐ»Ð¸": 2987,
      "ĠÐ½Ð°ÑģÑĤÑĢÐ¾": 2988,
      "ĠÑĢÑĥÑĩ": 2989,
      "Ð½ÑĥÐ¶": 2990,
      "ĠÐ³Ð¾Ð´": 2991,
      "Ð¾ÑĤÑĭ": 2992,
      "Ð¾Ð½ÑıÑĤÐ½Ð¾": 2993,
      "ÑģÐºÐ¾Ð³Ð¾": 2994,
      "ĠÐ·Ð°Ð¾ÑĢÐ°Ð»": 2995,
      "ÑĢÐ°Ñĩ": 2996,
      "Ð²Ð°ÑĦÑĦ": 2997,
      "ĠÑģÑĤÐ°Ð´Ð¸": 2998,
      "ĠÐĿÐ°Ð¿": 2999,
      "ĠÑħÐ¼Ñĥ": 3000,
      "ĠÐĴÐµÐ´ÑĮ": 3001,
      "ĠÐ¿Ð¾Ð´Ð±": 3002,
      "ĠÐ¿Ð¾Ð´ÑħÐ¾Ð´": 3003,
      "ĠÐ¶ÑĥÑĤ": 3004,
      "ĠÐ¶ÑĥÑĢ": 3005,
      "Ð°Ð½Ð½ÑĭÐµ": 3006,
      "ĠÑıÑĢÐ¾": 3007,
      "Ð¾ÑĩÐºÑĥ": 3008,
      "Ð¾ÑĩÐµÐº": 3009,
      "ĠÑĢÐ°Ð·Ð²": 3010,
      "ĠÑģÐ¿ÑĢÑıÑĤ": 3011,
      "Ð°ÑĤÐµÐ¼": 3012,
      "ĠÐ¿Ð¾Ð»ÐµÑĤ": 3013,
      "ÑıÑĤÑģÑı": 3014,
      "ĠÑģÐ²Ð¾ÐµÐ¼Ñĥ": 3015,
      "ĠÐ½Ð°Ð¿Ð°Ð´": 3016,
      "ĠÐºÐ¾Ð½ÐµÑĨ": 3017,
      "ĠÑģÐ²Ð¾Ð±Ð¾Ð´": 3018,
      "ĠÑĦÐ¾ÑĢ": 3019,
      "ĠÐ¸Ð¼Ñı": 3020,
      "ÐĽÐ°Ð´Ð½Ð¾": 3021,
      "ĠÐ½Ð°Ð·Ð½Ð°Ñĩ": 3022,
      "ĠÐ²ÐµÐ´ÑĮÐ¼Ð°": 3023,
      "ĠÑĥÐ·Ð½Ð°Ð»": 3024,
      "ĠÑĤÐ²Ð¾Ñĳ": 3025,
      "ĠÐ¿Ð¾Ð½Ð¸Ð¼Ð°Ð»": 3026,
      "ĠÑģÑĤÐ¾Ð»Ñĥ": 3027,
      "ĠÐ²Ð½Ð¸Ð¼Ð°Ð½Ð¸Ðµ": 3028,
      "ĠÐ²Ð¼ÐµÑģÑĤÐ¾": 3029,
      "ĠÐ²Ð¾ÑģÑĤÐ¾ÑĢ": 3030,
      "ĠÐºÐ°Ð¶Ð´ÑĭÐ¹": 3031,
      "ĠÑģÐµÐºÑĥÐ½Ð´Ñĥ": 3032,
      "ĠÐ£Ð¿Ð¸Ð²Ð°ÑİÑīÐ¸ÑħÑģÑı": 3033,
      "ÑįÑĤÑĤÐ¸": 3034,
      "ĠÐºÐ¾Ð¼Ð°Ð½Ð´Ñĭ": 3035,
      "ĠÐ·Ð°ÐºÐ¾Ð½ÑĩÐ¸Ð»": 3036,
      "ĠÐ¼ÑĥÐ³Ð»Ð¾Ð²": 3037,
      "Ð½Ð°ÑĢÑĥÐ¶": 3038,
      "ĠÑıÑĢÐºÐ¾": 3039,
      "ĠÐ¾ÑģÑĤÐ¾ÑĢÐ¾Ð¶Ð½Ð¾": 3040,
      "ĠÐĳÐ»ÑįÐº": 3041,
      "Ð¾ÑĢÐ°ÑĩÐ¸Ð²Ð°ÑıÑģÑĮ": 3042,
      "ĠÑĪÑĳÐ¿Ð¾ÑĤÐ¾Ð¼": 3043,
      "ĠÐ¿Ð¾ÑģÑĤÐ¾ÑıÐ½Ð½Ð¾": 3044,
      "ĠÐ½ÐµÐ¿Ð¾Ð´Ð²Ð¸Ð¶Ð½Ð¾": 3045,
      "ĠÐºÐ»Ð°ÑģÑģÐµ": 3046,
      "ĠÑİ": 3047,
      "Ð»Ð°Ð¼": 3048,
      "ĠÑģÐ¾Ð½": 3049,
      "ĠÑģÐ½Ðµ": 3050,
      "ĠÐ½ÑĢÐ°Ð²": 3051,
      "ĠÐ²Ð¸Ð½Ð¾Ð²": 3052,
      "ĠÐºÑĥÑĢ": 3053,
      "ÐµÑĢÐµÐ·": 3054,
      "ÑģÑĤÐ¾Ð¹": 3055,
      "Ð¾Ð²ÑĭÐµ": 3056,
      "ĠÐ·Ð°Ð¶": 3057,
      "ĠÐ¼Ð¾Ð¹": 3058,
      "ÑģÑıÑĤ": 3059,
      "ÐµÐ½Ðº": 3060,
      "ĠÐ³ÑĢÐ¾ÑħÐ¾ÑĤ": 3061,
      "ĠÐ¾ÑĤÐ²ÐµÑĢ": 3062,
      "ĠÐ¿ÑĢÐ°ÐºÑĤÐ¸": 3063,
      "ÑģÐºÐ°Ñı": 3064,
      "ĠÐ¿ÑĢÐ¾ÑĩÐ¸ÑĤ": 3065,
      "ĠÐŁÐ¸": 3066,
      "ĠÐ¡Ð°Ð¼Ð¸": 3067,
      "Ð»ÑıÑı": 3068,
      "Ð°ÑģÑģ": 3069,
      "ĠÐĴÐ¾": 3070,
      "ĠÐºÐ°ÐºÐ¾Ðµ": 3071,
      "ĠÐ¿Ð¾Ð´Ð´": 3072,
      "ĠÐļÐ²Ð°ÑĦÑĦ": 3073,
      "ÑĢÑĭÐ¹": 3074,
      "ĠÑģÐ»Ð¾Ð²Ð¾": 3075,
      "ÐºÑĥÑİ": 3076,
      "ĠÐľÐ°ÑĢ": 3077,
      "ÑĢÐ¾ÑģÑĤÐ¾": 3078,
      "ĠÐ»Ð¸ÑĦ": 3079,
      "ĠÐ¢Ð°": 3080,
      "Ð°Ð½Ð¸ÐµÐ¼": 3081,
      "ĠÐ¼Ð¸Ð½Ñĥ": 3082,
      "ĠÐ§Ð°ÑĢ": 3083,
      "ĠÐ¾Ð´Ð½Ð°": 3084,
      "ĠÐ¾ÐºÐºÐ»ÑĥÐ¼ÐµÐ½": 3085,
      "Ð¸Ð·Ð¾Ð³Ð»Ð°Ð·": 3086,
      "ĠÐ¿Ð¾Ð¿ÑĢÐ¾Ð±": 3087,
      "ĠÑħÐ¾ÑĤÐµÐ»Ð¸": 3088,
      "ĠÑģÑĤÑĢÐ°Ð½Ð½Ð¾": 3089,
      "ĠÐĶÐ¶Ð¾ÑĢÐ´Ð¶Ð°": 3090,
      "ĠÐ·Ð°Ð±ÑĭÐ»": 3091,
      "ĠÐ¾ÑĤÐºÐ°Ð·": 3092,
      "ĠÑįÑĤÐ¾Ð¼Ñĥ": 3093,
      "ĠÑģÑĤÐ°ÑĢÐ°ÑıÑģÑĮ": 3094,
      "Ð°ÑİÑīÐ¸Ð¹": 3095,
      "ÑĢÐ°ÐºÐ¾": 3096,
      "ĠÑĥÐ´Ð¸Ð²Ð¸Ð»ÑģÑı": 3097,
      "ĠÑģÐ¾ÑģÐµÐ´": 3098,
      "ĠÑģÐ»ÐµÐ´ÑĥÑİÑī": 3099,
      "ĠÐ°Ð²ÑĢÐ¾": 3100,
      "ĠÐºÑĢÐµÑģÐ»Ð¾": 3101,
      "ĠÐ¾Ð±ÑĭÑĩÐ½Ð¾": 3102,
      "ĠÐ³Ð½ÐµÐ²Ð½Ð¾": 3103,
      "ĠÐ¼Ð°Ð¼Ð°": 3104,
      "ĠÐ´ÐµÐ¼ÐµÐ½ÑĤÐ¾ÑĢÐ¾Ð²": 3105,
      "ĠÐŀÐ´Ð½Ð°ÐºÐ¾": 3106,
      "ĠÑģÐ¾Ð·Ð½Ð°Ð½Ð¸Ðµ": 3107,
      "ĠÐ¾Ð³Ð»ÑıÐ½ÑĥÐ»ÑģÑı": 3108,
      "ĠÑĤÐ°ÑĢÐµÐ»": 3109,
      "ĠÑĢÐ°Ð·ÑĢÐµÑĪ": 3110,
      "?!": 3111,
      "Ð¸ÑģÑĤÐµÑĢ": 3112,
      "ÑĢÐµÐ¹": 3113,
      "ĠÑģÐ³": 3114,
      "ÐºÐ¸Ð½": 3115,
      "ĠÐºÐ¾Ñģ": 3116,
      "Ð¾Ð»Ð·": 3117,
      "Ð½Ð¾ÑĪ": 3118,
      "ÐµÐ»ÐµÐ¼": 3119,
      "Ð°Ð²ÑĪÐ¸Ñħ": 3120,
      "ÑĨÐ°Ð¼": 3121,
      "ĠÐ¾ÑĤÐ»Ð¸Ñĩ": 3122,
      "ĠÐŁÐ¾Ð»": 3123,
      "ĠÑħÐ¸Ð¶": 3124,
      "ĠÐļÑĤÐ¾": 3125,
      "ĠÐļÐ¾Ð½ÐµÑĩÐ½Ð¾": 3126,
      "ĠÐļÑįÑĤÑĤÐ¸": 3127,
      "ÐµÑģÑĤÑĢÐ°": 3128,
      "Ð°Ð½Ð½ÑĭÐ¼": 3129,
      "ĠÑģÐ»ÑĳÐ·": 3130,
      "ĠÑģÐ¿Ð¸Ð½Ñĥ": 3131,
      "ĠÐ¢Ðµ": 3132,
      "ÐŀÐ¹": 3133,
      "ÐµÐ¶Ð°Ð»Ð¸": 3134,
      "ĠÐ¿Ð¾Ð»Ð½Ð¾": 3135,
      "ĠÐ²Ð·ÑıÑĤÑĮ": 3136,
      "Ð¢Ð¬": 3137,
      "ÑĢÐ¾Ð²Ð°Ð»": 3138,
      "ĠÐ´Ð¾ÑģÐº": 3139,
      "ĠÐ·Ð½Ð°ÐµÐ¼": 3140,
      "ĠÐ³Ð»Ð°Ð·Ð°Ñħ": 3141,
      "ĠÐ»ÑİÐ´Ð¸": 3142,
      "ÐĽÐĺ": 3143,
      "Ð¥Ð¾ÑĢÐ¾ÑĪÐ¾": 3144,
      "ĠÐ½ÐµÐ´Ð¾": 3145,
      "ĠÐ¿Ð¾ÐºÐ°Ð·Ð°Ð»": 3146,
      "ĠÐ¿Ð¾ÐºÐ°Ð·Ð°Ð»Ð¾ÑģÑĮ": 3147,
      "ÑĢÑĥÐ¶Ð¸Ðµ": 3148,
      "ĠÐ¿Ð¾Ð½Ð¸Ð¼Ð°ÐµÑĪÑĮ": 3149,
      "ĠÐºÑĢÐ¾Ð²ÑĮ": 3150,
      "ĠÑģÐ¼Ð¾ÑĤÑĢÐµÑĤÑĮ": 3151,
      "ÑĢÐ¸ÑĤÐµÐ»ÑĮ": 3152,
      "ĠÐ·Ð°ÑģÐ¼Ðµ": 3153,
      "ĠÐ³Ð»ÑĥÐ±Ð¾ÐºÐ¾": 3154,
      "ĠÐ¾ÑģÑĤÐ°Ð»ÑĮÐ½ÑĭÐµ": 3155,
      "ĠÑĤÑĢÑĥÐ´Ð½Ð¾": 3156,
      "ĠÐ¶Ð¸Ð·Ð½ÑĮ": 3157,
      "ĠÐ·Ð°ÐºÐ»ÑıÑĤÐ¸Ðµ": 3158,
      "ĠÑģÐ¾Ð³Ð»Ð°ÑģÐ¸Ð»ÑģÑı": 3159,
      "ĠÐ¿ÐµÑĢÐµÐ±Ð¸Ð»": 3160,
      "ĠÐ¿Ð°Ð¿Ð°": 3161,
      "ĠÑģÐµÑĢÐµÐ±ÑĢÑı": 3162,
      "ĠÑĢÐ°Ð·Ð´ÑĢÐ°Ð¶ÑĳÐ½Ð½Ð¾": 3163,
      "ÑĤÐ°ÑīÐ¸Ð»": 3164,
      "ĠÐ¾Ð±ÑıÐ·Ð°ÑĤÐµÐ»ÑĮÐ½Ð¾": 3165,
      "ĠÐ²ÑĤÐ¾ÑĢÐ¾Ð¹": 3166,
      "Ð¼Ð°ÑĤÑĢÐ¸": 3167,
      "ĠÑĪÐ»ÑıÐ¿": 3168,
      "ĠÐ¿ÑĢÐ¾ÑĨÐµÐ´": 3169,
      "ĠÐ¿Ð¾Ð´ÑĤÐ²ÐµÑĢÐ´Ð¸Ð»": 3170,
      "ÑĤÐ°ÑĤ": 3171,
      "ÑģÑİ": 3172,
      "ĠÑģÐ¾Ð»Ð½": 3173,
      "ĠÐ²Ð¾Ð½": 3174,
      "ĠÐ²ÑģÑĤÐ°Ð²": 3175,
      "ĠÐ²ÑĢÐ¾Ð´Ðµ": 3176,
      "ÑĩÑĳÑĤ": 3177,
      "Ð¼ÐµÐ½Ð¸": 3178,
      "ÑĪÑĥ": 3179,
      "ÑĪÐµÐ¼": 3180,
      "Ð½Ð¸ÐµÐ¼": 3181,
      "ĠÐ´ÑĥÑĢ": 3182,
      "ĠÑĤÐµÐ»Ð¾": 3183,
      "ĠÐ±ÑĥÐ¼": 3184,
      "ÑĳÑģÑĤ": 3185,
      "Ð¸Ð»Ð»": 3186,
      "Ð¾ÑĢÐ´Ð°": 3187,
      "Ð¾ÑĢÐµÑģ": 3188,
      "Ð°Ð¼ÐµÑĤ": 3189,
      "ÐµÐ´ÐµÐ»Ð¸": 3190,
      "Ð¾Ð±ÑĢÐ°Ð¶": 3191,
      "Ð¾ÐºÐ»Ð°ÑģÑģ": 3192,
      "ĠÐ²ÑĭÑĢ": 3193,
      "ĠÐ²ÑĭÐ³": 3194,
      "ĠÐŁÐŀ": 3195,
      "ĠÐ²ÑģÐµÐ¹": 3196,
      "ĠÐ¾Ð±Ð°": 3197,
      "ĠÐ¿ÑĢÐ¸ÑĤ": 3198,
      "ĠÐ¿ÑĢÐ¸Ð¶": 3199,
      "ĠÐĿÐ°Ð´": 3200,
      "ĠÑħÐ¾Ð·Ñı": 3201,
      "Ð¾ÑģÐ¾Ð»Ð°Ð¿": 3202,
      "ĠÐľÐµÐ¶Ð´Ñĥ": 3203,
      "Ð°Ð¶ÐµÑĤÑģÑı": 3204,
      "ÐĿÐ°": 3205,
      "ĠÐ»Ð¸ÑģÑĤ": 3206,
      "ÐŁÐ¾Ð´": 3207,
      "ĠÐ¿Ð¾Ð²ÐµÐ´": 3208,
      "ÐµÑĢÐ¸Ð»": 3209,
      "ĠÐ½Ð°Ð¿ÑĢÐ¾ÑĤÐ¸Ð²": 3210,
      "ĠÐ¿ÑĢÐµÐ´Ð¼ÐµÑĤ": 3211,
      "ĠÐºÐ¾Ð¼Ñĥ": 3212,
      "ĠÐºÑĥÐ»Ð°Ðº": 3213,
      "ĠÐ¨Ð¸Ð·Ð¾Ð³Ð»Ð°Ð·": 3214,
      "ĠÐ²Ð´Ð¾Ñħ": 3215,
      "Ð¸Ð²Ð°ÐµÑĤ": 3216,
      "ĠÑĤÐ²Ð¾ÐµÐ¹": 3217,
      "ĠÐ¸ÑģÐºÐ»Ñİ": 3218,
      "ÑĢÐ¸ÑĤÐµÐ»ÑĮÐ½Ð¾": 3219,
      "Ð°ÑİÑĤÑģÑı": 3220,
      "ĠÐ½ÐµÐ±Ð¾": 3221,
      "ĠÐ½Ð°ÑģÑĤÐ¾Ð»ÑĮÐºÐ¾": 3222,
      "ĠÐ´Ð¾ÑģÑĤÐ°Ð»": 3223,
      "ĠÐ¿Ð¾Ð³Ð»ÑıÐ´ÐµÐ»": 3224,
      "ĠÐ¾Ð±ÑĢÐ°Ð·Ð¾Ð¼": 3225,
      "ĠÐ·ÐµÐ»ÑĮÐµÐ´ÐµÐ»Ð¸": 3226,
      "ĠÐ½Ð°Ð²ÐµÑĢÑħ": 3227,
      "ĠÐ¿Ð¾ÑĢÑıÐ´ÐºÐµ": 3228,
      "ĠÑģÐµÑĢÑĮÑĳÐ·Ð½Ð¾": 3229,
      "ĠÐ²ÑĭÐºÑĢÐ¸ÐºÐ½ÑĥÐ»": 3230,
      "ĠÐ±Ð»Ð¾ÐºÐ½Ð¾": 3231,
      "Ð¾ÑģÐ¾Ð»Ð°Ð¿Ñģ": 3232,
      "Ð¾Ñĥ": 3233,
      "Ð°ÑģÑĤ": 3234,
      "ÑĢÐµÑģ": 3235,
      "ÑĢÐ°ÑĤÑĮÑģÑı": 3236,
      "Ð»ÐµÐ½Ð¸Ð¸": 3237,
      "ÑıÐ³": 3238,
      "ĠÐ½ÑĳÐ¼": 3239,
      "ĠÐ¾ÑĤÐ¾ÑĢ": 3240,
      "ĠÐºÐ°ÑĤ": 3241,
      "ÐµÑĢÑĤ": 3242,
      "ÑģÑĤÐµÐ¹": 3243,
      "Ð½Ð¸Ð»Ð¾ÑģÑĮ": 3244,
      "ĠÐ·ÑĥÐ±Ñĭ": 3245,
      "ĠÐ·Ð½Ð°ÐºÐ¾Ð¼": 3246,
      "ĠÐ±ÑĢÐ¾ÑģÐ¸Ð»Ð°": 3247,
      "ĠÑĩÑĥÐ´": 3248,
      "ĠÑĩÐ°ÑģÑĤÑĮ": 3249,
      "ĠÐ¿Ð¾ÑıÑģ": 3250,
      "ĠÐ½Ð°ÑģÐºÐ¾Ð»ÑĮÐºÐ¾": 3251,
      "ĠÑĢÐ¾Ð²": 3252,
      "ĠÐ³Ð¾ÑģÑĤÐ¸": 3253,
      "Ð¾Ð´Ð½Ð¾": 3254,
      "ÑĨÐµÐ½": 3255,
      "Ð°Ð´Ð°Ð»": 3256,
      "ĠÐ»ÐµÐ´": 3257,
      "ĠÐĶÐ»Ð¸Ð½": 3258,
      "ĠÐĶÑĢÐ°ÐºÐ¾": 3259,
      "ĠÐŀÐ±": 3260,
      "ĠÐ²ÑĭÐ»ÐµÑĤ": 3261,
      "ĠÑģÐºÑĥÑĩ": 3262,
      "Ð²Ð°ÐµÑĤÑģÑı": 3263,
      "ĠÐ¡ÐµÑĢ": 3264,
      "ĠÐ¿ÑĢÐ¸ÑĪÑĳÐ»": 3265,
      "ÑĢÑĥÐ½": 3266,
      "ĠÐłÐ¾Ð¶Ð´": 3267,
      "ĠÐ¿Ð¾Ð´Ð°ÑĢ": 3268,
      "ĠÐļÐ¾ÑģÐ¾Ð»Ð°Ð¿Ñģ": 3269,
      "ĠÐ¸Ð·Ð¾": 3270,
      "ĠÐ¸Ð·ÑĥÐ¼": 3271,
      "ĠÑıÐ·Ñĭ": 3272,
      "ÑĪÐ¸ÑĤÑĮ": 3273,
      "ĠÑĢÐ°Ð·Ð¼ÐµÑĢ": 3274,
      "ĠÐľÐ°Ð³": 3275,
      "ÐµÐºÐµ": 3276,
      "Ð¸Ð²Ð°Ð»Ð¸": 3277,
      "ĠÐĺÐ½": 3278,
      "ÐĴÐŀ": 3279,
      "ĠÑĢÐ°ÑģÑģÐº": 3280,
      "ĠÐ²Ð¾Ð·Ð»Ðµ": 3281,
      "ĠÐ¾ÑģÑĤÐ°Ð½": 3282,
      "ĠÐ´Ð²ÑĥÑħ": 3283,
      "ĠÐ´ÑĥÐ¼Ð°ÐµÑĪÑĮ": 3284,
      "ĠÐ½Ð°Ð¼ÐµÑĢ": 3285,
      "ĠÐ½Ð°Ð¼Ð½Ð¾Ð³Ð¾": 3286,
      "ĠÑĥÐ²Ð¸Ð´ÐµÑĤÑĮ": 3287,
      "ĠÑĥÐ»ÑĭÐ±Ð½ÑĥÐ»ÑģÑı": 3288,
      "ĠÐ¿ÑĢÐ¾Ð³Ð¾Ð²Ð¾ÑĢÐ¸Ð»Ð°": 3289,
      "ĠÐ·Ð°Ð³Ð¾Ð²Ð¾ÑĢÐ¸Ð»": 3290,
      "ĠÐ¿ÑĢÐ¾Ð¸Ð·Ð¾ÑĪÐ»Ð¾": 3291,
      "ĠÐ¼Ð¾Ð»Ñĩ": 3292,
      "ĠÐºÐ°ÑĢÐ¼Ð°": 3293,
      "ĠÐºÐ°ÑĢÐ¼Ð°Ð½": 3294,
      "ĠÑĪÐºÐ¾Ð»Ñĥ": 3295,
      "ĠÑĩÐ°ÑģÐ¾Ð²": 3296,
      "ĠÐ½Ð°Ð¿ÑĢÐ°Ð²Ð¸Ð»ÑģÑı": 3297,
      "ĠÐ¨ÐºÐ²ÐµÑĢÑĩÐºÐ°": 3298,
      "Ð³Ð¸Ð²Ð°Ñı": 3299,
      "Ð¸Ð¶Ñĥ": 3300,
      "ĠÐ¿ÑĢÐ¸ÑģÑĥÑĤÑģÑĤÐ²": 3301,
      "ĠÐ¿Ð¾Ð´Ð¾ÑĪÐ»Ð°": 3302,
      "ĠÐ¿ÑĢÐ¸Ð½ÑıÐ»ÑģÑı": 3303,
      "ĠÑĤÑĢÑĥÐ´Ð¾Ð¼": 3304,
      "ĠÐ±ÐµÑģÐ¿Ð¾ÐºÐ¾Ð¹": 3305,
      "ĠÐ¾Ð¶Ð¸Ð´Ð°": 3306,
      "................": 3307,
      "ĠÐ·Ð°ÐºÐ»Ð¸Ð½Ð°Ð½Ð¸Ñı": 3308,
      "ĠÐ½ÐµÐ²Ð¾Ð·Ð¼Ð¾Ð¶Ð½Ð¾": 3309,
      "ĠÑĢÐ¾Ð´Ð¸ÑĤÐµÐ»ÐµÐ¹": 3310,
      "ĠÐ¼Ð¾Ð·Ð³": 3311,
      "ĠÐ¿ÑĢÐµÐ´ÑĥÐ¿ÑĢÐµÐ¶": 3312,
      "Ð¡Ð¿Ð°ÑģÐ¸Ð±Ð¾": 3313,
      "ĠÑĤÐµÑģÑĤÑĢÐ°Ð»": 3314,
      "ĠÐºÐ°Ð¼Ð¸Ð½Ð°": 3315,
      "ĠÐ½Ð°Ð¿ÑĢÑıÐ¶": 3316,
      "ĠÐ±ÑĥÐºÐ²": 3317,
      "ĠÐ½Ð¾Ð¼ÐµÑĢ": 3318,
      "ÑĢÐ°Ð»Ð°": 3319,
      "ÑĮÐ¼Ð¸": 3320,
      "ÑıÐ·Ð°": 3321,
      "ĠÑģÐ¸Ñı": 3322,
      "ÑĩÐ°Ð¹Ð½Ð¾": 3323,
      "Ð´ÑĢÐ°Ð²": 3324,
      "Ð°Ð»Ð»Ðµ": 3325,
      "ĠÐ¸Ð´Ðµ": 3326,
      "Ð½Ð¸ÑĨÐµ": 3327,
      "ĠÑĤÑĢÐ¾": 3328,
      "Ð·Ð°Ð´Ð¸": 3329,
      "Ð¾ÑĢÐ½Ð¾": 3330,
      "ÑīÐµ": 3331,
      "ÑīÐ¸": 3332,
      "ĠÐ»Ð°Ð´Ð½Ð¾": 3333,
      "Ð´Ð°Ð½Ð¸Ñı": 3334,
      "ĠÐĶÑĢÑİ": 3335,
      "ĠÐ¾Ð±Ð¾ÑĢ": 3336,
      "ĠÐ¾Ð±ÐµÑī": 3337,
      "ĠÐ¾Ð±Ð½Ð°ÑĢÑĥÐ¶": 3338,
      "Ð»ÑıÐµÑĤ": 3339,
      "ĠÐ½Ð¸Ð·": 3340,
      "ĠÑĤÐ¾Ñĩ": 3341,
      "Ð¾ÑĩÑĮ": 3342,
      "ĠÑĪÑĳÐ»": 3343,
      "ĠÑĤÐ°ÐºÐ¶Ðµ": 3344,
      "ĠÐ¢Ð¾Ð³Ð´Ð°": 3345,
      "Ð°Ð»ÑĮÐ½Ð¾Ðµ": 3346,
      "ÐĲÑħ": 3347,
      "ĠÐĹÐ°ÑĤÐµÐ¼": 3348,
      "Ð¢Ð¾Ð³Ð´Ð°": 3349,
      "ÑİÑīÐ¸Ðµ": 3350,
      "ĠÐ§ÐµÑĢÐµÐ·": 3351,
      "ÐĴÑģÑĳ": 3352,
      "ĠÐ¡Ð¸ÑĢÐ¸ÑĥÑģÐ¾Ð¼": 3353,
      "ÑĢÑıÐ¼": 3354,
      "Ð¡Ðº": 3355,
      "ĠÑģÐ°Ð¼Ð¾Ðµ": 3356,
      "ĠÐºÐ¾Ð½ÑĩÐ¸": 3357,
      "ĠÐºÐ¾Ð½ÑĤÑĢ": 3358,
      "ĠÐ·Ð°Ð¼ÐµÑĢ": 3359,
      "ĠÐºÐ¾Ð»ÐµÐ½Ð¸": 3360,
      "ĠÑģÐ¸Ð»Ñĥ": 3361,
      "ÑĥÐ½Ñģ": 3362,
      "ĠÐ¿ÑĢÐ°Ð²Ð¸Ð»ÑĮÐ½Ð¾": 3363,
      "ĠÐ²ÐµÑĢÑħ": 3364,
      "ĠÐŁÐ¾ÑĤÑĤÐµÑĢÐ°": 3365,
      "ĠÑģÑĤÐ¾ÑĢÐ¾Ð½Ð°Ð¼": 3366,
      "ĠÐ´Ð¾Ð»Ð¶Ð½Ð¾": 3367,
      "ĠÐ³Ð¾ÑĢÑı": 3368,
      "ĠÐ¿Ð¾Ð³Ð¾Ð²Ð¾ÑĢÐ¸ÑĤÑĮ": 3369,
      "ĠÐ¼Ð¾ÐµÐ¹": 3370,
      "ÑĭÐ²Ð°ÐµÑĤÑģÑı": 3371,
      "ĠÑģÑĤÐ¾Ð»Ð¾Ð¼": 3372,
      "ĠÐ¸Ð¼ÐµÐµÑĤ": 3373,
      "ĠÐ±ÑĢÐ¾ÑģÐ¸Ð»ÑģÑı": 3374,
      "ĠÐ½Ð¸ÐºÐ°ÐºÐ¸Ñħ": 3375,
      "ĠÑĥÑĤÑĢÐ¾Ð¼": 3376,
      "ĠÐ¿ÑĭÑĤÐ°ÑıÑģÑĮ": 3377,
      "ĠÐ¿Ð¾ÑģÐ¼Ð¾ÑĤÑĢÐµÑĤÑĮ": 3378,
      "ĠÐ´Ð¾Ð±Ð°Ð²Ð¸Ð»Ð°": 3379,
      "ĠÐ¾ÑĤÐ´ÐµÐ»": 3380,
      "ĠÐ¾ÑĤÐ¾Ð·Ð²Ð°Ð»Ð°ÑģÑĮ": 3381,
      "ĠÐ·Ð°ÐºÑĢÑĭÐ»": 3382,
      "ĠÑĤÑıÐ¶ÐµÐ»Ð¾": 3383,
      "ĠÐ¼ÑıÐ³": 3384,
      "ĠÐ²ÑĭÑĢÐ°Ð¶ÐµÐ½Ð¸Ðµ": 3385,
      "ĠÐºÑĢÑĭÐ»ÑĮ": 3386,
      "ĠÐ¿ÑĢÐµÐ²ÑĢÐ°Ñī": 3387,
      "ĠÐ¿Ð¾ÑģÐ¿ÐµÑĪÐ½Ð¾": 3388,
      "ĠÐ¾ÑģÐ¾Ð±ÐµÐ½Ð½Ð¾": 3389,
      "ÐŁÑĢÐ¾ÑĢÐ¸ÑĨÐ°ÑĤÐµÐ»ÑĮÑģÐºÐ¾Ð¹": 3390,
      "ĠÐĲÑĢÑĤÑĥÑĢ": 3391,
      "ĠÐ¿Ð°Ñĥ": 3392,
      "Ð»Ð¸ÑĤÐ²Ð¸": 3393,
      "ĠÐ½ÐµÐºÐ¾ÑĤÐ¾ÑĢÑĭÐµ": 3394,
      "ĠÐ½Ð°ÑħÐ¼ÑĥÑĢÐ¸": 3395,
      "ĠÐĶÐ¾Ð»Ð¾ÑĢÐµÑģ": 3396,
      "ĠÐ¼ÐµÑĩÑĤ": 3397,
      "ĠÐĳÐ¾ÑĥÐ½Ñģ": 3398,
      "Ð½Ð¾Ð¿Ð¾Ð¿": 3399,
      "ĠÐ´Ð¾ÑģÑĤÐ°ÑĤÐ¾ÑĩÐ½Ð¾": 3400,
      "Ð¾ÑģÑĤÑĮ": 3401,
      "Ð°Ð½Ñĭ": 3402,
      "ÑĤÐ¾Ð±": 3403,
      "ÑĢÑįÐ½": 3404,
      "Ð½ÑĳÑĤÑģÑı": 3405,
      "ÑĥÑı": 3406,
      "ÑĥÑĦÑĦ": 3407,
      "ĠÑģÑĢÐµÐ´": 3408,
      "ĠÐ²Ð¾Ð´": 3409,
      "ÑĢÐ¸Ð·": 3410,
      "Ð°Ð»Ð¸Ð»": 3411,
      "Ð°Ð»Ð¸Ð»ÑģÑı": 3412,
      "ÑĪÐ»Ð¾": 3413,
      "ÑĪÐºÐ°": 3414,
      "ĠÐºÑĢÐ°": 3415,
      "ĠÐºÐ°Ñģ": 3416,
      "Ð½Ð¸ÑĪÑĮ": 3417,
      "Ð¾Ð»Ñı": 3418,
      "ĠÐ´Ð¾Ñģ": 3419,
      "ĠÐ´ÑĢÐµÐ²": 3420,
      "ĠÑĤÐ¾Ð¹": 3421,
      "ĠÐ¼Ð¸ÑģÑģ": 3422,
      "ĠÑĥÑĪÑĳÐ»": 3423,
      "ÐµÐ»Ð»Ð¸": 3424,
      "ĠÐ½ÐµÐ¸Ð·": 3425,
      "ÐµÐ½Ð½Ð¾Ð¹": 3426,
      "ĠÐ½Ð°ÑĩÐ¸Ð½Ð°": 3427,
      "ĠÑĢÑı": 3428,
      "Ð¾ÑĢÐ±": 3429,
      "Ð°Ð²ÐµÐ½Ðº": 3430,
      "ĠÐ»Ð°Ð´": 3431,
      "ÑģÐºÐ¸Ð¼": 3432,
      "ĠÐ²ÑĭÑĪÐµ": 3433,
      "ÐµÐ²Ð°Ð»": 3434,
      "ĠÐ²ÑģÐµÐ¼Ñĥ": 3435,
      "ĠÐ¿ÑĢÐ¸ÑģÑĤ": 3436,
      "ĠÐĿÐ¸": 3437,
      "ĠÑħÐ¾Ð´Ñĥ": 3438,
      "ĠÐłÐµÐ±Ñı": 3439,
      "ĠÐºÐ°ÐºÐ¸Ð¼": 3440,
      "ĠÐļÐ¾Ð¼": 3441,
      "ĠÐ¶ÐµÑģÑĤ": 3442,
      "ÐµÑģÑĤÑıÑī": 3443,
      "ÑĢÑĭÐ¼": 3444,
      "ÑĢÑĭÐ·": 3445,
      "ÑĪÐ¸ÐµÑģÑı": 3446,
      "Ð¾Ð¿Ð¾ÑĤ": 3447,
      "ĠÑģÐ»Ð¾Ð¶": 3448,
      "ĠÑģÐ¿Ð¸Ð½": 3449,
      "ĠÑģÐ¿Ð°Ñģ": 3450,
      "ĠÑģÐ¿ÑĥÑģÐº": 3451,
      "ÐºÑĥÑĢÐ°ÑĤ": 3452,
      "ĠÐľÐ¾Ð½ÑĤ": 3453,
      "ĠÑĪÐ°Ð¿": 3454,
      "ÐµÐ»Ð¸ÑģÑĮ": 3455,
      "ĠÐ¢ÑĥÑĤ": 3456,
      "ĠÐ³Ð¾Ð»ÑĥÐ±": 3457,
      "ÐµÐ¶Ð½Ð¾": 3458,
      "ĠÐ¤Ð»Ð¸ÑĤÐ²Ð¸": 3459,
      "ĠÐĳÐµÐ´": 3460,
      "ÐĶÐĲ": 3461,
      "Ð»ÑĭÐ¼": 3462,
      "ĠÐĺÐ¼": 3463,
      "ĠÐ¾ÑĩÐµÐ²Ð¸Ð´Ð½Ð¾": 3464,
      "ÑĢÐ¾Ð¼ÐºÐ¾": 3465,
      "ĠÑĢÑĥÐºÐ°": 3466,
      "Ð½Ð¾Ð²ÑĢÐµÐ¼ÐµÐ½Ð½Ð¾": 3467,
      "ÐļÐ¾Ð³Ð¾": 3468,
      "ÐļÐ¾Ð½ÐµÑĩÐ½Ð¾": 3469,
      "ÑĥÑİÑĤ": 3470,
      "ĠÑģÐ¾Ð±ÑģÑĤÐ²ÐµÐ½Ð½Ð¾": 3471,
      "ĠÐ¼Ð¾Ð³Ð»Ð°": 3472,
      "ĠÑĦÐ¸Ð³": 3473,
      "ĠÑģÐ¾Ð²Ð°": 3474,
      "ĠÑĥÐ´Ð°ÑĢ": 3475,
      "ĠÐ¾ÑģÐ»": 3476,
      "ĠÐ¾ÑģÐ½Ð¾Ð²": 3477,
      "ĠÐ¾Ð³Ð¾Ð½ÑĮ": 3478,
      "ÐĹÐ°": 3479,
      "ĠÑģÐ¼Ð¾Ð¶ÐµÑĤ": 3480,
      "ĠÑģÐ´ÐµÐ»Ð°": 3481,
      "ĠÑģÐ»ÑĥÑĩÐ°Ð¹": 3482,
      "ĠÑĥÐ¶Ð°ÑģÐµ": 3483,
      "ĠÐ¿ÑĢÐ¾Ð´Ð¾Ð»Ð¶Ð¸Ð»Ð°": 3484,
      "ĠÐ¿ÐµÑĢÐ²ÑĭÐ¼": 3485,
      "ĠÑĥÑĢÐ¾ÐºÐ°": 3486,
      "ĠÐ½ÐµÐ¼ÐµÐ´Ð»ÐµÐ½Ð½Ð¾": 3487,
      "ĠÐ¿Ð¾Ð»ÑĥÑĩÐ¸Ð»": 3488,
      "ĠÑĩÐ°ÑģÑĭ": 3489,
      "Ð¥Ð¾Ð³Ð²Ð°ÑĢÑĨÐµ": 3490,
      "ĠÐ¿Ð»Ð¾Ñħ": 3491,
      "ĠÐ·Ð°ÑħÐ¾ÑĤ": 3492,
      "ĠÐ¾Ð±ÑĬÑıÑģÐ½Ð¸Ð»": 3493,
      "ĠÑģÑĥÐ¼ÐµÐ»": 3494,
      "ĠÐ¿Ð¾Ð²ÑĤÐ¾ÑĢÐ¸Ð»Ð°": 3495,
      "ĠÐ¼ÐµÑĢÐµ": 3496,
      "ĠÑģÐ²Ð¸ÑģÑĤ": 3497,
      "ĠÐ¼ÑıÑĩ": 3498,
      "ĠÐ¿ÑĢÐ¾Ð»ÐµÐ¿ÐµÑĤ": 3499,
      "ĠÑĤÐ²Ð¾Ð¹": 3500,
      "ĠÐ»ÐµÑģÑĥ": 3501,
      "ĠÑģÐµÑĢÐµÐ±ÑĢÐ¸ÑģÑĤ": 3502,
      "ĠÐ¿Ð¾Ð¼Ð¾ÑīÑĮÑİ": 3503,
      "ĠÐ±Ð»Ð¸Ð¶Ðµ": 3504,
      "ĠÐ¿Ð¾ÑĤÐ¾Ð»Ð¾Ðº": 3505,
      "ĠÑģÐ¾ÑĩÐ¸Ð½": 3506,
      "ĠÐļÐ¾ÑĢÐ½ÐµÐ»Ð¸": 3507,
      "ĠÐ¶ÐµÐ½ÑīÐ¸Ð½Ð°": 3508,
      "ĠÐ½ÐµÐ½Ð°Ð²Ð¸Ð´": 3509,
      "ĠÐ±ÑĥÑĢÐºÐ½ÑĥÐ»": 3510,
      "ĠÐ¿Ð¾Ð¸Ð½ÑĤÐµÑĢÐµÑģÐ¾Ð²Ð°Ð»ÑģÑı": 3511,
      "ĠÐ¿Ð¾Ð´Ð´ÐµÑĢÐ¶": 3512,
      "ĠÐ¼Ð¸Ð½ÑĥÑĤÑĥ": 3513,
      "Ð°Ð²ÐµÐ½ÐºÐ»Ð¾": 3514,
      "ĠÐľÐ¾Ð½ÑĤÐµÐ³": 3515,
      "),": 3516,
      ").": 3517,
      "Ð¸ÑĩÐµÑģÐºÐ¸": 3518,
      "ÑĤÐ°Ð±": 3519,
      "Ð»Ð°Ð¶": 3520,
      "ĠÐ¿ÑĥÑĤ": 3521,
      "ĠÑģÑĬ": 3522,
      "ĠÑģÐ·Ð°Ð´Ð¸": 3523,
      "ÑĩÐ°ÑĤÑĮ": 3524,
      "ÐºÐ½Ð¾Ð²": 3525,
      "Ð²Ð°Ð»Ð¸ÑģÑĮ": 3526,
      "Ð¼Ð°ÑĢ": 3527,
      "ĠÐºÐµÐ¼": 3528,
      "ÑħÐ°ÑĢ": 3529,
      "Ð¾Ð»Ð¾": 3530,
      "ĠÐ´Ñİ": 3531,
      "ĠÐ¼Ð°Ð½": 3532,
      "ĠÐ¼ÑıÑģ": 3533,
      "ĠÐ±ÑĥÑĤ": 3534,
      "ĠÐ±Ð¾ÑĢÐ¼Ð¾ÑĤ": 3535,
      "ĠÑĩÐ°ÑĪ": 3536,
      "Ð°Ð²Ð°ÑĤÑĮ": 3537,
      "ĠÐ·Ð°ÑĤÐ¾": 3538,
      "ÑĢÐ°Ð½Ñı": 3539,
      "ĠÐŀÑĩÐµÐ½ÑĮ": 3540,
      "Ð»ÑĮÐ¿Ñĥ": 3541,
      "Ð¾Ð»ÑĮÑĪÐµ": 3542,
      "ĠÐ¾Ð±Ðµ": 3543,
      "ĠÑħÑĢÐ¸Ð¿": 3544,
      "ĠÐºÐ°ÐºÐ¸Ñħ": 3545,
      "ĠÐ¶Ð´Ð°Ð»": 3546,
      "ÐµÐ³Ð¾ÑģÑı": 3547,
      "ĠÑıÑĢÐ¾ÑģÑĤ": 3548,
      "Ð¾Ð¿Ð°Ñģ": 3549,
      "ÐµÐ·Ð´": 3550,
      "ĠÐľÐ¾Ð»Ð»Ð¸": 3551,
      "ĠÐ¿ÐµÑĢÐµÐ¼": 3552,
      "ĠÑĤÐ°ÐºÐ¾Ð¼": 3553,
      "ĠÐ»Ð¸Ð±Ð¾": 3554,
      "Ð¼Ð¾ÑĤÑĢÑı": 3555,
      "ÐŁÐ¾ÑĩÐµÐ¼Ñĥ": 3556,
      "ÐŁÑĢÐ°Ð²Ð´": 3557,
      "ÑİÑīÐ¸Ð¼": 3558,
      "ÐµÑĪÑĮÑģÑı": 3559,
      "ĠÐ¾Ð´Ð½Ñĥ": 3560,
      "ÑĢÐµÐ´Ð¾ÑĤÐ¾": 3561,
      "ÑĥÑĪÐºÑĥ": 3562,
      "ĠÑģÐ²Ð¸Ð´": 3563,
      "ÑĤÑĥÐ´Ð°": 3564,
      "ĠÐķÐ´": 3565,
      "ĠÐ²ÐµÑĢÐ½Ð¾": 3566,
      "ĠÐ¥Ð¾Ð³Ñģ": 3567,
      "ĠÑĤÑĢÐµÑĤÑĮ": 3568,
      "ĠÐ´Ð¾Ð¼Ðµ": 3569,
      "ĠÐ¿Ð¾ÑĢÐ¾Ð³": 3570,
      "ĠÐ¿ÑĢÐ¾ÑĪÐ»Ð¾Ð¼": 3571,
      "ĠÐ´ÐµÐ»Ðµ": 3572,
      "ĠÐºÑĢÐ¸ÐºÐ½ÑĥÐ»Ð°": 3573,
      "ĠÑģÐ¸Ð´ÐµÐ»Ð¸": 3574,
      "ĠÑįÑĤÐ¸Ñħ": 3575,
      "Ð»ÑĥÑĪÐ°Ð¹ÑĤÐµ": 3576,
      "ĠÐ¾ÑĤÐ²ÑĢÐ°ÑĤ": 3577,
      "ĠÐ¸Ð·Ð²ÐµÑģÑĤ": 3578,
      "ĠÑģÑĤÐµÐ½Ðµ": 3579,
      "ĠÐ²Ð¾Ð»Ð¾ÑģÐ°Ð¼Ð¸": 3580,
      "ĠÐ½ÐµÑģÑĩÐ°ÑģÑĤ": 3581,
      "ĠÐ²Ð·Ð´ÑĢÐ¾Ð³": 3582,
      "ĠÐ¾ÑģÑĤÐ°Ð»ÑĮÐ½ÑĭÑħ": 3583,
      "ĠÐ¸Ð½ÑĤÐµÑĢÐµÑģÐ½Ð¾": 3584,
      "ĠÐ±Ð»Ð¸Ð·ÐºÐ¾": 3585,
      "Ð²Ð¾Ð»Ð½Ð¾Ð²": 3586,
      "ĠÑģÐ²Ð¸ÑĢÐµÐ¿": 3587,
      "ĠÑģÑĥÐ½ÑĥÐ»": 3588,
      "ĠÐ·ÐµÐ¼Ð»Ñİ": 3589,
      "ĠÐ´ÐµÐ¼ÐµÐ½ÑĤÐ¾ÑĢÑĭ": 3590,
      "ĠÑĢÐ°ÑģÐºÑĢÑĭ": 3591,
      "ĠÐ²Ð½ÑĥÑĤÑĢÐ¸": 3592,
      "ĠÐºÐ½Ð¸Ð¶": 3593,
      "ĠÐ¾Ð±ÑĢÐ°Ð·Ð¾Ð²": 3594,
      "ĠÐ½ÐµÐ¿ÑĢÐ¸ÑıÑĤÐ½Ð¾": 3595,
      "ÑĥÐ»ÑĮÑĤÐ°ÑĤ": 3596,
      "ĠÐ·Ð°Ð²ÑĤÑĢÐ°Ðº": 3597,
      "ĠÑģÐ¿Ð°Ð»ÑĮÐ½Ð¸": 3598,
      "ÑĩÑĥÑĤÑĮ": 3599,
      "ĠÑģÐ¸Ð»ÑĮÐ½ÐµÐµ": 3600,
      "ĠÐ¼ÑĭÑģÐ»ÑĮ": 3601,
      "ĠÑģÑĤÐ°Ð½ÐµÑĤ": 3602,
      "ĠÐ²Ð¾Ð²ÑģÐµ": 3603,
      "ĠÐ·Ð»Ð¾Ð±": 3604,
      "ĠÐ°Ð±ÑģÐ¾Ð»ÑİÑĤÐ½Ð¾": 3605,
      "ĠÐŁÐ¸Ð½Ð¸Ð¹": 3606,
      "ĠÐļÐ²Ð°ÑĦÑĦÐ»": 3607,
      "ĠÐĶÐ»Ð¸Ð½Ð½Ð¾Ð¿Ð¾Ð¿": 3608,
      "ÑĥÑĦÑĦÐ»ÑĮÐ¿Ñĥ": 3609,
      "ĠÐłÐµÐ±ÑıÑĤÐ°": 3610,
      "ÐŁÑĢÐ°Ð²Ð´Ð¾Ð±": 3611,
      "ĠÐ¥Ð¾Ð³ÑģÐ¼": 3612,
      "ÑĥÑĦÑĦÐ»ÑĮÐ¿ÑĥÑĦÑĦ": 3613,
      "ĠÑīÑĳ": 3614,
      "ÑĤÐ»ÐµÐ½": 3615,
      "ÑģÑĭ": 3616,
      "Ð»ÐµÐ½Ð¸Ñİ": 3617,
      "Ð½ÐµÐ½Ð¸Ñı": 3618,
      "Ð½ÑĳÐ¼": 3619,
      "ÑĥÐºÐ¸": 3620,
      "ÑĮÑıÐ¼Ð¸": 3621,
      "ÑıÐ»Ð°ÑģÑĮ": 3622,
      "ÑıÐ½Ð½Ð¾": 3623,
      "ĠÑģÐ½Ñı": 3624,
      "ĠÑģÐ¼Ð¾ÑĤ": 3625,
      "ĠÐ½ÐµÑĢ": 3626,
      "ĠÐ²ÑĩÐµÑĢÐ°": 3627,
      "ÐºÐ½ÑĥÐ»ÑģÑı": 3628,
      "Ð´ÑĢÑĥÐ³": 3629,
      "ĠÐ¾ÑĤÐ¾": 3630,
      "ĠÐ¾ÑĢÑĥÐ¶Ð¸Ðµ": 3631,
      "ÑĤÐ¾Ðµ": 3632,
      "ĠÐºÐ»ÐµÑĤ": 3633,
      "Ð¾Ð»Ð²": 3634,
      "Ð¾Ð»Ð¾Ð´": 3635,
      "ĠÐ´ÑĭÑĪ": 3636,
      "ĠÐ´ÑĢÐ°Ðº": 3637,
      "ĠÐ´Ð²Ð¸Ð³": 3638,
      "Ð»Ð¸Ð±Ð¾": 3639,
      "ĠÑĤÐµÑĢ": 3640,
      "ĠÑĤÑĥÐ¼": 3641,
      "ĠÐĵÑĢÑįÐ½": 3642,
      "Ð³Ð¾Ð»": 3643,
      "ĠÐ¼Ð°": 3644,
      "ĠÐ¼ÐµÐ´": 3645,
      "ĠÐ±Ð°ÑĢ": 3646,
      "ĠÐ±Ð¾Ñı": 3647,
      "ÑĳÑħ": 3648,
      "ĠÐ½Ð°ÑĪÑĳÐ»": 3649,
      "ĠÐ³Ð¾ÑĢÐ´": 3650,
      "ĠÐ¾ÑĤÐ½Ð¾ÑĪ": 3651,
      "ĠÐ»Ð¾Ð²": 3652,
      "ĠÐ±ÑĭÐ²Ð°ÐµÑĤ": 3653,
      "ĠÐĶÐ¾": 3654,
      "ĠÐ¿ÑĢÐ¾ÑıÐ²": 3655,
      "ĠÐŁÐµÑĢÐµÐ´": 3656,
      "ĠÐ¿ÑĢÐ¸Ð²ÐµÑĤ": 3657,
      "Ð»Ð¾ÑħÐ¾": 3658,
      "Ð°ÑģÑĪ": 3659,
      "ĠÑħÑĢÑĥ": 3660,
      "ĠÐłÐ¸ÑĤÐ°": 3661,
      "ĠÐºÐ°ÐºÐ°Ñı": 3662,
      "ĠÐ¶Ð°Ð±": 3663,
      "ĠÐ¶Ð´Ð°ÑĤÑĮ": 3664,
      "Ð°Ð½Ð½Ð¾Ðµ": 3665,
      "ĠÑĢÐ°Ð·Ð²Ðµ": 3666,
      "ĠÑĢÐ°Ð·ÑĥÐ¼ÐµÐµÑĤÑģÑı": 3667,
      "ĠÐľÑĢÐ°Ðº": 3668,
      "ĠÐľÐ¸ÑģÑĤÐµÑĢ": 3669,
      "ĠÐ¿ÐµÑĢÐµÑģ": 3670,
      "ÐµÐ½ÑĮÐºÐ¾": 3671,
      "ĠÐ¿Ð¾Ð»ÐµÐ·": 3672,
      "Ð¼ÑĥÑĤÐ¸": 3673,
      "ĠÐĳÐµÐ·": 3674,
      "ĠÐ²Ð¸Ð´Ðµ": 3675,
      "ĠÐĺÑĤÐ°Ðº": 3676,
      "ĠÐ§ÑĤÐ¾Ð±Ñĭ": 3677,
      "ĠÐ²Ð¾ÑĪÑĳÐ»": 3678,
      "ĠÐ¿Ð¾Ð²Ð¾Ð´Ñĥ": 3679,
      "ĠÐ´Ð¾ÑģÑĤÐ¸": 3680,
      "ĠÐ²Ð¾Ð·Ð±": 3681,
      "Ð¡Ð¸ÑĢÐ¸ÑĥÑģ": 3682,
      "ÐļÐĲ": 3683,
      "ÐķÐł": 3684,
      "ÑĥÑĪÐºÐ¸": 3685,
      "ĠÐ³Ð¾Ð»Ð¾ÑģÐ°": 3686,
      "ÐľÐ¾Ð¶ÐµÑĤ": 3687,
      "ĠÐ¿ÑĢÐµÐ´ÑģÑĤÐ¾": 3688,
      "ÑĳÐ½Ð½ÑĭÐ¼": 3689,
      "ÑĳÐ½Ð½Ð¾Ðµ": 3690,
      "ĠÐ¾ÑģÑĤÐ°Ð»ÑģÑı": 3691,
      "ÑĩÐ°Ñī": 3692,
      "ĠÑĥÐ´ÐµÑĢÐ¶": 3693,
      "ĠÑģÑĤÑĢÐ°ÑħÐ°": 3694,
      "ĠÑĥÑģÐ»Ð°Ð´": 3695,
      "ĠÑĤÑĢÐµÐ±": 3696,
      "ĠÐ²Ð¿ÐµÑĩÐ°ÑĤ": 3697,
      "ĠÑĥÑģÐ¿Ð¾ÐºÐ¾": 3698,
      "ĠÐ¿ÑĢÐ¾Ð²Ð¾Ð´": 3699,
      "ĠÐ¿ÑĢÐ¾ÑĪÐ»Ð°": 3700,
      "ĠÐĽÑİÑĨÐ¸": 3701,
      "ĠÑĥÐ¿Ð¾Ð¼": 3702,
      "ĠÐ¼Ð¾Ð»Ð¾Ð´": 3703,
      "ĠÐ·Ð²ÑĥÐº": 3704,
      "ĠÑģÐ²ÐµÑĤÐµ": 3705,
      "ÑĢÐµÐ²Ð¾Ð¶": 3706,
      "ĠÐ±Ð¾Ð»ÑĮÑĪÐ¾Ðµ": 3707,
      "ÐµÑĢÐ²ÑĭÐµ": 3708,
      "ĠÑĤÐ¾Ð»Ð¿": 3709,
      "ĠÐ¼ÐµÑĤÐ»Ñĭ": 3710,
      "ĠÐ¼Ð½Ð¾Ð¶": 3711,
      "ĠÐ¿Ð¾Ð´Ð¾ÑĪÐ»Ð¸": 3712,
      "ĠÑįÐ»ÑĮÑĦÐ°": 3713,
      "ÑĢÐµÐ·Ð²Ñĭ": 3714,
      "ĠÐ²Ð¾Ð¿ÑĢÐ¾ÑģÑĭ": 3715,
      "ĠÐ½Ð°ÑĢÑĥÑĪ": 3716,
      "ĠÐ¼ÐµÑĢÐ·": 3717,
      "ĠÐºÑĢÐµÑģÐ»Ð°": 3718,
      "ĠÑįÐºÐ·Ð°Ð¼ÐµÐ½Ñĭ": 3719,
      "ĠÑįÐºÐ·Ð°Ð¼ÐµÐ½Ð¾Ð²": 3720,
      "ĠÐ´Ð¾ÑĢÐ¾Ð³Ðµ": 3721,
      "ÑįÐ½ÑĤÐ»ÐµÐ½": 3722,
      "ĠÐ²ÑĭÐ´Ð¾Ñħ": 3723,
      "ĠÐ´ÑĥÐ±Ð»ÑĮ": 3724,
      "ĠÐŀÑĢÐ´ÐµÐ½": 3725,
      "ĠÑĥÐ»Ð¸ÑĨÑĥ": 3726,
      "ĠÐ±Ð»Ð°Ð³Ð¾Ð´Ð°ÑĢ": 3727,
      "ĠÐ½ÐµÐ²Ð¾Ð·Ð¼ÑĥÑĤÐ¸": 3728,
      "ÐĶÑĥÐ¼Ð°Ñİ": 3729,
      "ĠÐ²Ð·Ð´Ð¾ÑħÐ½ÑĥÐ»": 3730,
      "ĠÐ´Ð°Ð»ÐµÐºÐ¾": 3731,
      "ĠÑĢÐ°ÑģÐ¿Ð°ÑħÐ½ÑĥÐ»Ð°ÑģÑĮ": 3732,
      "ĠÐ¾ÑĩÐµÑĢÐµÐ´Ð¸": 3733,
      "ĠÐ´Ð¾Ð¼Ð°ÑĪÐ½Ð¸Ñħ": 3734,
      "ĠÑĩÑĥÐ²ÑģÑĤÐ²Ð¾": 3735,
      "ĠÐ½ÐµÐ³ÑĢÐ¾Ð¼ÐºÐ¾": 3736,
      "ĠÐ°ÐºÐºÑĥÑĢÐ°ÑĤ": 3737,
      "ÐłÐ°Ð·ÑĥÐ¼ÐµÐµÑĤÑģÑı": 3738,
      "ĠÑģÑĩÐ°ÑģÑĤÑĮ": 3739,
      "ÐŁÑĢÐ¸Ð²ÐµÑĤ": 3740,
      "ĠÐĲÐ·ÐºÐ°Ð±Ð°Ð½": 3741,
      "ĠÐ¶ÑĥÑĢÐ½Ð°Ð»": 3742,
      "ĠÑıÑĢÐ¾ÑģÑĤÐ¸": 3743,
      "ÑģÑİÐ´Ñĥ": 3744,
      "ĠÑģÐ²Ð¸Ð´ÐµÑĤ": 3745,
      "ĠÐĵÑĢÑįÐ½Ð¶ÐµÑĢ": 3746,
      "ĠÐľÑĢÐ°ÐºÑįÐ½ÑĤÐ»ÐµÐ½": 3747,
      "ĠÑĥÑģÐ»Ð°Ð´Ñį": 3748,
      "Ð®": 3749,
      "ÐµÑİÑģÑĮ": 3750,
      "Ð¸Ñİ": 3751,
      "ÑĤÐ¾Ð²": 3752,
      "ÑĢÐµÑģÑģ": 3753,
      "Ð»Ð°Ð»": 3754,
      "Ð»Ð¾Ð¹": 3755,
      "Ð½Ð°Ð¼Ð¸": 3756,
      "ÑĮÑĤÐµ": 3757,
      "ĠÐ¿ÐµÑģ": 3758,
      "ĠÑģÐ¼Ñĥ": 3759,
      "ĠÐ²Ðº": 3760,
      "ĠÐ²ÑħÐ¾Ð´": 3761,
      "ĠÐ²ÑĢÐ°Ñī": 3762,
      "ÐºÐµÑĢ": 3763,
      "Ð´Ð°Ð»Ð°": 3764,
      "Ð´Ð°Ð»Ð¸": 3765,
      "Ð²Ð¾Ð¹": 3766,
      "Ð²Ð¾Ð»ÑĮ": 3767,
      "Ð¼Ð¾Ð¼": 3768,
      "ÑĪÐºÐ¸": 3769,
      "ĠÐºÐ¾Ð²": 3770,
      "ĠÐºÑĥÑģ": 3771,
      "ÑħÐ½ÑĥÐ»ÑģÑı": 3772,
      "ÑģÑĤÐµÑģÑĤÐ²ÐµÐ½Ð½Ð¾": 3773,
      "ĠÐ´Ð²Ð¾Ðµ": 3774,
      "Ð»Ð¸Ð»": 3775,
      "ĠÐ·ÐµÑĢÐº": 3776,
      "ĠÐ¼Ð¾Ð»ÑĮ": 3777,
      "ĠÐ±Ð°Ð½": 3778,
      "ĠÑĩÑĢÐµÐ·Ð²Ñĭ": 3779,
      "ĠÑĥÑĪÐ¸": 3780,
      "ÐµÐ½ÑĤÐ°": 3781,
      "ĠÑĢÐ¾Ð·": 3782,
      "ĠÑĢÐ¾Ð±Ñĭ": 3783,
      "ĠÑĢÐ¾Ð¶Ð´": 3784,
      "Ð¾ÑĢÑĢÐ¸": 3785,
      "Ð°Ð¼Ð°": 3786,
      "ÑģÐºÐ¾Ð»ÑĮÐ·": 3787,
      "ĠÐ¿ÑĢÐ¾ÑĤÐ¸": 3788,
      "ĠÐŀÑħ": 3789,
      "ĠÐ²ÑĭÑĢÐ°Ð·": 3790,
      "ĠÐ²ÑĭÐ½ÑĥÐ¶": 3791,
      "ĠÐŁÑĢÐ¾ÑģÑĤÐ¾": 3792,
      "ĠÐ¿ÑĢÐ¸ÑıÑĤ": 3793,
      "ĠÐ¿ÑĢÐ¸ÑĪÐ»Ð¸": 3794,
      "ĠÑģÑĤÑĢÑĥ": 3795,
      "ĠÐĿÐ°Ð²": 3796,
      "ĠÐ¿Ð¾Ð´Ð·": 3797,
      "ÐºÐ¾ÑģÑĤÑĮ": 3798,
      "ĠÐ¶Ð°ÑĢ": 3799,
      "ÐµÑģÑĤÑĥÐ¿": 3800,
      "ÑĪÐ¸Ð½Ð°": 3801,
      "ĠÐ°Ð»": 3802,
      "Ð¸Ð»Ð°Ñħ": 3803,
      "Ð°Ð¶Ð´Ñĭ": 3804,
      "ÐĿÐķ": 3805,
      "ÐŀÑĩÐµÐ½ÑĮ": 3806,
      "Ð°Ð¹ÐµÑģ": 3807,
      "ĠÐĹÐ°Ð¿": 3808,
      "ÑĥÑĤÐ°": 3809,
      "ĠÐĳÐ¸ÑĢ": 3810,
      "ĠÐ¾ÑĩÐºÐ¸": 3811,
      "ĠÐĽÐ°Ð´Ð½Ð¾": 3812,
      "ÐµÐ»Ð°ÑģÑĮ": 3813,
      "ĠÐ¿Ð¾ÐºÑĢÑĭ": 3814,
      "ĠÑģÐ°Ð¼ÑĭÐ¼": 3815,
      "ĠÐ´ÑĢÑĥÐ³Ð¸Ð¼": 3816,
      "ÐłÐ°Ð²ÐµÐ½ÐºÐ»Ð¾": 3817,
      "ÐĵÐµÑĢÐ¼Ð¸": 3818,
      "ĠÐ¿ÑĢÐ°Ð²Ð¾": 3819,
      "ĠÐ²ÐµÑĢÐ½ÑĥÑĤÑĮÑģÑı": 3820,
      "ĠÐ¿Ð»Ð°Ð¼": 3821,
      "ĠÑģÑĤÐ¾ÑĢÐ¾Ð½Ðµ": 3822,
      "Ð°ÑİÑģÑĮ": 3823,
      "ĠÐ½Ð¾Ð³Ñĥ": 3824,
      "ĠÐ¿Ð¾Ð²ÐµÑĢÐ½ÑĥÐ»Ð°ÑģÑĮ": 3825,
      "ĠÐ¿ÑĢÐ¾ÑĪÐ»ÑĭÐ¹": 3826,
      "ĠÐ²ÑĭÐ¿ÑĥÑģÐº": 3827,
      "ĠÑĥÐ»ÑĭÐ±Ð½ÑĥÐ»Ð°ÑģÑĮ": 3828,
      "ĠÐ¿ÐµÑĢÐ²Ð¾Ð¹": 3829,
      "ÑĤÐµÑĢÐµÑģÐ½Ð¾": 3830,
      "ĠÐŁÐ¾ÑįÑĤÐ¾Ð¼Ñĥ": 3831,
      "Ð¾Ð²Ð¾Ð»ÑĮÑģÑĤÐ²": 3832,
      "Ð¿Ð¾Ð¼Ð¸Ð½Ð°": 3833,
      "ĠÑĥÐ³Ð¾Ð´Ð½Ð¾": 3834,
      "ĠÐ³ÑĢÑĥÐ¿Ð¿": 3835,
      "ĠÐ³ÑĢÑĥÐ´ÑĮ": 3836,
      "ĠÐ¿Ð¾ÑıÐ²Ð¸Ð»ÑģÑı": 3837,
      "ĠÐ²ÑģÐºÐ¾ÑĩÐ¸Ð»": 3838,
      "ĠÐ¸Ð³ÑĢÐ°ÑĤÑĮ": 3839,
      "ĠÐ¼Ð°Ð»ÐµÐ¹": 3840,
      "ĠÐºÐ¾Ð»Ð´ÑĥÐ½Ð°": 3841,
      "ĠÑģÐ¾ÑģÑĤÐ¾Ñı": 3842,
      "ĠÑĢÐ°ÑģÑģÑĩÐ¸ÑĤ": 3843,
      "ĠÐºÐ°Ð¶Ð´Ð¾Ð¹": 3844,
      "ĠÑĢÐµÐ·ÑĥÐ»ÑĮÑĤÐ°ÑĤ": 3845,
      "ĠÐ¿ÑĢÐ¸Ð·Ð½Ð°": 3846,
      "ĠÐ¿Ð°Ð»ÑĮÑĨÑĭ": 3847,
      "ĠÑĢÐ°Ð²Ð½": 3848,
      "ĠÐ¾ÑĤÑĩÑĳÑĤ": 3849,
      "ĠÑĥÐ´Ð°ÑĢÐ¸": 3850,
      "Ð¾Ð½ÑĮÐºÐ¾": 3851,
      "ĠÐ²ÑģÐµÐ¼Ð¸": 3852,
      "ĠÐ´ÐµÑĢÐµÐ²ÑıÐ½": 3853,
      "ĠÐ½Ð°ÑħÐ¾Ð´Ð¸ÑĤÑģÑı": 3854,
      "ĠÐ·Ð°ÑģÑĤÐ°Ð²Ð¸ÑĤÑĮ": 3855,
      "ĠÐ·Ð°ÐºÑĢÐ¸ÑĩÐ°Ð»Ð°": 3856,
      "ĠÐ¿ÑĢÐ¾ÑĩÑĮ": 3857,
      "ĠÐ·Ð°Ð½Ð¸Ð¼Ð°ÑĤÑĮÑģÑı": 3858,
      "ĠÑĩÐ¸ÑĤÐ°ÑĤÑĮ": 3859,
      "ĠÐ¼ÑĢÐ°Ñĩ": 3860,
      "ĠÑħÐ²Ð°ÑĤÐ¸ÑĤ": 3861,
      "ĠÐ¿ÑĢÐ¾ÑĪÐµÐ¿ÑĤÐ°Ð»Ð°": 3862,
      "ĠÐ±Ð°Ð»Ð»Ð¾Ð²": 3863,
      "ĠÑģÐ¶Ð¸Ð¼": 3864,
      "ĠÐ±Ð»Ð¸Ð¶": 3865,
      "ĠÐĽÐ°Ð²Ð°Ð½": 3866,
      "ĠÑģÐ¾Ð±ÑĢÐ°Ð½Ð¸Ñı": 3867,
      "ĠÐ¿Ð¸ÑģÐ°ÑĤÑĮ": 3868,
      "ĠÐºÑĢÑĥÑĤÐ¾": 3869,
      "ĠÐ½ÐµÐ¾Ð±ÑħÐ¾Ð´Ð¸Ð¼Ð¾": 3870,
      "ĠÐ½ÐµÑĤÐµÑĢÐ¿ÐµÐ»Ð¸": 3871,
      "ĠÐĳÑĭÐ»Ð¾": 3872,
      "ĠÐ²Ð¸Ð½Ð¾Ð²Ð°ÑĤ": 3873,
      "ĠÑģÐ»ÑĳÐ·Ñĭ": 3874,
      "ĠÐ»ÐµÐ´Ñı": 3875,
      "ĠÐ¡ÐµÑĢÐ´ÑĨÐµ": 3876,
      "ĠÐ²Ð¾Ð·Ð±ÑĥÐ¶Ð´": 3877,
      "ÐºÐµÑĢÐ°Ð¹ÐµÑģ": 3878,
      "Ġ2": 3879,
      "Ð¸Ð¿": 3880,
      "ÑĤÐµÐ»ÑĮÐ½Ð¾": 3881,
      "ÑĢÐ°Ð»ÑģÑı": 3882,
      "Ð»Ð¾ÑĤ": 3883,
      "ĠÐ¿ÑĤÐ¸": 3884,
      "ĠÐ¿ÑıÑĤÐ¸": 3885,
      "ĠÑģÐ½Ð°ÑĩÐ°Ð»Ð°": 3886,
      "ĠÐ½Ð°Ð¼Ð¸": 3887,
      "ÐºÐ¾Ð»": 3888,
      "Ð²Ð¾ÑĤ": 3889,
      "Ð²ÑĭÑĢ": 3890,
      "ÑĢÐ¸Ðº": 3891,
      "ÑĢÐ¸Ð¼ÐµÑĢ": 3892,
      "ĠÐºÑĥÑĩ": 3893,
      "ĠÐ´Ñĭ": 3894,
      "ĠÐ´Ð¸Ñģ": 3895,
      "ĠÐ´ÑĭÐ¼": 3896,
      "ĠÐ·ÐµÐ²": 3897,
      "ĠÐ·Ð½Ð°Ð»Ð¸": 3898,
      "ĠÑĤÑĢÑı": 3899,
      "Ð³ÑĥÐ´": 3900,
      "Ð³ÑĢÐ¸Ð´": 3901,
      "ĠÐ¼Ð¾Ð½": 3902,
      "ĠÐ¼ÑĳÑĤ": 3903,
      "ĠÐ±Ð¾Ðº": 3904,
      "ĠÑĥÐ¼ÐµÑĢ": 3905,
      "ĠÑĥÑĢÐ¾Ð´": 3906,
      "ÐµÑĤÐ°": 3907,
      "ÑĳÑĤÐ¸": 3908,
      "ĠÐ½ÐµÑģÐº": 3909,
      "ĠÐ½Ð°ÑģÑĤÑĥÐ¿": 3910,
      "Ð°Ð²Ð¸Ð»": 3911,
      "Ð¾ÑĤÐ²ÐµÑĤ": 3912,
      "Ð¾Ð½Ð´": 3913,
      "Ð¾Ð½Ð¾Ð²": 3914,
      "ĠÐ¾ÑĤÑĨÐ°": 3915,
      "ĠÐ¿ÑĢÐµÐ·": 3916,
      "ĠÐ»Ð¾ÑĢÐ´": 3917,
      "ĠÐ¿ÑĢÐ¾Ñħ": 3918,
      "ÐµÐ½Ð¸ÐºÑģ": 3919,
      "Ð¸Ð½Ð°Ð»": 3920,
      "ĠÐ²ÑĭÑĪÐ»Ð°": 3921,
      "ĠÑģÐºÑĢÐ¸Ð¿": 3922,
      "ĠÐ¾Ð±ÐµÐ´": 3923,
      "ĠÐ¡Ð¼Ð¸": 3924,
      "ĠÐ¿ÑĢÐ¸Ð¼ÐµÑĢ": 3925,
      "ĠÐ¿ÑĢÐ¸Ð´ÑĥÐ¼": 3926,
      "ĠÐļÑģÑĤÐ°ÑĤÐ¸": 3927,
      "ĠÑĢÐ°Ð·Ð¼": 3928,
      "ĠÑģÐ¿Ð°ÑģÐ¸Ð±Ð¾": 3929,
      "Ð°Ð¶Ð½Ð¾": 3930,
      "ĠÑĪÐ°Ð½": 3931,
      "ÐµÐ¿ÐµÐ½Ð½Ð¾": 3932,
      "ĠÑĤÐ°ÐºÐ°Ñı": 3933,
      "ĠÑģÑĤÐ¾ÑıÐ²": 3934,
      "ĠÐ»Ð¸ÑĪ": 3935,
      "ÐŀÐ³ÑĢÐ¸Ð´": 3936,
      "ĠÐ¿Ð¾ÑģÐ»ÑĭÑĪ": 3937,
      "ÐĲÐľ": 3938,
      "ĠÐ²Ð·ÑĢÐµÐ²": 3939,
      "ĠÐ²Ð·Ð¼Ð°Ñħ": 3940,
      "ĠÐ²Ð·Ð²Ð¾Ð»Ð½Ð¾Ð²": 3941,
      "Ð¢Ð¾Ð»ÑĮÐºÐ¾": 3942,
      "ĠÐ²ÑģÑĳÐ¼": 3943,
      "ĠÐĽÐ¾ÑģÐº": 3944,
      "ÑĢÐµÐ¼Ñı": 3945,
      "ÑīÑĳÐ½Ð½Ð¾": 3946,
      "ĠÑģÐ²Ð¾Ð¸Ð¼Ð¸": 3947,
      "ĠÐ±ÑĥÐ´ÐµÑĪÑĮ": 3948,
      "ĠÐ¾ÐºÑĢÑĥÐ¶": 3949,
      "ĠÐ´ÑĢÑĥÐ³Ð¾Ð¼": 3950,
      "Ð»ÑİÑģ": 3951,
      "Ð¸Ð¹ÑģÑı": 3952,
      "ĠÐºÐ¾Ð¼Ð¿": 3953,
      "ĠÐ¿Ð°Ð»Ð¾ÑĩÐºÐ°": 3954,
      "ĠÑĥÐ´Ð¾Ð²Ð¾Ð»ÑĮÑģÑĤÐ²": 3955,
      "ĠÑģÑĤÑĢÐ°Ñħ": 3956,
      "ĠÐ²ÑģÑĤÑĢÐµÐ²Ð¾Ð¶": 3957,
      "ĠÐ¾ÑģÐ¼ÐµÐ»Ð¸": 3958,
      "ĠÐ´ÑĥÐ¼Ð°ÐµÑĤ": 3959,
      "ĠÐ¿Ð»Ð°Ðº": 3960,
      "ĠÐºÑĢÑĳÑģÑĤ": 3961,
      "ĠÐ¿Ð¾Ð²ÐµÑĢÐ½ÑĥÐ»": 3962,
      "ĠÐ¸Ð½ÑĤÐµÑĢ": 3963,
      "ĠÑģÐµÑĢÐ´": 3964,
      "ĠÐ¿Ð¾Ð½ÑıÑĤÐ½Ð¾": 3965,
      "ĠÑĥÑģÐ¿ÐµÐ»Ð¸": 3966,
      "ĠÑĥÑģÐ¿ÐµÑħ": 3967,
      "ĠÐ¿ÑĢÐ¾ÑĪÐ»Ð¾": 3968,
      "ĠÐĴÐ¾Ð»ÑĮÐ´ÐµÐ¼Ð¾ÑĢÑĤÑĥ": 3969,
      "ĠÐ¼Ð¾ÐµÐ³Ð¾": 3970,
      "ĠÐĽÑĥÐ½Ñĭ": 3971,
      "ĠÐ·Ð²ÑĥÑĩ": 3972,
      "ĠÑĥÐ³ÑĢÐ¾Ð¶": 3973,
      "ĠÐ¾ÐºÐ°Ð·Ð°Ð»Ð¾ÑģÑĮ": 3974,
      "ĠÐ±Ð»ÐµÑģÑĤÑıÑī": 3975,
      "ĠÑĥÑĢÐ¾ÐºÐ¸": 3976,
      "ĠÐ´Ð°Ð²Ð°Ð¹ÑĤÐµ": 3977,
      "ĠÑģÑĩÐ¸ÑĤÐ°ÑĤÑĮ": 3978,
      "Ð»ÑĥÑĪÐ°Ð¹": 3979,
      "ĠÐ¿Ð¾ÑħÐ¾Ð¶Ðµ": 3980,
      "Ð½ÑİÑİ": 3981,
      "ĠÐĹÐ°ÑģÑĤÑĥÐ¿": 3982,
      "ĠÐ²Ð¾Ð·Ð´ÑĥÑħÐ°": 3983,
      "ĠÐ²ÑģÑıÐºÐ¸Ð¹": 3984,
      "Ð²ÐµÑĢÑħÑĥ": 3985,
      "ĠÐ²ÑĭÑħÐ¾Ð´Ñĥ": 3986,
      "ĠÐ¿ÐµÑĢÐ³Ð°Ð¼ÐµÐ½ÑĤÐ°": 3987,
      "ĠÐĶÐ¶ÐµÐ¹Ð¼ÑģÐ°": 3988,
      "ĠÐ¿ÐµÑĢÐµÐ±Ð¸Ð»Ð°": 3989,
      "ĠÐ¿ÐµÑĢÐµÑģÑĤÐ°Ð²Ð°Ñı": 3990,
      "ÑĢÐ°ÑĤÐ¸Ð»Ð¸ÑģÑĮ": 3991,
      "ĠÐ´Ð¸ÑĢÐµÐºÑĤÐ¾ÑĢ": 3992,
      "Ð¸ÑĢÐ¾Ð²Ð°ÑĤÑĮ": 3993,
      "ĠÐ·Ð°ÑıÐ²Ð¸Ð»": 3994,
      "ĠÐ½ÐµÐ·Ð°Ð¼ÐµÑĤ": 3995,
      "ĠÐ¾ÑĤÑģÑĥÑĤÑģÑĤÐ²": 3996,
      "ĠÑģÐ¿ÑĢÐ°Ð²Ð°": 3997,
      "ĠÑĢÐ¸ÑģÐº": 3998,
      "ĠÐ¿ÑĢÐ¸ÑĩÑĳÐ¼": 3999,
      "ĠÐºÐ¾ÑĪÐ¼Ð°ÑĢ": 4000,
      "ĠÑĤÐ¾ÑĢÐ¾Ð¿Ð»Ð¸Ð²Ð¾": 4001,
      "ĠÐ´Ð¾ÐºÐ°Ð·": 4002,
      "ĠÐ½ÐµÐ´Ð¾ÑĥÐ¼": 4003,
      "ÑĢÐµÐ´Ð¾ÑĤÐ¾Ñĩ": 4004,
      "ĠÐĶÐ»Ð¸Ð½Ð½Ð¾Ð¿Ð¾Ð¿Ð¿": 4005,
      "ĠÐ°ÐºÐºÑĥÑĢÐ°ÑĤÐ½Ð¾": 4006,
      "Ð¦": 4007,
      "Ð°ÑģÑĤÐ¸": 4008,
      "Ð¸ÑģÐºÐ¸": 4009,
      "Ð¸ÑĢÐ°Ñı": 4010,
      "ÑĢÐ°Ð»Ð¸ÑģÑĮ": 4011,
      "Ð»ÐµÐ²": 4012,
      "ÑĥÐ°Ð»ÑĮ": 4013,
      "ÑĮÐµ": 4014,
      "ÑĮÐ¸": 4015,
      "ÑĮÐµÐ²": 4016,
      "ĠÐ¿Ð¾Ð»ÑĮÐ·": 4017,
      "ĠÑģÑħÐ²Ð°": 4018,
      "ÑĩÐ¸Ñģ": 4019,
      "ÐºÐ°Ð»": 4020,
      "Ð²Ð°ÑĤÑĮÑģÑı": 4021,
      "Ð¼Ð°Ð·": 4022,
      "Ð¼Ð¾Ð¹": 4023,
      "ÑĢÐ¸Ñĩ": 4024,
      "ĠÐºÑĥÐ±": 4025,
      "Ð½Ð¸Ð¼Ð¸": 4026,
      "Ð¾Ð²Ð¾Ð¼": 4027,
      "Ð¾Ð²Ð¾Ð³Ð¾": 4028,
      "Ð¾Ð²ÐµÑĢÑĪ": 4029,
      "Ð¾Ð»Ð¸": 4030,
      "ĠÐ´ÑĥÑħ": 4031,
      "Ð»Ð¸Ð¿": 4032,
      "Ð»Ð¸Ð¶": 4033,
      "ĠÑĤÑĢÐ°Ð²": 4034,
      "ĠÑĤÑĥÐ¿": 4035,
      "ĠÐĵÐ´Ðµ": 4036,
      "Ð³Ð¾Ð¼": 4037,
      "ĠÐ¼ÐµÐ»": 4038,
      "ĠÐ¼ÐµÐ»ÑĮ": 4039,
      "ĠÑĥÐ¼Ð¸": 4040,
      "ÐµÐ»Ðµ": 4041,
      "Ð·Ð²": 4042,
      "Ð°ÐºÐ¾Ð½ÐµÑĨ": 4043,
      "ĠÐ½ÐµÑĥ": 4044,
      "ĠÐ¿Ð¾ÑħÐ¾Ð´": 4045,
      "ĠÐ¾ÑĤÑĤÑĥÐ´Ð°": 4046,
      "Ð¾Ð±Ð¾ÑĢÐ¾ÑĤ": 4047,
      "ĠÐ¿ÑĢÐµÑģÑĤÑĥÐ¿": 4048,
      "ĠÐ»Ð°Ð¿": 4049,
      "ĠÐ»ÐµÑĩ": 4050,
      "ĠÐ·Ð°Ð½Ð°Ð²": 4051,
      "ĠÐ¿ÑĢÐ¾ÑĢÐ¸ÑĨ": 4052,
      "ÑĦÐµ": 4053,
      "ĠÐ²ÑĭÐ¶": 4054,
      "ĠÐŁÐ¾Ð²": 4055,
      "Ð²Ð°Ð½": 4056,
      "ĠÐ¾Ð±ÑģÑĤÐ¾": 4057,
      "ĠÐ¡Ð»ÐµÐ´": 4058,
      "ĠÐ¿ÑĢÐ¸Ð´": 4059,
      "ĠÐ¿ÑĢÐ¸Ð¿": 4060,
      "ĠÑħÐ²Ð¾ÑģÑĤ": 4061,
      "ĠÑħÐ¾ÑĢÐ¾Ð¼": 4062,
      "ĠÐ¿Ð¾Ð´Ñĩ": 4063,
      "ĠÐ¿Ð¾Ð´Ð²": 4064,
      "ĠÐļÐ¾Ð»": 4065,
      "Ð°Ð½ÑģÐ¸": 4066,
      "Ð¾ÑĩÑĤÐ¸": 4067,
      "ĠÑĢÐ°Ð·Ð¾ÑĢ": 4068,
      "ÐµÐ·Ð¶": 4069,
      "ÑĥÐ´ÑĢÐµÐ¹": 4070,
      "ĠÐ°Ð´": 4071,
      "Ð°Ð±Ð¾Ñĩ": 4072,
      "Ð°Ð³Ð°Ñİ": 4073,
      "ĠÐ¢Ð¾Ð»": 4074,
      "ÐµÐ¶Ð°Ð»Ð°": 4075,
      "ĠÐ¿Ð¾Ð»Ð½Ð¾ÑģÑĤÑĮÑİ": 4076,
      "Ð°Ð¹ÑģÑı": 4077,
      "ĠÐ²Ð·ÑĢÐ¾Ñģ": 4078,
      "ÐĶÐĺ": 4079,
      "ĠÐĺÑħ": 4080,
      "ĠÐĺÐ»Ð¸": 4081,
      "Ð½Ð¸Ð¼Ð°ÐµÑĪÑĮ": 4082,
      "ĠÐ¿Ð¾Ð²ÐµÑĢÐ¸ÑĤÑĮ": 4083,
      "ĠÐĶÑĥÐ¼Ð±Ð»ÑĮÐ´Ð¾ÑĢÐ¾Ð¼": 4084,
      "ÑıÑĤÐµÐ»ÑĮ": 4085,
      "ÐĴÐ¸Ð´": 4086,
      "ĠÐ²Ð¾Ð·Ð½Ð¸Ðº": 4087,
      "ĠÐ¾Ð´Ð½Ð¾Ð²ÑĢÐµÐ¼ÐµÐ½Ð½Ð¾": 4088,
      "Ð¡Ð»Ð¸Ð·ÐµÑĢÐ¸": 4089,
      "ĠÐ¾ÐºÐ¾Ð½Ñĩ": 4090,
      "ÑĨÐ¸ÐµÐ¹": 4091,
      "ĠÑģÐ²ÐµÐ¶": 4092,
      "ĠÐ¿Ð¾Ð¼ÐµÑī": 4093,
      "Ð¸ÑĢÐ°ÑĤÑĮÑģÑı": 4094,
      "ĠÐ¿ÑĢÐ°Ð²Ð´Ñĥ": 4095,
      "ĠÐ½ÐµÐ¿ÑĢÐ¾": 4096,
      "ĠÑĥÐ±Ð¸ÑĤÑĮ": 4097,
      "ÐµÑģÑĤÐ²ÐµÐ½": 4098,
      "ĠÐ¿ÑĢÐ¾Ð´Ð¾Ð»Ð¶Ð°Ð»Ð°": 4099,
      "ĠÐĿÐµÑĥÐ¶ÐµÐ»Ð¸": 4100,
      "ĠÑĥÐ»ÑĭÐ±ÐºÐ°": 4101,
      "ĠÐ·Ð°Ð³Ð¾Ð²Ð¾ÑĢÐ¸Ð»Ð°": 4102,
      "ĠÐ±ÐµÑģÐµÐ´": 4103,
      "ĠÑĤÐ²Ð¾Ð¸": 4104,
      "ÑĭÐ²Ð°ÑıÑģÑĮ": 4105,
      "ĠÐ»ÑİÐ±ÐµÐ·": 4106,
      "ĠÐ²Ð¾ÑģÐ¿Ð¾Ð¼Ð¸Ð½Ð°": 4107,
      "ĠÐ¾ÑĤÐ²ÐµÑĩ": 4108,
      "ĠÐ·Ð°ÑīÐ¸Ñī": 4109,
      "ĠÐºÐ¾Ð»Ð´ÑĥÐ½Ð¾Ð²": 4110,
      "ĠÐ½Ð¾Ð²ÑĭÐ¹": 4111,
      "ĠÐºÐ¸Ð²Ð½ÑĥÐ»Ð°": 4112,
      "ĠÐ¿Ð¾ÑģÑĤÐ°ÑĢ": 4113,
      "ĠÐ¿ÑĢÐ¸Ð²Ñĭ": 4114,
      "ĠÐ¿Ð°Ð»ÑĮÑĨÐ°Ð¼Ð¸": 4115,
      "Ð²ÐµÑīÑĳÐ½": 4116,
      "ĠÐ²Ð½Ð¸Ð·Ñĥ": 4117,
      "ĠÑĥÑģÑĤÐ°Ð»Ð¾": 4118,
      "ĠÐºÐ¾Ð»Ð´Ð¾Ð²ÑģÑĤÐ²Ð°": 4119,
      "ĠÐ½Ð¾ÑĩÑĮ": 4120,
      "ĠÐ¿ÑĭÐ»ÑĮ": 4121,
      "ĠÑģÑĥÐ½Ð´ÑĥÐº": 4122,
      "ĠÑħÐ¾ÑħÐ¾ÑĤ": 4123,
      "ĠÐ±Ð»Ð¸Ð·Ð½ÐµÑĨÐ¾Ð²": 4124,
      "ĠÐĽÐ°Ð²Ð³ÑĥÐ´": 4125,
      "ĠÐ¿ÑĢÐµÐ´ÑĥÐ¿ÑĢÐµÐ´": 4126,
      "ĠÑģÐ¾Ð¼Ð½ÐµÐ²": 4127,
      "ĠÐºÑĢÐ°Ð¹Ð½ÐµÐ¹": 4128,
      "ÑİÑĩÐ¸Ð½Ð¾Ð²": 4129,
      "ĠÐĹÐ°ÐºÐºÐµÑĢÐ°Ð¹ÐµÑģ": 4130,
      "ĠÐļÐ¾ÑģÐ¾Ð»Ð°Ð¿ÑģÑĥÑģ": 4131,
      "ĠÐĶÑĢÑİÐ·Ð³": 4132,
      "ĠÐĳÐ¸ÑĢÑİÑĩÐ¸Ð½Ð¾Ð²": 4133,
      "ÐĵÐµÑĢÐ¼Ð¸Ð¾Ð½Ð°": 4134,
      "ĠÑĢÐ°Ð²Ð½Ð¾Ð´ÑĥÑĪ": 4135,
      "ĠÐ´Ð¸ÑģÑĨÐ¸Ð¿": 4136,
      "ÐµÐµÑĤ": 4137,
      "Ð¸ÐµÐ¼": 4138,
      "Ð¸Ð½ÑĥÐ»": 4139,
      "ÑĢÐ°Ð³": 4140,
      "ÑĢÑĳÐ»": 4141,
      "ÑĢÐµÑī": 4142,
      "ÑģÐ¾Ð²": 4143,
      "ÑģÐ¸Ñħ": 4144,
      "ÑģÐµÐ³Ð´Ð°": 4145,
      "ÑĥÐµÑĤÑģÑı": 4146,
      "ÑıÐ»Ð¾": 4147,
      "ÑĭÑģÐ»Ð¸": 4148,
      "ÑĭÑĩÐ°Ð»": 4149,
      "ĠÑģÐ¾Ð´": 4150,
      "ĠÑģÐ¼Ð¾ÑĤÑĢÐ¸": 4151,
      "ĠÐ²Ð°Ð»": 4152,
      "ĠÐ²ÐµÐ¶": 4153,
      "ĠÐ²Ð¸Ð¶Ñĥ": 4154,
      "ÑĩÐ°ÑĤ": 4155,
      "ÑĪÐµÐ¼Ñĥ": 4156,
      "ÐµÑĢÑĥ": 4157,
      "ÑģÑĤÑĢÐµÑĩ": 4158,
      "Ð¾Ð²ÑĭÐ¼": 4159,
      "Ð¾Ð²ÑĭÑħ": 4160,
      "ĠÐ´Ð°ÑĤÑĮ": 4161,
      "ĠÑĤÐµÑģ": 4162,
      "ĠÐ¼Ð°Ð»Ð¾": 4163,
      "ĠÐ¼Ð»Ð°Ð´": 4164,
      "ĠÐ±Ð°Ð³": 4165,
      "ĠÑĩÐ¸ÑģÑĤ": 4166,
      "ĠÑĥÑģÑĤÑĢÐ¾": 4167,
      "ĠÑĥÐ¹ÑĤÐ¸": 4168,
      "ÐµÐ»ÐµÐ½": 4169,
      "ÐµÐ¼Ð¾Ð½": 4170,
      "ĠÐ³ÐµÑĢ": 4171,
      "ĠÐ³ÑĥÑģÑĤ": 4172,
      "ĠÐ³ÑĥÐ±Ñĭ": 4173,
      "Ð¾Ð¹Ð´ÑĳÑĤ": 4174,
      "ÐµÐ´ÐµÐ½Ð¸Ñı": 4175,
      "ĠÐµÑĢÑĥÐ½": 4176,
      "ĠÐ¾ÑĤÐµÑĨ": 4177,
      "ĠÐ¿ÑĢÐ¾Ð¶": 4178,
      "ĠÐ»Ð¾Ð¶": 4179,
      "ÑĢÐ°ÑĪ": 4180,
      "ĠÐ²ÑĭÑģÑĤÑĥÐ¿": 4181,
      "ÐµÐ²ÐµÐ»Ð¸": 4182,
      "ĠÐŁÐ°Ð½ÑģÐ¸": 4183,
      "ĠÐ²ÑģÑħ": 4184,
      "ĠÐ¡ÑĤÐ¾": 4185,
      "ĠÐ¡ÐµÐ¹ÑĩÐ°Ñģ": 4186,
      "Ð»ÑıÐ»": 4187,
      "ĠÑģÑĤÑĥÐº": 4188,
      "ĠÑħÐ²Ð°": 4189,
      "ĠÐºÐ°ÐºÑĥÑİ": 4190,
      "ĠÐ¿Ð¾Ð´Ð¾Ð¶Ð´": 4191,
      "ĠÐ¶Ð¸Ð´": 4192,
      "ĠÐ¶Ð¸ÑĤÑĮ": 4193,
      "Ð¾ÑģÐ¿Ð¾Ð´": 4194,
      "ĠÑģÐ»ÑĥÐ¶": 4195,
      "ĠÑģÐ¿Ð¸Ð½Ðµ": 4196,
      "ĠÑģÐ¿ÑĢÐ°ÑĪÐ¸": 4197,
      "ĠÐ°Ñħ": 4198,
      "ĠÐľÑĥÐ´ÑĢÐµÐ¹": 4199,
      "ĠÑģÑĤÐ¾Ð»Ðµ": 4200,
      "Ð¸Ð²Ð°Ð»Ð°": 4201,
      "ĠÐ£Ð¸Ð»": 4202,
      "ÐŀÐ½Ð°": 4203,
      "Ð°Ð»ÑĮÐ½ÑĭÐ¹": 4204,
      "Ð°Ð»ÑĮÐ½ÑĭÐ¼": 4205,
      "ĠÐ¿Ð¾Ð»Ñı": 4206,
      "ĠÐ²Ð·ÑıÐ»Ð¸": 4207,
      "ĠÑĥÐ¶Ð¸Ð½Ð°": 4208,
      "Ð»ÐµÑģÐº": 4209,
      "Ð¢ÐĲ": 4210,
      "ĠÐ´Ð¾Ð½Ð¾Ñģ": 4211,
      "ĠÐ¾Ð´Ð½": 4212,
      "ĠÐ¾Ð´Ð½Ð¾Ð¼": 4213,
      "ĠÐ¾Ð´Ð½Ð°ÐºÐ¾": 4214,
      "ĠÐ±ÑĥÐ´ÐµÑĤÐµ": 4215,
      "ĠÐ½Ð°Ð¿Ð¾Ð»": 4216,
      "ĠÐ¾Ð¿ÑĢÐµÐ´ÐµÐ»": 4217,
      "ĠÐ¾ÐºÐ¾Ð»Ð¾": 4218,
      "ĠÐºÐ¾Ð»Ð»ÐµÐ´": 4219,
      "ĠÑĦÐ¸Ð·": 4220,
      "ĠÐ±ÐµÐ·ÑĥÐ¼": 4221,
      "ĠÐ¼Ð¾Ð¶ÐµÐ¼": 4222,
      "ĠÐ¿Ð¾Ð¿Ð°Ð»": 4223,
      "ĠÑģÐ¾Ð²Ñĭ": 4224,
      "ĠÐ²ÑģÑĤÐ°Ð»Ð°": 4225,
      "ĠÐ¸Ð¼ÐµÐ½Ð¸": 4226,
      "Ð¾ÑģÑĤÐ°": 4227,
      "ĠÑĨÐµÐ½ÑĤ": 4228,
      "ĠÐ²Ð¿ÐµÑĢÐ²ÑĭÐµ": 4229,
      "ĠÐ¼Ð¸Ð½Ð¸ÑģÑĤÑĢ": 4230,
      "ÐµÑģÑĤÐ²Ðµ": 4231,
      "ĠÐ¼Ð¾Ñĳ": 4232,
      "ĠÐ´ÐµÐ»Ð°Ð»": 4233,
      "ĠÐ·Ð°Ð³Ð»Ñı": 4234,
      "ĠÑģÐ¸Ð´ÐµÐ»Ð°": 4235,
      "ĠÑĩÐµÐ»Ð¾Ð²ÐµÑĩ": 4236,
      "ĠÐ¿Ð¾ÑģÐ»ÐµÐ´Ð½ÐµÐµ": 4237,
      "ĠÐ·Ð°Ð¼ÐµÑĤÐ½Ð¾": 4238,
      "ĠÐ²Ð¼ÐµÑĪ": 4239,
      "ĠÑĥÑĢÐ¾ÐºÐµ": 4240,
      "ĠÑĩÐ°ÑģÑĤÐ¾": 4241,
      "ĠÐ¸Ð³ÑĢÐ°": 4242,
      "ĠÐĹÐ»ÐµÑİ": 4243,
      "ÑħÐ²Ð°ÑĤÐ¸Ð»": 4244,
      "ĠÐ·Ð°ÑīÐ¸ÑĤÐµ": 4245,
      "ĠÑĩÑĳÑĢÐ½ÑĭÐµ": 4246,
      "ĠÐ½ÐµÑģÐ¼Ð¾ÑĤÑĢÑı": 4247,
      "ĠÑĪÐ°Ð³Ð¾Ð²": 4248,
      "ĠÑĩÐµÑĤÐ²ÐµÑĢ": 4249,
      "ĠÐ´ÑıÐ´Ð¸": 4250,
      "ĠÑĥÑĩÐ¸ÑĤÐµÐ»Ñı": 4251,
      "ĠÐ¿ÑĢÐ¸Ð½ÑıÐ»Ð°ÑģÑĮ": 4252,
      "ĠÐ½Ð¾ÑĩÐ¸": 4253,
      "ĠÐ¾Ð±ÑĬÑıÐ²Ð¸Ð»Ð°": 4254,
      "ĠÐŁÐ¾ÑģÐ»ÐµÐ´": 4255,
      "ĠÐ¾Ð¶Ð¸Ð´": 4256,
      "ĠÐ¶ÐµÐ»Ð°Ñı": 4257,
      "ĠÑģÑĤÑĢÐ°Ð½Ð½Ð¾Ðµ": 4258,
      "ĠÐºÐµÐ½ÑĤÐ°Ð²ÑĢ": 4259,
      "Ð½Ð¸ÑĤÐµÐ»ÑĮ": 4260,
      "ĠÑĢÐ¾Ð±Ñĥ": 4261,
      "ĠÐ¼Ð³Ð½Ð¾Ð²ÐµÐ½Ð½Ð¾": 4262,
      "ĠÐºÑĥÑħÐ½Ðµ": 4263,
      "ĠÐºÑĥÑħÐ½Ñİ": 4264,
      "ĠÐ¸Ð·Ð±Ð°Ð²": 4265,
      "ĠÑģÐ¼ÐµÑĢÑĤÐ¸": 4266,
      "ĠÐ·Ð°ÑĪÐ°Ð³": 4267,
      "ĠÐ´Ð²Ð¸Ð¶ÐµÐ½Ð¸ÐµÐ¼": 4268,
      "ĠÑģÐ½Ð¾Ð³Ñģ": 4269,
      "ĠÐ·Ð½Ð°ÑĩÐ¾Ðº": 4270,
      "ĠÑĤÐµÐ¼Ð½Ð¾ÑĤÐµ": 4271,
      "ĠÐ²ÐµÐ»ÐµÐ»": 4272,
      "ĠÐ¿ÑĢÐ¾Ð½Ð·Ð¸ÑĤÐµÐ»ÑĮÐ½Ð¾": 4273,
      "ĠÑĥÑħÐ¼ÑĭÐ»ÑĮ": 4274,
      "ĠÐ¼Ð½Ð¾Ð³Ð¸Ðµ": 4275,
      "ĠÐ¾ÑīÑĥÑī": 4276,
      "ĠÐ½ÐµÐ²ÐµÑĢÐ¾ÑıÑĤÐ½Ð¾": 4277,
      "ĠÐ¿Ð»Ð¾ÑīÐ°Ð´": 4278,
      "ĠÐ·Ð°Ð´ÑĥÐ¼ÑĩÐ¸Ð²Ð¾": 4279,
      "ÐŁÐ¾ÑĤÑĤÐµÑĢ": 4280,
      "ĠÐŁÑĢÐ¾Ð½ÑĭÑĢÑĥ": 4281,
      "ĠÐ¿Ð°Ð¼ÑıÑĤÐ¸": 4282,
      "ĠÐ²ÑģÐ¿ÑĭÑħ": 4283,
      "ĠÐ¾Ð±Ð¼ÐµÐ½Ñı": 4284,
      "ĠÐ±ÑĥÐ¼Ð°Ð³": 4285,
      "ĠÐ¸ÑģÐºÐ»ÑİÑĩÐ¸ÑĤ": 4286,
      "ĠÐ³Ð¾ÑĢÑıÑĩ": 4287,
      "ĠÐļÐ¾ÑĢÐ½ÐµÐ»Ð¸ÑĥÑģ": 4288,
      "ĠÐ´ÑİÐ¹": 4289,
      "ĠÑħÑĢÐ¸Ð¿Ð»Ð¾": 4290,
      "ĠÐ½ÐµÑĤÐµÑĢÐ¿ÐµÐ»Ð¸Ð²Ð¾": 4291,
      "ĠÐ½ÐµÐ·Ð°Ð¼ÐµÑĤÐ½Ð¾": 4292,
      "ĠÐ¾Ð±ÑģÑĤÐ¾ÑıÑĤÐµÐ»ÑĮ": 4293,
      "ĠÑģÐ½Ð¾Ð³ÑģÑĪÐ¸Ð±": 4294,
      "âĦ": 4295,
      "ĠâĦ": 4296,
      "Ð°ÑģÑĮ": 4297,
      "ÑĤÐ°ÑĢ": 4298,
      "Ð»ÐµÐ¶": 4299,
      "ÑĥÐµÐ¼": 4300,
      "ÑĥÑģÑĤÑĮ": 4301,
      "ĠÑģÐ¸ÑĤ": 4302,
      "ĠÑģÑĥÑĢ": 4303,
      "ĠÑģÐ¾Ð¶Ð°Ð»": 4304,
      "ĠÐ½ÐµÐ»Ð¾Ð²": 4305,
      "ĠÐ²ÐµÑĢÐ¸": 4306,
      "ĠÐ²Ð¸Ð·": 4307,
      "Ð²Ð°Ð»Ð¾": 4308,
      "Ð¼ÐµÑĪ": 4309,
      "ĠÐ¾Ð²": 4310,
      "ÐµÑĢÐµÐ´ÑĮ": 4311,
      "ĠÐ´ÑĳÑĢ": 4312,
      "ĠÐ´ÑĭÑħ": 4313,
      "ĠÐ·Ð´Ð¾ÑĢÐ¾Ð²": 4314,
      "ĠÑĤÐµÑĩ": 4315,
      "ĠÑĤÑĢÐ¾Ðµ": 4316,
      "ĠÑĩÐ°Ð¹": 4317,
      "Ð·ÐµÐ»Ñĳ": 4318,
      "Ð°Ð·Ð°Ð»Ð¾ÑģÑĮ": 4319,
      "Ð¶Ð¸Ñģ": 4320,
      "Ð¾ÑĢÑĤ": 4321,
      "Ð¾ÑĢÑĭ": 4322,
      "Ð¾ÑĢÐ¾Ð¶Ð½Ð¾": 4323,
      "ĠÐ³Ð°Ð»Ð»Ðµ": 4324,
      "...?": 4325,
      "Ð°Ð²Ð½Ð¾": 4326,
      "Ð°Ð²ÑĪÐµÐ¹": 4327,
      "ÑīÐµÐ¹": 4328,
      "ĠÐ¾ÑĤÑĢÑĭ": 4329,
      "ĠÐ¾ÑĤÐ½Ð¾Ñģ": 4330,
      "ĠÐ¿ÑĢÐµÑĢ": 4331,
      "ĠÐ¿ÑĢÐµÐ±": 4332,
      "ĠÐ±ÑĭÑģÑĤÑĢ": 4333,
      "ĠÑįÐ¼Ð¾": 4334,
      "ÐµÐ³Ñĥ": 4335,
      "Ð¸Ð½ÐºÐ¸": 4336,
      "Ð¸Ð½ÑģÑĤÐ²Ð¾": 4337,
      "ĠÐŁÐ¾ÐºÐ°": 4338,
      "Ð»ÑıÐ½": 4339,
      "Ð»Ð¾Ñĩ": 4340,
      "ĠÐĿÐ°ÐºÐ¾Ð½ÐµÑĨ": 4341,
      "ĠÐļÐ°Ð·Ð°Ð»Ð¾ÑģÑĮ": 4342,
      "ĠÐ¸Ð·Ð´Ð°Ð»": 4343,
      "Ð°Ð½Ð½Ð¾Ð¹": 4344,
      "ÑĪÐ¸Ð¿": 4345,
      "ÐµÐ»ÑĮÐµ": 4346,
      "Ð¾ÑĩÐµÑĤ": 4347,
      "ĠÑĢÐ°Ð·Ð°": 4348,
      "ĠÐ¿ÐµÑĢÐµÐ¶": 4349,
      "Ð°Ð¶Ñĥ": 4350,
      "ĠÑĪÐ»Ð¸": 4351,
      "Ð¸ÑģÑĤÐ¾": 4352,
      "ĠÑģÐºÐ°Ð·Ð°Ð»Ð¸": 4353,
      "ÐŀÐ½Ð¸": 4354,
      "Ð´Ð¾ÑĢÐ¾Ð²Ð¾": 4355,
      "ĠÐĳÐ¸Ð»Ð»": 4356,
      "ĠÐ¾ÑĩÐµÑĢÐµÐ´ÑĮ": 4357,
      "ĠÐ§ÐµÑĢÐ²": 4358,
      "ĠÑĢÐ°ÑģÑģÐµ": 4359,
      "ĠÐ¾Ð´Ð½Ð¾Ð¼Ñĥ": 4360,
      "ĠÐ±Ð¾Ð»ÑĮÑĪÐ¸Ð¼": 4361,
      "ĠÑģÐ¾ÑģÑĤÐ°Ð²": 4362,
      "ĠÐ¾Ð¿ÑĥÑģÑĤÐ¸Ð»": 4363,
      "ĠÐºÐ¾Ð½ÑĨÐ¾Ð²": 4364,
      "ĠÐ¿ÑĢÐµÐ´Ð¾": 4365,
      "ĠÐ¼Ð¾Ð³Ð»Ð¾": 4366,
      "ĠÑĦÐ¸": 4367,
      "ĠÑĦÐ°Ðº": 4368,
      "ĠÐ¿Ð¾Ð¼Ð¾ÑĩÑĮ": 4369,
      "ĠÐ´ÑĢÑĥÐ³Ð¾Ð³Ð¾": 4370,
      "ĠÐ±ÐµÐ·Ð¼": 4371,
      "ĠÐ±ÐµÐ·Ð¾Ð¿Ð°Ñģ": 4372,
      "ÐłÐķ": 4373,
      "ĠÐ´Ð²ÐµÐ½": 4374,
      "ĠÐ¾ÑģÐ¾Ð·": 4375,
      "ĠÐ¾ÑģÐ²ÐµÑīÑĳÐ½": 4376,
      "ĠÑģÐ¼ÐµÑĪ": 4377,
      "ĠÐ·Ð°Ð´Ð°Ð½Ð¸Ð¹": 4378,
      "Ð¸ÑĤÐµÑģÑĮ": 4379,
      "ĠÐ²Ð·Ð³Ð»ÑıÐ´Ñĭ": 4380,
      "ĠÐ²Ð·Ð³Ð»ÑıÐ´Ð°Ð¼Ð¸": 4381,
      "ĠÑħÐ¾ÑĩÐµÑĤÑģÑı": 4382,
      "ĠÐ¿ÑĢÐ¾Ð²ÑĳÐ»": 4383,
      "ĠÑĢÐ°ÑģÑĤÐµÑĢ": 4384,
      "ĠÐ²ÑĭÐ¿Ð°Ð»Ð¸Ð»": 4385,
      "ĠÑĥÐ»ÑĭÐ±ÐºÐ¾Ð¹": 4386,
      "ĠÐ¿Ð¾ÐºÐ°Ð·Ð°ÑĤÑĮ": 4387,
      "ĠÐ¿Ð¾ÐºÐ°Ð·ÑĭÐ²Ð°Ñı": 4388,
      "ĠÐºÑĢÐ¸Ðº": 4389,
      "ÑģÐ¸Ð¾": 4390,
      "ĠÐ²ÑĭÑģÐ¾ÐºÐ¾": 4391,
      "Ð»ÐµÐ½Ñĭ": 4392,
      "ĠÐĽÑİÐ¿Ð¸Ð½Ð°": 4393,
      "ĠÑĥÐ³Ð»Ñĥ": 4394,
      "ĠÐ¾ÐºÐ°Ð·Ð°Ð»Ð¸ÑģÑĮ": 4395,
      "ĠÐ¾Ð±ÑīÐµÐ¹": 4396,
      "ĠÐ¿Ð¾ÑıÐ²Ð¸Ð»Ð°ÑģÑĮ": 4397,
      "ĠÐ¿Ð»Ð°ÑĤ": 4398,
      "ĠÐ²ÑģÐºÐ¾ÑĢÐµ": 4399,
      "ĠÐºÐ¾Ð»Ð´ÑĥÐ½Ñĭ": 4400,
      "ÐµÑĢÐµÐ´Ð¸": 4401,
      "ĠÐ½Ð¾ÑģÐ¾Ð¼": 4402,
      "ĠÐ¿Ð¾ÑģÑĤÐµÐ¿ÐµÐ½Ð½Ð¾": 4403,
      "ĠÑĥÑħÐ¾": 4404,
      "Ð¸ÑĤÐµÐ»ÑĮÐ½ÑĭÐ¼": 4405,
      "ĠÐ·Ð°ÑģÐ»": 4406,
      "ĠÑģÐºÐ¾ÑĢÐ¾ÑģÑĤÑĮÑİ": 4407,
      "ĠÐ¼Ð½ÐµÐ½Ð¸Ñİ": 4408,
      "ĠÐ£Ð¿Ð¸Ð²Ð°ÑİÑīÐ¸ÐµÑģÑı": 4409,
      "ĠÐ·Ð°Ð»Ðµ": 4410,
      "ĠÑĥÐ´Ð°ÑĢÐ¸Ð»": 4411,
      "ĠÐ¾Ð·Ð°Ð±Ð¾Ñĩ": 4412,
      "ĠÐ½Ð¾ÑĩÑĮÑİ": 4413,
      "ĠÑģÐºÐ°Ð¶ÐµÑĤ": 4414,
      "ĠÐ¿Ð¾Ð³Ð»ÑıÐ´ÐµÐ²": 4415,
      "ĠÐ·Ð°ÑīÐ¸ÑĤÑĭ": 4416,
      "ĠÑĪÐºÐ¾Ð»ÑĮÐ½Ð¸ÐºÐ¾Ð²": 4417,
      "ĠÐ»ÐµÑģÐ°": 4418,
      "ĠÑĢÐ°Ð·Ð³Ð¾Ð²Ð°ÑĢÐ¸Ð²Ð°ÑĤÑĮ": 4419,
      "ĠÐ²Ð½ÑĥÑĤÑĢÐµÐ½": 4420,
      "ĠÐ²Ð½ÑĥÑĤÑĢÑĮ": 4421,
      "ĠÐ´ÑĢÑĥÐ·ÑĮÑı": 4422,
      "ĠÐ¾Ð±ÑĢÐ°ÑīÐ°ÑıÑģÑĮ": 4423,
      "ĠÐ³ÑĢÐ¸ÑĦÑĦÐ¸Ð½Ð´Ð¾ÑĢÑģÐºÐ¾Ð¹": 4424,
      "ĠÐ½Ð°Ð¿Ð¸ÑģÐ°Ð½Ð¾": 4425,
      "ÑĳÑĢÑĤÐ²": 4426,
      "ĠÐ¿Ð¾ÑģÐ¿ÐµÑĪ": 4427,
      "Ð½Ð°ÑĢÐ¾Ð´": 4428,
      "ĠÑģÑĭÐ½": 4429,
      "ĠÐĳÐ¾Ð»ÑĮÑĪÐ¾Ð¹": 4430,
      "ĠÐ¿Ð¾Ð¼Ð¾ÑīÑĮ": 4431,
      "ĠÐ·Ð°ÑıÐ²Ð¸Ð»Ð°": 4432,
      "ĠÐ´ÑĢÐ¾Ð¶Ð°Ñī": 4433,
      "ĠÐ·Ð¼ÐµÐ¸": 4434,
      "ÐĶÑĥÐ¼Ð±Ð»ÑĮÐ´Ð¾ÑĢ": 4435,
      "ĠÑĥÑĩÐµÐ½Ð¸ÐºÐ¾Ð²": 4436,
      "ĠÐ³Ð¾Ð²Ð¾ÑĢÑİ": 4437,
      "ĠÐ¿ÑĢÐ¾Ð¸ÑģÑħÐ¾Ð´Ð¸ÑĤ": 4438,
      "ĠÐ½ÐµÐ´Ð¾Ð²Ð¾Ð»ÑĮÐ½Ð¾": 4439,
      "ĠÐ¾Ð±ÑģÑĥÐ¶": 4440,
      "ĠÑģÐ¾Ð¿ÑĢÐ¾Ð²": 4441,
      "ĠÐ¿ÑĢÐµÐ¿Ð¾Ð´Ð°Ð²Ð°ÑĤÐµÐ»ÑĮ": 4442,
      "ĠÐ¾ÑģÐºÐ¾ÑĢÐ±": 4443,
      "ĠÐ¿ÑĢÐ¾Ð·Ð²": 4444,
      "ĠÐ¿ÐµÑĢÐµÑģÐ¿ÑĢÐ¾ÑģÐ¸Ð»": 4445,
      "ĠÐĲÐ»Ð¸ÑģÐ¸": 4446,
      "ÐºÐ¸Ð½ÑģÐ¾Ð½": 4447,
      "ÐµÑģÑĤÑĢÐ°Ð½Ð³": 4448,
      "ĠÐ³Ð¾ÑģÑĤÐ¸Ð½ÑĥÑİ": 4449,
      "ĠÐºÐ°ÑĢÐ¼Ð°Ð½Ð°": 4450,
      "ĠÐ¼ÑıÐ³ÐºÐ¾": 4451,
      "ĠÐ¿ÑĢÐ¸ÑģÑĤÐ°Ð»ÑĮÐ½Ð¾": 4452,
      "ĠÐĳÐµÐ´Ð¾Ñĥ": 4453,
      "ĠÑģÐ²Ð¸ÑĢÐµÐ¿Ð¾": 4454,
      "ĠÐĹÐ°Ð¿ÑĢÐµÑĤ": 4455,
      "ĠÐ¾ÑĤÑĩÑĳÑĤÐ»Ð¸Ð²Ð¾": 4456,
      "ĠÐ±Ð»Ð¸Ð¶Ð°Ð¹": 4457,
      "ĠÐĽÐ°Ð²Ð°Ð½Ð´Ð°": 4458,
      "ĠÑĥÑħÐ¼ÑĭÐ»ÑĮÐ½ÑĥÐ»ÑģÑı": 4459,
      "ĠâĦĸ": 4460,
      "ĠÑģÑĥÑĢÐ¾Ð²Ð¾": 4461,
      "ĠÐ§ÐµÑĢÐ²ÐµÑħ": 4462,
      "ĠÑĢÐ¾": 4463,
      "ÐµÑİ": 4464,
      "Ð¸Ð¾Ð½Ð¾Ð¼": 4465,
      "ÑĤÐµÐ½": 4466,
      "ÑģÐµÐ³Ð¾": 4467,
      "Ð»Ð¾Ðº": 4468,
      "Ð»ÐµÐ½Ð¸ÐµÐ¼": 4469,
      "Ð½Ð¾Ð¶": 4470,
      "Ð½ÐµÑģÑĤÐ¸": 4471,
      "ÑĥÐ°": 4472,
      "ĠÐ¿Ð¸ÑĢ": 4473,
      "ĠÐ¿ÑĥÑģÑĤÐ¾": 4474,
      "ĠÑģÐ¾ÑĤ": 4475,
      "ĠÑģÐµÐ´ÑĮ": 4476,
      "ĠÐ²ÑģÐºÐ¸": 4477,
      "ÑĩÐ±": 4478,
      "Ð²ÑĮÑİ": 4479,
      "ĠÐ¾ÑĨÐµÐ½": 4480,
      "ÑģÑĤÐ½Ð¾": 4481,
      "ĠÐ´Ð¾ÑĤ": 4482,
      "ĠÐ´Ð½ÐµÐ¹": 4483,
      "Ð°ÑĢÐ°Ð¿": 4484,
      "ĠÐ¼Ð°Ñħ": 4485,
      "ĠÐ¼ÑĢÐ°Ð¼": 4486,
      "Ð¿Ð¸": 4487,
      "ĠÐ±Ð¸Ð»": 4488,
      "ĠÐ±ÑĢÐ°": 4489,
      "ĠÑĩÐµÐ¹": 4490,
      "ĠÑĥÐ¼Ð°": 4491,
      "ĠÑĥÑĪÐ»Ð°": 4492,
      "ĠÐ½ÐµÑģÐ»Ð¸": 4493,
      "Ð¾ÑĢÑĩ": 4494,
      "Ð¾Ð¹Ð´": 4495,
      "Ð°Ð²ÑĪÑĥÑİ": 4496,
      "ÐµÐ´Ð»Ð¸Ð²Ð¾": 4497,
      "ĠÐ¿ÑĢÑıÑĤ": 4498,
      "ĠÐ»ÐµÐ½Ð¸": 4499,
      "ĠÐ»ÐµÐ²": 4500,
      "ĠÐ»ÑıÐ³": 4501,
      "ĠÐ·Ð°ÑĤÑĭ": 4502,
      "ĠÐĶÑıÐ´": 4503,
      "ÐµÐ³ÐºÐ°": 4504,
      "ÐµÐ¹ÑģÑı": 4505,
      "ĠÐŁÐłÐŀ": 4506,
      "ĠÐ¾Ð±Ð¸Ð¶": 4507,
      "Ð»ÑıÑıÑģÑĮ": 4508,
      "ÑĢÑĥÐ´": 4509,
      "ĠÑģÑĤÐ°ÑĤÑĥ": 4510,
      "ĠÐĿÐµÐº": 4511,
      "ĠÐĿÑĥÐ¶": 4512,
      "ĠÑħÐ¸Ñħ": 4513,
      "ĠÐĴÐ´ÑĢÑĥÐ³": 4514,
      "ĠÐ¶Ð´ÑĳÑĤ": 4515,
      "ĠÐ¸Ð·Ð´Ð°Ð²": 4516,
      "ĠÐ¸Ð·Ð¼ÐµÐ½Ð¸": 4517,
      "ĠÐ¸Ð·Ð¾Ð±ÑĢÐ°Ð¶": 4518,
      "ÑĢÑĭÐµ": 4519,
      "ĠÐ½Ð¸Ð¶Ðµ": 4520,
      "ĠÑģÐ»ÐµÐ³ÐºÐ°": 4521,
      "ĠÑĪÐµÑģÑĤÑĮ": 4522,
      "Ð°ÑĤÐ¸Ð»": 4523,
      "ÐµÑĩÐ¸": 4524,
      "ĠÑģÑĤÐ¾Ð¸Ð»Ð¾": 4525,
      "ÐŀÐľ": 4526,
      "ĠÐ¿Ð¾Ð»Ð°": 4527,
      "Ð°Ð½Ð¸Ñİ": 4528,
      "Â»!": 4529,
      "Ð´ÐµÑģÑıÑĤ": 4530,
      "ÐŁÐ¾Ð¼": 4531,
      "ÐĶÐķ": 4532,
      "ĠÐĽÐµÑģÑĤÑĢÐ°Ð½Ð³": 4533,
      "ÑĤÐ°ÐµÑĤ": 4534,
      "ĠÑĢÐ°ÑģÑħ": 4535,
      "ĠÐ²Ð¾Ð·Ð·": 4536,
      "ĠÐ±ÑĥÐ´ÑĥÑī": 4537,
      "ÐµÐ½Ð¸ÑıÑħ": 4538,
      "ÑĥÑĪÐºÐµ": 4539,
      "ĠÑģÐ°Ð¼Ð¾Ð¹": 4540,
      "ĠÐºÐ¾Ð½Ð²ÐµÑĢ": 4541,
      "ĠÐ¿ÑĢÐ¾ÑĦÐµÑģÑģÐ¾ÑĢÑĥ": 4542,
      "ÑĩÐ¸Ðº": 4543,
      "ĠÐ·Ð°Ð¼Ð¾Ðº": 4544,
      "ĠÐ´ÑĢÑĥÐ³ÑĥÑİ": 4545,
      "ÑĳÐ½Ð½ÑĭÐµ": 4546,
      "ĠÐ¼Ð¾Ð¶ÐµÑĤÐµ": 4547,
      "ĠÐ´Ð²Ð¾ÑĢ": 4548,
      "ĠÑģÐ¾Ð²Ñĥ": 4549,
      "ĠÐ²ÐµÑĢÐ½ÑĳÑĤÑģÑı": 4550,
      "ĠÑįÑĤÐ°Ð¶Ðµ": 4551,
      "ÐĽÐĲ": 4552,
      "ĠÐ¿Ð»Ð¾ÑĤ": 4553,
      "ĠÑĨÐµÐ»ÑĮ": 4554,
      "ĠÑĨÐµÐ¿": 4555,
      "ĠÐ½ÐµÐ²Ð½Ñı": 4556,
      "ĠÐ½ÐµÐ²Ð¸Ð´Ð¸Ð¼": 4557,
      "ĠÑģÐµÑĢÐµÐ´": 4558,
      "ĠÐ¿Ð¾Ð±ÐµÐ³": 4559,
      "ĠÐ¿Ð¾Ð±ÐµÐ¶Ð°Ð»": 4560,
      "Ð¸Ð±Ð»Ð¸": 4561,
      "ĠÑĥÐ¿Ð°Ð»Ð°": 4562,
      "ĠÑĥÐ¿Ð¾ÑĢÐ½Ð¾": 4563,
      "ĠÐ²ÑĭÐ¿Ð¾Ð»": 4564,
      "ÐĳÐ°ÑĪ": 4565,
      "ĠÐ¼Ð¾Ñı": 4566,
      "ĠÐ·Ð²ÑĳÐ·": 4567,
      "ÑĳÑģÑģÑı": 4568,
      "ĠÑĤÑĢÑĥÐ±": 4569,
      "ĠÐ¾ÑĤÐ¿ÑĥÑģÑĤ": 4570,
      "Ð½Ð¸Ð·Ñĥ": 4571,
      "ĠÐ»ÐµÑĤÐ¾Ð¼": 4572,
      "ĠÐ¸Ð³ÑĢÐ¾Ðº": 4573,
      "ÐŁÑĢÐ¾ÑĦÐµÑģÑģÐ¾ÑĢ": 4574,
      "ĠÐºÐ¾ÑĢÐ¸Ð´Ð¾ÑĢÐ°": 4575,
      "ĠÐ½Ð¸ÐºÐ°ÐºÐ¾Ð³Ð¾": 4576,
      "ĠÑģÑĥÐ¼Ð°ÑģÑĪ": 4577,
      "ĠÑģÐ»ÐµÐ´ÑĥÑİÑīÐ¸Ð¹": 4578,
      "ĠÐĴÐµÑĢÐ½Ð¾Ð½Ð°": 4579,
      "ĠÑĥÑģÑĤÐ°Ð²Ð¸Ð²ÑĪÐ¸ÑģÑĮ": 4580,
      "ĠÐ´Ð»Ð¸Ð½Ð½ÑĭÐµ": 4581,
      "ĠÐ¿Ð°Ð»ÑĮÑĨÐµÐ²": 4582,
      "ĠÐ¿ÑĢÐ¾Ð±Ð¾ÑĢÐ¼Ð¾ÑĤÐ°Ð»Ð°": 4583,
      "ĠÐºÐ¾ÑĢÐ¾Ð»ÑĮ": 4584,
      "ĠÐ´ÐµÑĢÐ¶Ð°Ð»": 4585,
      "ĠÐ½Ð°ÑĢÐ¾Ð´Ñĥ": 4586,
      "ÑįÐ½ÐºÑģ": 4587,
      "ĠÐŁÐ°ÑĢÐºÐ¸Ð½ÑģÐ¾Ð½": 4588,
      "ĠÐ³Ð¾ÑĤÐ¾Ð²Ñĭ": 4589,
      "ĠÐ·ÐµÐ¼Ð»Ð¸": 4590,
      "ÑĢÐ°ÑĤÐ¸ÑĤÑĮ": 4591,
      "ĠÐºÐ²Ð¸Ð´Ð¸ÑĪÐ½Ð¾Ð¹": 4592,
      "ĠÐ½Ð°Ð²ÐµÑĢÐ½Ð¾Ðµ": 4593,
      "ĠÐ»ÐµÐ³ÐºÐ¾": 4594,
      "ĠÐĹÐ½Ð°ÑĩÐ¸ÑĤ": 4595,
      "ĠÐ·Ð¼ÐµÑı": 4596,
      "ĠÑģÑĤÑĥÐ¿ÐµÐ½ÑĮ": 4597,
      "ĠÐ²Ð·Ð´Ð¾ÑħÐ½ÑĥÐ»Ð°": 4598,
      "ĠÐ´ÐµÐ¿Ð°ÑĢÑĤÐ°Ð¼ÐµÐ½ÑĤÐµ": 4599,
      "ĠÑģÑĥÐ´Ð¾ÑĢÐ¾Ð¶Ð½Ð¾": 4600,
      "ĠÑħÐ¾Ð´Ð¸ÑĤÑĮ": 4601,
      "ĠÐ¿ÐµÑĩÐ°Ð»ÑĮÐ½Ð¾": 4602,
      "ĠÑĨÐ²ÐµÑĤÐ°": 4603,
      "ÐĵÑĢÐ¸ÑĦÑĦÐ¸Ð½Ð´Ð¾ÑĢÐ°": 4604,
      "ĠÐ·Ð°Ð±ÑĭÑĤÑĮ": 4605,
      "ĠÐºÐ»ÑĥÐ±": 4606,
      "ĠÐĵÐ¾Ð¹Ð»": 4607,
      "ĠÐ¿Ð¾Ð½ÑĢÐ°Ð²": 4608,
      "ĠÐ·Ð°Ð²Ð¾Ð¿Ð¸Ð»": 4609,
      "ĠÐ½ÐµÑĢÐ²Ð½Ð¾": 4610,
      "ĠÐ±ÐµÑĪÐµÐ½": 4611,
      "ĠÑģÐ²Ð¸ÑĤÐ¾Ðº": 4612,
      "ĠÐľÐ°ÑĢÑĩÐ±": 4613,
      "ĠÐ¿ÑĢÐ¾ÑĨÐµÐ´Ð¸Ð»": 4614,
      "ĠÐ¼Ð¾Ð»ÑĩÐ°Ð½Ð¸Ðµ": 4615,
      "ĠÐļÐ¾Ð¼Ð½Ð°": 4616,
      "ĠÐ±ÑĥÑĤÑĭÐ»": 4617,
      "ĠÑģÐ¼Ð¾ÑĤÑĢÐ¸ÑĤ": 4618,
      "ĠÐĽÑİÑĨÐ¸ÑĥÑģ": 4619,
      "ĠÐ½ÐµÐ²Ð¾Ð·Ð¼ÑĥÑĤÐ¸Ð¼Ð¾": 4620,
      "ĠÑĩÑĢÐµÐ·Ð²ÑĭÑĩÐ°Ð¹Ð½Ð¾": 4621,
      "ĠÐŀÑħÑĢÐ°Ð½": 4622,
      "ĠÐ¿Ð¾Ð´Ð·ÐµÐ¼": 4623,
      "ĠÐ°Ð»Ð»Ðµ": 4624,
      "ĠÐ½ÐµÑģÐºÐ¾Ð»ÑĮ": 4625,
      "ÐµÐ½Ð¸ÐºÑģÐ°": 4626,
      "ĠÐ¿ÑĢÐ¸Ð¼ÐµÑĢÐ½Ð¾": 4627,
      "ĠÐ²Ð·ÑĢÐµÐ²ÐµÐ»": 4628,
      "ĠÐºÐ¾Ð»Ð»ÐµÐ´Ð¶": 4629,
      "ĠÑĦÐ¸Ð·Ð¸Ð¾Ð½Ð¾Ð¼": 4630,
      "ĠÑĦÐ¸Ð¾Ð»ÐµÑĤ": 4631,
      "ĠÐ¼ÑĢÐ°Ð¼Ð¾ÑĢ": 4632,
      "ĠÐĶÑıÐ´Ñı": 4633,
      "ĠÐľÐ°ÑĢÑĩÐ±ÑįÐ½ÐºÑģ": 4634,
      "Ð¸Ð²Ð¾": 4635,
      "ÑĤÐ¸Ð»ÑģÑı": 4636,
      "ÑĤÑĭÐ¹": 4637,
      "Ð»Ð°Ð¼Ð¸": 4638,
      "ÑıÐ½ÑĥÑĤ": 4639,
      "ÑĭÑģÐº": 4640,
      "ĠÑģÑĢÐ¾Ðº": 4641,
      "ĠÐ½ÐµÐ¶": 4642,
      "ĠÐ²Ð±": 4643,
      "ĠÐ²Ð¸ÑĤ": 4644,
      "ÑĩÑĮ": 4645,
      "ÑĩÐ°Ð¹": 4646,
      "Ð´ÐµÐ½Ð¸Ðµ": 4647,
      "Ð²Ð¸Ñģ": 4648,
      "Ð°Ð»Ð¸Ð»Ð°ÑģÑĮ": 4649,
      "ĠÐºÑģÑĤÐ°ÑĤÐ¸": 4650,
      "ÐµÑĢÑĭ": 4651,
      "Ð¾Ð²Ð°Ð»Ð°ÑģÑĮ": 4652,
      "Ð¾Ð²Ð»ÐµÑĤ": 4653,
      "ĠÐ´Ðµ": 4654,
      "ĠÐ´Ð²Ð¾": 4655,
      "ĠÐ´ÐµÐ»Ð¾Ð²": 4656,
      "ĠÑĤÑĢÑıÑģ": 4657,
      "ĠÑĤÐµÑĢÐ¿": 4658,
      "Ð³Ð°ÑĤÑĮ": 4659,
      "ĠÐ±Ð¾Ð¼": 4660,
      "ĠÐ±Ð¸Ð±Ð»Ð¸": 4661,
      "Ð±Ð°": 4662,
      "Ð±Ð¾Ð»": 4663,
      "ĠÑĥÐ»ÐµÑĤ": 4664,
      "ĠÐ½ÐµÐ¾Ð¿": 4665,
      "ĠÐ¿Ð¾ÑĢÐ°": 4666,
      "ĠÐ¿Ð¾ÑĢÐ°Ð·": 4667,
      "ĠÐ¿Ð¾Ð½Ð¸Ð·": 4668,
      "ĠÐ½Ð°ÑĪÐ»Ð¸": 4669,
      "ĠÑĢÐµÑĩÑĮ": 4670,
      "Ð°Ð²ÑĪÐµÐ³Ð¾": 4671,
      "ĠÐµÑİ": 4672,
      "ÑĨÐ²ÐµÑĤ": 4673,
      "Ð¾Ð½ÑıÑĤ": 4674,
      "ĠÐ¾ÑĤÑģÑĤÑĥÐ¿": 4675,
      "Ð»Ð°ÑĪ": 4676,
      "ĠÐ»Ð°Ð´Ð¾": 4677,
      "ĠÐ»Ð¾ÑĢÐ´Ð°": 4678,
      "ÑģÐºÐ°": 4679,
      "ĠÐ¿ÑĢÐ¾ÑĪÐ»Ð¸": 4680,
      "ĠÐ²ÑĭÑıÑģ": 4681,
      "ĠÐ²ÑĭÑĤÐ°ÑīÐ¸Ð»": 4682,
      "ĠÐŁÐ¾Ð¶Ð°Ð»": 4683,
      "ĠÑģÐºÐ»Ð¾Ð½": 4684,
      "Ð²Ð°ÑİÑī": 4685,
      "ĠÐ¾Ð±Ð¸Ð´": 4686,
      "ĠÐ¡Ð²": 4687,
      "ĠÐ¿ÑĢÐ¸ÑĪÐ»Ð°": 4688,
      "ĠÐĿÐ¸Ð³": 4689,
      "ĠÐ¿Ð¾Ð´ÑĢÐ¾Ð±": 4690,
      "ĠÐļÑĢÐ¾Ð¼Ðµ": 4691,
      "Ð°Ð½Ð½Ð°Ñı": 4692,
      "Ð¾Ð¿Ð¾Ð»Ð¾Ð¶": 4693,
      "ĠÑģÐ»Ð°Ð´": 4694,
      "ĠÑģÐ»ÐµÐ·": 4695,
      "ĠÑĪÑĤÑĥ": 4696,
      "ĠÑĪÐµÐ¿ÑĤ": 4697,
      "ĠÑĪÑĤÐ°Ð±": 4698,
      "Ð°ÑĤÐµÐ»ÐµÐ¹": 4699,
      "Ð²ÐµÑĢÐ¶": 4700,
      "ĠÐ¢ÐµÐ±Ðµ": 4701,
      "Ð°Ð»ÑĮÐ½ÑĭÐµ": 4702,
      "Ð¾Ð²Ð¾Ðµ": 4703,
      "ÐĶÐ°Ð²": 4704,
      "ÐĶÐ¾Ð±": 4705,
      "Ð»ÑĭÐ¼Ð¸": 4706,
      "ĠÐ²Ð¾ÑĢÐ¾ÑĤ": 4707,
      "ĠÐ¿Ð¾Ð²Ð¾ÑĢÐ°ÑĩÐ¸Ð²Ð°ÑıÑģÑĮ": 4708,
      "ÑħÐ¾Ð´ÑıÑī": 4709,
      "ĠÐ¾Ð´Ð¾Ð±": 4710,
      "ÑĤÐµÑģÑĮ": 4711,
      "ĠÐ½Ð°Ð´ÐµÐ¶Ð´": 4712,
      "ĠÐ±ÑĥÐ´Ñĥ": 4713,
      "ĠÐ½Ð°Ð¿ÑĢÐ¸Ð¼ÐµÑĢ": 4714,
      "ĠÐ±Ð¾Ð»ÑĮÐ½Ð¾": 4715,
      "ÑĥÑĢÐ¶Ð¸Ñģ": 4716,
      "ĠÐ¾ÐºÐ½Ñĥ": 4717,
      "ĠÐ¾ÐºÐ¾Ð½": 4718,
      "ÑĭÐ²Ð°Ð»ÑģÑı": 4719,
      "ÐµÐ½ÑıÑħ": 4720,
      "ĠÐºÐ¾Ð»ÐµÐ½ÑıÑħ": 4721,
      "ÑĨÐ°ÑĤÐ¸": 4722,
      "ĠÑĦÐ¾Ð½": 4723,
      "ĠÐ¾ÑģÑĤÐ°ÑĤÑĮÑģÑı": 4724,
      "ĠÐ¾ÑģÑĤÐ°Ð»Ð¸ÑģÑĮ": 4725,
      "ÐłÐ¾Ð½": 4726,
      "ÐĵÐ´Ðµ": 4727,
      "ĠÐŀÐ³ÑĢÐ¸Ð´Ñĥ": 4728,
      "ĠÑĥÐ´Ð¾Ð²Ð»ÐµÑĤ": 4729,
      "ĠÐ²ÑģÑĤÐ°Ð»Ð¸": 4730,
      "Ð§Ðĺ": 4731,
      "ĠÐ¸Ð¼ÐµÐ»": 4732,
      "ĠÑģÐ¼Ð¾Ð¶": 4733,
      "ĠÐ½ÐµÐ¿ÑĢÐµÐ¼ÐµÐ½Ð½Ð¾": 4734,
      "ĠÐ½ÐµÐ¿Ð»Ð¾ÑħÐ¾": 4735,
      "Ð¸ÑĤÐµÐ»ÑĮÐ½Ð¾Ðµ": 4736,
      "Ð¾ÑħÐ¾ÑĤ": 4737,
      "ĠÐ·Ð°Ð´Ð°Ð½Ð¸Ñı": 4738,
      "ĠÑĥÑģÐ¼Ðµ": 4739,
      "ÐĽÐŀ": 4740,
      "ĠÐ´Ð¾Ð¼Ð¾Ð¹": 4741,
      "ĠÐ·Ð°Ð±Ð¾Ð»": 4742,
      "ĠÑģÑĤÐ¾ÑĢÐ¾Ð½": 4743,
      "ĠÐ´Ð¾Ð»Ð¶Ð½Ð°": 4744,
      "ĠÐ¿Ð¾Ð²ÐµÑĢÐ½ÑĥÐ»Ð¸ÑģÑĮ": 4745,
      "ĠÐ³ÑĢÐ¾Ð¼ÐºÐ¸Ð¹": 4746,
      "ĠÐ½ÐµÐ´ÐµÐ»Ñİ": 4747,
      "ĠÐ¿ÑĢÐ¾Ð²Ð¾ÑĢ": 4748,
      "ĠÐ½Ð°Ð²ÑģÑĤÑĢÐµÑĩ": 4749,
      "ĠÑĥÐ¶Ð°ÑģÐ°": 4750,
      "ĠÐ¼Ð¾ÑĳÐ¼": 4751,
      "ĠÐĿÐµÑģÐºÐ¾Ð»ÑĮÐºÐ¾": 4752,
      "ĠÑģÐ»Ð¾Ð²Ð°Ð¼Ð¸": 4753,
      "ĠÑģÐ¸Ð´ÐµÐ²": 4754,
      "Ð°Ð½ÑĮÐµ": 4755,
      "Ð°ÑĢÐ¸Ð»": 4756,
      "ĠÑģÐ²ÐµÑĤÐ°": 4757,
      "Ð¼ÑĭÑģ": 4758,
      "ĠÑģÐ¾ÑģÑĢÐµÐ´Ð¾ÑĤÐ¾Ñĩ": 4759,
      "ĠÑĢÐ°ÑģÑģÐºÐ°Ð·Ð°Ð»": 4760,
      "ĠÐºÐ°Ð¶Ð´ÑĭÐ¼": 4761,
      "ĠÑĥÑĤÐµÑĪ": 4762,
      "ĠÑĥÐ²Ð¾Ð»": 4763,
      "ĠÐ¿ÑĥÑĤÐ¸": 4764,
      "ĠÐ½ÐµÑģÑĩÐ°": 4765,
      "ĠÐ¿ÑĢÐ¸Ð±Ð»Ð¸Ð¶": 4766,
      "ĠÑĥÑĩÐ¸ÑĤÐµÐ»ÐµÐ¹": 4767,
      "ĠÐ¸ÑģÑĩÐµÐ·Ð»Ð°": 4768,
      "ĠÐ¿Ð¾ÑģÐ¼Ð¾ÑĤÑĢÐµÐ»Ð¸": 4769,
      "ĠÐ¸ÑģÐ¿ÑĭÑĤÑĭÐ²Ð°Ð»": 4770,
      "ÑĪÐ°ÑıÑģÑı": 4771,
      "ĠÐ¡ÑĤÑĥÑĢÐ¶Ð¸Ñģ": 4772,
      "ĠÐ¿ÐµÑĢÐµÐ²ÑĳÐ»": 4773,
      "ĠÑĤÑıÐ¶Ñĳ": 4774,
      "ĠÐ´Ð¾ÑģÑĤÐ°Ð»Ð°": 4775,
      "ÑĤÐ¾ÑĩÐºÑĥ": 4776,
      "ĠÐ±Ð¾ÑĢÐ¾Ð²Ð°": 4777,
      "ĠÐ½ÐµÐ¿ÑĢÐ¸ÑıÑĤ": 4778,
      "Ð¸ÑģÐºÑĥ": 4779,
      "ĠÑģÐ²ÐµÑĢÐº": 4780,
      "ĠÑĥÐ»Ð¸ÑĨÐµ": 4781,
      "ĠÐºÐ°Ð¼Ð¸Ð½": 4782,
      "ÐµÑģÐ¿Ð¾ÐºÐ¾": 4783,
      "ĠÐ¾ÑģÑĤÐ°Ð½Ð¾Ð²Ð¸Ð»ÑģÑı": 4784,
      "ĠÐ·Ð°ÐºÐ»Ð¸Ð½Ð°Ð½Ð¸Ð¹": 4785,
      "ĠÑģÐ¿Ð°Ð»ÑĮÐ½Ñİ": 4786,
      "ĠÐ¥ÐµÐ´Ð²Ð¸Ð³Ð°": 4787,
      "ĠÐ·Ð°Ð½ÑıÑĤÐ¸Ð¹": 4788,
      "ĠÐ²Ð°Ð¶Ð½Ð¾": 4789,
      "ĠÐ¿Ð¾Ð´ÑģÐ»ÑĥÑĪ": 4790,
      "ĠÑĩÑĥÐ²ÑģÑĤÐ²Ð°": 4791,
      "ĠÐ¿Ð¾ÑģÑĤÐ°Ð²Ð¸Ð»": 4792,
      "ĠÐ³ÑĢÐ¾Ð·Ð½Ð¾": 4793,
      "ĠÑĤÑĢÐµÐ²Ð¾Ð¶": 4794,
      "ĠÐ½ÐµÐ²ÐµÑĢÐ¾ÑıÑĤ": 4795,
      "ĠÐ¿Ð»Ð¾ÑīÐ°Ð´Ð¸": 4796,
      "ĠÐľÐ°ÑĢÐ¸ÑįÑĤÑĤÐ°": 4797,
      "ĠÑħÐ¼ÑĥÑĢÐ¾": 4798,
      "ĠÐ½ÑĢÐ°Ð²Ð¸ÑĤÑģÑı": 4799,
      "ĠÐĺÐ½ÑĤÐµÑĢÐµÑģÐ½Ð¾": 4800,
      "ĠÐºÐ°ÑģÐ°ÐµÑĤÑģÑı": 4801,
      "ĠÐķÐ´Ð²Ð°": 4802,
      "ĠÐ¸Ð½ÑĤÐµÑĢÐ²ÑĮÑİ": 4803,
      "ĠÐ´Ð¾ÐºÐ°Ð·Ð°ÑĤÐµÐ»ÑĮ": 4804,
      "ĠÐ»ÐµÑĩÑĥÑĢ": 4805,
      "Ð¡Ð»Ð¸Ð·ÐµÑĢÐ¸Ð½Ð°": 4806,
      "ĠÑħÐ²Ð°ÑĤÐ°ÐµÑĤ": 4807,
      "ĠÐ¾Ð²Ð»Ð°Ð´": 4808,
      "ĠÑĢÐ°ÑģÑģÐµÑıÐ½Ð½Ð¾": 4809,
      "ĠÐĿÐµÐºÐ¾ÑĤÐ¾": 4810,
      "ĠÐ±Ð¸Ð±Ð»Ð¸Ð¾ÑĤ": 4811,
      "ĠÐĿÐ¸Ð³ÐµÐ»Ð»Ð¸": 4812,
      "ĠÑĥÐ´Ð¾Ð²Ð»ÐµÑĤÐ²Ð¾ÑĢ": 4813,
      "ĠÐ½Ð°Ð²ÑģÑĤÑĢÐµÑĩÑĥ": 4814,
      "Ð¸ÑĤÐ¾": 4815,
      "Ð»ÑĥÑĩ": 4816,
      "Ð»ÑĳÑĤ": 4817,
      "Ð»ÑĥÑħ": 4818,
      "Ð½Ð¾Ð³": 4819,
      "ÑıÑı": 4820,
      "ÑıÐ¶": 4821,
      "ÑıÑıÑģÑĮ": 4822,
      "ĠÑģÐ¾ÑĢ": 4823,
      "ĠÑģÐ½Ð¸Ð¼": 4824,
      "ĠÑģÐ¸Ð»Ð°Ñħ": 4825,
      "ĠÐ²ÐµÑģÑĤÐ¸": 4826,
      "ĠÐ²ÐµÑĢÐ¸ÑĤÑĮ": 4827,
      "ÐºÑģÐ¿": 4828,
      "ÐºÐ²Ð°ÑĢ": 4829,
      "ÑĢÐ¸Ð½": 4830,
      "ĠÐºÐ»Ñİ": 4831,
      "ĠÐºÐ°ÑĪ": 4832,
      "ÐµÑĢÐ´": 4833,
      "Ð½Ð¸Ñİ": 4834,
      "Ð½Ð¸Ð»ÑĮ": 4835,
      "Ð½Ð¸ÐºÐ¾Ð¼": 4836,
      "Ð½Ð¾Ñĩ": 4837,
      "ĠÐ´Ð¸": 4838,
      "ĠÐ´ÐµÐºÑĢÐµÑĤ": 4839,
      "ĠÐ·Ð°Ð¹": 4840,
      "ĠÑĤÐºÐ½ÑĥÐ»": 4841,
      "ĠÐ¼Ð¸Ð»": 4842,
      "ĠÐ¼Ð¾ÑĤ": 4843,
      "ĠÐ±ÐµÑĢ": 4844,
      "ĠÐ±Ð¾Ð¹": 4845,
      "ÐµÐ»ÑıÐ¼Ð¸": 4846,
      "ÑĳÐ¹": 4847,
      "ĠÐ½ÐµÑĩÐµÐ³Ð¾": 4848,
      "Ð¾Ð³Ð¸": 4849,
      "ĠÐ¿Ð¾ÑĪÐ»Ð°": 4850,
      "ĠÐ½Ð°ÑĪÐµÐ¹": 4851,
      "ÐµÐ¼ÑģÑı": 4852,
      "Ð¾ÑĢÐ°Ð´": 4853,
      "Ð¾Ð´Ðµ": 4854,
      "Ð°Ð²ÑĪÐ¸Ðµ": 4855,
      "ÑĨÐµÐ¿": 4856,
      "ĠÐ¾ÑĤÑĢÐµÐ·": 4857,
      "ĠÐ¾ÑĤÐ¼ÐµÑĤ": 4858,
      "ĠÐ»Ð¾Ð±": 4859,
      "Ð¸ÑĤÐ»": 4860,
      "ĠÐ·Ð°ÑĤÐ¸Ñħ": 4861,
      "ĠÑįÑħÐ¾Ð¼": 4862,
      "Ð¾Ð¶Ñĥ": 4863,
      "ĠÐ¿ÑĢÐ¾Ð½ÐµÑģ": 4864,
      "ÐµÐ¹Ð½": 4865,
      "ĠÐ²ÑĭÐ»": 4866,
      "ĠÐŁÑĢÐ°Ð²Ð´Ð°": 4867,
      "ĠÐŁÐ¾ÑĩÑĤÐ¸": 4868,
      "ĠÑģÐºÑĢÑĭÐ²": 4869,
      "ĠÐ¾Ð±ÑĢÐ°Ð´": 4870,
      "Ð»ÑıÑĤÑĮÑģÑı": 4871,
      "ĠÐ¿ÑĢÐ¸Ð½Ð¸Ð¼": 4872,
      "ĠÑģÑĤÐ°Ðº": 4873,
      "ĠÑģÑĤÐµÐ¿": 4874,
      "ĠÐĿÐĲ": 4875,
      "ĠÑħÑĥÐ´": 4876,
      "ĠÑħÑĢÐ°Ð±": 4877,
      "ÐºÐ¾ÑĢÐ¾": 4878,
      "ĠÐļÐ»Ñĭ": 4879,
      "Ð¾ÑĩÐ¸Ð»Ð°": 4880,
      "ĠÑĢÐ°Ð·Ð¼Ð°Ñħ": 4881,
      "ĠÑģÐ¿Ðµ": 4882,
      "ĠÐ¿ÐµÑĢÐµÑħ": 4883,
      "Ð°Ð¿Ð°": 4884,
      "Ð½ÑıÑı": 4885,
      "ÐĿÐ«": 4886,
      "Ð²ÐµÑĢÐµÐ½Ð½Ð¾": 4887,
      "Ð¸Ð¼Ð°Ñı": 4888,
      "Ð¸Ð²ÑĪÐ¸Ñħ": 4889,
      "ĠÐ£Ð¶": 4890,
      "ĠÐ£Ð¾ÑĢÑĢÐ¸": 4891,
      "Ð°Ð»ÑĮÑĪÐµ": 4892,
      "ÐĲÐ³Ð°": 4893,
      "ÑģÑĤÐ²Ñĥ": 4894,
      "ĠÐ³Ð»Ð°Ð´": 4895,
      "ĠÐ²Ð·Ð²": 4896,
      "ĠÐĹÐĲ": 4897,
      "ĠÑĥÐ¶Ð¸Ð½": 4898,
      "ĠÐĳÐ¸Ð½": 4899,
      "Ð»ÑĭÑħ": 4900,
      "ĠÐ§Ð¢Ðŀ": 4901,
      "ĠÐ¿Ð¾Ð²ÐµÑģ": 4902,
      "ĠÐ¿Ð¾Ð²Ð¸Ñģ": 4903,
      "ĠÐ·Ð½Ð°ÑİÑĤ": 4904,
      "ĠÐ½Ð°Ð¿Ð°Ð»Ð¸": 4905,
      "ÐĺÑĤÐ°Ðº": 4906,
      "ÑģÑĤÐµÑĢÑģÑĤÐ²Ð¾": 4907,
      "ÑĥÑĪÐºÐ°": 4908,
      "ĠÐ¾Ð¿ÑĥÑģÐº": 4909,
      "ĠÑĦÑĭÑĢ": 4910,
      "ĠÐ¿Ð¾Ð¼ÐµÑĪ": 4911,
      "ĠÐ½Ð¸ÐºÐ¾Ð¼Ñĥ": 4912,
      "ĠÐ²ÑģÑĤÐ°ÑĤÑĮ": 4913,
      "Ð§Ðķ": 4914,
      "ĠÐ½ÐµÐ¿ÑĢÐ°Ð²": 4915,
      "ĠÐ³Ð¾Ð²Ð¾ÑĢÐ¸Ð»Ð¸": 4916,
      "ĠÐ´ÑĥÐ¼Ð°Ð»Ð°": 4917,
      "ÐĽÐ¬": 4918,
      "ĠÐ·Ð°Ð¿Ð¸Ñģ": 4919,
      "ĠÐ·Ð°Ð¿ÑĢÐµÑĤ": 4920,
      "ĠÐ½ÐµÐ²Ð°Ð¶Ð½Ð¾": 4921,
      "ĠÑģÐ»ÐµÐ´Ð¾Ð¼": 4922,
      "ĠÐ³ÑĢÐ¾Ð¼ÐºÐ¸Ð¼": 4923,
      "ĠÑĥÐ²Ð¸Ð´ÐµÐ²": 4924,
      "ĠÐľÐ°Ð»ÑĦÐ¾": 4925,
      "ĠÐ±Ð¾Ð»ÑĤ": 4926,
      "ĠÐ¿Ð¾Ð´Ð½ÑıÐ»ÑģÑı": 4927,
      "ĠÐºÐ¾Ð¼Ð½Ð°ÑĤÐ°": 4928,
      "ĠÐ¼Ð¾Ð¸": 4929,
      "ĠÐ¼Ð¾Ð¸Ñħ": 4930,
      "ĠÑģÐ´ÐµÐ»Ð°Ð»Ð°": 4931,
      "Ð½Ð³ÑĤÐ¾": 4932,
      "ĠÐ¾ÑĤÐºÑĢÑĭÐ»Ð°ÑģÑĮ": 4933,
      "Ð»Ð¸Ð½Ð°ÑĢ": 4934,
      "ĠÐ¿Ð¾Ð½Ð¸Ð¼Ð°ÐµÑĤÐµ": 4935,
      "ĠÐ¿Ð¾ÑģÐ»ÐµÐ´Ð½Ð¸Ðµ": 4936,
      "ĠÐ¿Ð»ÐµÑĩÐ¸": 4937,
      "ĠÐ½ÐµÐ¼ÑĭÑģÐ»Ð¸": 4938,
      "ĠÐ¿Ð¾Ð¹Ð´ÑĳÑĤ": 4939,
      "Ð»Ð¸Ð²ÑĭÐ¼": 4940,
      "ĠÐ¿Ð¾Ð»ÑĥÑĩÐ¸Ð»Ð¸": 4941,
      "ĠÐ¿Ð¾ÑıÐ²Ð¸Ð»Ð¸ÑģÑĮ": 4942,
      "ĠÑģÑĩÐ¸ÑĤÐ°Ð»": 4943,
      "ĠÐºÑĢÐ¾Ð²Ð¸": 4944,
      "ĠÐĹÐ»ÐµÐµÐ¼": 4945,
      "ĠÐ¿Ð¸ÑģÑĮÐ¼Ð°": 4946,
      "ĠÐ½Ð¾ÑģÐ°": 4947,
      "ĠÐ½Ð¾Ð²Ð¾Ð¹": 4948,
      "ĠÑĤÐ¾Ð»ÑģÑĤ": 4949,
      "ĠÑĤÐ¾Ð»Ð¿Ñĥ": 4950,
      "ĠÑĢÐ°ÑģÑģÐºÐ°Ð·ÑĭÐ²Ð°ÑĤÑĮ": 4951,
      "ĠÐ¿ÑĢÐ¸Ð²Ð»ÐµÐº": 4952,
      "ĠÑģÑĤÐµÐ½Ñĥ": 4953,
      "ĠÑģÐµÐºÑĢÐµÑĤ": 4954,
      "Ð½ÑĳÑģÑģÑı": 4955,
      "ĠÐ²ÐµÑĩÐµÑĢÐ°": 4956,
      "ĠÐ½ÐµÐ±ÑĢÐµÐ¶": 4957,
      "ĠÑĪÐ°Ð³Ð¸": 4958,
      "ĠÐ¿Ð°Ð»ÑĮÑĨÐµÐ¼": 4959,
      "ĠÑĩÐµÑĤÐ²": 4960,
      "ĠÐ»ÐµÑģÑĤÐ½Ð¸ÑĨÑĭ": 4961,
      "ĠÐ²ÑģÐ¿Ð¾Ð¼Ð½Ð¸": 4962,
      "ĠÐ°Ð²ÑĤÐ¾Ð¼": 4963,
      "ĠÐ¿ÑĢÐ¾ÑĤÐ¸Ð²Ð¾Ð¿Ð¾Ð»Ð¾Ð¶": 4964,
      "ĠÐ±ÐµÑģÐ¿Ð¾ÐºÐ¾": 4965,
      "ĠÐ´Ð¾ÑĢÐ¾Ð³Ð¾Ð¹": 4966,
      "ĠÐ¿ÐµÑĢÐµÐ²ÐµÑĢ": 4967,
      "ĠÐ·Ð°ÐºÐ»ÑıÑĤÐ¸Ñı": 4968,
      "ĠÐ·Ð°ÐºÐ»ÑıÑĤÐ¸ÐµÐ¼": 4969,
      "ĠÐºÐ¾Ð¼Ð°Ð½Ð´Ðµ": 4970,
      "ĠÐ³Ð½ÐµÐ²Ð°": 4971,
      "ĠÐ·ÐµÐ¼Ð»Ðµ": 4972,
      "ĠÐ¿ÐµÑĢÐµÑģÑĤÐ°Ð»": 4973,
      "ĠÑĢÐ°Ð·Ð³Ð¾Ð²Ð°ÑĢÐ¸Ð²Ð°Ð»": 4974,
      "ĠÐ¿ÑĢÐµÐ²ÑĢÐ°ÑĤ": 4975,
      "ĠÐ´Ð¸ÑĢÐµÐºÑĤÐ¾": 4976,
      "ĠÐ´Ð¸ÑĢÐµÐºÑĤÐ¾ÑĢÐ°": 4977,
      "ĠÐ¿Ð¾Ð´Ð¾Ð±Ð½Ð¾Ð³Ð¾": 4978,
      "ĠÐ¿Ð¾Ð´Ð½Ð¸Ð¼Ð°Ñı": 4979,
      "ĠÑģÑħÐ²Ð°ÑĤÐ¸Ð»Ð°": 4980,
      "ĠÐ½Ð°Ð¿Ð¾Ð¼Ð¸Ð½": 4981,
      "ĠÐĿÐ¸ÐºÑĤÐ¾": 4982,
      "ĠÐ¡Ð¸Ð¼ÑĥÑģÐ°": 4983,
      "ĠÐ¿ÑĢÐ¸ÑħÐ¾Ð´Ð¸Ð»Ð¾ÑģÑĮ": 4984,
      "ĠÐĳÐ¾Ð»ÑĮÑĪÐ¾Ð³Ð¾": 4985,
      "ĠÐºÐ¾ÑĢÐ¾ÑĤÐºÐ¾": 4986,
      "ÐŁÑĢÐ¾ÑĢÐ¸ÑĨÐ°ÑĤÐµÐ»ÑĮÑģÐºÑĥÑİ": 4987,
      "ĠÐ¾ÑĤÑģÑİÐ´Ð°": 4988,
      "Ð¾Ð½ÑĤÐ°Ð½": 4989,
      "ĠÐ¿ÐµÑĢÐµÑĥÐ»": 4990,
      "ĠÑģÐ¾Ð·Ð½Ð°Ð½Ð¸Ñı": 4991,
      "ĠÐ´ÐµÐ¿Ð°ÑĢÑĤÐ°Ð¼ÐµÐ½ÑĤ": 4992,
      "ĠÑģÐ¾Ð±Ð¸ÑĢÐ°Ð»ÑģÑı": 4993,
      "ĠÐ¼ÐµÑģÑıÑĨ": 4994,
      "ĠÐ²ÐµÐ´ÑĥÑī": 4995,
      "Ð¸Ð½Ð¸ÑģÑĤÐµÑĢÑģÑĤÐ²Ð¾": 4996,
      "ĠÐ¡ÐºÐ¾Ð»ÑĮÐºÐ¾": 4997,
      "ĠÐ¿ÑĢÐ¸ÐºÑĢÑĭ": 4998,
      "ĠÑģÑĤÐ°ÑĢÐ¾ÑģÑĤÑĭ": 4999,
      "ĠÑĤÐ¸ÑĪÐ¸Ð½Ð°": 5000,
      "ĠÐ´Ð¾Ð½ÑĳÑģÑģÑı": 5001,
      "ĠÐ¡ÐµÐ´ÑĢÐ¸ÐºÐ°": 5002,
      "Ð¾ÐºÐ¾Ð»Ð°Ð´": 5003,
      "ĠÑĪÐµÐ¿Ð½ÑĥÐ»": 5004,
      "ĠÐ»ÑİÐ±Ð¾Ð¿ÑĭÑĤÑģÑĤÐ²Ð¾Ð¼": 5005,
      "ĠÐºÐ¾Ð¶Ð°": 5006,
      "ĠÑĦÐ¾ÑĤÐ¾Ð³ÑĢÐ°ÑĦÐ¸Ð¸": 5007,
      "ĠÐºÐ°Ð½Ð¸ÐºÑĥÐ»Ñĭ": 5008,
      "ĠÑĦÐ¾ÑĢÐ¼Ðµ": 5009,
      "ĠÐ¾ÐºÐºÐ»ÑĥÐ¼ÐµÐ½ÑĨÐ¸Ð¸": 5010,
      "ĠÐ±ÑĥÐºÐ²Ð°Ð»ÑĮÐ½Ð¾": 5011,
      "ĠÑĢÑıÐ´Ð°": 5012,
      "ĠÑĦÐ¸Ð³Ñĥ": 5013,
      "ĠÑıÑĢÐ¾ÑģÑĤÐ½Ð¾": 5014,
      "ĠÐ¥Ð¾Ð³ÑģÐ¼ÑĳÐ´": 5015,
      "ĠÐ´ÑĥÐ±Ð»ÑĮÐ´ÑĥÐ¼": 5016,
      "ÐºÐ¾Ð»ÐµÐ¿": 5017,
      "ĠÐ½ÐµÑĥÐ²ÐµÑĢÐµÐ½Ð½Ð¾": 5018,
      "ĠÐ°Ð´ÑĢÐµÑģ": 5019,
      "ĠÐ²Ð¾ÑģÐ¿Ð¾Ð¼Ð¸Ð½Ð°Ð½Ð¸Ñı": 5020,
      "ĠÑĢÐ°Ð²Ð½Ð¾Ð´ÑĥÑĪÐ½Ð¾": 5021,
      "ĠÐ¸ÑģÐºÐ»ÑİÑĩÐ¸ÑĤÐµÐ»ÑĮÐ½Ð¾": 5022,
      "ĠÑģÐ¸ÑĤÑĥÐ°": 5023,
      "ĠÐ§ÐµÑĢÐ²ÐµÑħÐ²Ð¾ÑģÑĤ": 5024,
      "ĠÑģÑĥÐ¼Ð°ÑģÑĪÐµÐ´": 5025,
      "ĠÐ¼ÑĢÐ°Ð¼Ð¾ÑĢÐ½Ð¾Ð¹": 5026,
      "ĠÐ£Ð¾ÑĢÑĢÐ¸Ð½Ð³ÑĤÐ¾": 5027,
      ".,": 5028,
      "ÑĤÑĭÐµ": 5029,
      "ÑĢÐ¾Ð¶Ð°Ð»": 5030,
      "ÑĢÑĳÐº": 5031,
      "Ð»ÐµÐ±": 5032,
      "ÑĥÐ»Ð¸": 5033,
      "ÑĮÑĳÑĤ": 5034,
      "ĠÐ¿Ð°Ð»Ð°": 5035,
      "ĠÐ¿Ð¸ÑĪ": 5036,
      "ÑĭÐ»Ð°": 5037,
      "ĠÑģÐ¸Ñħ": 5038,
      "ĠÑģÑĢÐ°Ð¶": 5039,
      "ĠÐ²Ð»Ð°Ð´": 5040,
      "ÑĩÐ°Ð»ÑģÑı": 5041,
      "ÐºÐ°Ðº": 5042,
      "Ð²ÑĥÐ´": 5043,
      "Ð¼Ð¾ÑĢ": 5044,
      "Ð¼ÐµÐ½Ð½Ð¾": 5045,
      "ÑĢÐ¸ÑĦ": 5046,
      "ÑĢÐ¸Ð»Ð¸ÑģÑĮ": 5047,
      "Ð°Ð»ÐºÐ¸": 5048,
      "ĠÐ¸Ð´ÑĳÑĤ": 5049,
      "ĠÐºÐ°Ñĩ": 5050,
      "ĠÐºÑĢÐ¾ÑħÐ¾ÑĤ": 5051,
      "Ð½Ð¸Ð»Ð¸": 5052,
      "Ð¾Ð²Ñĭ": 5053,
      "ĠÐ´Ð¾Ð¶": 5054,
      "ĠÐ´Ð²Ð¸": 5055,
      "ĠÐ´ÑĥÑĪ": 5056,
      "ĠÐ´Ð½ÐµÐ²": 5057,
      "Ð»Ð¸Ð»ÑģÑı": 5058,
      "ĠÑĤÐ°Ð±": 5059,
      "ĠÐ¼ÑĳÑĢÑĤÐ²": 5060,
      "Ð¿Ð¸ÑģÑĮ": 5061,
      "ĠÐ±Ð¾Ð´": 5062,
      "ĠÐ±ÑĢÐ°ÑĤÑĮ": 5063,
      "Ð±Ð¾ÑĤ": 5064,
      "ĠÑĩÐ°Ñī": 5065,
      "ÑĢÐ¾Ð½": 5066,
      "ÑĳÐ±": 5067,
      "ÐµÐ½Ð½ÑĭÐ¼Ð¸": 5068,
      "ĠÐ¿Ð¾ÑĪ": 5069,
      "ÐµÐ¼ÑĮ": 5070,
      "ĠÑĢÑĤÐ°": 5071,
      "ĠÑĢÑıÐ²": 5072,
      "ĠÐ³Ð°ÑĢ": 5073,
      "Ð¾Ð´Ð¸Ð»": 5074,
      "ÑīÑĥ": 5075,
      "ÑįÐ²Ð¸Ñģ": 5076,
      "ĠÐ¾ÑĤÑģÑĤÐ°Ð²": 5077,
      "ĠÐ¾ÑĤÑĩÐµÐ³Ð¾": 5078,
      "ĠÐ¾ÑĤÑĢÐ°Ð¶": 5079,
      "Ð»Ð°Ñı": 5080,
      "Ð°Ð´Ð²ÑĥÐ´": 5081,
      "ĠÐ·Ð°Ñĩ": 5082,
      "ĠÐ·Ð°ÑģÑĤÐ¾": 5083,
      "ÑĢÐ°ÑģÑĤ": 5084,
      "ĠÐĶÐ»Ñı": 5085,
      "ĠÐĶÐ°Ð¶Ðµ": 5086,
      "ĠÐĶÑįÐ²Ð¸Ñģ": 5087,
      "ÑĦÑĢÐ¸": 5088,
      "ĠÐ²ÑĭÐ²": 5089,
      "ĠÐ²ÑĭÑģÐºÐ°Ð·": 5090,
      "ĠÑģÐºÐ°Ð¼": 5091,
      "ĠÑģÐºÐ¾Ð»ÑĮÐ·": 5092,
      "ĠÐ¿ÑĢÐ¸Ð¼ÐµÐ½": 5093,
      "ÑĢÑĥÑĩ": 5094,
      "Ð»Ð¾Ðµ": 5095,
      "ĠÑģÑĤÐ¾Ð¿": 5096,
      "ĠÑģÑĤÐµÐ½Ð°": 5097,
      "ĠÑģÑĤÑĥÐ»": 5098,
      "ĠÐĿÐ¸ÑĩÐµÐ³Ð¾": 5099,
      "ĠÐºÐ°ÐºÐ¾Ð¼": 5100,
      "Ð¾Ð·Ð´": 5101,
      "ĠÐ¿Ð¾Ð´ÑģÐº": 5102,
      "ĠÐļÐ°ÑĢ": 5103,
      "ÐµÑģÑĤÐ¸ÑĤÑĮ": 5104,
      "ĠÐ¸Ð·Ð´": 5105,
      "Ð°Ð½Ð½Ð¾Ð³Ð¾": 5106,
      "Ð°Ð½Ð½ÑĭÑħ": 5107,
      "Ð°Ð½Ð½ÑĥÑİ": 5108,
      "Ð°Ð½Ð½ÑĭÐ¼Ð¸": 5109,
      "ÑĪÐ¸Ð²": 5110,
      "ĠÑĢÐ°Ð·ÑĥÐ¼": 5111,
      "ĠÑģÐ¿ÑĢÐ¾ÑģÐ¸ÑĤÑĮ": 5112,
      "ĠÐ°Ð½": 5113,
      "ĠÐ°Ð¿Ð¿": 5114,
      "ĠÐľÐ°Ð¹": 5115,
      "ĠÑĪÑĥÑĤ": 5116,
      "ĠÑĪÐ¾ÐºÐ¾Ð»Ð°Ð´": 5117,
      "ÑĥÑĩÐ¸": 5118,
      "ĠÐ£Ð¸Ð½Ð³": 5119,
      "ĠÐ¢ÐµÐ¼": 5120,
      "ĠÐ¿Ð¾ÑģÑĢÐµÐ´Ð¸": 5121,
      "ĠÐ¿Ð¾ÑģÐ¼Ð¾ÑĤÑĢÐ¸": 5122,
      "ĠÐ¿Ð¾Ð»Ð½ÑĭÐ¹": 5123,
      "ĠÐ³Ð»Ð¾ÑĤ": 5124,
      "ĠÐ²Ð·Ð¾ÑĢ": 5125,
      "ĠÐ²Ð·ÑıÐ»Ð°": 5126,
      "ĠÐĹÐ´ÐµÑģÑĮ": 5127,
      "Ð´ÐµÑĤÑĮ": 5128,
      "ÑĥÑĤÑģÑı": 5129,
      "ÐĶÐŀ": 5130,
      "ĠÐ¼Ð¸Ð³": 5131,
      "ĠÐĽÐ¸ÑĤÐ»": 5132,
      "ĠÐ·Ð½Ð°Ñı": 5133,
      "ĠÐ·Ð½Ð°ÑħÐ°ÑĢ": 5134,
      "ĠÐ¿Ð¾ÐºÑĢÐ°Ñģ": 5135,
      "Ð¡ÐŁ": 5136,
      "ĠÐ·Ð°ÐºÐ¾Ð»": 5137,
      "ĠÐ±Ð¾Ð»ÑĮÐ½Ð¸ÑĨÑĥ": 5138,
      "ĠÑģÐ¾Ð¾ÑĤÐ²ÐµÑĤ": 5139,
      "Ð²Ð¸ÑģÑĤ": 5140,
      "ĠÑģÐ°Ð¼ÑĭÑħ": 5141,
      "ĠÐ¿ÑĢÐµÐ´ÑģÐºÐ°Ð·": 5142,
      "ÑĨÐ¸Ð¹": 5143,
      "ĠÐ²ÑĢÐµÐ¼ÐµÐ½": 5144,
      "ĠÐ´ÑĢÑĥÐ³Ñĥ": 5145,
      "ÐºÐ¾Ð¼Ñĥ": 5146,
      "ĠÑģÐ¸Ð»Ñĭ": 5147,
      "ĠÐ½ÐµÐ¿Ð¾Ð½ÑıÑĤ": 5148,
      "Ð¾ÑħÐ¾Ð¶Ðµ": 5149,
      "ĠÐ·Ð°Ð´ÑĭÑħ": 5150,
      "ĠÑĤÑĢÑĳÑħ": 5151,
      "ĠÐ·Ð°Ð¿ÑĢÐµÑī": 5152,
      "ĠÐ²Ð¿ÑĢÐ¾ÑĩÐµÐ¼": 5153,
      "ĠÑģÐ»ÐµÐ´Ð¾Ð²Ð°Ð»Ð¾": 5154,
      "ĠÐ¼Ð¸Ð½Ð¸ÑģÑĤÑĢÐ°": 5155,
      "ĠÐ³ÑĢÐ¾Ð¼ÑĩÐµ": 5156,
      "ĠÐ½Ð°Ð²Ð¾Ð·": 5157,
      "Ð°ÑİÑīÐ¸Ñħ": 5158,
      "ĠÑĢÐ°ÑģÑĤÐ²Ð¾": 5159,
      "ÐĳÑĭ": 5160,
      "ĠÐ¿Ð¾ÐºÐ°Ð·Ð°Ð»Ð°": 5161,
      "Ð½ÐµÐ²Ð¸Ð´Ð¸Ð¼": 5162,
      "ĠÐ·Ð°Ð³Ð°Ð´": 5163,
      "ÑĪÐ¸Ð¹ÑģÑı": 5164,
      "ĠÑģÐ»ÑĭÑĪÐ°Ð»Ð¸": 5165,
      "ĠÑģÐ¸Ð´ÐµÑĤÑĮ": 5166,
      "ĠÑĤÐ²Ð¾Ñı": 5167,
      "ĠÑĤÐ²Ð¾ÐµÐ³Ð¾": 5168,
      "ĠÐ¿Ð¾Ð½Ð¸Ð¼Ð°ÐµÑĤ": 5169,
      "ĠÐ¿ÐµÑĢÐ²Ð¾Ð³Ð¾": 5170,
      "ĠÐŁÐ¾ÑĪÐ»Ð¸": 5171,
      "Ð°ÐµÑĪÑĮÑģÑı": 5172,
      "ĠÐ²Ð¾Ð¿Ð»ÑĮ": 5173,
      "ĠÐ²Ð¾Ð»ÑĪÐµÐ±Ð½ÑĭÐ¹": 5174,
      "ĠÐ¾ÐºÐ°Ð·Ð°Ð»Ð°ÑģÑĮ": 5175,
      "ĠÐ´Ð°Ð²Ð°Ð¹": 5176,
      "ĠÑĩÑĳÑĢÐ½Ð¾Ð¹": 5177,
      "ĠÑĥÐ²ÐµÑĢÐµÐ½Ð½Ð¾": 5178,
      "ĠÑģÐ¾ÑģÑĤÐ¾": 5179,
      "ĠÐ¿ÑĢÐµÐºÑĢÐ°ÑĤ": 5180,
      "ĠÐ¿Ð¾ÑģÑĤÐµÐ»ÑĮ": 5181,
      "ĠÑģÐ¾Ð¾Ð±ÑīÐ¸Ð»Ð°": 5182,
      "ĠÑģÐ¾Ð¾Ð±ÑīÐµÐ½Ð¸Ðµ": 5183,
      "ĠÐ¾Ð³ÑĢÐ¾Ð¼Ð½ÑĭÐµ": 5184,
      "ĠÐ¾Ð±ÑĬÑıÑģÐ½Ð¸ÑĤÑĮ": 5185,
      "ĠÐ´ÐµÐ½ÑĮÐ³Ð¸": 5186,
      "ĠÐ´Ð¾Ð»Ð³": 5187,
      "ĠÑģÐ»ÑĥÑĪÐ°ÑĤÑĮ": 5188,
      "ĠÑģÐ»ÑĥÑĪÐ°Ð½Ð¸Ðµ": 5189,
      "ĠÐ´ÐµÐ²ÑıÑĤÑĮ": 5190,
      "ĠÐ´ÐµÐ²Ð¾ÑĩÐºÐ°": 5191,
      "ĠÑĥÐ¼Ð¾Ð»Ñı": 5192,
      "ĠÐ½Ð°ÑĩÐ°Ð»Ð¸": 5193,
      "ĠÐ£Ð¿Ð¸Ð²Ð°ÑİÑīÐ¸Ð¹ÑģÑı": 5194,
      "ĠÐ³Ð°Ð·ÐµÑĤÑĭ": 5195,
      "ÐµÐ¼ÐµÐ½ÑĤÐ¾ÑĢÑĭ": 5196,
      "ĠÐ¿ÑĢÐµÐ´ÑģÑĤÐ°Ð²Ð¸ÑĤÑĮ": 5197,
      "ĠÐºÑĢÐµÑģÐ»Ðµ": 5198,
      "ĠÐ´Ð°Ð»ÑĮÐ½ÐµÐ¼": 5199,
      "ĠÐ´ÐµÑĢÐµÐ²ÑĮÐµÐ²": 5200,
      "ĠÐ¾ÑĤÐ¿ÑĢÐ°Ð²Ð¸Ð»Ð¸ÑģÑĮ": 5201,
      "ĠÑģÐºÐ°Ð¶ÐµÐ¼": 5202,
      "ĠÐ²ÑĭÑĢÐ°Ð¶ÐµÐ½Ð¸ÐµÐ¼": 5203,
      "ĠÐ¿Ð¾Ð³Ð»ÑıÐ´ÐµÐ»Ð°": 5204,
      "Ð¸ÑĪÑĮÑģÑı": 5205,
      "ĠÑĨÐµÐ»ÑĭÑħ": 5206,
      "ĠÑģÐ¿Ð¾ÑģÐ¾Ð±ÐµÐ½": 5207,
      "ĠÑģÑĥÑīÐµÑģÑĤÐ²Ð°": 5208,
      "ĠÐłÐ°Ð·Ð´": 5209,
      "ĠÐ³Ð»ÑĥÐ¿Ð¾": 5210,
      "ĠÐºÐµÐ½ÑĤÐ°Ð²ÑĢÐ°": 5211,
      "ĠÐ½Ð°Ð¿Ð¾Ð¼Ð¸Ð½Ð°": 5212,
      "ĠÐºÐ°Ð¼Ð¸Ð½Ðµ": 5213,
      "ÐŀÑĤÐºÑĥÐ´Ð°": 5214,
      "ĠÐ¿Ð»Ð°ÑīÐ¾Ð¼": 5215,
      "ĠÐ¼Ð°Ð»ÐµÐ½ÑĮÐºÐ¸Ð¹": 5216,
      "ĠÑģÑĤÐµÐºÐ»ÑıÐ½": 5217,
      "ĠÐ²Ð¾Ð·Ð¼ÑĥÑī": 5218,
      "ĠÐ·Ð°Ð½ÑıÑĤÐ¸Ñı": 5219,
      "ĠÐ¿Ð¾Ð¶ÐµÐ»": 5220,
      "ĠÐ²ÑģÐºÑĢÐ¸ÑĩÐ°Ð»": 5221,
      "ĠÑĢÐ¾Ð´Ð¸ÑĤÐµÐ»Ð¸": 5222,
      "ĠÐ¾ÑĤÑĩÐ°ÑıÐ½Ð½Ð¾": 5223,
      "ĠÐ¾ÑĤÑĩÐ°ÑıÐ½Ð¸Ð¸": 5224,
      "ĠÑħÐ¾ÑħÐ¼Ð°Ð·": 5225,
      "ĠÐĽÐ¸ÑĨÐ¾": 5226,
      "ĠÐ½Ð°Ð´ÐµÑİÑģÑĮ": 5227,
      "ĠÐ½Ð°ÐºÐ°Ð·Ð°Ð½Ð¸Ðµ": 5228,
      "ĠÐ³Ð¾Ð²Ð¾ÑĢÑı": 5229,
      "ĠÐ²Ð¾Ð²ÑĢÐµÐ¼Ñı": 5230,
      "ĠÐ¿Ð¾Ð´ÑģÐ»ÑĥÑĪÐ¸": 5231,
      "ÑĢÑĭÐ³Ð½ÑĥÐ»": 5232,
      "ĠÐ¼ÑĥÐ¶ÑĩÐ¸Ð½Ð°": 5233,
      "ĠÐ¾Ð±ÑģÑĥÐ¶Ð´": 5234,
      "ĠÐĴÐ¸Ð´Ð¸Ð¼Ð¾": 5235,
      "ĠÐ¼ÐµÑĪÐ¾Ðº": 5236,
      "ĠÐºÑĢÐ°Ð¹Ð½Ðµ": 5237,
      "ĠÐ¸Ð´Ð¸Ð¾ÑĤ": 5238,
      "ĠÑĦÑĥÑĤÐ¾Ð²": 5239,
      "ĠÐ¸ÑģÑĤÐ¸Ð½": 5240,
      "ĠÐ¸ÑģÑĤÐµÑĢÐ¸": 5241,
      "ÐŁÐ¾ÑĤÐ¾Ð¼Ñĥ": 5242,
      "ĠÐŁÐ¾Ð¼ÑĦÑĢÐ¸": 5243,
      "ĠÐ¾ÑģÐ²ÐµÐ´Ð¾Ð¼Ð¸Ð»Ð°ÑģÑĮ": 5244,
      "ĠÐºÑĥÐ¿Ðµ": 5245,
      "ĠÑĩÐ¸ÑģÐ»Ðµ": 5246,
      "ĠÐĿÐ°Ð¿Ð°Ð´Ð°Ð»": 5247,
      "ĠÐ³ÑĢÐ¾ÑħÐ¾ÑĤÐ¾Ð¼": 5248,
      "ĠÐ§Ð°ÑĢÑĥÐ°Ð»ÑĮ": 5249,
      "ĠÐ´ÑĥÑĢÐ°Ðº": 5250,
      "ĠÐ¿ÑĢÐ¸ÑĤÐ²Ð¾": 5251,
      "ĠÐľÐ°Ð³Ð¾ÑĢÐ¸": 5252,
      "ÑıÐ·Ð°Ð½Ñĭ": 5253,
      "ĠÐ±Ð¾ÑıÐ»ÑģÑı": 5254,
      "ĠÑģÑĩÐ°ÑģÑĤÑĮÑı": 5255,
      "ĠÐ²ÑĭÐ½ÑĥÐ¶Ð´ÐµÐ½": 5256,
      "ĠÐ¡Ð¼Ð¸ÑĤ": 5257,
      "ĠÐ¿Ð¾ÑģÐ»ÑĭÑĪÐ°Ð»ÑģÑı": 5258,
      "ÑĩÐ¸ÑģÐ»ÐµÐ½": 5259,
      "ĠÐ´Ð¸ÑģÑĨÐ¸Ð¿Ð»Ð¸Ð½Ð°ÑĢ": 5260,
      "ĠÐµÑĢÑĥÐ½Ð´Ð°": 5261,
      "ĠÑĤÐµÑĩÐµÐ½Ð¸Ðµ": 5262,
      "ĠÑģÐ¾Ð¿ÑĢÐ¾Ð²Ð¾Ð¶Ð´": 5263,
      "ĠÐ½Ð°Ð´ÐµÐ¶Ð´Ð¾Ð¹": 5264,
      "ÐºÐ²Ð°ÑĢÑĤÐ¸": 5265,
      "ĠÑģÑĤÐµÐ¿ÐµÐ½Ð¸": 5266,
      "!Â»,": 5267,
      "\",": 5268,
      "Ġ3": 5269,
      "ĠâĢ": 5270,
      "ÑĤÐµÐ»": 5271,
      "ÑĤÑĥÑİ": 5272,
      "ÑĤÑĭÐ¼": 5273,
      "ÑĤÑĭÑħ": 5274,
      "Ð»ÐµÑĩÑĮ": 5275,
      "Ð½ÐµÐ½Ð¸Ðµ": 5276,
      "ĠÐ¿ÐµÑī": 5277,
      "ĠÐ¿Ð¸Ð¶": 5278,
      "ĠÐ¿ÑģÐ¸Ñħ": 5279,
      "ĠÑģÐ°ÑĢ": 5280,
      "ĠÑģÐ½Ñĭ": 5281,
      "ĠÑģÑĩÑĳÑĤ": 5282,
      "ĠÑģÐ²ÐµÑĢÑħÑĥ": 5283,
      "ĠÐ½ÐµÐ»": 5284,
      "ĠÐ²ÐµÐº": 5285,
      "ÑĩÐµÑĤ": 5286,
      "ÐºÑĢÑĭ": 5287,
      "âĢľ": 5288,
      "Ð¼Ð¾Ð¶": 5289,
      "ÑĢÐ¸Ð³": 5290,
      "ÑĪÐºÑĥ": 5291,
      "ÑħÐµ": 5292,
      "ÑħÐ¾ÑĢÐ°Ð´": 5293,
      "ÐµÑĢÐµ": 5294,
      "ÐµÑĢÐ·": 5295,
      "Ð½Ð¸Ð»Ð¾": 5296,
      "Ð½Ð¸ÐºÑĥ": 5297,
      "Ð¾Ð²Ð°Ð½Ð¸Ñı": 5298,
      "Ð¾Ð²Ð°ÑĤÐµÐ»ÑĮÐ½Ð¾": 5299,
      "ĠÐ´Ð°ÑĢ": 5300,
      "ĠÐ´ÐµÐ¶": 5301,
      "ĠÑĤÑī": 5302,
      "ĠÑĤÐµÐ½Ð¸": 5303,
      "ĠÑĤÐµÐ¿": 5304,
      "ĠÑĤÑĳÐ¿": 5305,
      "Ð°ÑĢÐ¶": 5306,
      "ĠÐĵÐ»Ð°Ð·": 5307,
      "Ð³Ð¾ÑĤÐ¾Ð²": 5308,
      "ĠÐ¼Ð°Ðº": 5309,
      "ĠÐ¼Ð°Ñģ": 5310,
      "ĠÐ¼Ð°ÑĪ": 5311,
      "ĠÐ±ÑĢÐ°ÑĤ": 5312,
      "ĠÐ±ÐµÐ¶Ð°ÑĤÑĮ": 5313,
      "ĠÑĩÐµÐ¼Ñĥ": 5314,
      "ĠÑĥÑĢÐ¾Ð²": 5315,
      "ĠÑĥÐ½Ð¸ÑĤ": 5316,
      "ĠÑĥÑĩÐ°Ñī": 5317,
      "ÑİÑĢÐ¾Ð´": 5318,
      "Ð°ÐºÐ°": 5319,
      "ĠÐ½ÐµÑħ": 5320,
      "ĠÐ½ÐµÑģÐ¿": 5321,
      "ĠÐ¿Ð¾ÑĢÐ°Ð¶": 5322,
      "ĠÐ½Ð°Ð¾Ð±Ð¾ÑĢÐ¾ÑĤ": 5323,
      "Ð¾ÑĢÑī": 5324,
      "ĠÐ³Ð°Ð´": 5325,
      "Ð¾Ð´Ð¾Ð±": 5326,
      "...Â»": 5327,
      "Ð°Ð²ÑĤ": 5328,
      "ĠÐ¾ÑĤÐ´Ð°Ð»": 5329,
      "ĠÐ»ÑĥÐ½": 5330,
      "ÑģÐºÐ¾Ð¼": 5331,
      "Ð¾ÐºÐ¾Ð¼": 5332,
      "ĠÐ·Ð°ÑħÐ¾Ð´": 5333,
      "ĠÐ·Ð°ÑĤÐµ": 5334,
      "ĠÐ·Ð°ÑĤÐ¾ÑĢ": 5335,
      "ĠÐ·Ð°ÑĤÑı": 5336,
      "ĠÑįÐ½": 5337,
      "Ð´Ð°Ð½Ð¸Ðµ": 5338,
      "ĠÐĶÐ¸Ð³": 5339,
      "ĠÐŀÐ¢": 5340,
      "ĠÐ²ÑĭÐ¼": 5341,
      "ĠÑģÐºÐ»Ð°Ð´": 5342,
      "ĠÐ²ÑģÐ»ÑĥÑħ": 5343,
      "Ð»ÑĮÐ±": 5344,
      "ĠÐ¾Ð±Ð¸ÑĤ": 5345,
      "ĠÐ¾Ð±Ð»Ð°Ð´": 5346,
      "ÑĥÐ¼Ñı": 5347,
      "ĠÐ¿ÑĢÐ¸Ð½ÐµÑģ": 5348,
      "ĠÑģÑĤÑĢÐµÐ»": 5349,
      "ĠÐĴÐ¾Ð¿": 5350,
      "ĠÐĴÐŀ": 5351,
      "ĠÐłÐ¾Ð´": 5352,
      "ĠÐłÑıÐ´": 5353,
      "Ð¾Ð·Ð½Ð°": 5354,
      "ĠÐļÐ°Ð½Ð´": 5355,
      "ÐµÑģÑĤÐ²Ð¸": 5356,
      "ĠÑĢÐ°Ð·Ð½ÑĭÐµ": 5357,
      "ĠÑĢÐ°Ð·ÑĬ": 5358,
      "ĠÑģÐ¿Ð¸Ñģ": 5359,
      "ĠÐľÐ¸Ð½": 5360,
      "ĠÑĪÐ»Ð°": 5361,
      "ĠÑĪÐµÐ²": 5362,
      "ĠÐºÐ¾ÑģÑĤ": 5363,
      "Ð½ÑıÐºÐ°": 5364,
      "Ð°ÑĤÐµÐ»Ñı": 5365,
      "ÐĿÐ¸Ðº": 5366,
      "ĠÐ»Ð¸ÑĩÐ½Ð¾": 5367,
      "ĠÐ»Ð¸ÑħÐ¾ÑĢÐ°Ð´": 5368,
      "ÐµÐ½ÑĮÐµ": 5369,
      "ĠÐ¢ÑĳÑĤ": 5370,
      "Ð°Ð½Ð¸Ð»": 5371,
      "Ð»ÐµÐ½Ð°": 5372,
      "ĠÐ¤ÐµÐ½Ð¸ÐºÑģÐ°": 5373,
      "ĠÐ²Ð¸Ð´Ð¸ÑĤ": 5374,
      "ĠÐ²Ð¸Ð´Ð¸ÑĪÑĮ": 5375,
      "ÑİÑīÐ¸Ð¼Ð¸": 5376,
      "ĠÐ¾ÑĩÐ°Ð³": 5377,
      "ĠÐĽÐ¾Ð½Ð´": 5378,
      "ÑģÐ¿Ð¾Ð»": 5379,
      "ĠÑĢÐ°ÑģÑĪÐ¸": 5380,
      "ĠÐ²Ð¾Ð·ÑĮÐ¼Ð¸": 5381,
      "ĠÐ¾Ð´Ð½Ð¸Ð¼": 5382,
      "Ð½Ð¾Ð²Ð°": 5383,
      "ĠÐ¿Ð¾ÐºÐ¾Ñģ": 5384,
      "ĠÐ·Ð°ÐºÐ°Ð·": 5385,
      "ÐµÐ½Ð¸ÑıÐ¼Ð¸": 5386,
      "ĠÐ±Ð¾Ð»ÑĮÐ½Ð¸ÑĨÐµ": 5387,
      "ĠÑģÐ¾Ñħ": 5388,
      "Ð²Ð¸Ð·Ð³": 5389,
      "ÑĥÑĢÑĩÐ°Ð»": 5390,
      "ĠÐ¾Ð¿ÑĢÐ¾Ðº": 5391,
      "ĠÐ¾ÑĤÐ²ÐµÑĤÐ¸ÑĤÑĮ": 5392,
      "ĠÐºÐ¾Ð»Ð¾ÐºÐ¾Ð»": 5393,
      "ĠÐºÐ¾Ð»Ð¸Ñĩ": 5394,
      "ÑĳÐ½Ð½ÑĭÑħ": 5395,
      "ĠÐŃÐ¹": 5396,
      "ÑĩÐ°ÐµÑĤ": 5397,
      "ĠÐ¿Ð¾Ð¿Ð°Ð´": 5398,
      "ĠÑħÐ¾ÑĤÑıÑĤ": 5399,
      "ĠÐ²ÑģÑĤÑĥÐ¿": 5400,
      "ĠÐ¾Ð³Ð»ÑĥÑĪ": 5401,
      "ĠÐ¥Ð¾ÑĤ": 5402,
      "Ð£Ð¡": 5403,
      "ĠÐ´Ð²ÐµÑĢÐµÐ¹": 5404,
      "Ð½ÑĥÑĤÑĢÐ¸": 5405,
      "ĠÐ¸ÑģÐ¿Ð¾Ð»ÑĮÐ·": 5406,
      "ĠÐ·Ð°Ð¿Ð°Ñħ": 5407,
      "ĠÑĩÐµÑĢÐ½Ð¸Ð»ÑĮ": 5408,
      "ĠÐ·Ð°Ð²ÐµÑĢ": 5409,
      "ĠÐ¿ÐµÑĢÐµÐ´Ð°Ð»": 5410,
      "ĠÐ¿ÐµÑĢÐµÐ´Ð°ÑĤÑĮ": 5411,
      "ĠÑĥÐ±Ð¸Ð¹": 5412,
      "ĠÑĥÐ±ÐµÐ¶Ð´": 5413,
      "ĠÑĥÐ²Ð¸Ð´ÐµÐ»Ð¸": 5414,
      "ÐŃÐ¹": 5415,
      "ĠÐ¨ÑĢÐ°Ð¼": 5416,
      "ĠÐ²ÐµÐ´ÑĮÐ¼Ñĭ": 5417,
      "ĠÐ¿Ð¾Ð·Ð°Ð´Ð¸": 5418,
      "ĠÑĥÑģÐ¿ÐµÐ»Ð°": 5419,
      "Ð°ÑİÑīÐµÐµ": 5420,
      "ÐµÑģÑĤÐ²Ñĥ": 5421,
      "ĠÐ¿Ð¾Ð³Ð¸Ð±": 5422,
      "ĠÐ²ÑĭÐ¿ÑĢÑıÐ¼": 5423,
      "ĠÐ¿ÑĢÐ¾Ð±ÑĥÑĢÑĩÐ°Ð»": 5424,
      "ĠÐ¾ÑĤÐºÑĢÑĭÑĤÑĮ": 5425,
      "ĠÐ²Ð´Ð¾Ð»ÑĮ": 5426,
      "ĠÐ¿ÑĢÐ¾Ð¸Ð·Ð²": 5427,
      "ĠÐ¿Ð¾Ð½Ð¸Ð¼Ð°Ñı": 5428,
      "ĠÐ¿ÐµÑĢÐ²Ð¾ÐºÐ»Ð°ÑģÑģ": 5429,
      "ĠÐ¼Ð¾Ð»ÑĩÐ°Ð»Ð¸": 5430,
      "ĠÐ»ÑİÐ±Ð¸Ð¼": 5431,
      "ĠÐ·Ð²Ð¾Ð½": 5432,
      "ĠÐ¿Ð¾ÑĤÑĢÐµÐ±": 5433,
      "ĠÐ·Ð°Ð¼ÐµÑĤÐ¸Ð»Ð°": 5434,
      "ĠÐ²Ð¾Ð¿Ð»Ð¸": 5435,
      "ĠÐ¿Ð»ÐµÑĩÐµ": 5436,
      "ĠÐ²Ð¾ÑģÑħ": 5437,
      "ĠÑĥÑĢÐ¾ÐºÐ¾Ð²": 5438,
      "ĠÐ½ÑĥÐ¶ÐµÐ½": 5439,
      "ĠÑĥÑĩÐ¸ÑĤÑĮÑģÑı": 5440,
      "ĠÐ¿Ð¾Ð»ÑĥÑĩÐ¸ÑĤÑĮ": 5441,
      "ĠÐ¿Ð¾Ð¶Ð°Ð»ÑĥÐ¹": 5442,
      "ĠÐ¿Ð¾ÑħÐ»Ð¾Ð¿": 5443,
      "ĠÐ¸Ð¼ÐµÑİÑĤ": 5444,
      "ĠÐ½Ð°Ð±Ð¾Ðº": 5445,
      "ĠÑĩÑĳÑĢÐ½ÑĭÐ¹": 5446,
      "ĠÐ±Ð¾Ð»ÑĮÑĪÑĥÑİ": 5447,
      "ĠÑĥÐ´Ð¸Ð²Ð»ÑĳÐ½Ð½Ð¾": 5448,
      "ĠÐĹÐ°ÑĩÐµÐ¼": 5449,
      "ĠÐ½Ð¾Ð²Ð¾Ð³Ð¾": 5450,
      "ĠÐ²ÑģÑıÐºÐ¸Ðµ": 5451,
      "ĠÐ²ÑģÑıÐºÐ¾Ð³Ð¾": 5452,
      "Ð¸ÑĤÐµÐ»ÑĮÐ½ÑĭÐµ": 5453,
      "ĠÐ¿ÑĥÑĤÑĮ": 5454,
      "ĠÐ¿ÑĥÐ»ÑĮ": 5455,
      "ĠÐ½ÐµÐ±ÐµÑģ": 5456,
      "ĠÐ½ÐµÐ±Ð¾Ð»ÑĮÑĪ": 5457,
      "ĠÐ¿Ð¾Ð´ÑĥÐ¼Ð°ÑĤÑĮ": 5458,
      "ĠÑĪÐ°Ð³Ð¾Ð¼": 5459,
      "ĠÐ½Ð°ÑĩÐ°ÑĤÑĮ": 5460,
      "ĠÐ¿Ð¾Ð²ÑĤÐ¾ÑĢÑı": 5461,
      "ĠÐ²ÑģÑĤÑĢÐµÑĩÐ¸": 5462,
      "ĠÑįÐ»ÑĮÑĦÐ¾Ð²": 5463,
      "ĠÐ¾Ð·ÐµÑĢÐ°": 5464,
      "ĠÐºÐ¾Ð»Ð´Ð¾Ð²ÑģÐºÐ¾Ð¹": 5465,
      "ĠÐ¸ÑģÐ¿ÑĭÑĤÐ°Ð»": 5466,
      "ĠÐ¿ÑĢÐ¾Ð¿ÑĥÑģÐº": 5467,
      "ĠÑģÐºÐ°Ð¶Ñĥ": 5468,
      "ĠÑĥÐ·Ð½Ð°ÐµÑĤ": 5469,
      "ĠÑģÐµÐ¼ÐµÐ¹": 5470,
      "ÑıÑĤÐ¸Ñı": 5471,
      "ĠÐ¿ÑĢÐ¸Ð³Ð¾ÑĤÐ¾Ð²": 5472,
      "Ð¸ÑīÐµ": 5473,
      "ĠÐ´ÐµÐ¼ÐµÐ½ÑĤÐ¾ÑĢÐ°": 5474,
      "ĠÑĪÐºÐ¾Ð»ÑĮÐ½Ð¸ÐºÐ¸": 5475,
      "ĠÐŀÐ´Ð¸Ð½": 5476,
      "ĠÑĨÐµÐ»ÑĭÐ¹": 5477,
      "ĠÐ´ÑĢÑĥÐ·ÑĮÑıÐ¼Ð¸": 5478,
      "ĠÐºÐ½Ð¸Ð³Ñĥ": 5479,
      "ĠÐłÐ°Ð·Ð²Ðµ": 5480,
      "ĠÐłÐ°Ð·ÑĥÐ¼ÐµÐµÑĤÑģÑı": 5481,
      "ĠÐ¶ÐµÐ½ÑģÐºÐ¸Ð¹": 5482,
      "ĠÐ¡Ð¿Ð°ÑĢÐ¶": 5483,
      "ĠÑģÐºÑĢÑĭÐ»ÑģÑı": 5484,
      "ĠÐ°ÑĢÐ¼Ð¸": 5485,
      "ĠÐ²Ð¾Ð·Ð¼ÑĥÑīÑĳÐ½Ð½Ð¾": 5486,
      "ĠÐ¥ÐµÐ´Ð²Ð¸Ð³Ñĥ": 5487,
      "ĠÐ¿Ð¾Ð»Ð¾Ð¶Ð¸Ð»": 5488,
      "ĠÐĹÐ½Ð°ÐµÑĪÑĮ": 5489,
      "ĠÐ¶Ð¸Ð²Ð¾ÑĤÐµ": 5490,
      "ĠÑģÐ¼Ð¾Ð³Ñĥ": 5491,
      "ĠÐ¾Ð³Ð»ÑıÐ´ÐµÐ»ÑģÑı": 5492,
      "ĠÑģÐ²ÑıÐ·Ð¸": 5493,
      "ĠÐ¼ÐµÑģÑıÑĨÐµÐ²": 5494,
      "ĠÐ²ÐµÑģÐµÐ»Ð¾": 5495,
      "ĠÑħÐ¾ÑĢÐ¾ÑĪÐµÐ³Ð¾": 5496,
      "ĠÐ²Ð¾Ð·Ð¼Ð¾Ð¶Ð½Ð¾ÑģÑĤÑĮ": 5497,
      "ĠÐ±ÐµÐ´Ð½Ñı": 5498,
      "ĠÐ¿Ð¾ÑĤÐµÑĢÑıÐ»": 5499,
      "ĠÐ¿Ð¾Ð´Ð¿Ð¸Ñģ": 5500,
      "ĠÐ´ÐµÑĤÐµÐ¹": 5501,
      "ĠÐ¿Ð¾Ð´Ð¾Ð·ÑĢÐµÐ²": 5502,
      "ĠÑģÐ¿ÑĥÑģÑĤÑı": 5503,
      "ĠÑĤÐ¸ÑĪÐµ": 5504,
      "ĠÐ¼Ð¾ÑĢÑī": 5505,
      "ĠÐ§ÑĳÑĢÐ½ÑĭÐ¹": 5506,
      "ĠÐ¾Ð±Ð»ÐµÐ³ÑĩÐµÐ½Ð¸Ðµ": 5507,
      "ĠÑģÐ»Ð¸Ð·ÐµÑĢÐ¸Ð½ÑĨÐµÐ²": 5508,
      "ĠÐ´Ð¾Ð³Ð°Ð´Ð°Ð»ÑģÑı": 5509,
      "ĠÐ¿Ð¾Ð½Ð°Ð´Ð¾Ð±Ð¸Ð»Ð¾ÑģÑĮ": 5510,
      "ĠÑĪÐµÐ¿Ð½ÑĥÐ»Ð°": 5511,
      "ĠÑģÐ¼ÑĭÑģÐ»Ðµ": 5512,
      "ĠÐ·Ð°Ð²Ð¾Ð¿Ð¸Ð»Ð°": 5513,
      "ÑĦÐ¸ÑĨÐ¸": 5514,
      "ĠÐ¿ÑĭÑĤÐ°ÐµÑĤÑģÑı": 5515,
      "ĠÐ¸ÑģÑĤÐ¾ÑĢÐ¸Ñİ": 5516,
      "ĠÐĶÑĥÑĢÑģÐ»ÐµÐ¸": 5517,
      "ĠÐ¿ÑĢÐ°ÐºÑĤÐ¸ÑĩÐµÑģÐºÐ¸": 5518,
      "ĠÐ»Ð¸ÑĦÑĤ": 5519,
      "ĠÐĿÐ°Ð´ÐµÑİÑģÑĮ": 5520,
      "ĠÐľÐµÐ¶Ð´ÑĥÐ½Ð°ÑĢÐ¾Ð´": 5521,
      "ĠÐ»Ð°Ð´Ð¾Ð½": 5522,
      "ĠÐ¾ÑģÐ»Ð°Ð±": 5523,
      "ĠÐľÐ¾Ð½ÑĤÐµÐ³Ñİ": 5524,
      "ĠÑħÑĢÑĥÑģÑĤÐ°Ð»ÑĮ": 5525,
      "ĠÐ¼Ð½Ð¾Ð¶ÐµÑģÑĤÐ²Ð¾": 5526,
      "ĠÐ¿Ð»Ð°Ð¼ÐµÐ½Ð¸": 5527,
      "ĠÑģÐ¾ÑģÑĤÐ¾ÑıÐ½Ð¸Ð¸": 5528,
      "ĠÐĹÐ°ÑģÑĤÑĥÐ¿Ð½Ð¸ÐºÐ°": 5529,
      "ĠÑĥÐ¼Ð¸ÑĢÐ°": 5530,
      "ĠÐ²ÑģÑħÐ»Ð¸Ð¿": 5531,
      "ĠÐľÑĥÐ´ÑĢÐµÐ¹ÑħÐ°": 5532,
      "ĠÐ´ÑĭÑħÐ°Ð½Ð¸Ðµ": 5533,
      "ĠÐ¿ÑĢÐµÐ´Ð¾ÑģÑĤÐ°Ð²": 5534,
      "ĠÐ¾Ð·Ð°Ð±Ð¾ÑĩÐµÐ½Ð½Ð¾": 5535,
      "ĠÐ¿Ð¾ÑģÐ¿ÐµÑĪÐ¸Ð»": 5536,
      "ĠÐ½ÐµÑģÐºÐ¾Ð»ÑĮÐºÐ¸Ñħ": 5537,
      "ĠÐ»Ð°Ð´Ð¾Ð½Ð¸": 5538,
      "ĠÐ¡Ð²Ð¸Ð½": 5539,
      "ĠÑĥÑģÐ¼ÐµÑħÐ½ÑĥÐ»ÑģÑı": 5540,
      "ĠÐ¿ÑĢÐ¾Ð²Ð¾ÑĢÑĩÐ°Ð»": 5541,
      "ĠÐ·Ð°Ð³Ð°Ð´Ð¾Ñĩ": 5542,
      "ĠâĢŀ": 5543,
      "ĠÐ¿Ð¸Ð¶Ð°Ð¼": 5544,
      "ĠÑĥÐ½Ð¸ÑĤÐ°Ð·": 5545,
      "ĠÐļÐ°Ð½Ð´Ð°Ð»ÑĮ": 5546,
      "ĠÐ¡Ð¿Ð°ÑĢÐ¶ÐµÐ»": 5547,
      "ĠÑĨÐ°": 5548,
      "Ð¾Ð½Ð¸Ð¼": 5549,
      "Ð¾ÑģÑĤÑĮÑİ": 5550,
      "ÐµÑĤÐ¾": 5551,
      "ÐµÑĦ": 5552,
      "Ð¸ÑĪÐµ": 5553,
      "ÑĢÐ½Ð¾": 5554,
      "ÑĢÐ¾Ð³Ð¾": 5555,
      "ÑĢÐµÑģÑĤ": 5556,
      "Ð»ÑĳÐ½": 5557,
      "ÑıÐµÑĤ": 5558,
      "ÑıÐ»ÑĮ": 5559,
      "ĠÐ¿Ð°Ð´": 5560,
      "ĠÐ¿ÑĥÐ³": 5561,
      "ĠÑģÐµÐ»Ð°": 5562,
      "ĠÐ²Ð»Ð°": 5563,
      "ĠÐ²ÐµÑĩÐ½Ð¾": 5564,
      "ÐºÑĤÐ¾": 5565,
      "ÐºÑħÐµÐ¼": 5566,
      "Ð²ÐµÑĢÐ¸": 5567,
      "ĠÐ¾ÑĪ": 5568,
      "ÑĤÐ¾ÑĢÑĭ": 5569,
      "ÑĢÐ¸Ð²": 5570,
      "ÑĪÑĤ": 5571,
      "ĠÐºÐ¾Ð¿": 5572,
      "ĠÐºÐ»Ð°Ð´": 5573,
      "ÐµÑĢÐ²Ð°": 5574,
      "Ð½Ð¸ÐºÐ°Ð¼Ð¸": 5575,
      "Ð¾Ð²ÑĥÑİ": 5576,
      "Ð¾Ð»Ðº": 5577,
      "Ð¾Ð»ÐµÐ·": 5578,
      "Ð¾Ð»Ð°Ð³": 5579,
      "ĠÐ´Ð¶": 5580,
      "ĠÐ´ÑĥÐ±": 5581,
      "ĠÐ·Ð°Ð·": 5582,
      "ĠÐ·ÑĥÐ±": 5583,
      "ĠÐ·Ð»Ð¾Ð²": 5584,
      "ĠÑĤÐ°Ð½": 5585,
      "ĠÑĤÐ²ÐµÑĢÐ´": 5586,
      "ĠÑĤÐ¾Ð¿Ð¾ÑĤ": 5587,
      "ĠÐĵÐ¾Ð²Ð¾ÑĢÐ¸": 5588,
      "ĠÐĵÐ°Ð´Ð²ÑĥÐ´": 5589,
      "ĠÐ¼Ñĥ": 5590,
      "ĠÐ¼Ð¾Ðº": 5591,
      "ĠÐ¼ÑĥÑģ": 5592,
      "ĠÐ¼ÑĥÑĩ": 5593,
      "ÑİÑĪ": 5594,
      "ÑİÑħ": 5595,
      "Ð·Ð¸": 5596,
      "Ð°ÐºÐ¾Ð²": 5597,
      "Ð°Ð·Ð´": 5598,
      "ĠÑĢÑĤÑĥ": 5599,
      "Ð½ÑĥÑĤÐ¾": 5600,
      "Ð½ÑĥÐ»Ð¾ÑģÑĮ": 5601,
      "ĠÐ³Ð»Ñı": 5602,
      "ĠÐµÑģÑĤÐµÑģÑĤÐ²ÐµÐ½Ð½Ð¾": 5603,
      "Ð¹Ð´": 5604,
      "Ð¾Ð½ÑĦ": 5605,
      "ĠÐ¾ÑĤÑĪ": 5606,
      "ĠÐ¾ÑĤÐ²Ð¾": 5607,
      "ĠÐ¾ÑĤÐ¼Ð°Ñħ": 5608,
      "ĠÐ¿ÑĢÑĭ": 5609,
      "ĠÐ»Ð°Ð¼": 5610,
      "ĠÐ»ÐµÐ·": 5611,
      "ĠÐ»Ð±Ñĥ": 5612,
      "ĠÐ»Ð³Ð°ÑĤÑĮ": 5613,
      "ĠÐ»ÐµÑĤÐ¾": 5614,
      "ÑģÐºÐ¾Ðµ": 5615,
      "Ð¸ÑĤÑĭ": 5616,
      "ĠÐ·Ð°Ð¸Ð½ÑĤÐµÑĢÐµÑģ": 5617,
      "ĠÐ¿ÑĢÐ¾Ñī": 5618,
      "ĠÐ¿ÑĢÐ¾ÑĢÐ¾Ðº": 5619,
      "ĠÐŀÑģ": 5620,
      "ĠÐŀÐ¿": 5621,
      "ÑĦÑĤÐ¸": 5622,
      "ĠÐ²ÑĭÐ¹ÑĤÐ¸": 5623,
      "ÐµÐ²Ð°": 5624,
      "ÐµÐ²Ð°ÑĤÑĮ": 5625,
      "ÐµÐ²Ð°Ñı": 5626,
      "ĠÑģÐºÐ¾ÑĢ": 5627,
      "ÑĤÐ¸ÑĢÐ¾Ð²": 5628,
      "Ð»ÑıÐµÑĤÑģÑı": 5629,
      "ĠÐ¿ÑĢÐ¸Ð½": 5630,
      "ĠÐ¿ÑĢÐ¸Ð²Ð¸Ð´": 5631,
      "ĠÐ¿ÑĢÐ¸ÑģÑĤÑĥÐ¿": 5632,
      "ĠÐ¿ÑĢÐ¸Ð¾Ð±ÑĢ": 5633,
      "ÑĢÑĥÑĪ": 5634,
      "ĠÑģÑĤÑĢÐ¾Ñĩ": 5635,
      "ĠÑģÑĤÐ°ÑĢÐ¸": 5636,
      "ĠÑģÑĤÑĢÐ°Ð´": 5637,
      "ĠÐĴÐ¾Ð·": 5638,
      "ĠÐĴÐ°ÑĪ": 5639,
      "ĠÐ¶ÐµÐ»Ð°": 5640,
      "ĠÐ½Ð¸Ð¶": 5641,
      "ĠÑıÐ´Ð¾Ð²": 5642,
      "Ð°ÑĤÐ¾Ð³Ð¾": 5643,
      "Ð°ÑĤÐµÐ»Ð¸": 5644,
      "ÐĿÐ°Ð²": 5645,
      "ĠÐ¢Ð¾Ð¼": 5646,
      "ĠÐ¿Ð¾ÑģÐµÑĤ": 5647,
      "ĠÐ¿Ð¾ÑģÐ»ÑĥÑĪ": 5648,
      "ĠÐ¿Ð¾Ð»Ñİ": 5649,
      "ĠÐ¿Ð¾Ð»Ð½ÐµÐ¹": 5650,
      "ĠÐ¿Ð¾Ð»Ð°Ð³Ð°Ñİ": 5651,
      "ĠÐ³Ð»ÑĥÑħ": 5652,
      "Ð¢Ð¾ÑĩÐ½Ð¾": 5653,
      "ĠÐĶÑĥÐ¼Ð°Ñİ": 5654,
      "ĠÐ§Ñį": 5655,
      "ĠÐ´Ð¾ÑĪÑĳÐ»": 5656,
      "ĠÐĲÐ»ÑĮÐ±": 5657,
      "ĠÑĢÐ°ÑģÑģÑĤÑĢÐ¾": 5658,
      "ĠÐ¾Ð´Ð½Ð¸": 5659,
      "Ð¡ÑĤ": 5660,
      "ĠÑģÐ¾ÑĪÐ»Ð°": 5661,
      "ĠÑģÐ¾ÑģÐºÐ¾Ð»ÑĮÐ·": 5662,
      "Ð¾Ð»Ð¶ÐµÐ½": 5663,
      "ĠÐºÐ¾Ð½ÑĦ": 5664,
      "ĠÐ¿ÑĢÐ¾ÑĦÐµÑģÑģÐ¾ÑĢÐ¾Ð¼": 5665,
      "ĠÐºÐ¾Ð»ÐµÐ½": 5666,
      "ĠÐ¾ÑģÑĤÐ°": 5667,
      "ĠÐķÑīÑĳ": 5668,
      "ĠÑħÐ¾ÑĤÐ¸ÑĤÐµ": 5669,
      "Ð§ÐµÐ³Ð¾": 5670,
      "ĠÐ¾Ð³ÑĢÑĭÐ·": 5671,
      "Ð£ÐĶ": 5672,
      "ĠÑģÐ´ÐµÑĢÐ¶": 5673,
      "ĠÐ´ÑĥÐ¼Ð°ÐµÑĤÐµ": 5674,
      "ĠÐĿÐµÐ²Ð¸Ð»Ð»Ñİ": 5675,
      "Ð¥ÑĥÑĦÑĦÐ»ÑĮÐ¿ÑĥÑĦÑĦ": 5676,
      "ĠÑĤÑĢÐ¾Ð»": 5677,
      "ĠÑĤÑĢÐ¾Ð³": 5678,
      "ĠÐ·Ð°Ð¿Ð¾Ð»": 5679,
      "ĠÑĨÐµÐ»Ð¸": 5680,
      "ĠÐ½Ð¾Ð³Ð¾Ð¹": 5681,
      "ĠÑĥÐ±Ð¸Ð»": 5682,
      "ĠÐ²Ð¿ÐµÑĢÐµÐ´Ð¸": 5683,
      "ĠÐ¿Ð¾Ð·Ð´Ð½Ð¾": 5684,
      "ÑıÑīÐ¸Ñħ": 5685,
      "ĠÐ¿Ð¾Ð´Ð½ÑıÐ²": 5686,
      "ĠÐ¿ÑĢÐ¾Ð²ÐµÑĢÐ¸ÑĤÑĮ": 5687,
      "ĠÑĢÐ°Ð·Ð´ÐµÐ²Ð°Ð»": 5688,
      "ĠÐ¿ÑĢÐ¾ÑĪÑĥ": 5689,
      "ĠÑģÐ´ÐµÐ»Ð°Ð»Ð¸": 5690,
      "ĠÑĢÐ°ÑģÐ¿ÑĢÐ¾ÑģÑĤ": 5691,
      "ĠÐ¿ÐµÑĢÐ²Ð¾Ð¼": 5692,
      "ĠÐ¿Ð°ÑĢÐ°Ð´": 5693,
      "ĠÐ¿Ð°ÑĢÐµÐ½ÑĮ": 5694,
      "ĠÐ³ÑĢÑĥÐ±": 5695,
      "ĠÐ³ÑĢÑĥÐ±Ð¾": 5696,
      "ĠÑĥÑĢÐ¾ÐºÐ°Ñħ": 5697,
      "ĠÐ¿Ð¾Ð¹Ð´ÑĳÐ¼": 5698,
      "ĠÑĥÑĩÐ¸ÑĤÑĮ": 5699,
      "ÑĪÐµÐ¹ÑģÑı": 5700,
      "ĠÐ¾ÑĤÐ²ÑĢÐ°Ñī": 5701,
      "ĠÑĥÐ²ÐµÑĢÐµÐ½Ð°": 5702,
      "ĠÑĥÐ´Ð¸Ð²Ð»ÐµÐ½Ð¸Ðµ": 5703,
      "ĠÐĹÐ°ÑĤÐ¾": 5704,
      "ĠÐ½Ð¾Ð²ÑĭÐµ": 5705,
      "ĠÐ±ÑĢÐ¾ÑģÐ¸Ð»Ð°ÑģÑĮ": 5706,
      "ĠÐ¿Ð¾ÑģÑĤÐµÐ»Ð¸": 5707,
      "ĠÑĥÐ²Ð°Ð¶": 5708,
      "ĠÑĥÐ²ÐµÐ´Ð¾Ð¼": 5709,
      "Ð¸ÑĤÐµÐ»ÑĮÐ½ÑĭÐ¹": 5710,
      "ĠÐ¾Ð³ÑĢÐ¾Ð¼Ð½ÑĭÐ¹": 5711,
      "ĠÐ¾Ð³ÑĢÐ¾Ð¼Ð½Ð¾Ðµ": 5712,
      "ĠÐ¾Ð±ÑĬÑıÑģÐ½Ð¸Ð»Ð°": 5713,
      "ĠÐ¿ÑĢÐ¸Ð·ÐµÐ¼": 5714,
      "ĠÐ¿ÑĢÐ¸Ð·Ð½Ð°Ð²": 5715,
      "ĠÐ¿Ð¾Ð´ÑĥÐ¼Ð°Ð»Ð°": 5716,
      "ĠÑģÐ»ÑĥÑĪÐ°Ð»": 5717,
      "ĠÐ´ÐµÐ²Ð¾ÑĩÐµÐº": 5718,
      "ĠÐ´Ð»Ð¸Ð½Ð½ÑĭÐ¹": 5719,
      "ĠÐ²ÑģÐ¿Ð¾Ð¼Ð½Ð¸ÑĤÑĮ": 5720,
      "ĠÐĲÐ½Ð³ÐµÐ»Ð¸Ð½Ñĭ": 5721,
      "ĠÐ½Ð°ÑĩÐ¸Ð½": 5722,
      "ĠÐ²ÑģÑĤÑĢÐµÑĩÐ°ÑĤÑĮÑģÑı": 5723,
      "ÑĪÐµÐ³Ð¾ÑģÑı": 5724,
      "ĠÑĥÑģÐ»ÑĭÑĪÐ°ÑĤÑĮ": 5725,
      "ĠÐ¸Ð½ÑĤÐµÑĢÐµÑģÐ¾Ð¼": 5726,
      "ĠÐ¼ÐµÑĢÑĨÐ°": 5727,
      "ĠÐ±ÐµÑģÐ¿Ð¾Ð»ÐµÐ·": 5728,
      "ĠÐ·Ð°ÐºÑĢÑĭÐ»Ð°ÑģÑĮ": 5729,
      "ĠÐ´Ð¾ÑĢÐ¾Ð³Ñĥ": 5730,
      "ĠÐ¾ÑĤÐ¿ÑĢÐ°Ð²Ð¸Ð»ÑģÑı": 5731,
      "ĠÑģÐ²Ð¸Ð´Ð°Ð½Ð¸Ñı": 5732,
      "ĠÐ¾Ð¶Ð¸Ð²": 5733,
      "ĠÐ´ÑĥÑĪÐµ": 5734,
      "ĠÐ²Ð¾Ð·Ð²ÑĢÐ°ÑīÐµÐ½Ð¸Ñı": 5735,
      "ĠÐ¿Ð¾Ð´Ð¾Ð±Ð½Ð¾Ðµ": 5736,
      "ĠÐ¿Ð¾ÑģÐºÐ¾ÑĢÐµÐµ": 5737,
      "ĠÐ¾ÑģÑĤÐ°Ð½Ð¾Ð²Ð¸Ð»Ð¸ÑģÑĮ": 5738,
      "ĠÐ¿ÑĢÐ¸ÐºÐ°Ð·Ð°Ð»": 5739,
      "ĠÐ¸ÑģÑĤÐ¾Ñĩ": 5740,
      "ĠÐ»ÐµÐ³ÑĩÐµ": 5741,
      "ĠÐ²ÐµÑĤÐµÑĢ": 5742,
      "ĠÐ¼Ð°Ð»ÑĮÑĩÐ¸Ðº": 5743,
      "ĠÐ²ÑĭÑģÐ¾ÐºÐ¸Ð¹": 5744,
      "ĠÑĢÐµÐ±ÑıÑĤÐ°Ð¼": 5745,
      "ĠÐ½Ð°Ð´ÐµÑıÑģÑĮ": 5746,
      "ĠÐ±Ð»Ð¸Ð·Ð½ÐµÑĨÑĭ": 5747,
      "ĠÐ¼Ð¾Ð·Ð³Ð¸": 5748,
      "ĠÐ±Ð¾Ð¸ÑĤÑģÑı": 5749,
      "ĠÑģÐ¾Ð±ÑĢÐ°Ð½Ð¸Ðµ": 5750,
      "ĠÐ²Ð¸ÑģÐµÐ»": 5751,
      "ĠÐ²Ð¾ÑģÐ¿Ð¾Ð»ÑĮÐ·Ð¾Ð²": 5752,
      "ĠÐĶÐ¾Ð»Ð¾Ñħ": 5753,
      "ĠÐ¿ÑĢÐµÐ´Ð¿Ð¾Ñĩ": 5754,
      "ĠÐ¿ÑĢÐµÐ´Ð¿Ð¾Ð»Ð¾Ð¶": 5755,
      "ĠÑĥÐ¼ÐµÐµÑĤ": 5756,
      "ĠÐ§ÑĳÑĢÐ½Ð¾Ð³Ð¾": 5757,
      "ĠÑģÑĩÐ°ÑģÑĤÑĮÑİ": 5758,
      "ĠÑĢÐµÐ´ÐºÐ¾ÑģÑĤÑĮ": 5759,
      "ĠÐ¿ÑĢÐ¾ÑģÑĤÑĢÐ°Ð½": 5760,
      "ĠÐ¿Ð¾Ð½Ð°Ð´Ð¾Ð±Ð¸ÑĤÑģÑı": 5761,
      "ĠÐ½Ð¾Ð²Ð¾ÑģÑĤÐ¸": 5762,
      "ĠÐ¾ÑĢÐ³": 5763,
      "ĠÐ¿Ð¾ÑĤÑıÐ½ÑĥÐ»ÑģÑı": 5764,
      "ĠÐ·Ð°Ð¼Ð¾Ð»ÑĩÐ°Ð»Ð¸": 5765,
      "ĠÐ¢Ð¾ÑĦÑĤÐ¸": 5766,
      "ĠÑģÐ¼ÑĭÑģÐ»": 5767,
      "ĠÑĩÐ»ÐµÐ½Ñĭ": 5768,
      "ĠÐ¿ÑĢÐ¾ÐºÐ»ÑıÑĤÐ¸Ðµ": 5769,
      "ĠÑĢÑĥÑĩÐºÑĥ": 5770,
      "ĠÑĤÐ°ÑĢÐµÐ»ÐºÑĥ": 5771,
      "ĠÐ·Ð°ÑģÐ¼ÐµÑıÐ»ÑģÑı": 5772,
      "ĠÐ¿ÑĢÐ¸ÑĤÐ²Ð¾ÑĢ": 5773,
      "ĠÐ²Ð´Ð¾ÑħÐ½Ð¾Ð²": 5774,
      "ĠÑĤÐµÑģÑĤÑĢÐ°Ð»ÐµÐ¹": 5775,
      "ĠÐ¾Ð±Ð¾ÑĢÐ²Ð°Ð»": 5776,
      "ĠÐ¾Ð±Ð½Ð°ÑĢÑĥÐ¶Ð¸Ð»": 5777,
      "ĠÐ½Ð¸Ð·ÐºÐ¾": 5778,
      "ÑĢÐ¸Ð·ÑĢÐ°Ðº": 5779,
      "ĠÐ¤Ð»Ð¸ÑĤÐ²Ð¸Ðº": 5780,
      "ĠÐ¿ÑĢÐ¾Ð»ÐµÐ¿ÐµÑĤÐ°Ð»Ð°": 5781,
      "ĠÐ¿Ð¾ÑĢÐ¾Ð³Ðµ": 5782,
      "ĠÐ²ÑĭÐ´Ð¾ÑħÐ½ÑĥÐ»Ð°": 5783,
      "ĠÐ¿ÑĢÐ¾ÑĤÐ¸Ð²Ð¾": 5784,
      "ĠÑĥÑĢÐ¾Ð´Ð»Ð¸Ð²": 5785,
      "ÑĢÐ¸ÑĩÐ½ÐµÐ²": 5786,
      "ĠÑģÐ¾Ð¼Ð½ÐµÐ²Ð°Ð»ÑģÑı": 5787,
      "ĠÐĳÐ¸ÑĢÑİÑĩÐ¸Ð½Ð¾Ð²Ð¾Ð¹": 5788,
      "ĠÐ²ÐµÐ¶Ð»Ð¸Ð²Ð¾": 5789,
      "ĠÐ¾Ð´Ð½Ð°Ð¶Ð´Ñĭ": 5790,
      "ĠÐ½ÐµÐ»Ð¾Ð²ÐºÐ¾": 5791,
      "ĠÐĲÐ»Ð¸ÑģÐ¸Ñı": 5792,
      "ĠÐ½ÐµÑģÐ»Ð¸ÑģÑĮ": 5793,
      "ĠÐ»ÐµÐ½Ð¸Ð²Ð¾": 5794,
      "ĠÐ·Ð²ÑĳÐ·Ð´": 5795,
      "ĠÐ¿Ð¾Ð´Ð·ÐµÐ¼ÐµÐ»ÑĮÐµ": 5796,
      "ĠÐ½ÐµÐ¾Ð¿ÑĢÐµÐ´ÐµÐ»": 5797,
      "ÑĢÐ¸Ð½ÑģÑĤ": 5798,
      "ĠÐ²ÑĢÐµÐ¼ÐµÐ½ÐµÐ¼": 5799,
      "ĠÑħÐ¾ÑħÐ¼Ð°Ð·Ð¸Ð½": 5800,
      "ÑĢÐ¸Ð³Ð°Ð´": 5801,
      "ĠÐĵÐ»Ð°Ð·Ð°": 5802,
      "ĠÐłÑıÐ´Ð¾Ð¼": 5803,
      "ĠÐ¡Ð²Ð¸Ð½ÑĢÐ¸Ð½ÑģÑĤ": 5804,
      "\".": 5805,
      "?Â»": 5806,
      "Ðģ": 5807,
      "Ð°ÑģÐº": 5808,
      "Ð°ÑĩÐ¸": 5809,
      "ÑĤÐ¾Ð¶": 5810,
      "Ð»ÐµÑģÑĤ": 5811,
      "Ð»ÑĳÐ¿": 5812,
      "Ð½Ð¾Ð»ÐµÑĤ": 5813,
      "ĠÐ¿ÐµÑĢÐ¸": 5814,
      "ÑĭÐ½": 5815,
      "ÑĭÐ¶": 5816,
      "ĠÑģÐ¾Ð»": 5817,
      "ĠÑģÐ¸Ð³": 5818,
      "ĠÐ²Ð»ÐµÑĤ": 5819,
      "ĠÐ²ÑĢÑıÐ´": 5820,
      "ĠÐ²ÑĢÐ¸Ð·ÑĢÐ°Ðº": 5821,
      "Ð²Ð°Ð´": 5822,
      "Ð²Ð°Ð»Ð¾ÑģÑĮ": 5823,
      "Ð¼Ð¸Ð»": 5824,
      "ÑĢÐ¸ÑĤÑĮ": 5825,
      "ÑĢÐ¸ÑĢÐ¾Ð²Ð°ÑĤÑĮ": 5826,
      "ĠÐºÐ¾Ð·": 5827,
      "ĠÐºÑĢÐ¾ÑĪ": 5828,
      "ÑħÐ½ÑĥÐ»": 5829,
      "Ð½Ð¸Ð»ÑģÑı": 5830,
      "Ð¾Ð»ÑĩÐ°Ð»": 5831,
      "ĠÐ´ÐµÐ¼ÐµÐ½": 5832,
      "ĠÐ·Ð½Ð°Ðº": 5833,
      "ĠÐ·Ð´ÑĢÐ°Ð²": 5834,
      "ĠÑĤÐµÐº": 5835,
      "Ð³ÑĥÑģÑĤ": 5836,
      "ĠÐ±ÐµÑģÐº": 5837,
      "ĠÐ±ÑĢÐ¸Ð³Ð°Ð´": 5838,
      "ÐµÑĤÐºÑĥ": 5839,
      "Ð½Ð°Ñħ": 5840,
      "Ð¾Ð³Ð»Ð°Ñģ": 5841,
      "ĠÑĢÐ°Ð¼": 5842,
      "Ð¾ÑĢÑıÐ´": 5843,
      "ĠÐ³Ð¾ÑģÐ¿Ð¾Ð´": 5844,
      "Ð°Ð²Ð°Ð»Ð¸": 5845,
      "Ð°Ð²Ð°Ð»Ð¾ÑģÑĮ": 5846,
      "ÐµÐ´ÐµÐ»ÑĮ": 5847,
      "ÑĨÐ¾Ð¼": 5848,
      "ÑĨÐµÐ½Ð¸": 5849,
      "ĠÐ¾ÑĤÑĢÑĭÐ²": 5850,
      "Ð´Ð°ÐµÑĤ": 5851,
      "ĠÐĶÐ°Ð±": 5852,
      "ĠÐ¿ÑĢÐ¾ÑģÐ¸": 5853,
      "ĠÐ²ÑĭÐ¸Ð³": 5854,
      "ĠÐ²ÑĭÑĤÑı": 5855,
      "ÐµÐ²Ð¾": 5856,
      "ĠÐŁÑĥÑģÑĤÑĮ": 5857,
      "ĠÐŁÐ°ÑĤÐ¸Ð»": 5858,
      "ĠÑģÐºÐ»Ð¾Ð½Ð¸": 5859,
      "Ð²Ð°Ð½Ð¸Ðµ": 5860,
      "ÑĤÐ¸Ð¼": 5861,
      "ÑĤÐ¸ÑĩÐµÑģÐºÐ¸": 5862,
      "Ð¾Ð»ÑĮÐ½Ð¾": 5863,
      "ĠÐ¾Ð±ÐµÑģÐ¿Ð¾ÐºÐ¾": 5864,
      "ĠÐ¡Ð¾": 5865,
      "ĠÐĴÐ·": 5866,
      "ĠÐłÑĥÐºÐ°": 5867,
      "ĠÐ¿Ð¾Ð´Ð°Ð»ÑĮÑĪÐµ": 5868,
      "ĠÐ¸Ð·ÑĢÑĳÐº": 5869,
      "ĠÑıÐ¹": 5870,
      "ÑĪÐ¸Ð»Ð¸": 5871,
      "Ð¾ÑĩÐ°ÑĢÐ¾Ð²": 5872,
      "ĠÑĢÐ°Ð·Ð½Ð¾": 5873,
      "ÑĥÐ´Ð¸ÑĤÑĮ": 5874,
      "ĠÑģÐ»ÑĥÑħ": 5875,
      "ĠÑģÐ¿ÑĢÐ¾Ñģ": 5876,
      "Ð¸Ð»Ð°Ñı": 5877,
      "ĠÐ¿ÐµÑĢÑĮÑı": 5878,
      "ĠÑĪÐ°ÑĤ": 5879,
      "Ð°Ð¼Ð¸Ð»Ð¸": 5880,
      "Ð°ÑĤÐ°": 5881,
      "Ð°ÑĤÑĭÐ¹": 5882,
      "Ð¸Ð¼Ð¾Ðµ": 5883,
      "Ð¸Ð²Ð°Ð»Ð¸ÑģÑĮ": 5884,
      "ĠÐ£ÑĤ": 5885,
      "ĠÐ¿Ð¾ÑģÐ»": 5886,
      "ĠÐ¿Ð¾Ð»Ð½Ð¾Ð¼": 5887,
      "ĠÐ¿Ð¾Ð»ÑĥÐº": 5888,
      "ÐĲÐł": 5889,
      "ĠÐ²Ð·Ð¼ÐµÑĤ": 5890,
      "ĠÐ²Ð·Ð²Ð¸Ð·Ð³": 5891,
      "ÑĪÐµÐµÑģÑı": 5892,
      "ÐŁÐ¾Ð¶Ð°Ð»": 5893,
      "Ð¢Ð¾": 5894,
      "ÑĥÑĤÐ¸Ð»": 5895,
      "Ð½Ð¸Ð¼ÑĥÐ¼": 5896,
      "ĠÐ¼Ð¸Ð½Ð¸Ð¼ÑĥÐ¼": 5897,
      "ĠÐ¾ÑĩÐºÐ¾Ð²": 5898,
      "ĠÐĽÐ¸Ð»Ð¸": 5899,
      "ĠÐĶÐ¶Ð¾Ð½": 5900,
      "ÑıÑĤÐµÐ»ÑĮÐ½Ð¾": 5901,
      "ÐĴÑģÐ¿Ð¾Ð»": 5902,
      "ĠÐ²Ð¾Ð·ÑĢÐ°Ð¶": 5903,
      "ÑĢÑıÐ¼Ð¾": 5904,
      "ĠÐ½Ð°Ð´ÑĳÐ¶": 5905,
      "Ð¡Ð¯": 5906,
      "Ð¡Ð¬": 5907,
      "ĠÐ±ÑĥÐ´ÑĮ": 5908,
      "ÑĥÑİÑģÑı": 5909,
      "ÐµÐ½Ð¸ÑıÐ¼": 5910,
      "ĠÐ±Ð¾Ð»ÑĮÑĪÐ¸Ð¼Ð¸": 5911,
      "ĠÐ±Ð¾Ð»ÑĮÐ½Ð¸ÑĨÑĭ": 5912,
      "ÐĺÐ·": 5913,
      "ÐĺÐ¯": 5914,
      "ĠÑģÐ°Ð¼ÑĭÐµ": 5915,
      "ĠÑģÐ°Ð¼Ð¾Ð¼Ñĥ": 5916,
      "ĠÐ³Ð¾Ð»Ð¾Ð²Ð°Ð¼Ð¸": 5917,
      "ĠÐºÐ¾ÑĤÐ¾ÑĢÑĭÐ¼Ð¸": 5918,
      "ÑĭÐ²Ð°Ð»Ð¸ÑģÑĮ": 5919,
      "ĠÐ·Ð°Ð¼ÐºÐ°": 5920,
      "ĠÑģÐ²ÐµÑĩ": 5921,
      "ĠÐ¯Ð½Ð³": 5922,
      "ĠÑĦÐ¾Ð½ÑĤÐ°Ð½": 5923,
      "ĠÐ¿Ð¾Ð¼Ð½Ð¸ÑĪÑĮ": 5924,
      "ÐµÑĤÐµÑĤÑĮ": 5925,
      "ĠÐ´Ð²ÑĥÐ¼Ñı": 5926,
      "ĠÐŁÐ¾ÑĤÐ¾Ð¼Ñĥ": 5927,
      "ĠÐ¿Ð¾Ð¿Ð°ÑģÑĤÑĮ": 5928,
      "ĠÑĥÐ´Ð¾Ð±": 5929,
      "ĠÐ²Ð¾Ð»Ð½Ð¾Ð²": 5930,
      "ĠÐ²ÐµÑĢÐ½ÑĥÐ»Ð¸ÑģÑĮ": 5931,
      "Ð£Ðľ": 5932,
      "ĠÐ½ÐµÐ¿Ð¾Ð½ÑıÑĤÐ½Ð¾": 5933,
      "ĠÐ¤ÑĢÐµÐ´Ñĥ": 5934,
      "ĠÐ·Ð°Ð´ÐµÑĢÐ¶": 5935,
      "ĠÑĥÑģÐ»Ð¾Ð²": 5936,
      "ĠÐ½Ð°ÑģÐ»Ð°Ð¶": 5937,
      "ĠÐ·Ð°Ð²Ð¸Ñģ": 5938,
      "ÑĤÑĭÐ¼Ð¸": 5939,
      "ĠÑģÐ»ÑĥÑĩÐ¸Ð²": 5940,
      "ĠÑģÐ»ÐµÐ´Ð¸Ð»": 5941,
      "ĠÐ¼Ð¸Ð½Ð¸ÑģÑĤ": 5942,
      "ĠÐ¸Ð½Ð¾Ð³Ð´Ð°": 5943,
      "ĠÐ¸Ð½ÑĦÐ¾ÑĢ": 5944,
      "ĠÐ³ÑĢÐ¾Ð¼Ð°Ð´": 5945,
      "ĠÑģÑĤÐ°ÑĢÐ°Ð»ÑģÑı": 5946,
      "ĠÐ¨Ð»Ñı": 5947,
      "ĠÐ¿Ð¾Ð·Ð²Ð°Ð»Ð°": 5948,
      "ÑĩÐ°ÑģÐ°": 5949,
      "ĠÐ¿Ð¾Ð´Ð½ÑıÐ»Ð¸": 5950,
      "ĠÐ¿Ð¾Ð´Ð½ÑıÑĤÑĮÑģÑı": 5951,
      "ĠÐ½ÐµÐ´ÐµÐ»Ð¸": 5952,
      "ĠÑĢÐ°Ð·Ð´ÐµÐ»Ð¸": 5953,
      "ĠÐ½Ð°Ð²ÑģÐµÐ³Ð´Ð°": 5954,
      "ÐµÑħÐ°Ð»": 5955,
      "ĠÐĿÐ°ÑģÐºÐ¾Ð»ÑĮÐºÐ¾": 5956,
      "ĠÑĢÐ°Ð½Ð¾": 5957,
      "ĠÑĥÐ¶Ð°ÑģÐ¾Ð¼": 5958,
      "ĠÑĥÐ»ÑĭÐ±Ð°ÑĤÑĮÑģÑı": 5959,
      "ĠÑĥÐ»ÑĭÐ±Ð°ÑıÑģÑĮ": 5960,
      "ĠÐ¿Ð¾ÐºÐ°ÑĩÐ°Ð»": 5961,
      "ĠÐ·Ð°Ð³Ð¾ÑĢ": 5962,
      "ÑĥÐ´ÑĮÑĤÐµ": 5963,
      "ĠÑĤÐ²Ð¾Ð¸Ñħ": 5964,
      "ĠÐ¼Ð¸Ð½Ð¸ÑģÑĤÐµÑĢÑģÑĤÐ²Ð¾Ð¼": 5965,
      "ĠÐ¿Ð°ÑĢÐ°": 5966,
      "ĠÐºÐ°ÑĢÑĤÐ¸": 5967,
      "ĠÐºÐ°ÑĢÐµÑĤÑĭ": 5968,
      "ĠÐ¼Ð°Ð³Ð¸ÑĩÐµÑģÐº": 5969,
      "ĠÐ¿Ð¾ÑģÐ»ÐµÐ´Ð½Ð¸Ñħ": 5970,
      "ĠÐ·Ð°Ð¼ÐµÑĤÐ¸Ð»Ð¸": 5971,
      "ĠÐļÐ°ÐºÐ¾Ð¹": 5972,
      "Ð¾ÑĢÐ°ÑĩÐ¸Ð²": 5973,
      "ĠÐ¿Ð¾Ð¹Ð´Ñĥ": 5974,
      "Ð½Ð°Ð´ÑĳÐ¶": 5975,
      "ĠÑĩÐ°ÑģÐ°": 5976,
      "ĠÐºÑĢÐ¾Ð²Ð°ÑĤÑĮ": 5977,
      "ĠÐ¾ÑĤÐ²Ð»ÐµÐº": 5978,
      "ĠÑĩÑĳÑĢÐ½ÑĭÐ¼Ð¸": 5979,
      "ĠÑĢÐ°ÑģÑģÐ¼Ðµ": 5980,
      "ĠÐ±ÑĢÐ¾ÑģÐ¸Ð»Ð¸ÑģÑĮ": 5981,
      "ĠÑĤÐ¾Ð»Ðº": 5982,
      "ĠÐ¿Ð¾ÑģÑĤÑĥÑĩÐ°Ð»": 5983,
      "ĠÐ·Ð°ÑħÐ¾ÑĩÐµÑĤ": 5984,
      "ĠÑĥÑĤÑĢÐ¾": 5985,
      "ĠÑĥÑĤÑĢÐ°": 5986,
      "ĠÑĥÑģÑĤÐ°Ð²Ð¸Ð»Ð°ÑģÑĮ": 5987,
      "ĠÑĥÑģÑĤÐ°Ð²Ð¸Ð»Ð¸ÑģÑĮ": 5988,
      "Ð°ÑīÐ¸Ð»": 5989,
      "ĠÐ¸ÑģÐ¿ÑĥÐ³Ð°": 5990,
      "ĠÐºÐ¾ÑĢÐ¸Ð´Ð¾ÑĢÐ°Ñħ": 5991,
      "ĠÐºÑĢÐ°ÑģÐ¸Ð²": 5992,
      "ĠÐ´ÐµÐ»Ð°ÐµÑĤ": 5993,
      "ĠÑĥÑģÑĤÐ°Ð»": 5994,
      "ĠÑĥÑģÑĤÑĢÐ°": 5995,
      "ĠÐ°Ð²ÑĤÐ¾Ð±": 5996,
      "ĠÐ°Ð²Ð³ÑĥÑģÑĤ": 5997,
      "ÑĩÐµÑģÐºÐ¸Ð¼": 5998,
      "ĠÐ¾Ð·Ð½Ð°": 5999,
      "ĠÐºÐ¾Ð»Ð´Ð¾Ð²Ð°ÑĤÑĮ": 6000,
      "ĠÐ¸ÑģÐ¿ÑĭÑĤÐ°Ð½Ð¸Ñı": 6001,
      "ĠÐ¿ÑĢÐ¾Ð¿ÑĥÑģÑĤÐ¸Ð»": 6002,
      "ĠÐ¿ÑĢÐ¾ÑĤÑıÐ¶": 6003,
      "ĠÐ¿ÑĢÐµÐ´ÑģÑĤÐ°Ð²Ð»Ñı": 6004,
      "ĠÐ¿ÑıÑĤÐ½Ð°Ð´ÑĨÐ°ÑĤÑĮ": 6005,
      "ĠÐĳÐµÐ»Ð»": 6006,
      "ĠÐ½Ð°ÑħÐ¾Ð´Ð¸Ð»ÑģÑı": 6007,
      "ĠÑģÐ¼ÐµÑıÑĤÑĮÑģÑı": 6008,
      "ĠÐ¿ÑĢÐ¾Ð»ÐµÑĤ": 6009,
      "ĠÐºÐ½Ð¸Ð³Ð¸": 6010,
      "ĠÐ»ÑİÐ´ÑĮÐ¼Ð¸": 6011,
      "ĠÐ¿ÑĥÑģÑĤÐ¾Ð¹": 6012,
      "ĠÐºÐµÐ½ÑĤÐ°Ð²ÑĢÑĭ": 6013,
      "ĠÐºÐµÐ½ÑĤÐ°Ð²ÑĢÐ¾Ð²": 6014,
      "ĠÑĩÐ¸ÑĤÐ°Ð»": 6015,
      "ĠÑĢÐ¾Ð±ÐºÐ¾": 6016,
      "ĠÐ½Ð°Ð¿Ð¸ÑģÐ°Ð»": 6017,
      "ĠÐ¿Ð¾ÑħÐ¾Ð¶Ð¸Ð¹": 6018,
      "ĠÐ·Ð°ÐºÐ»Ð¸Ð½Ð°Ð½Ð¸Ðµ": 6019,
      "ĠÐ·ÐµÐ»ÑĮÐµ": 6020,
      "ĠÐ¿ÑĢÐ¸ÐºÐ°Ð·Ð°Ð»Ð°": 6021,
      "ĠÐºÐ»Ð°ÑģÑģÐ°": 6022,
      "ĠÑģÐ¾Ð±ÑģÑĤÐ²ÐµÐ½Ð½Ð¾Ð¹": 6023,
      "ĠÐ²ÑģÑĤÑĢÐµÑĤÐ¸ÑĤÑĮÑģÑı": 6024,
      "ĠÐ¿ÑĢÐ¾ÑĢÐ¾ÑĩÐµÑģÑĤÐ²Ð°": 6025,
      "ĠÐ²ÑģÐºÑĢÐ¸ÐºÐ½ÑĥÐ»Ð°": 6026,
      "ĠÐ²ÑģÐºÑĢÐ¸ÑĩÐ°Ð»Ð°": 6027,
      "ĠÐ²Ð¾Ð·ÑĢÐ°Ð·Ð¸Ð»Ð°": 6028,
      "ĠÐ½Ð°ÐºÐ°Ð·Ð°Ð½Ð¸Ñı": 6029,
      "ĠÐ³Ð¾Ð²Ð¾ÑĢÑıÑĤ": 6030,
      "ĠÐ¾ÑħÑĢÐ°": 6031,
      "ĠÐ¾ÑħÑĢÐ°Ð½Ñı": 6032,
      "ĠÐ¼ÐµÑģÑıÑĨÐ°": 6033,
      "ĠÐ¿Ð¾Ð¹Ð¼Ð°Ð»": 6034,
      "ĠÐ²ÐµÐ»ÐµÐ»Ð°": 6035,
      "ĠÑĢÐ°Ð·Ð²ÐµÑĢÐ½ÑĥÐ»ÑģÑı": 6036,
      "ĠÐ¼ÑĭÑģÐ»ÐµÐ¹": 6037,
      "ĠÐ¿ÑĢÐ¾Ð½Ð·Ð¸Ð»Ð°": 6038,
      "ĠÐ·Ð°ÑģÑĤÑĭÐ»": 6039,
      "ĠÑĥÐºÑĢÐ°ÑĪ": 6040,
      "ĠÐ²ÐµÑģÑĤÐ¸Ð±ÑİÐ»ÑĮ": 6041,
      "ĠÐ²ÐµÑģÑĤÐ¸Ð±ÑİÐ»Ñı": 6042,
      "ĠÐ¾Ð¿ÑĥÑģÑĤÐ¸Ð»ÑģÑı": 6043,
      "ĠÐ±Ð°ÑĪÐ½Ñİ": 6044,
      "ĠÑģÑĥÑīÐµÑģÑĤÐ²Ð°Ð¼Ð¸": 6045,
      "ĠÑĢÐµÑĪÐ¸Ð»Ð¸": 6046,
      "ĠÐ²Ð°ÑĪÐ¸": 6047,
      "ĠÐ´Ð¾Ð½ÐµÑģ": 6048,
      "ĠÐ·Ð»Ð¾ÑģÑĤÐ¸": 6049,
      "ĠÐ½Ð°Ð»ÐµÐ²Ð¾": 6050,
      "ĠÐµÐ´Ð¸Ð½ÑģÑĤÐ²ÐµÐ½Ð½ÑĭÐ¹": 6051,
      "ĠÐ²ÑĭÑģÐºÐ¾ÑĩÐ¸Ð»": 6052,
      "ĠÐ¾ÑģÐ²ÐµÐ´Ð¾Ð¼Ð¸Ð»ÑģÑı": 6053,
      "ĠÐ±ÐµÑģÑģÐ¼ÑĭÑģ": 6054,
      "ĠÐ¿ÐµÑĢÐµÑģÐ¿ÑĢÐ¾ÑģÐ¸Ð»Ð°": 6055,
      "ĠÐ¶ÑĥÑĤÐºÐ¾": 6056,
      "ĠÐ¾ÑĤÐ²ÐµÑĢÐ½ÑĥÐ»ÑģÑı": 6057,
      "ĠÐ»Ð¸ÑĦÑĤÐ°": 6058,
      "ĠÐ´Ð¾ÑģÐºÐµ": 6059,
      "ĠÐ´Ð¾ÑģÐºÑĥ": 6060,
      "ĠÑģÐ¾Ð»Ð½ÐµÑĩ": 6061,
      "ĠÐ±Ð»Ð¾ÐºÐ½Ð¾ÑĤÐµ": 6062,
      "ĠÑģÐºÑĥÑĩÐ½Ð¾": 6063,
      "ĠÐ¾ÑģÑĤÐ°Ð½ÐµÑĤÑģÑı": 6064,
      "ĠÑĤÐµÑģÑĤÑĢÐ°Ð»Ñı": 6065,
      "ĠÐ½Ð°Ð¿ÑĢÑıÐ¶ÑĳÐ½Ð½Ð¾": 6066,
      "ĠÐ¸Ð´ÐµÑı": 6067,
      "ĠÐ¿Ð°ÑĥÐ·Ð°": 6068,
      "ĠÑĪÐ°Ð¿Ð¾ÑĩÐºÐ¸": 6069,
      "ĠÐ¿ÑĢÐ¾Ð»ÐµÐ¿ÐµÑĤÐ°Ð»": 6070,
      "Ð¸ÑĩÐµÑģÐºÐ¸Ð¼Ð¸": 6071,
      "ĠÑģÐ½ÑıÐ»": 6072,
      "ĠÐ´Ð¾ÑģÑĤÐ¸Ð³": 6073,
      "ĠÐĲÐ·ÐºÐ°Ð±Ð°Ð½Ðµ": 6074,
      "ĠÑĢÐ¾Ð¶Ð´ÐµÑģÑĤÐ²ÐµÐ½": 6075,
      "ĠÐ¼Ð°Ð»ÐµÐ¹ÑĪÐµÐ³Ð¾": 6076,
      "ĠÐ²Ð·Ð²Ð¾Ð»Ð½Ð¾Ð²Ð°Ð½Ð½Ð¾": 6077,
      "ĠÑĥÐ³ÑĢÐ¾Ð¶Ð°ÑİÑīÐµ": 6078,
      "Ð¾Ð²ÐµÑĢÑĪÐµÐ½": 6079,
      "ĠÐ¿ÑĢÐ¾ÑĢÐ¸ÑĨÐ°Ð½Ð¸Ñı": 6080,
      "ĠÐ¿Ð¾Ð¼ÐµÑīÐµÐ½Ð¸Ðµ": 6081,
      "ĠÑĩÐµÐ»Ð¾Ð²ÐµÑĩÐµÑģÐº": 6082,
      "ĠÐ¾Ð±Ð¼ÐµÐ½ÑıÐ»Ð¸ÑģÑĮ": 6083,
      "ĠÐ´ÑİÐ¹Ð¼": 6084,
      "ĠÐ¾Ð±ÑģÑĤÐ¾ÑıÑĤÐµÐ»ÑĮÑģÑĤÐ²Ð°": 6085,
      "ĠÐ´ÑĢÐ¾Ð¶Ð°ÑīÐ¸Ð¼": 6086,
      "ĠÐºÐ¾Ð½Ð²ÐµÑĢÑĤ": 6087,
      "ĠÐ´Ð²Ð¾ÑİÑĢÐ¾Ð´": 6088,
      "ĠÐĿÐ¸Ð³ÐµÐ»Ð»Ð¸Ð¹": 6089,
      "ĠÐºÐ°ÑĪÐ»Ñı": 6090,
      "ĠÐ¸Ð·Ð´ÐµÐ²": 6091,
      "ĠÐ£Ð¸Ð½Ð³Ð¸Ð½Ð³": 6092,
      "ĠÐ·Ð°Ð´ÑĭÑħÐ°ÑıÑģÑĮ": 6093,
      "ĠÐ»Ð¸ÑħÐ¾ÑĢÐ°Ð´Ð¾ÑĩÐ½Ð¾": 6094,
      "ĠÐ¢ÑĳÑĤÑı": 6095,
      "ĠÐ·Ð»Ð¾Ð²ÐµÑī": 6096,
      "ĠÐ¿ÑĢÐ¾ÑĢÐ¾ÐºÐ¾ÑĤÐ°Ð»": 6097,
      "ĠÐ¿ÑĢÐ¸Ð½ÑĨÐ¸Ð¿": 6098,
      "ĠÐ§ÑįÐ½Ð³": 6099,
      "ĠÐ¾Ð³ÑĢÑĭÐ·Ð½ÑĥÐ»ÑģÑı": 6100,
      "ĠÐ¾ÑĢÐ³Ð°Ð½Ð¸": 6101,
      "ĠÐĶÐ°Ð±Ð»Ð¸Ð½": 6102,
      "ÐĴÑģÐ¿Ð¾Ð»Ð¾Ñħ": 6103,
      "ĠÐ°Ð²Ð³ÑĥÑģÑĤÐ°": 6104,
      "ĠÑĢÐ¾ÑģÑĤ": 6105,
      "Ð¸Ð½ÑĥÑĤ": 6106,
      "ÑĤÐµÐ»ÑĮ": 6107,
      "ÑĤÐ½ÑĭÐ¹": 6108,
      "ÑĢÐ°Ð¿": 6109,
      "ÑģÐ¾ÑĢ": 6110,
      "Ð»ÐµÐ³": 6111,
      "Ð½ÐµÐ½Ð¸Ð¹": 6112,
      "ĠÐ¿Ð°Ð½Ð¸": 6113,
      "ĠÑģÐ¾Ðº": 6114,
      "ĠÑģÑĢÐ°Ð²": 6115,
      "ĠÑģÑĥÐ±": 6116,
      "ĠÑģÑĥÐ´ÑĮ": 6117,
      "ĠÑģÑĤÐ¸Ñħ": 6118,
      "ĠÐ½ÑİÑħ": 6119,
      "ĠÐ²Ð»Ð¸": 6120,
      "ĠÐ²Ð¾Ð¹": 6121,
      "ĠÐ²Ð¸Ð½": 6122,
      "ĠÐ²ÑĨÐµÐ¿": 6123,
      "ÐºÐ°ÑĢ": 6124,
      "ÐºÐ»Ð°ÑģÑģ": 6125,
      "ĠÐ¾ÐºÑĥ": 6126,
      "ĠÐ¾Ð´Ðµ": 6127,
      "ĠÐ¾ÑħÐ¾ÑĤ": 6128,
      "ĠÐºÐ»Ñı": 6129,
      "ĠÐºÑĥÐ´": 6130,
      "ÑģÑĤÐ¸ÑĤÐµ": 6131,
      "Ð¾Ð²ÑģÑİÐ´Ñĥ": 6132,
      "Ð¾Ð»Ð³Ð¾": 6133,
      "Ð¾Ð»Ð½Ð¸ÑĤÐµÐ»ÑĮ": 6134,
      "ĠÐ´ÐµÐ½": 6135,
      "ĠÐ´Ð¾ÑĢ": 6136,
      "ĠÐ´ÑĢÐ¾Ð¶Ð°Ð»": 6137,
      "ĠÐ·Ð½Ð°Ð»Ð°": 6138,
      "Ð³Ðµ": 6139,
      "Ð³ÑĥÐ»ÑĮ": 6140,
      "ĠÐ¼Ð¸Ð¼": 6141,
      "ĠÐ¼Ð°ÑģÑģ": 6142,
      "Ð¿Ð°": 6143,
      "ĠÑĩÑĳÑĤ": 6144,
      "ĠÑĩÐµÑģÑĤÐ½Ð¾": 6145,
      "ĠÑĩÐ°ÑģÑĤ": 6146,
      "ĠÑĥÑĪÐ»Ð¸": 6147,
      "ĠÑĥÑĩÐ°ÑģÑĤ": 6148,
      "Ð¸Ð»Ð»Ð°": 6149,
      "ĠÐ½ÐµÑĥÐ¶ÐµÐ»Ð¸": 6150,
      "Ð¶ÐµÐ²": 6151,
      "ÐµÐ½Ð´": 6152,
      "ÐµÐ½Ð½Ð¾Ð¼": 6153,
      "ÐµÐ½Ð½ÑĥÑİ": 6154,
      "Ð¾Ð³Ñĥ": 6155,
      "ĠÐ¿Ð¾ÑĤÑĥ": 6156,
      "ĠÐ¿Ð¾ÐµÐ·Ð´": 6157,
      "Ð¾ÑĢÐ°Ð·": 6158,
      "ÐµÐ´Ñĥ": 6159,
      "ÐµÐ´ÐµÑĢÐ°": 6160,
      "ÑįÐ¼": 6161,
      "ÑĨÐµÐ¹": 6162,
      "ĠÐ¾ÑĤÑĢÐ°Ð·": 6163,
      "ĠÐ¾ÑĤÐ»Ð¾Ð¶": 6164,
      "ĠÐ¾ÑĤÑĤÐ¾Ð³Ð¾": 6165,
      "Ð»Ð°Ñĩ": 6166,
      "ĠÐ¿ÑĢÐ¾Ð¹ÑĤÐ¸": 6167,
      "ĠÐ»Ñĥ": 6168,
      "ÑģÐºÑĥ": 6169,
      "ÑģÐºÐ¾Ð¼Ñĥ": 6170,
      "ÑģÐºÐ¾ÑĢÐµ": 6171,
      "Ð¸ÑĤÐµÐ»ÐµÐ¹": 6172,
      "ĠÐĶÐµÐ¼ÐµÐ½ÑĤÐ¾ÑĢÑĭ": 6173,
      "Ð¾Ð¶ÐµÑĤÐµ": 6174,
      "ĠÐ¿ÑĢÐ¾ÑģÑĤÐ¸": 6175,
      "ĠÐ¿ÑĢÐ¾ÑĢÐµÐ·": 6176,
      "ĠÐŀÑģÑĤÐ°Ð²": 6177,
      "ĠÐŀÑģÑĤÐ°Ð»ÑĮ": 6178,
      "ĠÐŁÐ¾Ð¿": 6179,
      "ĠÑģÐºÐ°ÑĤ": 6180,
      "ĠÑģÐºÐ»Ð¾Ð½Ð¸Ð»ÑģÑı": 6181,
      "Ð²Ð°ÑİÑĤ": 6182,
      "ÑĤÐ¸Ñı": 6183,
      "ĠÐ¾Ð±Ð¾Ð³": 6184,
      "ĠÐ¡Ð¾Ð±": 6185,
      "ĠÐ¡Ð¼Ð¾ÑĤÑĢÐ¸": 6186,
      "ĠÐ¡ÐµÐºÑĢÐµÑĤ": 6187,
      "Ð»ÑıÐ´ÐµÑĤÑĮ": 6188,
      "ĠÐ¿ÑĢÐ¸ÑĩÐ¸": 6189,
      "ĠÐ¿ÑĢÐ¸ÑıÑĤÐ½Ð¾": 6190,
      "ĠÐ¿ÑĢÐ¸Ð¹ÑĤÐ¸": 6191,
      "Ð»Ð¾Ñī": 6192,
      "ĠÐĿÐ°Ð¼": 6193,
      "ĠÑħÑĢÐ°": 6194,
      "ĠÐĴÑģÐºÐ¾ÑĢÐµ": 6195,
      "ĠÐ¿Ð¾Ð´ÑĢÑĥÐ³": 6196,
      "ÐºÐ¾Ñģ": 6197,
      "ÐºÐ¾ÑĪ": 6198,
      "Ð°Ð»Ð¸Ð¼ÐµÐ½": 6199,
      "ĠÐļÐ¾Ð½ÑĦ": 6200,
      "ĠÐ¸Ð·Ð²Ð¸": 6201,
      "ĠÐ¸Ð·Ð¾Ð±ÑĢÐ°Ð·": 6202,
      "ĠÐ¸Ð·ÑĢÐµÐº": 6203,
      "ÑĪÐ¸Ð½Ñĭ": 6204,
      "Ð¾ÑĩÐ°": 6205,
      "Ð¾ÑĩÐµÐ½ÑĮ": 6206,
      "ĠÑĢÐ°Ð·Ð¾Ð±": 6207,
      "ĠÑģÐ¿Ð°Ð»": 6208,
      "ĠÐ°Ð¿": 6209,
      "ĠÐľÐ¾Ð¶Ð½Ð¾": 6210,
      "ĠÐľÐ½Ð¾Ð³": 6211,
      "ĠÐ¿ÐµÑĢÐµÐ»": 6212,
      "ĠÐ¿ÐµÑĢÐµÑĪ": 6213,
      "Ð°Ð¶Ð´": 6214,
      "Ð°Ð¶Ð¸ÑĤÐµ": 6215,
      "ĠÑĪÐµÐµ": 6216,
      "ĠÑĪÐµÑģÑĤÐ¸": 6217,
      "ÐĿÐ°Ð´": 6218,
      "ĠÑģÑĤÐ¾ÑıÑĤÑĮ": 6219,
      "Ð°Ð»ÑĮÐ½Ð¾Ð³Ð¾": 6220,
      "Ð°Ð»ÑĮÐ½ÑĥÑİ": 6221,
      "ĠÐ¿Ð¾ÑģÑĭÐ¿": 6222,
      "ĠÐ¿Ð¾Ð»Ðµ": 6223,
      "ĠÑĤÑĭÑĩÐ°": 6224,
      "ÐŁÐ¾Ñģ": 6225,
      "ÐŁÐ¾ÐºÐ°": 6226,
      "ĠÐĳÐµÐ¹Ð½": 6227,
      "ÐĶÐ¾": 6228,
      "Ð»ÑĭÐ»": 6229,
      "ĠÐ²Ð¸Ð´ÐµÐ»Ð°": 6230,
      "ÑİÑīÐµÐ¹": 6231,
      "ĠÐ¼Ð¸ÑĢÐ°": 6232,
      "ÑĢÐ¾Ð²Ð°Ð»Ð¸": 6233,
      "ĠÐ§ÐµÐ¼": 6234,
      "ĠÐ²Ð¾ÑĢÐ¾": 6235,
      "ĠÐĲÑħ": 6236,
      "ÑĳÑĤÐµ": 6237,
      "ÐĴÐ¾": 6238,
      "ĠÑĢÐ°ÑģÑģÑĤÐ¾": 6239,
      "ĠÐ¿Ð¾ÐºÐ¸": 6240,
      "ÐļÐ¢Ðŀ": 6241,
      "ÐķÐ¢": 6242,
      "Ð¾ÑĢÐ¾ÑĩÐµ": 6243,
      "ÐµÐ½ÑıÐ¼": 6244,
      "ÑĳÑĢÐ½ÑĥÑĤ": 6245,
      "ĠÑģÐ²ÐµÐ´ÐµÐ½Ð¸Ñı": 6246,
      "ĠÑĦÐ°Ð¼Ð¸Ð»Ð¸": 6247,
      "ĠÐ¿Ð¾Ð¼Ð°Ñħ": 6248,
      "ĠÐ¿Ð¾Ð¼Ð½Ð¸ÑĤÐµ": 6249,
      "ĠÐ¾ÑģÑĤÑĢÐ¾": 6250,
      "ĠÐ±ÐµÐ·Ð·Ð²": 6251,
      "ÐµÑĤÐµÑģÑĮ": 6252,
      "ÑĥÑģÑĤÐ¸ÑĤÑĮ": 6253,
      "ÐĵÐĺ": 6254,
      "ĠÑħÐ¾ÑĤÐ¸Ð¼": 6255,
      "ĠÑģÐ¾Ð²ÑıÐ»ÑĮ": 6256,
      "ĠÑģÑĤÑĢÐ°Ð½Ð¸ÑĨÑĥ": 6257,
      "ĠÐ²ÐµÑĢÐ½ÑĥÐ»Ð°ÑģÑĮ": 6258,
      "ĠÐ²ÐµÑĢÑĳÐ²": 6259,
      "Ð£ÑįÑģÐ»Ð¸": 6260,
      "ĠÑģÐ¼ÐµÑĪÐ½Ð¾": 6261,
      "ĠÐ½ÐµÐ¿Ð¾Ð½Ð¸Ð¼": 6262,
      "ĠÐ¤ÑĢÐµÐ´Ð¾Ð¼": 6263,
      "Ð¥Ðŀ": 6264,
      "ĠÑĤÑĢÐµÑĤ": 6265,
      "ĠÐ´Ð¾Ð¼Ð¾Ð²ÑĭÐ¹": 6266,
      "ĠÐ·Ð°Ð¿Ð»Ð°": 6267,
      "ĠÐ·Ð°Ð±Ð¾ÑĤ": 6268,
      "ĠÐ·Ð°Ð±Ð¾ÑĢÐ¼Ð¾ÑĤ": 6269,
      "ĠÑĨÐ°ÑĢÐ°Ð¿": 6270,
      "ĠÐ³Ð¾ÑĢÑĮ": 6271,
      "ĠÐ³Ð¾ÑĢÐ»Ð¾": 6272,
      "ĠÐ²Ð¿ÑĢÐ°Ð²": 6273,
      "ĠÑģÐ»ÐµÐ´Ð¸ÑĤÑĮ": 6274,
      "ĠÑģÑĤÐ°ÑĢÑĭÐ¹": 6275,
      "Ð»Ð°Ð´ÑĭÐ²Ð°Ñı": 6276,
      "ĠÐ¿Ð¾Ð·Ð²Ð°Ð»": 6277,
      "ĠÐ¿Ð¾Ð·Ð¶Ðµ": 6278,
      "ĠÑĥÑģÐ¿ÐµÐ²": 6279,
      "ĠÐ½ÐµÐ´Ð°Ð²Ð½Ð¾": 6280,
      "ĠÐ¿Ð¾Ð±ÐµÐ¶Ð°Ð»Ð¸": 6281,
      "ĠÐ¿ÑĢÐ¾Ð²ÐµÑģÑĤÐ¸": 6282,
      "ÐµÑħÐ°Ð»Ð¸": 6283,
      "Ð½Ð¸ÐºÐ°Ð¼": 6284,
      "ĠÐ½Ð°ÐºÐ»Ð¾Ð½Ð¸Ð»ÑģÑı": 6285,
      "ĠÐ¼Ð¾Ñī": 6286,
      "ĠÑģÐ½Ð¾Ð²Ð¸Ð´": 6287,
      "ĠÑĥÐ»ÑĭÐ±ÐºÑĥ": 6288,
      "Ð¾Ð¶Ð´Ð¸ÑĤÐµ": 6289,
      "ĠÐºÑĢÐ¸ÐºÐ¸": 6290,
      "ĠÐŃÑĤÐ¾ÑĤ": 6291,
      "ĠÑĢÐ°ÑģÐ¿Ð¸Ñģ": 6292,
      "ĠÑĤÐ¸ÑħÐ¾Ð½ÑĮÐºÐ¾": 6293,
      "ĠÐ±ÐµÑģÐ¿Ð¾Ð¼": 6294,
      "ĠÐ¿Ð¾Ð½Ð¸Ð¼Ð°ÑĤÑĮ": 6295,
      "ĠÐ¿ÐµÑĢÐ²ÑĥÑİ": 6296,
      "ĠÐ¼Ð¾Ð»ÑĩÐ°Ð»": 6297,
      "ĠÐ·Ð²Ñĥ": 6298,
      "ĠÐ¼Ð°Ð³Ð¸ÑĩÐµÑģÐºÐ¸Ð¼Ð¸": 6299,
      "ĠÐ¸ÑģÐºÐ°ÑĤÑĮ": 6300,
      "ĠÐ¾ÑĤÐ¿ÑĥÑģÑĤÐ¸Ð»": 6301,
      "ĠÑĢÐ°Ð´Ð¸": 6302,
      "ĠÐ¿Ð¾ÑıÐ²Ð»ÐµÐ½Ð¸Ñı": 6303,
      "ĠÑģÐ²ÐµÑĤÐ¾Ð¼": 6304,
      "ĠÐºÑĢÐ¾Ð²ÑĮÑİ": 6305,
      "ĠÐ¸Ð¼ÐµÐµÑĤÐµ": 6306,
      "ÑĥÐ¹ÑĤÐµ": 6307,
      "ÑħÐ²Ð°ÑĤÐ¸Ð»Ð°": 6308,
      "ĠÐ±Ð¾Ð»ÑĮÑĪÐ¸Ð½ÑģÑĤÐ²Ð¾": 6309,
      "ĠÑĥÐ´Ð¸Ð²Ð»ÐµÐ½Ð¸Ñı": 6310,
      "ÐŁÑĢÐ¾ÑĪÑĥ": 6311,
      "ĠÑĢÐ°ÑģÑģÐµÑĢÐ´": 6312,
      "ĠÐ½Ð¾ÑģÑĥ": 6313,
      "ĠÐ¾ÑģÑĤÐ°Ð²Ð°ÑĤÑĮÑģÑı": 6314,
      "ĠÐ¾ÑģÑĤÐ°Ð²Ð°Ð»Ð¾ÑģÑĮ": 6315,
      "ĠÐ½Ð¾Ð²ÑĥÑİ": 6316,
      "ĠÑĤÐ¾Ð»Ð¿Ñĭ": 6317,
      "ÐºÐ²ÐµÑĢÑĩÐ¾Ðº": 6318,
      "ĠÐ¿ÑĢÑıÑĩ": 6319,
      "ĠÐ½Ð°Ð¿ÑĢÐ°Ð²Ð»ÐµÐ½Ð¸Ñİ": 6320,
      "ÑĢÐµÐ¶Ð´Ðµ": 6321,
      "Ð½Ð¾ÑģÐ¸ÑĤÑĮ": 6322,
      "ĠÐ¼ÐµÑĤÐ»Ðµ": 6323,
      "ĠÐ¿ÑĢÐ¸Ð²ÑıÐ·": 6324,
      "ĠÐ¿ÑĭÑĤÐ°Ð»Ð¸ÑģÑĮ": 6325,
      "ĠÐ·Ð°Ð½ÑıÑĤÑĭ": 6326,
      "ĠÐ¼Ð¸Ð½ÑĥÑĤÑĭ": 6327,
      "ĠÐ¨ÐºÐ²ÐµÑĢÑĩÐºÑĥ": 6328,
      "ĠÐ¿ÑĢÐ¾ÑģÐ½ÑĥÐ»ÑģÑı": 6329,
      "ĠÑģÐ»ÑĥÑĪÐ°Ð½Ð¸Ñı": 6330,
      "ĠÐ¿ÑĢÐ¸Ð±Ð°Ð²Ð¸Ð»": 6331,
      "ĠÐ¸ÑģÑĩÐµÐ·Ð»Ð¸": 6332,
      "ĠÑĥÑģÐ»ÑĭÑĪÐ°Ð²": 6333,
      "ĠÑĥÑģÑĤÑĢÐµÐ¼": 6334,
      "ĠÐŀÑĤÐºÑĥÐ´Ð°": 6335,
      "ĠÑĤÐ¾ÑĢÐ¶": 6336,
      "Ð¾Ð½ÑĮÐºÑĥ": 6337,
      "ĠÐ¾ÑĤÐ¿ÑĢÐ°Ð²Ð»Ñı": 6338,
      "ĠÑģÐ¼ÐµÑħÐ°": 6339,
      "Ð¾ÑĢÐ¼Ð°Ð»ÑĮÐ½Ð¾": 6340,
      "ĠÐ¿ÑĢÐ¾Ð¼Ð¾Ðº": 6341,
      "ÑģÑĤÐ²ÐµÐ½Ð½Ð¾Ðµ": 6342,
      "ĠÐ¶ÐµÐ»Ð°Ð½Ð¸Ðµ": 6343,
      "ĠÐ´Ð¾ÑģÑĤÐ¾Ð¹": 6344,
      "ĠÐ·Ð°ÑīÐ¸ÑĤÐ½Ð¾Ð¹": 6345,
      "ĠÑģÑĤÑĢÐ°Ð½Ð½ÑĭÐ¹": 6346,
      "ÑĢÐ¸Ð¿ÐµÐ»": 6347,
      "ĠÐ³ÑĢÐ¸ÑĦÑĦÐ¸Ð½Ð´Ð¾ÑĢÑģÐºÑĥÑİ": 6348,
      "ÐµÑģÐºÐ¾Ð¿": 6349,
      "ĠÐ½Ð°Ð¹Ð´ÑĳÑĤ": 6350,
      "ÐŀÑĤÐ»Ð¸ÑĩÐ½Ð¾": 6351,
      "ĠÐ·Ð°ÑĪÐµÐ¿ÑĤ": 6352,
      "ĠÑģÑĤÐµÐºÐ»Ð¾": 6353,
      "Ð¨ÐºÐ²ÐµÑĢÑĩÐ¾Ðº": 6354,
      "ĠÐ¤Ð¸Ð»ÑĩÐ°": 6355,
      "ĠÐ³Ð»Ð°Ð²Ð½ÑĭÐ¹": 6356,
      "ĠÐ¾Ð±Ð²ÑĳÐ»": 6357,
      "ĠÐ¾ÑĤÑĩÐ°ÑıÐ½": 6358,
      "ĠÑģÑĤÑĥÐ¿ÐµÐ½ÑıÐ¼": 6359,
      "ĠÑĥÑĩÐµÐ½Ð¸ÐºÐ¸": 6360,
      "ĠÐ¿ÑĢÐ¾Ð¸ÑģÑħÐ¾Ð´ÑıÑī": 6361,
      "ÐŁÐ¾Ð½Ð¸Ð¼Ð°ÐµÑĪÑĮ": 6362,
      "ĠÑĤÑĢÐµÐ½Ð¸ÑĢÐ¾Ð²ÐºÐ¸": 6363,
      "ĠÑĢÐ°ÑģÐ¿Ð°ÑħÐ½ÑĥÐ»": 6364,
      "ĠÑģÐ½ÐµÐ³": 6365,
      "ĠÑģÑĥÐ´Ñı": 6366,
      "ĠÐ¾ÑĩÐµÑĢÐµÐ´Ð½Ð¾Ð¹": 6367,
      "ĠÐ½ÐµÐºÐ¾ÑĤÐ¾ÑĢÑĭÑħ": 6368,
      "ĠÐ²Ð¸ÑģÐµÐ»Ð¸": 6369,
      "ĠÐ·Ð°ÑĢÑĭÑĩÐ°Ð»": 6370,
      "ĠÑģÑĤÐ°Ð½Ð¾Ð²Ð¸Ð»Ð¸ÑģÑĮ": 6371,
      "Ð¾Ð»Ð¾ÑģÐ°": 6372,
      "ĠÐ²Ð·Ð³Ð»ÑıÐ´Ð°": 6373,
      "ĠÐºÐ°Ð¿ÑİÑĪ": 6374,
      "ĠÐ³Ð¸Ð³Ð°Ð½ÑĤÐ¾Ð²": 6375,
      "ĠÐĵÑĥÑĢÐ¿Ð°": 6376,
      "ĠÑģÑĤÐ°ÑĢÐ¾ÑģÑĤÐ¾Ð¹": 6377,
      "Ð»Ð°Ð³Ð¾Ð´": 6378,
      "Ð»Ð°Ð³Ð¾Ð´Ð°ÑĢ": 6379,
      "ĠÐ´Ð¾Ð²ÐµÑĢ": 6380,
      "ĠÑģÐ¾Ð¿ÑĢÐ¾ÑĤÐ¸Ð²": 6381,
      "ĠÐ¸Ð½ÑģÐ¿ÐµÐºÑĤÐ¾ÑĢ": 6382,
      "ĠÐ¾ÑīÑĥÑĤÐ¸Ð»": 6383,
      "ĠÐ¼Ð¾ÑĢÐ³": 6384,
      "ĠÑĢÐ°ÑģÑĤÑı": 6385,
      "ĠÐ¾Ð±Ð»ÐµÐ³ÑĩÐµÐ½Ð¸ÐµÐ¼": 6386,
      "ĠÑĤÑĢÐµÐ²Ð¾Ð¶Ð½Ð¾": 6387,
      "ĠÐ·Ð°Ð±ÑĭÐ»Ð¸": 6388,
      "ĠÐ¿Ð¾Ð½ÐµÐ´ÐµÐ»ÑĮ": 6389,
      "ĠÐ¿ÐµÑĢÐµÐ³Ð»Ñı": 6390,
      "ĠÐ½Ð°Ð»Ð¾Ð¶": 6391,
      "ĠÐĲÐ·ÐºÐ°Ð±Ð°Ð½Ð°": 6392,
      "ĠÐ½ÐµÑĢÐ²Ð½Ð¸": 6393,
      "ĠÑįÐºÐ·Ð°Ð¼ÐµÐ½Ð°Ñħ": 6394,
      "ĠÐ·Ð°ÑħÐ»Ð¾Ð¿Ð½ÑĥÐ»": 6395,
      "ĠÑģÐµÐ¼ÑĮÐ¸": 6396,
      "ĠÐ¿ÑĢÐ¾Ð½Ð¸ÐºÐ½ÑĥÑĤÑĮ": 6397,
      "ĠÑĥÑĪÐ°Ð¼": 6398,
      "ĠÑĥÑĪÐ°Ñħ": 6399,
      "ĠÐ²ÑĭÐ³Ð¾Ð²Ð¾ÑĢÐ¸Ð»": 6400,
      "ĠÐ½Ð°Ð²ÐµÑĢÑħÑĥ": 6401,
      "ĠÐ¿Ð¾ÑıÑģÐ½Ð¸Ð»": 6402,
      "ĠÐ²ÑĭÐ»ÐµÑĤÐµÐ»Ð°": 6403,
      "ĠÐłÐ¾Ð¶Ð´ÐµÑģÑĤÐ²Ð¾": 6404,
      "ĠÐłÐ¾Ð¶Ð´ÐµÑģÑĤÐ²Ð°": 6405,
      "ĠÐ¿Ð¾Ð´Ð°ÑĢÐ¾Ðº": 6406,
      "ĠÑĢÐ°ÑģÑģÐºÐ°Ð¶Ð¸": 6407,
      "ĠÐºÑĢÐ°Ñİ": 6408,
      "ĠÐ½ÐµÐ¸Ð·Ð²": 6409,
      "ĠÐ¾ÑģÐ»ÐµÐ¿": 6410,
      "ĠÐľÐ¾Ð½ÑĤÐµÐ³ÑĮÑİ": 6411,
      "ĠÐ·Ð»Ð¾Ð±Ð½Ð¾": 6412,
      "ĠÐĳÐµÐ·Ð³Ð¾Ð»": 6413,
      "ÐļÐĲÐĹ": 6414,
      "ĠÐ¿ÑĢÐµÐ´ÑģÑĤÐ¾Ð¸ÑĤ": 6415,
      "ĠÐ²Ð¿ÐµÑĩÐ°ÑĤÐ»ÐµÐ½Ð¸Ðµ": 6416,
      "ĠÐ±Ð»Ð°Ð³Ð¾Ð´Ð°ÑĢÑı": 6417,
      "ĠÑĥÑģÐ»Ð°Ð´ÑįÐ»Ñı": 6418,
      "Ð²Ð¾Ð»ÑĮÑĤÐµ": 6419,
      "ĠÐĿÐ°Ð²ÐµÑĢ": 6420,
      "ĠÐ»ÐµÐ´ÑıÐ½ÑĭÐ¼": 6421,
      "Ð²ÑĭÑĢÐ½ÑĥÐ»": 6422,
      "ĠÑĤÑĢÑıÐ¿": 6423,
      "ĠÐĽÐ¾ÑģÐºÑĥÑĤÐ°": 6424,
      "ÐµÐ¼Ð¾Ð½ÑģÑĤ": 6425,
      "ĠÑĨÐµÐ½ÑĤÑĢÐµ": 6426,
      "ĠÐ¿ÑĢÐ¾Ð·Ð²ÑĥÑĩÐ°Ð»": 6427,
      "ĠÑħÐ¸ÑħÐ¸Ðº": 6428,
      "ĠÐĿÐµÐºÐ¾ÑĤÐ¾ÑĢÑĭÐµ": 6429,
      "ĠÑĩÐµÑĤÐ²ÑĳÑĢÑĤ": 6430,
      "ĠÐľÐ°Ð³Ð¾ÑĢÐ¸Ð°Ð½": 6431,
      "ĠÐľÐ¸Ð½ÐµÑĢÐ²Ð°": 6432,
      "ĠÐļÐ°Ð½Ð´Ð°Ð»ÑĮÐµÑĢ": 6433,
      "ÐĿÐ°Ð²ÐµÑĢÐ½Ð¾": 6434,
      "ĠÐ¾ÑģÑĤÐ°ÑĳÑĤÑģÑı": 6435,
      "ĠÐ¿Ð¾Ð»ÑĥÐºÑĢÐ¾Ð²": 6436,
      "ĠÐ¸Ð½ÑĦÐ¾ÑĢÐ¼Ð°": 6437,
      "ĠÐļÐ¾Ð½ÑĦÐµÐ´ÐµÑĢÐ°": 6438,
      "ĠÑĢÐ°ÑģÑģÑĤÐ¾Ñı": 6439,
      "ĠÐ±ÐµÑģÐ¿Ð¾Ð¼Ð¾Ñī": 6440,
      "Ġ-": 6441,
      "Ð¾ÑĦ": 6442,
      "Ð¸ÑĢÑĥ": 6443,
      "Ð¸Ð¿Ð¿": 6444,
      "ÑĢÐ¾Ð²Ð¾": 6445,
      "ÑĢÐ°Ð±Ð¾ÑĤ": 6446,
      "Ð»ÐµÐ½ÑĮ": 6447,
      "Ð»ÐµÐ½Ð¸Ð¹": 6448,
      "Ð½ÐµÐ½Ð½Ð¾": 6449,
      "Ð½Ð·Ð°": 6450,
      "Ð½Ð¾Ð»Ð¸": 6451,
      "ÑĥÐµÑĪÑĮ": 6452,
      "ÑĥÑıÑģÑĮ": 6453,
      "ÑıÐº": 6454,
      "ÑıÐ½Ð¾": 6455,
      "ĠÐ¿Ð°Ðº": 6456,
      "ĠÐ¿Ð¸Ñħ": 6457,
      "ĠÐ¿ÑĭÑħ": 6458,
      "ĠÐ¿Ð¾Ð»ÑĮÐ·Ð¾Ð²": 6459,
      "ĠÑģÑĢÐ¾": 6460,
      "ĠÑģÐµÐ½": 6461,
      "ĠÑģÐµÐ´": 6462,
      "ĠÑģÐµÐ»Ð¸": 6463,
      "ĠÑģÑħÐ¾Ð´": 6464,
      "ĠÑģÐ¾Ð±Ñĭ": 6465,
      "ĠÐ½ÑĭÑĢ": 6466,
      "ĠÐ²ÑĳÐ»": 6467,
      "ÐºÐ¾Ð»ÑĮ": 6468,
      "ÐºÐ°Ð»ÑģÑı": 6469,
      "Ð¼ÐµÐ»": 6470,
      "Ð¼Ð¾Ð³Ð¾": 6471,
      "ÑĢÐ¸ÑĢÐ¾Ð²Ð°Ð»": 6472,
      "ĠÐ¸Ñİ": 6473,
      "ÐµÑĢÑĢÐ¸": 6474,
      "ÑģÑĤÑģÑı": 6475,
      "Ð¾Ð²ÑģÐµÐ¼": 6476,
      "Ð»Ð¸ÑĤÑĮ": 6477,
      "ĠÐ·Ð´Ð¾ÑĢÐ¾Ð²Ð¾": 6478,
      "ĠÑĤÑĮ": 6479,
      "ĠÑĤÐµÐ»Ð°": 6480,
      "ĠÑĤÑĳÑĤÐ¸": 6481,
      "Ð³Ð¾Ð»Ð¾ÑģÐ°": 6482,
      "Ð¿ÐµÑĢ": 6483,
      "ĠÐ±ÐµÐ¶Ð°Ð»": 6484,
      "Ð±Ð¾Ð¼": 6485,
      "Ð±Ð¾Ð¹": 6486,
      "ĠÑĩÑĮÑı": 6487,
      "ĠÑĩÐ°ÑģÑĤÐ¸": 6488,
      "ÑĢÐ¾ÑģÑĮ": 6489,
      "ĠÑĥÐ½Ð¸Ñĩ": 6490,
      "ĠÑĥÐ»ÑĥÑĩ": 6491,
      "Ð¾Ð³Ð½ÑĥÐ»Ð¸ÑģÑĮ": 6492,
      "ĠÐ¿Ð¾ÑĨ": 6493,
      "ĠÐ¿Ð¾Ð¾Ð±": 6494,
      "ĠÐ¿Ð¾Ð¸ÑģÐº": 6495,
      "ĠÐ½Ð°ÑĤ": 6496,
      "ĠÐ½Ð°ÑĪÐ¸": 6497,
      "ĠÐ½Ð°ÑģÑĤÐ¾Ð¹": 6498,
      "ĠÑĢÐµÐº": 6499,
      "ĠÑĢÐµÐ¿": 6500,
      "ĠÑĢÐµÑĩÐ¸": 6501,
      "Ð½ÑĥÑģÑĮ": 6502,
      "ĠÐ³ÑĢÐ¸": 6503,
      "ĠÐ³Ð¾Ð½": 6504,
      "ĠÐ³Ð¸Ð±": 6505,
      "ĠÐ³Ð½ÑĥÑģ": 6506,
      "ÑīÐ¸Ð¹": 6507,
      "ÐµÐ´Ð¸Ð½Ð¸": 6508,
      "ĠÐµÐ´Ñĥ": 6509,
      "ĠÐ¾ÑĤÐ»Ð¸ÑĩÐ½Ð¾": 6510,
      "ĠÐ»Ð¾Ð¼": 6511,
      "ĠÐ»Ð¾Ðº": 6512,
      "ĠÐ±ÑĭÑģÑĤ": 6513,
      "Ð¸ÑĤÐµÐ»Ð¸": 6514,
      "ÑĢÐ°Ð½Ð¸Ñĩ": 6515,
      "ĠÐ¿ÑĢÐ¾Ð¸Ð³": 6516,
      "ĠÐŀÑĩ": 6517,
      "ÑĦÐµÐ¹": 6518,
      "Ð¸Ð½ÑģÑĤÐ²ÐµÐ½": 6519,
      "ĠÐ²ÑĭÑģÑĤÐ°Ð²": 6520,
      "ĠÐ²ÑĭÐ¹Ð´": 6521,
      "ĠÐŁÑĢÐµÐ´": 6522,
      "ĠÐ¾Ð±Ð´ÑĥÐ¼": 6523,
      "ĠÐ¾Ð±Ð¾ÑĢÐ¾ÑĤ": 6524,
      "ĠÐ¡Ð²ÐµÑĢ": 6525,
      "ĠÐ¡Ðĺ": 6526,
      "ĠÐ¡ÐµÐ³Ð¾Ð´Ð½Ñı": 6527,
      "ĠÐ¡Ð»Ð¸Ð·ÐµÑĢÐ¸Ð½": 6528,
      "ĠÐ¡Ð½Ð°ÑĩÐ°Ð»Ð°": 6529,
      "ĠÐ¡ÐºÐ¾ÑĢÐ¾": 6530,
      "Ð»ÑıÐ»ÑģÑı": 6531,
      "ĠÐ¿ÑĢÐ¸Ð¼": 6532,
      "ÑĢÑĥÐ±": 6533,
      "ĠÑģÑĤÑĳÐº": 6534,
      "ĠÑģÑĤÑĥÐ»ÑĮ": 6535,
      "ĠÑħÐ¼Ñĭ": 6536,
      "ĠÐĴÐ¼": 6537,
      "ĠÐºÐ°ÐºÐ¾Ð³Ð¾": 6538,
      "ĠÐ¿Ð¾Ð´Ð°Ð²": 6539,
      "ĠÐ¿Ð¾Ð´Ð½ÑĳÑģ": 6540,
      "ĠÐ¿Ð¾Ð´ÑĢÑıÐ´": 6541,
      "ĠÐ¶Ð°Ð´Ð½Ð¾": 6542,
      "ĠÐ¸Ð·Ð¼ÐµÐ½": 6543,
      "ĠÐ½Ð¸ÑģÐºÐ¾Ð»ÑĮÐºÐ¾": 6544,
      "ĠÐ½Ð¸ÑĩÑĥÑĤÑĮ": 6545,
      "Ð³Ð¾Ðµ": 6546,
      "Ð³Ð¾ÑĢÐ¸": 6547,
      "ÐµÐ»ÑĮÐ½ÑĭÑħ": 6548,
      "ĠÑĢÐ°Ð·ÑĢÑĭ": 6549,
      "ĠÑĢÐ°Ð·Ð¾ÑĩÐ°ÑĢÐ¾Ð²": 6550,
      "ÐµÐ·Ð»Ð¸": 6551,
      "ÐµÐ·Ð´Ðµ": 6552,
      "ĠÑģÐ»Ð¾Ð¼": 6553,
      "ĠÑģÐ»ÐµÐ¿": 6554,
      "ĠÐ¿ÐµÑĢÐµÐ¼ÐµÐ½": 6555,
      "ĠÑĪÐµÑİ": 6556,
      "Ð°ÑĤÑĭ": 6557,
      "ÑĥÑģÐ»Ð¾Ð²": 6558,
      "Ð¸Ð²Ð°Ð»Ð¾": 6559,
      "Ð¸Ð²Ð°Ð»Ð°ÑģÑĮ": 6560,
      "Ð¸Ð²ÑĪÐ¸Ð¹": 6561,
      "ÐµÐ»Ð¸Ð»ÑģÑı": 6562,
      "ĠÐ¢ÑĥÑĢ": 6563,
      "Ð°Ð»ÑĮÐ½ÑĭÑħ": 6564,
      "ĠÐ¿Ð¾ÑģÑĤÐ¾": 6565,
      "ĠÐ¿Ð¾ÑģÐ»Ð°": 6566,
      "ĠÐ¿Ð¾Ð»ÑĩÐ°ÑģÐ°": 6567,
      "ÑģÑĤÐ²Ð¸Ðµ": 6568,
      "ÑģÑĤÐ²Ð¾Ð²Ð°ÑĤÑĮ": 6569,
      "ÑģÑĤÐ²ÑĥÐ¹ÑĤÐµ": 6570,
      "Ð´ÑĥÑİ": 6571,
      "ÑģÑĤÑĮÐµ": 6572,
      "Ð¸Ð»Ð¸Ñģ": 6573,
      "ĠÐ²Ð¸Ð´ÐµÐ½Ð¸Ñı": 6574,
      "ÑİÑīÐµÐµ": 6575,
      "ÑĢÐ¾Ð²ÑĮ": 6576,
      "ĠÐ§ÐµÐ³Ð¾": 6577,
      "ĠÐ¿Ð¾Ð²ÑıÐ·": 6578,
      "ĠÐ¿Ð¾Ð²ÑĭÑģ": 6579,
      "ĠÐ´Ð¾ÑĪÐ»Ð¸": 6580,
      "ÑĢÐ°Ð²ÐµÐ´Ð»Ð¸Ð²Ð¾": 6581,
      "ĠÐĶÐ¶Ð¾ÑĢÐ´Ð°": 6582,
      "ÐĴÐ«": 6583,
      "ĠÑĢÑĥÐ³": 6584,
      "ĠÑĢÑĥÐ±": 6585,
      "ĠÑĢÐ°ÑģÑģÐ¿": 6586,
      "ĠÑĢÐ°ÑģÑģÑĤÐ°Ð²": 6587,
      "ĠÐ¾Ð´Ð¸": 6588,
      "ĠÐ½Ð°Ð´ÐµÐ¶": 6589,
      "ĠÐ½Ð°Ð´Ð²Ð¸Ð³": 6590,
      "ÑĢÐµÐ´ÐºÐ°": 6591,
      "ĠÐ³Ð»Ð°Ð·Ð¾Ð¼": 6592,
      "ÐļÐ°Ð¶ÐµÑĤÑģÑı": 6593,
      "ĠÐ½Ð°Ð¿Ð°Ð»": 6594,
      "ĠÐ±Ð¾Ð»ÑĮÑĪÐ¸Ñħ": 6595,
      "ĠÐ±Ð¾Ð»ÑĮÑĪÐ¸Ðµ": 6596,
      "ÑĥÑĢÐ»Ñĭ": 6597,
      "ĠÐ¾ÐºÐ½Ð¾Ð¼": 6598,
      "Ð¸Ð·Ð²Ð¾Ð»ÑĮ": 6599,
      "ĠÑģÐ¾Ð±Ð»Ñİ": 6600,
      "ĠÑģÐ²Ð¸Ñģ": 6601,
      "ĠÑģÐ²ÑĳÑĢÑĤ": 6602,
      "ĠÑĦÑĢÐ°Ð·": 6603,
      "ĠÐ¿Ð¾Ð¼Ð¾ÑģÑĤ": 6604,
      "ĠÐ´ÑĢÑĥÐ³Ð¸Ð¼Ð¸": 6605,
      "ÑĳÐ½Ð½Ð¾Ð³Ð¾": 6606,
      "ÑĳÐ½Ð½ÑĭÐ¼Ð¸": 6607,
      "ĠÑĩÑĥÑĤÐ¾ÑĩÐºÑĥ": 6608,
      "Ð¸ÑĢÐ°Ð»": 6609,
      "Ð¸ÑĢÐ°ÑĤÑĮ": 6610,
      "ĠÐ¿Ð°Ð»Ð¾ÑĩÐµÐº": 6611,
      "ÑĩÐµÐ½Ð¾": 6612,
      "ĠÑĥÐ´Ð°Ð²Ð°Ð»Ð¾ÑģÑĮ": 6613,
      "ĠÐ¾Ð³Ð½": 6614,
      "ĠÐ¾Ð³ÑĢÐ°Ð½Ð¸Ñĩ": 6615,
      "ĠÐ¥Ð¾ÑĢÐ¾ÑĪÐ¾": 6616,
      "ĠÐ»Ð¸ÑĨÐ°Ñħ": 6617,
      "ĠÐ´Ð¾Ð¼Ñĥ": 6618,
      "ĠÐ·Ð°Ð¿Ð¾Ð¼": 6619,
      "ĠÐ·Ð°Ð¿ÐµÑĩÐ°ÑĤ": 6620,
      "ĠÐ·Ð°Ð¿Ð¸ÑģÐºÑĥ": 6621,
      "ĠÐ·Ð°Ð±Ð°Ð²": 6622,
      "ĠÐ·Ð°Ð±ÑĭÐ²": 6623,
      "ĠÐ³Ð¾ÑĢÐ³ÑĥÐ»ÑĮ": 6624,
      "ĠÑģÐ»ÐµÐ´Ð¸Ð»Ð¸": 6625,
      "ĠÐľÐ°ÐºÐ¼Ð¸Ð»": 6626,
      "ÑĤÑıÐ±": 6627,
      "ĠÐ¿Ð¾Ð·Ð´Ð¾ÑĢÐ¾Ð²": 6628,
      "ĠÐ¿Ð¾Ð½ÑıÐ»Ð¸": 6629,
      "ĠÐ¿Ð¾Ð½ÑıÐ»Ð°": 6630,
      "ÑıÑīÐ¸Ð¼": 6631,
      "ĠÐ¿Ð¾Ð±Ð¾Ð»ÑĮÑĪÐµ": 6632,
      "ĠÐ¿Ð¾Ð±Ð»Ð°Ð³Ð¾Ð´": 6633,
      "ÐĳÐķ": 6634,
      "ĠÐ²Ð¾ÑģÐºÑĢÐµÑģ": 6635,
      "ĠÐ¿ÑĢÐ¾Ð±Ð»ÐµÐ¼": 6636,
      "ĠÐ¿Ð¾ÐºÐ°Ð·Ð°Ð»ÑģÑı": 6637,
      "ĠÐºÑĢÐ¸ÑĩÐ°Ð»": 6638,
      "ĠÐºÑĢÐ¸ÑĩÐ°ÑĤÑĮ": 6639,
      "ĠÐºÐ°Ð±Ð»Ñĥ": 6640,
      "ĠÐ¾ÑĤÐºÑĢÑĭÐ»Ð°": 6641,
      "ĠÐ²ÑĭÑģÐ¾ÑĤ": 6642,
      "ÑĭÐ²Ð°Ð½Ð¸Ñı": 6643,
      "ĠÑģÐ»ÑĭÑĪÐ°ÑĤÑĮ": 6644,
      "ĠÑģÐ»ÑĭÑĪÐ¸ÑĤ": 6645,
      "ĠÑģÐ»ÑĭÑĪÐ°Ð»Ð°": 6646,
      "ĠÑĥÐ·Ð½Ð°Ð²": 6647,
      "ĠÑĥÐ·Ð½Ð°Ð»Ð¸": 6648,
      "ĠÑĤÐ²Ð¾Ð¸Ð¼": 6649,
      "ĠÐ¿Ð¾ÑģÐ»ÐµÐ´Ð½ÐµÐ³Ð¾": 6650,
      "ĠÐ¸ÑģÐºÑĥÑģ": 6651,
      "ĠÑĤÑĢÑĥÐ´Ð°": 6652,
      "ĠÐ²Ð¾Ð»ÑĪÐµÐ±Ð½ÑĭÑħ": 6653,
      "ĠÐ¾ÐºÐ°Ð·Ð°ÑĤÑĮÑģÑı": 6654,
      "Ð½Ð°Ð´ÑĨÐ°ÑĤÐ¸": 6655,
      "ĠÑĩÐµÐ»Ð¾Ð²ÐµÐºÐ¾Ð¼": 6656,
      "ĠÐ¾Ð±ÑīÐµÑģÑĤÐ²Ð¾": 6657,
      "ĠÑĪÐºÐ¾Ð»Ð°": 6658,
      "ĠÐ¿Ð»Ð°Ð½": 6659,
      "ĠÑģÑĩÐ¸ÑĤÐ°Ñİ": 6660,
      "ĠÑģÑĩÐ¸ÑĤÐ°ÑİÑĤ": 6661,
      "ĠÑħÐ¾Ð»Ð»Ðµ": 6662,
      "ĠÑĢÐ°Ð±Ð¾ÑĤÐ°ÐµÑĤ": 6663,
      "ÐļÐ°ÐºÐ¸Ðµ": 6664,
      "ĠÐ·Ð°ÑĤÐµÐ²": 6665,
      "ĠÐ¾ÑģÑĤÐ°Ð²Ð¸ÑĤÑĮ": 6666,
      "ĠÐ¾ÑģÑĤÐ°Ð²Ð¸Ð²": 6667,
      "ĠÑĩÑĥÐ²ÑģÑĤÐ²Ð¾Ð¼": 6668,
      "ĠÑģÑĤÑĢÐ°ÑĪÐ½Ð¾Ð¹": 6669,
      "ĠÑģÑĤÑĢÐ°ÑĪÐ½Ð¾Ð³Ð¾": 6670,
      "ĠÐºÐ°Ð¶Ð´Ð¾Ð¼": 6671,
      "ĠÑĥÑĤÐ²ÐµÑĢÐ¶": 6672,
      "ĠÑĥÐ²Ð¾Ð»ÑĮ": 6673,
      "ĠÐ·Ð°ÑģÐµÐ´": 6674,
      "ĠÐ¾Ð³ÑĢÐ¾Ð¼Ð½Ð¾Ð¹": 6675,
      "ĠÐ¾Ð³ÑĢÐ¾Ð¼Ð½ÑĥÑİ": 6676,
      "ĠÐ¾Ð±ÑĬÑıÑģÐ½Ñı": 6677,
      "ĠÐ¼Ð½Ð¾Ð³Ð¾ÑĩÐ¸ÑģÐ»ÐµÐ½": 6678,
      "ĠÑģÐ»ÑĥÑĪÐ°Ð½Ð¸Ð¸": 6679,
      "ĠÐ´ÐµÐ²Ð¾ÑĩÐºÐ¸": 6680,
      "ĠÐ¿ÑĢÐ¸ÑģÐ»ÑĥÑĪÐ¸": 6681,
      "ĠÐºÐ¾ÑĢÐ¸Ð´Ð¾ÑĢÐµ": 6682,
      "ĠÐ¿ÑĢÐ¸Ð±Ð°Ð²": 6683,
      "ĠÐ¿ÑĢÐ¸Ð±Ð»Ð¸Ð·": 6684,
      "ĠÐ¿ÑĢÐ¸Ð½ÑıÐ»Ð¸ÑģÑĮ": 6685,
      "ĠÐºÐ¾ÑĢÐ¾Ð±": 6686,
      "ĠÐ¾ÑģÑĤÐ°Ð»ÑĮÐ½ÑĭÐ¼": 6687,
      "ĠÑĥÐ´Ð°ÑģÑĤÑģÑı": 6688,
      "ĠÑģÐ¾Ð·Ð´Ð°Ð²": 6689,
      "ĠÐ´ÐµÐ»Ð°ÐµÑĪÑĮ": 6690,
      "ĠÐ¿ÑıÑĤÐ½Ð¸ÑĨÑĥ": 6691,
      "ĠÑģÐµÐ³Ð¾Ð´Ð½ÑıÑĪ": 6692,
      "ĠÐ¿ÐµÑĢÐµÐ²Ð¾Ð´Ñı": 6693,
      "ĠÑģÐ¼ÐµÑħ": 6694,
      "ĠÑģÐºÐ°Ð¶Ð¸": 6695,
      "ĠÐ¾Ð±ÑĢÐ°ÑĤÐ¸Ð»": 6696,
      "ĠÐ¿ÑĢÐ¸ÑĪÐ»Ð¾": 6697,
      "ĠÐ´ÐµÑģÑıÑĤÐ¸": 6698,
      "ĠÑģÑĥÐ·": 6699,
      "ĠÐ²ÐµÑīÐµÐ¹": 6700,
      "ĠÐ¼ÐµÑģÑĤÐ°Ñħ": 6701,
      "ĠÐ¿ÑĢÐ¾Ð¼ÑıÐ¼": 6702,
      "ĠÐ·Ð°ÑģÑĤÐ°Ð²Ð¸Ð»": 6703,
      "ĠÐ¼Ð°Ð¼Ðµ": 6704,
      "ĠÐ²ÑĭÑĢÐ°Ð¶ÐµÐ½Ð¸Ñı": 6705,
      "ĠÐ²Ð¾ÐºÐ·": 6706,
      "ĠÑģÑĤÑĢÐ°Ð½Ð½ÑĭÐ¼": 6707,
      "ĠÐ¾Ð±ÐµÑĢÐ½ÑĥÐ»Ð¸ÑģÑĮ": 6708,
      "ĠÑĨÐµÐ»ÑĥÑİ": 6709,
      "ĠÑĢÐ°Ð·Ð³Ð¾Ð²Ð°ÑĢÐ¸Ð²Ð°Ð»Ð¸": 6710,
      "ĠÐ¿ÑĭÐ»Ð¸": 6711,
      "ĠÐ²Ð¾Ð·Ð²ÑĢÐ°ÑīÐµÐ½Ð¸Ð¸": 6712,
      "ĠÐ¿ÑĢÐ¾ÑĩÐµÐµ": 6713,
      "ĠÐ¾Ð±ÑĢÐ°ÑīÐ°Ñı": 6714,
      "ĠÐ·Ð°ÐºÐ¾Ð½ÑĩÐ¸Ð»Ð°": 6715,
      "ĠÐ¿Ð¾Ð´Ð½Ð¸Ð¼Ð°ÑıÑģÑĮ": 6716,
      "ĠÐ³Ð»ÑĥÐ¿Ð¾ÑģÑĤÐ¸": 6717,
      "Ð½Ð¸ÑĤÑģÑı": 6718,
      "ĠÐ¼ÑĥÐ³Ð»Ñĭ": 6719,
      "ĠÐ¿ÑıÑĤÑĮÐ´ÐµÑģÑıÑĤ": 6720,
      "ĠÐŁÐµÑĤÑĥÐ½Ð¸Ð¸": 6721,
      "ĠÐ½Ð°Ð¿Ð¸ÑģÐ°ÑĤÑĮ": 6722,
      "ĠÐĿÐ¸ÐºÐ¾Ð³Ð´Ð°": 6723,
      "ĠÐ¾ÑģÐ²Ð¾Ð±Ð¾Ð´": 6724,
      "ĠÐºÑĥÑħÐ½Ð¸": 6725,
      "ĠÑīÑĥÐ¿": 6726,
      "ĠÑģÐ¼ÐµÑĢÑĤÑĮ": 6727,
      "ĠÐ·Ð¾Ð»Ð¾ÑĤÐ¾Ð¹": 6728,
      "ĠÐ·Ð¾Ð»Ð¾ÑĤÑĭÐµ": 6729,
      "ĠÑģÐ¾Ð±ÑģÑĤÐ²ÐµÐ½Ð½ÑĭÐ¼": 6730,
      "ĠÑģÑĤÐµÐºÐ»Ð°": 6731,
      "ĠÐ²Ð¾Ð·Ð¼ÑĥÑĤÐ¸Ð»ÑģÑı": 6732,
      "ĠÐ¥ÐµÐ´Ð²Ð¸Ð³Ð¸": 6733,
      "ĠÑģÐµÐºÑĥÐ½Ð´Ñĭ": 6734,
      "ĠÐ»ÐµÐ¶Ð°Ð»Ð°": 6735,
      "ĠÐ¾Ð±ÑıÐ·Ð°Ð½Ð½Ð¾": 6736,
      "ĠÐ¿Ð¾Ð»Ð¾Ð¶ÐµÐ½Ð¸Ðµ": 6737,
      "ĠÑĢÑĥÐºÐ°Ð²": 6738,
      "ÑĢÐµÐ½Ð½Ðµ": 6739,
      "ĠÐºÐ¾ÑĤÑĳÐ»": 6740,
      "ĠÐ²ÑĭÑģÐ¾ÐºÐ¸Ð¼": 6741,
      "Ð½Ð°Ð¼ÐµÐ½Ð¸": 6742,
      "ĠÐ¾ÑģÑĤÐ¾ÑĢÐ¾Ð¶": 6743,
      "ĠÐ¼Ð¾Ð¼ÐµÐ½ÑĤÐ°": 6744,
      "ĠÐ¾Ð±Ð¾Ð¸Ñħ": 6745,
      "ĠÐĲÑĢÑĤÑĥ": 6746,
      "ĠÐ²Ð°Ð¶Ð½ÐµÐµ": 6747,
      "ĠÐ²Ð°ÑĪÐµÐ¹": 6748,
      "ĠÐ²ÑĭÐ·Ð¾Ð²Ð¾Ð¼": 6749,
      "Ð¡Ð¢ÐĴÐŀ": 6750,
      "ĠÐ´Ð²Ð¸Ð¶ÐµÐ½Ð¸Ðµ": 6751,
      "ĠÐ²Ð¿Ð¾Ð»Ð³Ð¾Ð»Ð¾ÑģÐ°": 6752,
      "ĠÐ¾Ð³Ð»ÑıÐ´ÑĭÐ²Ð°ÑıÑģÑĮ": 6753,
      "ĠÐ´ÐµÐ¿Ð°ÑĢÑĤÐ°Ð¼ÐµÐ½ÑĤÐ°": 6754,
      "ĠÑĢÐ°Ð·Ð²ÐµÑĢÐ½ÑĥÐ»Ð°ÑģÑĮ": 6755,
      "Ð°Ð²ÑĪÐ¸Ð¹ÑģÑı": 6756,
      "ĠÐ¿Ð¾Ð±ÐµÐ´Ð½Ð¾": 6757,
      "ĠÐ´ÐµÑĤÐ¸": 6758,
      "ĠÑģÐ»Ð°Ð±ÑĭÐ¼": 6759,
      "ĠÐ¿Ð¾ÑģÑĤÐ°Ð²Ð¸Ð»Ð°": 6760,
      "ĠÐ¿Ð¾Ð´Ð¾Ð·ÑĢÐ¸ÑĤÐµÐ»ÑĮÐ½Ð¾": 6761,
      "ĠÑģÐ¿ÑĥÑģÑĤÐ¸Ð»Ð¸ÑģÑĮ": 6762,
      "ĠÐ·Ð°Ð¼ÐµÑĩÐ°Ð»": 6763,
      "ĠÐ±Ð»Ð¾ÐºÐ¸ÑĢÐ¾Ð²Ð°ÑĤÑĮ": 6764,
      "ĠÐ²ÑĤÐ¾ÑĢÐ°Ñı": 6765,
      "ĠÐ±Ð°ÑĪÐ½Ð¸": 6766,
      "ĠÑħÐ¾ÑĢÐ¾ÑĪÐ¸Ð¼": 6767,
      "ĠÐ¸Ð·ÑĥÑĩÐ°ÑĤÑĮ": 6768,
      "ĠÐºÐ¸Ð¿": 6769,
      "ĠÐ´ÑĢÑĥÐ¶Ð½Ð¾": 6770,
      "ĠÐ·Ð»Ð¾ÑģÑĤ": 6771,
      "ĠÑĥÑģÐ¸Ð»Ð¸ÐµÐ¼": 6772,
      "ĠÐ½Ð°ÑģÑĤÐ¾ÑıÑīÐµÐµ": 6773,
      "ĠÑģÑĤÑĥÐ»Ð°": 6774,
      "ĠÑģÑĤÑĥÐºÐ¾Ð¼": 6775,
      "ĠÐ¿Ð¾Ð»Ð¾Ð²Ð¸Ð½Ðµ": 6776,
      "ĠÐºÐ¾ÑĤÐ¾ÑĢÐ¾Ð¼Ñĥ": 6777,
      "ĠÐ¿Ð¾ÑıÐ²Ð»ÑıÑĤÑĮÑģÑı": 6778,
      "ĠÐ³ÑĥÐ±Ð°Ð¼Ð¸": 6779,
      "ĠÐ¿Ð¸ÑģÑĮÐ¼ÐµÐ½Ð½Ð¾Ð³Ð¾": 6780,
      "ĠÐ¿ÑĢÐ¾ÐºÐ»ÑıÑĤÐ¸Ñı": 6781,
      "ĠÐ½ÐµÐ¾Ð±ÑĭÐºÐ½Ð¾Ð²": 6782,
      "ĠÑĢÐ°Ð½ÐµÐ½": 6783,
      "ĠÐ¸ÑģÑĤÐ¾ÑĢÐ¸Ð¸": 6784,
      "ĠÐºÐ°Ð½Ð¸ÐºÑĥÐ»": 6785,
      "ĠÑģÑĤÐ°Ð´Ð¸Ð¾Ð½": 6786,
      "ĠÐ¿Ð¾Ð»ÐµÑĤÐµÐ»": 6787,
      "ĠÐ¿ÑĢÐ¾ÑĩÐ¸ÑĤÐ°ÑĤÑĮ": 6788,
      "ĠÐ§Ð°ÑĢÐ¾Ð´Ðµ": 6789,
      "ĠÐ¾ÐºÐºÐ»ÑĥÐ¼ÐµÐ½ÑĨÐ¸ÐµÐ¹": 6790,
      "Ð°Ð²ÑĪÐ¸ÑħÑģÑı": 6791,
      "ĠÑħÐ¸Ð¶Ð¸Ð½Ñĭ": 6792,
      "ĠÑĪÐ»ÑıÐ¿Ð°": 6793,
      "ĠÑħÐ¾Ð·ÑıÐ¹": 6794,
      "ĠÐ¿Ð¾Ð²ÐµÐ´ÐµÐ½Ð¸Ðµ": 6795,
      "ĠÐ·ÐµÐ»ÑĮÐµÐ´ÐµÐ»Ð¸Ñİ": 6796,
      "ĠÐľÐ°Ð³Ð½Ð¾Ð»Ð¸": 6797,
      "ĠÐ¿ÑĢÐ¸ÑģÑĥÑĤÑģÑĤÐ²Ð¸Ð¸": 6798,
      "ĠÐ½Ð°ÑħÐ¼ÑĥÑĢÐ¸Ð»ÑģÑı": 6799,
      "ĠÑģÐ¾ÑĩÐ¸Ð½ÐµÐ½Ð¸Ðµ": 6800,
      "ÐŁÑĢÐ°Ð²Ð´Ð¾Ð±Ð¾ÑĢ": 6801,
      "Ð¾Ð»Ð²Ð¸Ð»": 6802,
      "Ð¾Ð»Ð¾Ð´ÐµÑĨ": 6803,
      "ĠÐ³Ð¾ÑĢÐ´Ð¾": 6804,
      "ĠÐ¼Ð¾Ð»ÑĮÑĦÐµÐ¹": 6805,
      "ĠÐĿÐ°Ð²ÐµÑĢÐ½Ð¾": 6806,
      "ĠÑĥÐ´Ð°ÑĢÐ¸Ð»Ð¾": 6807,
      "ĠÐ¿ÑĢÐ¾ÑħÐ»Ð°Ð´": 6808,
      "ĠÐĽÐ¾ÑģÐºÑĥÑĤ": 6809,
      "ĠÐºÑĥÐ±Ð¾Ðº": 6810,
      "ĠÐ½ÐµÐ¿ÑĢÐ¾Ð¸Ð·Ð²Ð¾Ð»ÑĮ": 6811,
      "ĠÐ¿Ð¾ÑģÑĤÐ°ÑĢÐ°Ð»ÑģÑı": 6812,
      "ĠÐ¿ÑĢÐ¸Ð²ÑĭÐº": 6813,
      "ĠÑģÐ¾Ð´ÐµÑĢÐ¶": 6814,
      "ĠÐ¼Ð»Ð°Ð´ÐµÐ½": 6815,
      "ĠÐ±Ð°Ð³Ð°Ð¶": 6816,
      "ĠÐ³ÐµÑĢÐ±Ð¾Ð»": 6817,
      "ĠÐ²Ð¼ÐµÑĪÐ°Ð»Ð°ÑģÑĮ": 6818,
      "ĠÐ·Ð°ÑĪÐ°Ð³Ð°Ð»": 6819,
      "ĠÑģÐ¾Ð¶Ð°Ð»ÐµÐ½Ð¸Ñİ": 6820,
      "ĠÐ²ÐµÑĢÐ¸ÑĤ": 6821,
      "ĠÐ³Ð°Ð»Ð»ÐµÐ¾Ð½Ð¾Ð²": 6822,
      "ĠÐ´Ð²ÐµÐ½Ð°Ð´ÑĨÐ°ÑĤÑĮ": 6823,
      "ĠÐ·Ð°ÑģÐ»ÑĥÐ¶": 6824,
      "ĠÑģÑĤÐ°ÑĤÑĥÐ¸": 6825,
      "ĠÑĢÐ°ÑģÑħÐ°Ð¶": 6826,
      "ĠÑĨÐµÐ»ÑĮÑİ": 6827,
      "ĠÐ½ÐµÐ²Ð½ÑıÑĤÐ½Ð¾": 6828,
      "ĠÐ´ÐµÐ»Ð¾Ð²Ð¸ÑĤÐ¾": 6829,
      "ĠÐ±Ð¾Ð¼Ð±": 6830,
      "ĠÑģÐ¿ÐµÑĨÐ¸": 6831,
      "ĠÐĳÐ¸Ð½Ð½Ð·Ð°": 6832,
      "ĠÑĦÐ¸Ð³ÑĥÑĢÐ°": 6833,
      "ĠÑĢÑıÐ²ÐºÐ½ÑĥÐ»": 6834,
      "ĠÐ¿ÑĢÐ¸Ð¼ÐµÐ½ÐµÐ½Ð¸Ðµ": 6835,
      "ĠÐ°Ð¿Ð¿Ð°ÑĢÐ¸": 6836,
      "ĠÐ·Ð°ÐºÐ¾Ð»Ð´Ð¾Ð²": 6837,
      "ĠÐ´ÐµÐ¶ÑĥÑĢ": 6838,
      "ĠÐ¼Ð°ÑģÑģÐ°": 6839,
      "ĠÐ¼Ð°ÑĪÐ¸Ð½": 6840,
      "Ð°Ð²ÑĤÑĢÐ°": 6841,
      "ĠÐĶÐ¸Ð³Ð³Ð¾ÑĢÐ¸": 6842,
      "ĠÑģÐ¿Ð¸ÑģÐ¾Ðº": 6843,
      "ĠÐ¿ÑĢÐ¾Ð¿ÑĥÑģÐºÐ°ÐµÑĤ": 6844,
      "ĠÐ´Ð¶Ð¸Ð½": 6845,
      "ĠÐ¼ÑĥÑģÐ¾ÑĢ": 6846,
      "ĠÐ¢Ð¾Ð¼Ð°Ñģ": 6847,
      "ĠÐĶÐ¾Ð»Ð¾ÑħÐ¾Ð²": 6848,
      "ĠÐºÑĢÐ¾ÑĪÐµÑĩ": 6849,
      "ĠÐ´ÐµÐ¼ÐµÐ½ÑĤÐ¾ÑĢ": 6850,
      "ĠÐĶÐ¶Ð¾Ð½ÑģÐ¾Ð½": 6851,
      "ĠÐ¾Ð·Ð½Ð°ÑĩÐ°ÐµÑĤ": 6852,
      "ĠÐľÐ½Ð¾Ð³Ð¸Ðµ": 6853,
      "ĠÐ±ÐµÐ·Ð·Ð²ÑĥÑĩ": 6854,
      "ĠÐ½ÐµÐ¿Ð¾Ð½Ð¸Ð¼Ð°ÑİÑīÐµ": 6855,
      "ĠÑĤÑĢÐµÑĤÐ¸Ð¹": 6856,
      "ĠÐ±ÐµÑģÐ¿Ð¾Ð¼Ð¾ÑīÐ½Ð¾": 6857,
      "ĠÑģÑĢÐ¾ÑĩÐ½Ð¾": 6858,
      "ĠÑĥÐ½Ð¸ÑĩÑĤÐ¾Ð¶": 6859,
      "ĠÐ¢ÑĥÑĢÐ½Ð¸": 6860,
      "ĠÐºÐ°Ð±Ð»ÑĥÐºÐ°Ñħ": 6861,
      "ĠÐ¿ÑĢÐ¾Ð¼ÑıÐ¼Ð»Ð¸Ð»": 6862,
      "ĠÐ§Ð°ÑĢÐ¾Ð´ÐµÐµÐ²": 6863,
      "ĠÐľÐ°Ð³Ð½Ð¾Ð»Ð¸ÐµÐ²": 6864,
      "ĠÐ½ÐµÐ¿ÑĢÐ¾Ð¸Ð·Ð²Ð¾Ð»ÑĮÐ½Ð¾": 6865,
      "Ð©": 6866,
      "ÑĤÐ°Ð¼Ð¸": 6867,
      "ÑģÐ»ÐµÐ´": 6868,
      "ÑģÑİÐ´Ð°": 6869,
      "Ð»Ð¾Ð³Ð¾": 6870,
      "ÑĥÑģÑĮ": 6871,
      "ÑıÐ¹": 6872,
      "ĠÐ¿Ð»Ñİ": 6873,
      "ĠÑģÐ½Ð°": 6874,
      "ĠÑģÐ´Ð°": 6875,
      "ĠÑģÐµÑģÑĤ": 6876,
      "ĠÑģÑĥÑħ": 6877,
      "ĠÑģÐ¸Ð½Ñı": 6878,
      "ĠÑģÐ½Ð¸Ð·Ñĥ": 6879,
      "ĠÐ½Ð°Ð»Ð¸": 6880,
      "ĠÐ²Ð¸Ð»": 6881,
      "ĠÐ²Ð½Ðµ": 6882,
      "ĠÐ²Ð¾Ð´Ñı": 6883,
      "ĠÐ²ÑĢÐ°Ð³": 6884,
      "ÑĩÐ½ÑĭÐ¹": 6885,
      "ÐºÐ°ÑıÑģÑĮ": 6886,
      "ĠÐ¾ÑĦÐ¸ÑĨÐ¸": 6887,
      "ÑĢÐ¸Ð²ÑĪÐ¸ÑģÑĮ": 6888,
      "Ð°Ð»Ðµ": 6889,
      "Ð°Ð»Ð»Ð¸": 6890,
      "Ð°Ð»ÐµÐºÐµ": 6891,
      "ĠÐ¸Ð¼Ð¸": 6892,
      "ĠÐºÑĥÑģÑĤ": 6893,
      "ÑģÑĤÐ°Ð½": 6894,
      "Ð¾Ð²Ð°Ð½Ð¸Ðµ": 6895,
      "ĠÐ´ÐµÐ»Ð¸": 6896,
      "Ð»Ð¸Ð¼": 6897,
      "Ð»Ð¸Ð»Ð°ÑģÑĮ": 6898,
      "ĠÐ·Ð²ÐµÑĢ": 6899,
      "ĠÐ·Ð½Ð°Ð¼ÐµÐ½Ð¸": 6900,
      "ĠÑĤÐº": 6901,
      "ĠÑĤÐ¾Ð¿": 6902,
      "ĠÑĤÐ¾Ð²Ð°ÑĢÐ¸": 6903,
      "Ð°ÑĢÑĭ": 6904,
      "Ð°ÑĢÐ´": 6905,
      "Ð³Ð»Ð°Ð²": 6906,
      "Ð¿ÐµÑĢÐ²": 6907,
      "ĠÐ±Ñĥ": 6908,
      "ĠÑĩÑĥÐ¶": 6909,
      "ĠÑĩÑĤÐ¾Ð±": 6910,
      "ĠÑĥÑĢÐ¾": 6911,
      "Ð·Ð½Ð°": 6912,
      "Ð°ÐºÐ¾Ð½": 6913,
      "Ð°ÐºÐ¸Ð²Ð°Ñı": 6914,
      "ĠÐ½ÐµÑĩ": 6915,
      "ĠÐ½ÐµÐ¾ÑĤ": 6916,
      "Ð¶Ð°Ð»Ð°": 6917,
      "Ð¾Ð³Ð¾Ð²": 6918,
      "Ð¾Ð³Ð¸Ð¸": 6919,
      "ĠÐ½Ð°ÑĪÐµ": 6920,
      "ĠÐ½Ð°ÑĤÑı": 6921,
      "ĠÑĢÐ¾Ðº": 6922,
      "ĠÑĢÐµÐ²": 6923,
      "ĠÑĢÐ°Ð¹": 6924,
      "ĠÑĢÑĤÐ¾Ð¼": 6925,
      "ĠÑĢÑĭÐ²": 6926,
      "ĠÑĢÐ²Ð¾ÑĤ": 6927,
      "ĠÐ³ÑĢÐ°": 6928,
      "ĠÐ³ÑĥÑģÑĤÐ¾": 6929,
      "Ð¾Ð¹Ð´ÑĳÐ¼": 6930,
      "Ð°Ð²Ð»Ð¸": 6931,
      "Ð°Ð²ÑĪÐ°Ñı": 6932,
      "ÐµÐ´ÐµÐ½Ð¸Ðµ": 6933,
      "Ð¾ÑĤÐ°": 6934,
      "Ð¾Ð½ÐµÑĩ": 6935,
      "Ð¾Ð½ÑıÑĤÐ¸Ñı": 6936,
      "ĠÐ¾ÑĤÑģÐº": 6937,
      "ĠÐ¾ÑĤÐºÐ¸": 6938,
      "Ð¾Ð±Ð½Ð¾Ð²": 6939,
      "ĠÐ¿ÑĢÐµ": 6940,
      "ĠÐ¿ÑĢÐ¾Ð¹Ð´ÑĳÑĤ": 6941,
      "ĠÐ¿ÑĢÐ°Ð·Ð´": 6942,
      "Ð¼Ð¸Ð³": 6943,
      "Ð°Ð´Ð°Ñĩ": 6944,
      "ĠÐ»ÑĮ": 6945,
      "ĠÐ»Ð¾Ð¿": 6946,
      "ĠÐ»Ð°ÑģÐº": 6947,
      "Ð¾ÐºÑĢÑĥÐ³": 6948,
      "Ð¾ÐºÑĢÐ¾Ð²": 6949,
      "Ð¸ÑĤÑĭÐ¹": 6950,
      "Ð¸ÑĤÑĭÐ¼": 6951,
      "ĠÐ¿ÑĢÐ¾ÑĤ": 6952,
      "ĠÐ¿ÑĢÐ¾ÑĪÐ¸Ð¿": 6953,
      "ÐµÐ¹Ðº": 6954,
      "Ð¸Ð½ÐºÐ°": 6955,
      "ĠÐ²ÑĭÐºÐ¸": 6956,
      "ĠÐ²ÑĭÑĥÑĩ": 6957,
      "ĠÐ²ÑĭÑĢÐµÐ·": 6958,
      "ĠÐ²ÑĭÑħÐ²Ð°ÑĤÐ¸Ð»": 6959,
      "ĠÐ²ÑĭÑĤÐ°ÑĢ": 6960,
      "ÐµÐ²ÑĪÐ¸Ð¹": 6961,
      "ĠÐŁÐ¾ÑħÐ¾Ð¶Ðµ": 6962,
      "ĠÑģÐºÐ»Ð¾": 6963,
      "Ð²Ð°ÑĤÐ¸ÑĤÑĮ": 6964,
      "ÑĤÐ¸Ð»Ð¸": 6965,
      "ÑĤÐ¸Ð»Ð¸ÑģÑĮ": 6966,
      "ĠÐ¾Ð±Ð¾ÑĢÐ°ÑĩÐ¸Ð²Ð°ÑıÑģÑĮ": 6967,
      "ĠÐ¾Ð±ÑıÐ·Ð°Ð½Ñĭ": 6968,
      "ĠÐ¡Ð¸Ð±": 6969,
      "ĠÐ¡Ð»ÑĥÑĪÐ°Ð¹": 6970,
      "ÑĥÐ¼Ð½Ð¾": 6971,
      "ĠÐ¿ÑĢÐ¸ÑģÐ¿": 6972,
      "ĠÐ¿ÑĢÐ¸Ð½Ð°Ð´": 6973,
      "ĠÐ¿ÑĢÐ¸Ð»Ð¸Ñĩ": 6974,
      "ĠÐ¿ÑĢÐ¸Ð¼ÐµÐ½Ð¸": 6975,
      "ÑĢÑĥÐ´Ð½Ð¾": 6976,
      "ÑĢÑĥÐ³Ð¾Ðµ": 6977,
      "ĠÑģÑĤÐ°": 6978,
      "ĠÑģÑĤÑĭ": 6979,
      "ĠÑģÑĤÐ°Ð²": 6980,
      "ĠÑħÐ¾Ð»Ð»": 6981,
      "ĠÐĴÐ«": 6982,
      "ĠÐĴÐ¾ÐºÑĢÑĥÐ³": 6983,
      "ĠÐłÐ°Ð½ÑĮÑĪÐµ": 6984,
      "ĠÐ¿Ð¾Ð´ÑĤÐ¾Ð»": 6985,
      "ĠÐ¿Ð¾Ð´Ð½Ð¾Ð¶": 6986,
      "Ð²Ð¾Ð½Ð¸Ð»": 6987,
      "ĠÐļÐ°Ð¶ÐµÑĤÑģÑı": 6988,
      "ĠÐ¶Ð¸Ð»": 6989,
      "ĠÐ¶Ð´ÑĥÑĤ": 6990,
      "ĠÐ¶Ð´Ð°Ð»Ð¸": 6991,
      "ĠÐ¸Ð·ÑĢÐµÐ´ÐºÐ°": 6992,
      "ĠÐ½Ð¸ÑĩÑĤÐ¾": 6993,
      "Ð°Ð½Ð¾Ð¹": 6994,
      "Ð°Ð½ÑĤÐ¸": 6995,
      "ĠÑıÐ´": 6996,
      "Ð¾ÑģÐ°": 6997,
      "Ð¾ÑģÑħÐ¾Ð´": 6998,
      "Ð¾ÑĩÐºÐ¾Ð¹": 6999,
      "Ð¾Ð¿Ð¾Ð´Ð¾Ð±": 7000,
      "ĠÑĢÐ°Ð·Ð´Ñĥ": 7001,
      "ĠÑĢÐ°Ð·Ð½ÑĭÑħ": 7002,
      "ĠÑĢÐ°Ð·Ð»Ð¸Ñĩ": 7003,
      "ÐµÐ·Ð»Ð¾": 7004,
      "ĠÑģÐ»ÐµÐ²Ð°": 7005,
      "ĠÑģÐ¿ÐµÑĪ": 7006,
      "ĠÑģÐ¿ÐµÑĪÐ½Ð¾": 7007,
      "ĠÑģÐ¿Ð°ÑģÑĤÐ¸": 7008,
      "ĠÐ°ÑģÑĤÑĢÐ¾": 7009,
      "ĠÐľÐµÐ½Ñı": 7010,
      "ĠÐľÐ°Ð¼Ð°": 7011,
      "ĠÐ¿ÐµÑĢÐ°": 7012,
      "ĠÐ¿ÐµÑĢÐ¾Ð¼": 7013,
      "ĠÐ¿ÐµÑĢÐµÐ½": 7014,
      "ĠÐ¿ÐµÑĢÐµÑĩ": 7015,
      "ĠÐ¿ÐµÑĢÐ²Ð°Ñı": 7016,
      "ĠÑĪÐ»ÑĳÐ¿": 7017,
      "ĠÑģÐºÐ°Ð·Ð°Ð½Ð¾": 7018,
      "ĠÐºÐ¾ÑĢÐ¸ÑĩÐ½ÐµÐ²": 7019,
      "Ð½ÑıÐ»Ð°": 7020,
      "Ð°ÑĤÐ¾Ð¹": 7021,
      "ÐĿÐ¸": 7022,
      "ÑĥÑģÐ¿": 7023,
      "ĠÐ£Ð²Ð¸Ð´": 7024,
      "ÐµÐ½ÑĮÐºÐ¸Ðµ": 7025,
      "ÐŀÐ¢": 7026,
      "ÐŀÑģÑĤÐ°Ð²": 7027,
      "ÐŀÐł": 7028,
      "Ð°Ð»ÑĮÐ½Ð°Ñı": 7029,
      "ĠÐ¿Ð¾ÑģÑĭÐ»": 7030,
      "ĠÐ¿Ð¾ÑģÐ»Ð°Ð»": 7031,
      "ÐĲÐ¡": 7032,
      "ÐĲÐļ": 7033,
      "ÐĲÐĻ": 7034,
      "ÑģÑĤÐ²Ð¾Ð²Ð°Ð»": 7035,
      "Ð´Ð¾ÑĢÐ¾Ð²Ð°Ð»ÑģÑı": 7036,
      "ÐµÐ½Ð½Ð¾ÑģÑĤÐ¸": 7037,
      "ĠÐ²Ð·Ð±": 7038,
      "ĠÐĹÐ°Ð¼": 7039,
      "ÐŁÑĢÐµÐº": 7040,
      "Ð¢ÐµÐ±Ðµ": 7041,
      "ĠÐĳÐ°ÑĢ": 7042,
      "ÐĶÐ¾Ð»Ð¶ÐµÐ½": 7043,
      "ÑİÑīÐ¸Ð¼ÑģÑı": 7044,
      "ĠÐ§ÐµÐ»Ð¾Ð²": 7045,
      "ĠÐ²Ð¾Ð¾Ð´ÑĥÑĪ": 7046,
      "ÑħÐ¾Ð´Ñı": 7047,
      "ĠÐ²Ð¾Ð·ÑĮ": 7048,
      "ĠÐ²Ð¾Ð·Ð¾Ð±Ð½Ð¾Ð²": 7049,
      "ĠÐ¾Ð´ÐµÐ¶Ð´Ñĥ": 7050,
      "Ð½Ð¾Ð²Ð¾Ð»Ð¾Ñģ": 7051,
      "Ð¡Ð»ÑĥÑĪÐ°Ð¹ÑĤÐµ": 7052,
      "Ð¡Ð»ÑĥÑĪÐ°Ð¹": 7053,
      "ĠÐ·Ð°ÐºÑĢÑĭÐ²": 7054,
      "ĠÐ·Ð°ÐºÐ»ÑİÑĩ": 7055,
      "ÐļÐ¾Ð³Ð´Ð°": 7056,
      "ÐļÑģÑĤÐ°ÑĤÐ¸": 7057,
      "ÑģÑĤÐ¸ÑĩÐµÑģÐºÐ¸": 7058,
      "ÐķÐľ": 7059,
      "ÐĺÐ½": 7060,
      "ÑĥÑĢÑĪ": 7061,
      "ÑĥÑĪÐµÐº": 7062,
      "ĠÐ¾Ð¿Ð¾Ð·": 7063,
      "ĠÐ¾Ð¿ÑĢÐ°Ð²": 7064,
      "ĠÐ¾Ð¿ÑĢÐ°Ð²Ð´Ð°": 7065,
      "ĠÐºÐ¾Ð½ÑĨÑĥ": 7066,
      "ÐľÐĺ": 7067,
      "ÐľÐ°Ð¼Ð°": 7068,
      "ĠÑģÐ²Ð¾Ð´Ñı": 7069,
      "ĠÑĦÐ°Ð»ÑĮ": 7070,
      "ĠÑĦÐ¾Ð½Ðµ": 7071,
      "ĠÐ¿Ð¾Ð¼Ð¸Ð¼Ð¾": 7072,
      "ĠÐ¾ÑģÑĤÐ°ÑĤ": 7073,
      "ĠÐ±ÐµÐ·Ð½Ð°Ð´ÑĳÐ¶": 7074,
      "ĠÐ¿Ð¾ÑĩÐµÑĢ": 7075,
      "ÑĤÑĥÐ·Ð¸": 7076,
      "ĠÐ¿Ð¾Ð¿Ð¾Ð»": 7077,
      "ĠÐ¿Ð¾Ð¿ÑĢÐ¾ÑģÐ¸Ð»": 7078,
      "Ð¸ÑĢÐ°Ð»ÑģÑı": 7079,
      "ĠÑģÐ¾Ð²ÐµÑĤ": 7080,
      "ÑĩÐµÑģÐºÐ¾Ð¹": 7081,
      "ĠÐ¾ÑģÐ¼Ð¾ÑĤÑĢÐµÐ»": 7082,
      "ÑĥÐ½Ðº": 7083,
      "ĠÐ¾Ð³Ð½ÑĳÐ¼": 7084,
      "Ð£Ð»ÑĳÑĤ": 7085,
      "Ð½ÑĥÑĤÑĭÐµ": 7086,
      "ĠÐ·Ð°Ð´ÑĳÑĢ": 7087,
      "ĠÐ¸ÑģÐ¿ÑĢÐ°Ð²": 7088,
      "ĠÑĤÑĢÐ°Ð³": 7089,
      "ĠÐ·Ð°Ð±Ð¸Ð»Ð¾ÑģÑĮ": 7090,
      "ĠÐ·Ð°Ð±ÑĢÐ°ÑĤÑĮ": 7091,
      "ĠÐ½Ð°ÑģÑĩÑĳÑĤ": 7092,
      "ĠÐ½Ð°ÑģÐ¼ÐµÑĪ": 7093,
      "ÑĤÐ¾ÑĢÐ¾Ð¹": 7094,
      "ÑĢÐ°ÑģÑģ": 7095,
      "ÑĢÐ°ÑģÐ½Ð¾": 7096,
      "ĠÑģÑĤÐ¾ÑıÐ»Ð¾": 7097,
      "ĠÐ½Ð¾Ð³Ð°Ñħ": 7098,
      "ĠÑĥÐ±Ð¸Ð»Ð¸": 7099,
      "ĠÐ³ÑĢÐ¾Ð¼ÑĭÑħ": 7100,
      "ĠÑģÑĤÐ°ÑĢÐ°Ñı": 7101,
      "ĠÑĥÐ²Ð¸Ð´Ð¸ÑĤ": 7102,
      "ĠÐ²ÐµÐ´ÑĮÐ¼": 7103,
      "ĠÐ¿Ð¾Ð·Ð½Ð°ÐºÐ¾Ð¼": 7104,
      "ĠÐ¿Ð¾Ð·Ð´Ð¾ÑĢÐ¾Ð²Ð°Ð»ÑģÑı": 7105,
      "Ð²ÑģÑĤÐ²ÐµÐ½Ð½Ð¾": 7106,
      "Ð»Ð¸Ð·Ð½Ðµ": 7107,
      "ÑıÑīÐµÐ¹": 7108,
      "ĠÐ¿Ð¾Ð´Ð½ÑıÐ»Ð¸ÑģÑĮ": 7109,
      "ĠÐ½ÐµÐ´ÐµÐ»Ðµ": 7110,
      "ĠÑĢÐ°Ð·Ð´ÑĥÐ¼": 7111,
      "ĠÐ½Ð°Ð²ÐµÑģÑĤÐ¸ÑĤÑĮ": 7112,
      "Ð°ÑİÑīÐ°Ñı": 7113,
      "ÐµÐ½ÑĤÐ¾Ð²": 7114,
      "ĠÑĥÐ¿Ð°ÐºÐ¾Ð²": 7115,
      "ĠÐ²ÑĭÐ¿ÑĥÐº": 7116,
      "ĠÐ½Ð°ÐºÐ»Ð¾Ð½Ð¸": 7117,
      "Ð¸Ð½Ð°ÑĤÑĮ": 7118,
      "ĠÐ¼Ð¾Ð¸Ð¼": 7119,
      "ĠÑĥÐ»ÑĭÐ±ÐºÐµ": 7120,
      "ĠÑģÐ´ÐµÐ»Ð°Ð»ÑģÑı": 7121,
      "ĠÐ¿ÑĢÐ¾Ð±ÐµÐ¶Ð°Ð»": 7122,
      "ĠÑģÐ»Ð¾Ð²Ð°Ð¼": 7123,
      "ĠÐ¿Ð¾ÐºÐ°Ð·Ð°Ð»Ð°ÑģÑĮ": 7124,
      "Ð¾Ð¶Ð´ÐµÐ½Ð¸Ðµ": 7125,
      "ĠÐ²Ð´Ð°Ð»ÐµÐºÐµ": 7126,
      "ĠÐ²ÑĭÑģÑĥ": 7127,
      "ÑĭÐ²Ð°ÐµÐ¼": 7128,
      "ĠÑĢÐµÑĪÐ¸Ð»Ð°": 7129,
      "ĠÐĽÑĥÐ½Ñĥ": 7130,
      "ĠÐ»ÑİÐ±Ð¾Ð¼": 7131,
      "ĠÐ»ÑİÐ±Ð¾Ð¹": 7132,
      "ĠÐºÐ°ÑĢÑĤÐ¾": 7133,
      "ĠÐ·Ð²ÑĥÐºÐ°": 7134,
      "ĠÐ·Ð²ÑĥÐºÐ¸": 7135,
      "ĠÐ¿Ð¾ÑģÐ»ÐµÐ´Ð½ÑİÑİ": 7136,
      "ĠÐ·Ð°Ð¼ÐµÑĤÐ¸ÑĤÑĮ": 7137,
      "ĠÑĢÐ°Ð´Ð¾ÑģÑĤÐ¸": 7138,
      "ĠÐ½ÑĥÐ¶Ð½Ð°": 7139,
      "Ð»Ð¸Ð²Ð°ÑĤÑĮ": 7140,
      "ĠÐ¾Ð±ÑīÐµÑģÑĤÐ²Ð°": 7141,
      "Ð°ÑĢÐ¸Ð»Ð°": 7142,
      "ĠÐ²ÑģÐºÐ¾ÑĩÐ¸Ð»Ð°": 7143,
      "ĠÑħÐ¾Ð»Ð»Ð°": 7144,
      "ĠÐ¸Ð³ÑĢÑĭ": 7145,
      "ĠÑĢÐ°Ð±Ð¾ÑĤÐ°": 7146,
      "ĠÑĢÐ°Ð±Ð¾ÑĤÑĭ": 7147,
      "ĠÑĢÐ°Ð±Ð¾ÑĤÐ°ÑĤÑĮ": 7148,
      "ÐļÐ°ÐºÐ°Ñı": 7149,
      "ĠÐ·Ð°ÑĤÑĢÑıÑģ": 7150,
      "Ð¸Ð¼Ð¸ÑģÑı": 7151,
      "ĠÑĢÐ°ÑģÑģÐ»ÑĭÑĪ": 7152,
      "ĠÐ¾ÑģÑĤÐ°Ð²Ð°Ð»ÑģÑı": 7153,
      "ĠÑĩÑĥÐ²ÑģÑĤÐ²ÑĥÑı": 7154,
      "ĠÑĩÑĥÐ²ÑģÑĤÐ²ÑĥÐµÑĪÑĮ": 7155,
      "ĠÐ¿Ð¾ÑģÑĤÑĥÑĩ": 7156,
      "ĠÐ½Ð¸ÐºÐ°ÐºÐ¾Ð¹": 7157,
      "ĠÐ½Ð°Ð¿ÑĢÐ°Ð²Ð¸Ð»Ð°ÑģÑĮ": 7158,
      "ĠÑĥÐ²ÐµÑĪ": 7159,
      "Ð¸ÑĤÐµÐ»ÑĮÐ½Ð¾Ð¹": 7160,
      "ĠÐ¾Ð³ÑĢÐ¾Ð¼Ð½ÑĭÐ¼": 7161,
      "Ð¾Ð·ÑĮÐ¼Ð¸": 7162,
      "ĠÐ½ÐµÑģÐ¾Ð²ÐµÑĢÑĪÐµÐ½": 7163,
      "ĠÐ·Ð°Ð½ÑıÑĤ": 7164,
      "ÑĤÑĢÐ¸ÑĥÐ¼": 7165,
      "ĠÐ¿ÑĢÐ¾ÑģÐ¼Ð°ÑĤÑĢÐ¸": 7166,
      "ĠÐ¿ÑĢÐ¾ÑģÐ²Ð¸ÑģÑĤ": 7167,
      "ĠÐ´Ð»Ð¸Ð½Ð½ÑĭÐ¼": 7168,
      "ĠÐ¿ÑĢÐ¸ÑģÐ»Ð°Ð»": 7169,
      "ĠÐ´ÐµÐ¹ÑģÑĤÐ²Ð¸Ñı": 7170,
      "ĠÑĪÐ¸ÑĢÐµ": 7171,
      "ĠÐ¿ÑĢÐ¸Ð±Ð¾ÑĢ": 7172,
      "ĠÐ£Ð¿Ð¸Ð²Ð°ÑİÑīÐµÐ³Ð¾ÑģÑı": 7173,
      "ĠÐºÑĢÐ°ÑģÐ½ÑĭÐµ": 7174,
      "ĠÐ²ÑĭÑħÐ¾Ð´Ð¸ÑĤÑĮ": 7175,
      "ĠÐ²ÑĭÑħÐ¾Ð´Ð½ÑĭÐµ": 7176,
      "ĠÐ·Ð½Ð°ÑĩÐ¸ÑĤÐµÐ»ÑĮÐ½Ð¾": 7177,
      "ĠÐ´ÐµÑĢÐ¶Ð°": 7178,
      "Ġ(Â«": 7179,
      "ĠÐ¾Ð·Ð°Ð´Ð°Ñĩ": 7180,
      "ĠÐ¿ÑĢÐ¾Ð¿ÐµÐ»Ð°": 7181,
      "ĠÐ¿ÑĢÐ¾ÑĤÑıÐ½ÑĥÐ»Ð°": 7182,
      "ĠÐ¾Ð±ÑĬÑıÐ²Ð»ÐµÐ½Ð¸Ðµ": 7183,
      "ĠÐ¿ÑıÑĤÐ°Ð¼": 7184,
      "ĠÐ¾Ð¿Ð°ÑģÐ»Ð¸Ð²Ð¾": 7185,
      "ĠÐ¾Ð¿Ð°ÑģÐ½Ð¾ÑģÑĤÑĮ": 7186,
      "ĠÐ¿Ð¾ÑĢÑĤÑĪ": 7187,
      "ĠÐ¾Ð±ÑĭÐºÐ½Ð¾Ð²": 7188,
      "ĠÐ´Ð¾ÑĢÐ¾Ð³Ð°Ñı": 7189,
      "ĠÐ¾Ð±ÑĢÐ°ÑĤÐ¸Ð»Ð°ÑģÑĮ": 7190,
      "ĠÐºÐ¾Ð¼Ð°Ð½Ð´Ð°": 7191,
      "ĠÑģÐ¾Ð³Ð»Ð°ÑģÐ½Ð¾": 7192,
      "ĠÐ¿ÑĢÐ¾Ð¼Ð¾Ð»ÑĩÐ°Ð»": 7193,
      "ĠÐ¿ÑĢÐ¾Ð¼Ð¾Ð»Ð²Ð¸Ð»": 7194,
      "ĠÐ¶ÐµÐ»Ð°Ð½Ð¸Ñı": 7195,
      "ĠÐ¿Ð°Ð¿Ñĥ": 7196,
      "ĠÐ¿Ð°Ð¿Ð¾Ð¹": 7197,
      "ÑĤÐ¾ÑĩÐºÐ¸": 7198,
      "ĠÐ³Ð¸Ð³Ð°Ð½ÑĤÐ°": 7199,
      "ĠÑĨÐµÐ»Ð¾Ð¼": 7200,
      "ĠÐ¿ÑĢÐµÐ²ÑĢÐ°ÑĤÐ¸Ð»Ð¸ÑģÑĮ": 7201,
      "ĠÐºÐ½Ð¸Ð³": 7202,
      "ĠÑģÐ¿Ð¾ÑģÐ¾Ð±Ð½Ñĭ": 7203,
      "ĠÐ´Ð¸ÑĢÐµÐºÑĤÑĢÐ¸": 7204,
      "ĠÐ±Ð¾ÑĢÐ¾Ð´": 7205,
      "ĠÐ¿Ð¾ÑĢÑĤÑĢÐµÑĤÑĭ": 7206,
      "ĠÑĢÐ¾Ð±Ðµ": 7207,
      "ĠÑĪÑĢÐ°Ð¼Ðµ": 7208,
      "ĠÐ¾ÑģÐ²Ð¾Ð±": 7209,
      "ĠÐŁÐ¾Ð´Ð¼Ð¾ÑĢ": 7210,
      "ĠÐ¸Ð·Ð±ÐµÐ¶Ð°ÑĤÑĮ": 7211,
      "ĠÑģÐ¼ÐµÑĢÑĤÐµÐ»ÑĮÐ½Ð¾": 7212,
      "ĠÑģÐºÑĢÑĭÐ»Ð°ÑģÑĮ": 7213,
      "ĠÐ¾ÑģÐ¾Ð±Ð¾": 7214,
      "ĠÑĪÑĥÐ¼Ð½Ð¾": 7215,
      "ĠÑĪÑĥÐ¼Ð¾Ð¼": 7216,
      "ĠÑģÑĭÐ½Ð°": 7217,
      "ĠÐ±Ð°Ð»Ð»Ñĭ": 7218,
      "ĠÐ»ÐµÐ³Ð¾Ð½ÑĮÐºÐ¾": 7219,
      "ĠÐ¾Ð±ÑıÐ·Ð°Ð½": 7220,
      "ĠÐ¿Ð¾Ð»Ð¾Ð¶ÐµÐ½Ð¸Ð¸": 7221,
      "ĠÐ³Ð»Ð°Ð²Ð½Ð¾Ð³Ð¾": 7222,
      "ÐŁÑĢÐ¾ÑĢÐ¸ÑĨÐ°ÑĤÐµÐ»ÑĮÑģÐºÐ°Ñı": 7223,
      "ĠÐ¶Ð¸Ð²Ð¾ÑĤÐ½ÑĭÑħ": 7224,
      "ĠÑĤÐµÐ»ÐµÑĦ": 7225,
      "ĠÐ¿Ð¾ÑĤÐ¾Ð»ÐºÐ¾Ð¼": 7226,
      "ĠÐ¾Ð±Ð²Ð¸Ð½": 7227,
      "ĠÐ¾Ð±Ð¾ÑĪÑĳÐ»": 7228,
      "ĠÑĢÐ¸Ñģ": 7229,
      "ĠÐ¿ÐµÑĢÐµÐ¾Ð´": 7230,
      "Ð¡Ð¢Ð£": 7231,
      "ĠÑģÑĩÐ°ÑģÑĤÐ»Ð¸Ð²Ð¾Ð³Ð¾": 7232,
      "ĠÑģÐ¾Ð±Ð¸ÑĢÐ°Ð»Ð¸ÑģÑĮ": 7233,
      "ĠÐ²ÑĤÐ¾ÑĢÐ¾Ð³Ð¾": 7234,
      "ĠÐ¿Ð¾Ð¹Ð¼Ð°ÑĤÑĮ": 7235,
      "ĠÐ¿Ð¸ÑģÐµÐ¼": 7236,
      "ĠÐ²Ð¾Ð·Ð¼Ð¾Ð¶Ð½Ð¾ÑģÑĤÐ¸": 7237,
      "ĠÐ¿Ð¾Ð¼Ð¾Ð³Ð°ÑĤÑĮ": 7238,
      "ĠÑģÑĤÐ°Ð½Ð¾Ð²Ð¸Ð»ÑģÑı": 7239,
      "ĠÐ¸ÑģÐºÐ»ÑİÑĩÐ°ÑĤ": 7240,
      "ĠÐ²Ð¾ÑģÐ¿ÑĢÐ¸": 7241,
      "Ð»ÑıÑĤÑĮÐµ": 7242,
      "ĠÐ²Ð·Ð³Ð»ÑıÐ½ÑĥÐ»": 7243,
      "ĠÐ²Ð·Ð³Ð»ÑıÐ½ÑĥÑĤÑĮ": 7244,
      "ĠÑįÑĤÐ°Ð¶Ð°": 7245,
      "ĠÑĪÐ»ÑıÐ¿Ñĥ": 7246,
      "ĠÐ´Ð¾Ð¶Ð´ÑĮ": 7247,
      "ĠÐ¸Ð½ÑģÐ¿ÐµÐºÑĤÐ¾ÑĢÐ°": 7248,
      "ĠÐ²ÑĤÐ¾ÑĢÐ¾Ð¼": 7249,
      "ĠÐ±Ð»ÐµÐ´Ð½Ð¾": 7250,
      "ĠÑħÐ¾ÑĢÐ¾ÑĪÐ¸Ð¹": 7251,
      "ĠÑħÐ¾ÑĢÐ¾ÑĪÐµÐµ": 7252,
      "ÐŀÐĽÐ¬": 7253,
      "ĠÐĵÐ¾Ð»Ð¾Ð²Ð°": 7254,
      "ĠÐ¿ÑĢÐµÐ´Ð»Ð¾Ð¶Ð¸Ð»": 7255,
      "ĠÐ³Ð»ÑĥÐ±Ð¾ÐºÐ¸Ð¹": 7256,
      "ĠÐ²Ð°ÑĪÐµ": 7257,
      "ĠÐºÐ¾Ð»ÑĮÑĨÐ°": 7258,
      "ĠÑģÐ¾Ð±Ð¸ÑĢÐ°ÐµÑĤÑģÑı": 7259,
      "ĠÑĩÐ»ÐµÐ½Ð¾Ð²": 7260,
      "ĠÐ½ÐµÐ¾Ð±ÑħÐ¾Ð´Ð¸Ð¼": 7261,
      "ĠÐľÐ°ÑĢÐ¸ÑįÑĤÑĤÑĥ": 7262,
      "ĠÑĥÑħÐ¾Ð´Ð¸ÑĤÑĮ": 7263,
      "ĠÐ½Ð°ÑĥÑĩÐ¸ÑĤÑĮÑģÑı": 7264,
      "ĠÐ³ÑĥÐ±Ð°Ð¼": 7265,
      "ĠÐĶÐ°Ð²Ð°Ð¹": 7266,
      "ĠÐĶÐ°Ð²Ð°Ð¹ÑĤÐµ": 7267,
      "ĠÐ²ÑĭÑģÐºÐ¾Ð»ÑĮÐ·": 7268,
      "ĠÑĥÑĩÐµÐ±Ð½Ð¾Ð³Ð¾": 7269,
      "ĠÑĥÑĩÐµÐ±Ð½Ð¸Ðº": 7270,
      "ĠÐ±ÐµÑĪÐµÐ½Ð¾": 7271,
      "ĠÐ±ÐµÑģÑģÐ¸Ð»ÑĮÐ½Ð¾": 7272,
      "ĠÐĶÑĥÑĢÑģÐ»ÐµÐµÐ²": 7273,
      "ĠÐ½Ð°ÑģÑĤÑĢÐ¾ÐµÐ½Ð¸Ðµ": 7274,
      "ĠÐ²Ð¾ÑģÑĤÐ¾ÑĢÐ³Ð°": 7275,
      "ĠÐºÑĥÑĢÑĤ": 7276,
      "ĠÐºÑĥÑĢÑģÐµ": 7277,
      "ĠÐ¿Ð¾Ð¿ÑĢÐ¾Ð±Ð¾Ð²Ð°ÑĤÑĮ": 7278,
      "ĠÐ°Ð²ÑĢÐ¾ÑĢÐ¾Ð²": 7279,
      "ĠÑĢÐ°Ð·ÑĢÐµÑĪÐµÐ½Ð¸Ðµ": 7280,
      "ĠÐ¾ÑĤÐ»Ð¸ÑĩÐ¸Ðµ": 7281,
      "ĠÑħÐ¸Ð¶Ð¸Ð½Ðµ": 7282,
      "ĠÐ·Ð°ÑģÐ¼ÐµÑıÐ»Ð¸ÑģÑĮ": 7283,
      "ĠÐ¿ÑĢÐ¾ÑĨÐµÐ´Ð¸Ð»Ð°": 7284,
      "ÐŁÐ¾Ð´Ð¾Ð¶Ð´Ð¸ÑĤÐµ": 7285,
      "................................": 7286,
      "ĠÐ¾ÑĤÐ´ÐµÐ»ÐµÐ½Ð¸Ðµ": 7287,
      "ĠÐºÑĢÑĭÐ»ÑĮÑı": 7288,
      "ĠÑģÐ¿Ð¸Ð½Ð°Ð¼Ð¸": 7289,
      "ĠÐ¤Ð»Ð¸ÑĤÐ²Ð¸ÐºÐ°": 7290,
      "ĠÐ¿ÑĥÑĤÐµÑĪ": 7291,
      "ĠÐ¼ÑıÑģÐ¾": 7292,
      "ĠÐ¼ÑıÑģÐ°": 7293,
      "ĠÐ±Ð¾ÑĢÐ¼Ð¾ÑĤÐ°Ð½Ð¸Ðµ": 7294,
      "ĠÐ²Ð·Ð´ÑĢÐ¾Ð³Ð½ÑĥÐ»": 7295,
      "ĠÐ¾Ð±ÑĢÐ°Ð·Ð¾Ð²Ð°Ð½Ð¸Ð¸": 7296,
      "ĠÑīÑĳÐ»": 7297,
      "ĠÐºÐ»ÐµÑĤÐºÑĥ": 7298,
      "ĠÐ´ÑĭÑĪÐ°": 7299,
      "ĠÑĤÑĥÐ¼Ð±": 7300,
      "ĠÐŀÑĢÐ´ÐµÐ½Ðµ": 7301,
      "ĠÐ¿ÑĢÐµÐ·ÑĢÐ¸ÑĤÐµÐ»ÑĮÐ½Ð¾": 7302,
      "ĠÐ¾Ð±ÐµÐ´Ð°": 7303,
      "ĠÑĪÐ°Ð½Ñģ": 7304,
      "ĠÑĥÐ´Ð¾Ð²Ð¾Ð»ÑĮÑģÑĤÐ²Ð¸ÐµÐ¼": 7305,
      "ĠÐ¿ÑĢÐµÐ´ÑĥÐ¿ÑĢÐµÐ´Ð¸ÑĤÑĮ": 7306,
      "ĠÐ¡ÑĤÐ¾Ð¸Ð»Ð¾": 7307,
      "ĠÐ¿Ð¾Ð´Ð¾Ð¶Ð´Ð°ÑĤÑĮ": 7308,
      "ĠÐ¶Ð¸Ð´ÐºÐ¾": 7309,
      "ĠÐ·Ð°Ð³Ð»ÑıÐ½ÑĥÐ»": 7310,
      "ĠÐ±ÑĭÑģÑĤÑĢÐµÐµ": 7311,
      "ĠÐ±ÐµÐ·Ð¼Ð¾Ð»Ð²": 7312,
      "ĠÐ¾ÑģÐ¾Ð·Ð½Ð°Ð»": 7313,
      "ĠÐ¾Ð±ÑģÑĥÐ¶Ð´Ð°ÑĤÑĮ": 7314,
      "ĠÑģÐµÑĢÐµÐ´Ð¸Ð½Ðµ": 7315,
      "ÐĳÐ°ÑĪÐºÐµ": 7316,
      "ĠÑĦÐ¸Ð·Ð¸Ð¾Ð½Ð¾Ð¼Ð¸Ð¸": 7317,
      "ĠÐŁÐ¾Ð¶Ð°Ð»ÑĥÐ¹ÑģÑĤÐ°": 7318,
      "ĠÐ¿Ð¾Ð´ÑĢÐ¾Ð±Ð½Ð¾": 7319,
      "ĠÑģÐ»Ð°Ð´ÐºÐ¾": 7320,
      "ÐĶÐ°Ð²Ð°Ð¹": 7321,
      "ĠÑĦÐ¾Ð½Ð°ÑĢ": 7322,
      "ĠÐ´ÐµÐºÑĢÐµÑĤÐ°": 7323,
      "ĠÐ¾ÑĤÑĢÐµÐ·Ð°Ð»": 7324,
      "ĠÑģÑĤÐ°ÐºÐ°Ð½": 7325,
      "ĠÐļÐ»ÑĭÐº": 7326,
      "ĠÐ½ÐµÐ¿ÑĢÐ°Ð²Ð¸Ð»ÑĮÐ½Ð¾": 7327,
      "ĠÐ²ÑģÐ¿Ð¾Ð¼Ð½Ð¸Ð²": 7328,
      "ĠÐ¿ÑĢÐ¾ÑĤÐ¸Ð²Ð¾Ð¿Ð¾Ð»Ð¾Ð¶Ð½Ð¾Ð¹": 7329,
      "ĠÐ´Ð½ÐµÐ²Ð½Ð¸Ðº": 7330,
      "ÐĳÑĭÑĤÑĮ": 7331,
      "ĠÐłÐ°Ð·Ð´Ð°Ð»ÑģÑı": 7332,
      "ĠÑĤÑīÐ°ÑĤÐµÐ»ÑĮÐ½Ð¾": 7333,
      "ĠÐ½ÐµÑģÐ¿ÑĢÐ°Ð²ÐµÐ´Ð»Ð¸Ð²Ð¾": 7334,
      "ĠÑįÐ½ÑĤÑĥÐ·Ð¸": 7335,
      "ĠÑģÐ¾ÑħÑĢÐ°": 7336,
      "ĠÐ½ÐµÐ±Ð¾Ð»ÑĮÑĪÐ¾Ð¹": 7337,
      "ĠÐ·Ð°Ð·Ð²": 7338,
      "ĠÐ¾ÑĤÐ²Ð¾ÑĢÐ¸Ð»Ð°ÑģÑĮ": 7339,
      "ĠÐ¿Ð¾Ð»ÑİÐ±": 7340,
      "ĠÐ¿ÑĢÐ¾ÑģÑĤÑĢÐ°Ð½ÑģÑĤÐ²Ð¾": 7341,
      "ĠÑģÐ¸Ð³Ð½Ð°Ð»": 7342,
      "ĠÐ¾ÑĤÑĢÑĭÐ²Ð¸ÑģÑĤÐ¾": 7343,
      "ĠÐºÑĥÐ´ÑĢÑı": 7344,
      "ĠÐ¡Ð¾Ð±ÑģÑĤÐ²ÐµÐ½Ð½Ð¾": 7345,
      "ĠÐ³Ð¾ÑĢÑĮÐºÐ¾": 7346,
      "ĠÐ¿Ð¾Ð½ÐµÐ´ÐµÐ»ÑĮÐ½Ð¸Ðº": 7347,
      "ĠÐ¿ÐµÑĢÐµÐ³Ð»ÑıÐ½ÑĥÐ»Ð¸ÑģÑĮ": 7348,
      "ĠÐĳÐµÐ·Ð³Ð¾Ð»Ð¾Ð²ÑĭÐ¹": 7349,
      "ĠÑĥÐ»ÑĥÑĩÑĪ": 7350,
      "ĠÑħÐ¼ÑĭÐºÐ½ÑĥÐ»": 7351,
      "ĠÐ¾Ð´Ð¸Ð½Ð¾Ñĩ": 7352,
      "ĠÐľÐ°ÐºÐ¼Ð¸Ð»Ð»Ð°Ð½": 7353,
      "Ð¿ÐµÑĢÐ²ÑĭÑħ": 7354,
      "ĠÑĢÐ°Ð¹Ð¾Ð½Ðµ": 7355,
      "ĠÐ°ÑģÑĤÑĢÐ¾Ð½Ð¾Ð¼": 7356,
      "ĠÐ²Ð¾Ð¾Ð´ÑĥÑĪÐµÐ²": 7357,
      "ĠÐ½ÐµÑģÐ¾Ð²ÐµÑĢÑĪÐµÐ½Ð½Ð¾Ð»ÐµÑĤ": 7358,
      "ĠÑĤÐµÐ»ÐµÑĦÐ¾Ð½": 7359,
      "ĠÑįÐ½ÑĤÑĥÐ·Ð¸Ð°Ð·": 7360,
      "ĠÑĢÐ¾Ñģ": 7361,
      "Ð°ÑĳÑĤ": 7362,
      "Ð¸ÑıÐ¼Ð¸": 7363,
      "ÑĤÐ¾Ð³": 7364,
      "ÑĤÐ°Ð¶": 7365,
      "ÑģÑģÐ¸Ð¾": 7366,
      "Ð»Ð¾Ð´": 7367,
      "Ð»Ð°Ð»Ð¸": 7368,
      "Ð»ÐµÐ¿": 7369,
      "Ð»Ð°Ð±": 7370,
      "Ð»Ð¾Ð²Ð°": 7371,
      "Ð½ÑĤÐ¾": 7372,
      "Ð½ÐµÐ»Ð¾": 7373,
      "ÑĮÐµÐ¹": 7374,
      "ÑĮÑıÐ²": 7375,
      "ÑıÑĢ": 7376,
      "ĠÐ¿Ð¾Ð±Ñĭ": 7377,
      "ĠÐ¿Ð°ÑģÑģ": 7378,
      "ÑĭÑĪÐµ": 7379,
      "ĠÑģÐµÐ³Ð¾": 7380,
      "ĠÑģÐ°Ñħ": 7381,
      "ĠÑģÐ½Ð¸Ð»Ð¾ÑģÑĮ": 7382,
      "ĠÐ½Ð¾Ð·Ð´": 7383,
      "ĠÐ²ÑĢÐµÐ·": 7384,
      "ĠÐ²ÐºÑĥÑģ": 7385,
      "ĠÐ²Ð»ÐµÐ²": 7386,
      "ÑĩÐµÑĢ": 7387,
      "ÑĩÐ°Ð²": 7388,
      "ÐºÐ½ÑĥÐ»Ð¸": 7389,
      "Ð´Ð¾Ñģ": 7390,
      "Ð²Ð¾Ð±Ð¾Ð´": 7391,
      "ĠÐ¾ÐºÐ¸": 7392,
      "ĠÐ¾ÐºÐ°": 7393,
      "ÑĢÐ¸Ñģ": 7394,
      "Ð°Ð»ÐµÑĤ": 7395,
      "Ð°Ð»Ñĳ": 7396,
      "ĠÐ¸ÑĤÐ¾Ð³": 7397,
      "ĠÐºÐ²Ð°Ð´": 7398,
      "ÑħÐ»ÐµÐ±": 7399,
      "ÑģÑĤÐ°Ð»": 7400,
      "Ð½Ð¸ÑģÑĮ": 7401,
      "Ð¾Ð²ÐµÑĤ": 7402,
      "Ð¾Ð»ÐµÐ½": 7403,
      "Ð½Ð¾ÑģÑı": 7404,
      "ĠÐ´Ð°Ð»Ð°": 7405,
      "ĠÐ´ÑĢÐ¾Ð³": 7406,
      "ĠÐ´ÐµÑĢÐ·": 7407,
      "ĠÐ´ÑĢÑĥÐ³Ð¾Ðµ": 7408,
      "Ð»Ð¸Ð¶Ðµ": 7409,
      "ĠÐ·Ð¾Ð²": 7410,
      "ĠÐ·Ð¾Ð»": 7411,
      "ĠÑĤÑĥÑģÐº": 7412,
      "ĠÐĵÐ½ÑĥÑģ": 7413,
      "Ð³Ð°Ð»": 7414,
      "Ð³ÑĢÐµÑģÑģ": 7415,
      "ĠÐ¼Ð°ÑĤÑĮ": 7416,
      "ĠÐ¼ÑĥÑĤ": 7417,
      "ĠÐ¼ÑĥÑħ": 7418,
      "ĠÐ¼Ð¸Ð½Ð¾Ð²": 7419,
      "ĠÐ¼Ð¸Ð»Ð°Ñı": 7420,
      "ĠÐ±ÑĢÑĭ": 7421,
      "ĠÐ±Ð°Ð±": 7422,
      "ĠÐ±Ð¸Ð»Ð¾ÑģÑĮ": 7423,
      "Ð±ÐµÐ»": 7424,
      "Ð±ÐµÐ½": 7425,
      "ĠÑĩÐµÑģÑĤ": 7426,
      "ĠÑĩÑĮÐ¸": 7427,
      "ĠÑĥÑĩÐ°": 7428,
      "ÐµÐ»ÐµÑģÑĤ": 7429,
      "ÐµÑĤÐ¸": 7430,
      "ĠÐ½ÐµÑĥÐ´": 7431,
      "ĠÐ½ÐµÑĥÐº": 7432,
      "Ð¾Ð³Ð°": 7433,
      "ĠÐ¿Ð¾ÑĪÐ»Ð¾": 7434,
      "ĠÐ½Ð°ÑģÑĤÐ°": 7435,
      "Ð¾Ð´Ð¸ÑĤ": 7436,
      "ĠÐµÑħ": 7437,
      "Ð¾ÑĤÐºÑĢÑĭ": 7438,
      "ĠÐ¾ÑĤÐ¾Ð´": 7439,
      "ĠÐ¾ÑĤÑĬ": 7440,
      "Ð»Ð°Ñħ": 7441,
      "ĠÐ¿ÑĢÐµÑĤ": 7442,
      "ĠÐ¿ÑĢÐµÑģ": 7443,
      "Ð¼Ð¸Ð½": 7444,
      "ĠÐ»Ð¾ÑĪ": 7445,
      "ĠÐ·Ð°ÑĪÐ¸Ð¿": 7446,
      "ÑĢÐ°ÑĨ": 7447,
      "ÑĢÐ°ÑģÑĤÑĮ": 7448,
      "ĠÐĶÑĢÐµÐ²": 7449,
      "ĠÐ¿ÑĢÐ¾ÑĢ": 7450,
      "ĠÐ¿ÑĢÐ¾ÑģÑĮ": 7451,
      "ĠÐŀÑģÑĤ": 7452,
      "ĠÐŀÐĳ": 7453,
      "ĠÐ²ÑĭÑĢÑĭ": 7454,
      "ĠÐ²ÑĭÐºÐ°": 7455,
      "ÐµÐ²ÑĪÐ¸Ð¼": 7456,
      "ÐµÐ²ÑĪÐ°Ñı": 7457,
      "ĠÐŁÐ¾Ðº": 7458,
      "ĠÐŁÑĢÐµÐ¶Ð´Ðµ": 7459,
      "Ð²Ð°Ð½Ð¸Ñı": 7460,
      "Ð²Ð°ÑİÑĤÑģÑı": 7461,
      "ÐµÑģÑĩ": 7462,
      "ÑĤÐ¸ÑĢÐ°Ñı": 7463,
      "ĠÐ¾Ð±Ð¾Ð´": 7464,
      "ĠÐ¾Ð±ÑĥÑĩ": 7465,
      "ĠÐ¾Ð±ÑĢÑĭÐ²": 7466,
      "ĠÐ¡ÑĥÐ´": 7467,
      "Ð»ÑıÐ¼Ð¸": 7468,
      "ĠÐ¿ÑĢÐ¸ÐºÐ¾Ñģ": 7469,
      "Ð»Ð¾Ñħ": 7470,
      "ĠÑģÑĤÐµÐ»": 7471,
      "ĠÑģÑĤÐµÐ¹Ðº": 7472,
      "ĠÐĴÐ°Ð¼": 7473,
      "ĠÐĴÐ½ÑĥÑĤÑĢÐ¸": 7474,
      "ĠÐºÐ°ÐºÐ¸Ð¼Ð¸": 7475,
      "ĠÐ¿Ð¾Ð´Ð²ÐµÑĢ": 7476,
      "ĠÐ¿Ð¾Ð´ÑĢÑĥÐ¶": 7477,
      "ĠÐ¿Ð¾Ð´Ð¼Ð¸Ð³": 7478,
      "Ð°Ð»Ð¸Ð·": 7479,
      "ĠÐļÐ¾ÑĢÐ¾ÑĩÐµ": 7480,
      "ĠÐ¶Ð°Ð»ÑĮ": 7481,
      "ĠÐ¶ÐµÑĢÑĤ": 7482,
      "ĠÑĤÐ¾ÑĪ": 7483,
      "ĠÑĤÐ¾ÑģÑĤ": 7484,
      "Ð°Ð½ÑĤ": 7485,
      "Ð°Ð½Ð½Ð¾Ð¼Ñĥ": 7486,
      "ĠÑıÐ²ÑģÑĤÐ²ÐµÐ½Ð½Ð¾": 7487,
      "Ð¾ÑģÑģ": 7488,
      "Ð¾ÑĩÑĥ": 7489,
      "ĠÑģÐ¿Ð»Ð¾": 7490,
      "ĠÐ°Ð³ÑĢÐµÑģÑģ": 7491,
      "ĠÐľÐ¸Ð½Ð¸ÑģÑĤÐµÑĢÑģÑĤÐ²Ð¾": 7492,
      "ÐµÐºÐ°": 7493,
      "ĠÐ¿ÐµÑĢÐ²Ð¾Ðµ": 7494,
      "ĠÑĪÐ¾ÑĢÐ¾": 7495,
      "ĠÑĤÐ°ÐºÐ¸Ñħ": 7496,
      "ĠÑĤÐ°ÐºÐ¸Ð¼Ð¸": 7497,
      "ĠÐºÐ¾ÑĢÐ¾": 7498,
      "ÐĿÐ°Ð¼": 7499,
      "ÐĿÐ°Ð´Ð¾": 7500,
      "Ð¸Ð²Ð½Ð¾": 7501,
      "ĠÐ»Ð¸ÐºÐ¾Ð²": 7502,
      "ÐµÐ»Ð¸ÑĤÑĮÑģÑı": 7503,
      "ĠÐ¢ÑĢÐµÐ¼": 7504,
      "ÐŀÐ´": 7505,
      "ÐŀÑĢÐ°Ðº": 7506,
      "ĠÐ¿Ð¾Ð»ÑĥÐ¼": 7507,
      "Ð°Ð½Ð¸Ð»Ð°": 7508,
      "ÐĲÑĢ": 7509,
      "ÐŁÐ¾Ð»": 7510,
      "ĠÐĳÐ¾Ð»ÑĮ": 7511,
      "ĠÐĳÐ»Ð¸Ð·Ð½Ðµ": 7512,
      "ÐĶÐ»Ñı": 7513,
      "ÐĶÐķÐĿ": 7514,
      "ÑİÑīÐ°Ñı": 7515,
      "ÑİÑīÑĥÑİ": 7516,
      "ĠÐ¼Ð¸ÑĢÐµ": 7517,
      "ĠÐ²Ð¾ÑĪÐ»Ð°": 7518,
      "ĠÐ¿Ð¾Ð²ÐµÑĢÐ¸": 7519,
      "ĠÐ¿Ð¾Ð²ÐµÑĢÐ¸Ð»": 7520,
      "ĠÐ´Ð¾ÑĪÐ»Ð¾": 7521,
      "ĠÐ²Ð¾Ð·ÑĢÐ°ÑģÑĤ": 7522,
      "ÑĢÑıÑģÑĮ": 7523,
      "ĠÐ½Ð°Ð´ÐµÐ»": 7524,
      "ĠÐ½Ð°Ð´ÐµÐ¶Ð´Ðµ": 7525,
      "ĠÐ½Ð°Ð´Ð¿Ð¸ÑģÑĮ": 7526,
      "ĠÐ¿Ð¾ÐºÐ¾Ð»": 7527,
      "Ð¡ÐµÐ¹ÑĩÐ°Ñģ": 7528,
      "ĠÐ·Ð°ÐºÐ¾Ð½": 7529,
      "ÑĥÐ¶Ñĥ": 7530,
      "ÑĩÐ¸ÑĤÐ°ÑĤÑĮ": 7531,
      "ÐļÑħÐµ": 7532,
      "ÑģÑĤÐ¸Ñı": 7533,
      "ĠÐ½Ð°Ð¿Ð°ÑģÑĤÑĮ": 7534,
      "ÐķÐķ": 7535,
      "ĠÑģÐ¾Ð¾Ð±ÑĢÐ°Ð·": 7536,
      "ÐĺÐ¼ÐµÐ½Ð½Ð¾": 7537,
      "ÑĳÐ¼ÑģÑı": 7538,
      "ĠÐ¾Ð¿ÑĥÑĪÐºÐµ": 7539,
      "ĠÑģÐ°Ð¼Ð¾": 7540,
      "ĠÑģÐ°Ð¼ÑĥÑİ": 7541,
      "ĠÐºÐ¾Ð½Ñĩ": 7542,
      "ĠÐºÐ¾Ð½ÐµÐ¹": 7543,
      "ĠÐ¾ÑĤÐ²ÐµÑĤÐ°": 7544,
      "ĠÐ¾ÐºÐ½Ð°Ð¼Ð¸": 7545,
      "ĠÐ·Ð°Ð¼ÐºÑĥ": 7546,
      "ÑĳÑĢÐ·": 7547,
      "ĠÑģÐ²Ð°ÑĢ": 7548,
      "ĠÑģÐ²ÑıÐ·Ð°": 7549,
      "ĠÐ¿Ð¾Ð¼Ð½Ð¸Ð»": 7550,
      "ĠÐ¾ÑģÑĤÐ°Ð»Ð°ÑģÑĮ": 7551,
      "Ð»ÑİÑģÑĮ": 7552,
      "ĠÐ´Ð²Ð¾ÑĢÐµ": 7553,
      "ÑĥÐ±Ð»Ð¸": 7554,
      "ĠÐŃÐ»ÑĮÑĦ": 7555,
      "ĠÐķÐĵÐŀ": 7556,
      "ĠÐ¿Ð¾Ð¿ÑĢÐ¾ÑģÐ¸ÑĤÑĮ": 7557,
      "ĠÑĥÐ´Ð°Ð»Ð¸Ð»Ð°ÑģÑĮ": 7558,
      "Ð§Ð¸ÑģÑĤ": 7559,
      "ĠÐ¾Ð³Ð½Ñı": 7560,
      "ĠÐ²ÐµÑĢÐ¾": 7561,
      "ĠÐ²ÐµÑĢÑİ": 7562,
      "ĠÐ²ÐµÑĢÐ½ÑĥÑĤÑĮ": 7563,
      "ĠÐ¥Ð°Ð½": 7564,
      "ĠÑģÐ¼ÐµÐ»Ð¾": 7565,
      "Ð°ÑĪÐºÐ°": 7566,
      "ĠÑģÐ´Ð°Ð²": 7567,
      "ĠÑģÐ´Ð²Ð¾": 7568,
      "ĠÐ·Ð°Ð´Ð¾Ñħ": 7569,
      "ĠÐĿÐµÐ²Ð¸Ð»Ð»ÐµÐ¼": 7570,
      "ĠÐ¸ÑģÐ¿Ð¾Ð»": 7571,
      "ĠÑĥÑģÐµÑĢ": 7572,
      "ĠÐŁÐ¾ÑĤÑĤÐµÑĢÑĥ": 7573,
      "ĠÐ¾ÑĤÐºÑĢÐ¾Ð²": 7574,
      "ĠÐ¿ÑĢÐ¾Ð´ÐµÐ»": 7575,
      "ĠÐ´Ð¾Ð»Ð¶Ð½Ð¾ÑģÑĤÑĮ": 7576,
      "ĠÐ½ÐµÐ²Ñĭ": 7577,
      "ĠÐ½ÐµÐ²Ð¸Ð½": 7578,
      "ĠÐ½ÐµÐ²Ð¸Ð´": 7579,
      "ÐµÑīÐ°ÑĤÑĮ": 7580,
      "ĠÐºÑĢÑİÑĩ": 7581,
      "ÑĥÐ³Ð¾Ð»ÑĮ": 7582,
      "ĠÐ·Ð°Ð²Ð¸Ð·": 7583,
      "ĠÐ·Ð°Ð²Ð»Ð°Ð´": 7584,
      "ĠÑĥÐ±ÑĢÐ°Ð»": 7585,
      "ĠÐ³Ð¾ÑĢÐµÐ»": 7586,
      "ĠÐ¿Ð¾ÑĢÑĤÑĮ": 7587,
      "ĠÐ½Ð°Ð·Ð¾Ð²": 7588,
      "ĠÐ½Ð°Ð·ÑĭÐ²Ð°ÑĤÑĮ": 7589,
      "ĠÐ¨ÐºÐ¾Ð»ÑĮ": 7590,
      "ÑĥÑīÐµÑģÑĤÐ²": 7591,
      "ĠÐ¿Ð¾Ð·Ð°Ð±": 7592,
      "ĠÐŁÑĢÐ¾ÑĪÑĥ": 7593,
      "ĠÐ±Ð¾Ð»ÐµÐ·": 7594,
      "ĠÐ½ÐµÐ´Ð¾Ð²": 7595,
      "ĠÐ¿Ð¾Ð±ÑĢÑĳÐ»": 7596,
      "ĠÐ¿Ð¾Ð±Ð»Ð¸Ð¶Ðµ": 7597,
      "ĠÐºÐ°Ð¶Ð´ÑĥÑİ": 7598,
      "Ð°ÑİÑīÐ¸Ð¼": 7599,
      "ÐµÑģÑĤÐ²Ð¾Ð¼": 7600,
      "ĠÐ¿Ð¾Ð³Ð¾Ð²Ð¾ÑĢÐ¸": 7601,
      "ĠÑĢÐ°Ð½Ñĭ": 7602,
      "ÐĳÐ»Ð°Ð³Ð¾Ð´Ð°ÑĢ": 7603,
      "ĠÐ¼Ð¾ÐµÐ¼Ñĥ": 7604,
      "ĠÐ¿ÑĢÐ¾Ð´Ð¾Ð»Ð¶Ð°Ñı": 7605,
      "ĠÑģÐ»Ð¾Ð²Ð°Ñħ": 7606,
      "ĠÐ´ÐµÐ»Ñĥ": 7607,
      "ĠÐ´ÐµÐ»Ð¾Ð¼": 7608,
      "Ð°ÑĤÐµÐ»ÑĮÐ½Ð¾Ð¼": 7609,
      "ĠÐ¿ÑĢÐ¾Ð³Ð»Ð¾ÑĤ": 7610,
[...]
