{
  "version": "1.0",
  "truncation": null,
  "padding": null,
  "added_tokens": [
    {
      "id": 0,
      "content": "[PAD]",
      "single_word": false,
      "lstrip": false,
      "rstrip": false,
      "normalized": false,
      "special": true
    },
    {
      "id": 1,
      "content": "[BOS]",
      "single_word": false,
      "lstrip": false,
      "rstrip": false,
      "normalized": false,
      "special": true
    },
    {
      "id": 2,
      "content": "[EOS]",
      "single_word": false,
      "lstrip": false,
      "rstrip": false,
      "normalized": false,
      "special": true
    }
  ],
  "normalizer": null,
  "pre_tokenizer": {
    "type": "ByteLevel",
    "add_prefix_space": false,
    "trim_offsets": true,
    "use_regex": true
  },
  "post_processor": null,
  "decoder": {
    "type": "ByteLevel",
    "add_prefix_space": true,
    "trim_offsets": true,
    "use_regex": true
  },
  "model": {
    "type": "BPE",
    "dropout": null,
    "unk_token": null,
    "continuing_subword_prefix": null,
    "end_of_word_suffix": null,
    "fuse_unk": false,
    "byte_fallback": false,
    "ignore_merges": false,
    "vocab": {
      "[PAD]": 0,
      "[BOS]": 1,
      "[EOS]": 2,
      "!": 3,
      "\"": 4,
      "(": 5,
      ")": 6,
      ",": 7,
      "-": 8,
      ".": 9,
      "0": 10,
      "1": 11,
      "2": 12,
      "3": 13,
      "4": 14,
      "5": 15,
      "6": 16,
      "7": 17,
      "8": 18,
      "9": 19,
      ":": 20,
      ";": 21,
      "?": 22,
      "¡": 23,
      "¢": 24,
      "£": 25,
      "¤": 26,
      "¥": 27,
      "¦": 28,
      "§": 29,
      "¨": 30,
      "©": 31,
      "«": 32,
      "¬": 33,
      "®": 34,
      "¯": 35,
      "°": 36,
      "±": 37,
      "²": 38,
      "³": 39,
      "´": 40,
      "µ": 41,
      "¶": 42,
      "·": 43,
      "¸": 44,
      "¹": 45,
      "º": 46,
      "»": 47,
      "¼": 48,
      "½": 49,
      "¾": 50,
      "¿": 51,
      "Ð": 52,
      "Ñ": 53,
      "Ċ": 54,
      "č": 55,
      "Ġ": 56,
      "Ģ": 57,
      "ģ": 58,
      "Ĥ": 59,
      "ĥ": 60,
      "Ħ": 61,
      "ħ": 62,
      "Ĩ": 63,
      "ĩ": 64,
      "Ī": 65,
      "ī": 66,
      "Ĭ": 67,
      "ĭ": 68,
      "Į": 69,
      "į": 70,
      "İ": 71,
      "ı": 72,
      "Ĳ": 73,
      "ĳ": 74,
      "Ĵ": 75,
      "ĵ": 76,
      "Ķ": 77,
      "ķ": 78,
      "ĸ": 79,
      "Ĺ": 80,
      "ĺ": 81,
      "Ļ": 82,
      "ļ": 83,
      "Ľ": 84,
      "ľ": 85,
      "Ŀ": 86,
      "ŀ": 87,
      "Ł": 88,
      "ł": 89,
      "Ń": 90,
      "ĠÐ": 91,
      "Ð¾": 92,
      "Ð°": 93,
      "Ðµ": 94,
      "Ð¸": 95,
      "ÑĤ": 96,
      "Ð»": 97,
      "ÑĢ": 98,
      "Ñģ": 99,
      "Ð½": 100,
      "Ð¾Ð": 101,
      "Ñĥ": 102,
      "Ð°Ð": 103,
      "ÑĮ": 104,
      "Ñı": 105,
      "Ñĭ": 106,
      "ÐµÐ": 107,
      "ĠÐ¿": 108,
      "ĠÑģ": 109,
      "ĠÐ½": 110,
      "Ñĩ": 111,
      "ĠÐ²": 112,
      "Ðº": 113,
      "Ð´": 114,
      "Ġ-": 115,
      "Ð²": 116,
      "Ð°Ð»": 117,
      "ÑĤÐ¾": 118,
      "ĠÐ¾": 119,
      "ÑĢÐ¸": 120,
      "Ð¼": 121,
      "čĊ": 122,
      "ĠčĊ": 123,
      "ĠÐ¸": 124,
      "ĠÐº": 125,
      "ÑĪ": 126,
      "ÐµÑĢ": 127,
      "Ñħ": 128,
      "Ð»Ð¸": 129,
      "ĠÐ´": 130,
      "ÑģÑĤ": 131,
      "Ð½Ð¸": 132,
      "ĠÐ±": 133,
      "ĠÑĤ": 134,
      "Ð¾Ð²": 135,
      "Ð°ÑĢ": 136,
      "³Ð¾": 137,
      "ÐµÑĤ": 138,
      "ĠÐ¼": 139,
      "ĠÑĩ": 140,
      "ĠÐĵ": 141,
      "ĠÐ·": 142,
      "Ð½Ð¾": 143,
      "ÑĤÑĮ": 144,
      "Ð¾Ð¼": 145,
      "Ð¿": 146,
      "ÐµÐ»": 147,
      "Ð¾Ð»": 148,
      "Ñİ": 149,
      "ÑģÑı": 150,
      "Ð°Ðº": 151,
      "Ð¾Ð½": 152,
      "Ð¸Ð»": 153,
      "ÐµÐ½": 154,
      "ĠÐ½Ðµ": 155,
      "Ð±": 156,
      "ĠÑĥ": 157,
      "Ð·": 158,
      "Ð°Ð·": 159,
      "Ð°Ð¼": 160,
      "ÑĢÐ¾": 161,
      "Ð°ÑĢÑĢÐ¸": 162,
      "ĠÐĵÐ°ÑĢÑĢÐ¸": 163,
      "ĠÐ½Ð°": 164,
      "ÑģÑĮ": 165,
      "Ð¾ÑĢ": 166,
      "ÐµÐ¼": 167,
      "ĠÐµ": 168,
      "Ð¹": 169,
      "Ð³": 170,
      "Ð¾Ð¹": 171,
      "Ð½Ñĥ": 172,
      "Ð¾Ð´": 173,
      "ĠÐ¿Ð¾": 174,
      "ĠÑĢ": 175,
      "ĠÑĩÑĤÐ¾": 176,
      "Ð¶": 177,
      "ĠÐ±Ñĭ": 178,
      "Ñī": 179,
      "Ð½Ñĭ": 180,
      "Ð½Ð°": 181,
      "Ð¾Ð³": 182,
      "ÑĦ": 183,
      "Ð°Ð´": 184,
      "Ñį": 185,
      "ĠÐŁ": 186,
      "..": 187,
      "ĠÐŀ": 188,
      "Ð°Ð²": 189,
      "ÐµÐ´": 190,
      "ĠÐĿ": 191,
      "Ð¾ÑĤ": 192,
      "ĠÐĶ": 193,
      "Ð¾Ð±": 194,
      "ÑĨ": 195,
      "Ð´Ð°": 196,
      "Ð°Ð³": 197,
      "ĠÐ¾Ð½": 198,
      "Ð»Ð°": 199,
      "ĠÐ»": 200,
      "Ð°ÑĤÑĮ": 201,
      "ĠÐĴ": 202,
      "ĠÐ¾ÑĤ": 203,
      "Ð¾Ðº": 204,
      "ĠÐ³": 205,
      "Ð¾Ð¶": 206,
      "ĠÐ¡": 207,
      "ĠÐ¿ÑĢ": 208,
      "ĠÑį": 209,
      "ĠÑģÐº": 210,
      "ÐºÐ¸": 211,
      "Ð³Ð¾": 212,
      "ÑĢÐ°": 213,
      "ĠÐ²Ñĭ": 214,
      "ĠÐļ": 215,
      "ĠÐ¿ÑĢÐ¾": 216,
      "Ð»Ð¾": 217,
      "Ð¼Ð¸": 218,
      "Ð»Ñı": 219,
      "ÐµÑģ": 220,
      "ĠÐ²Ñģ": 221,
      "ĠÐľ": 222,
      "Ð°Ð·Ð°Ð»": 223,
      "Ð°Ñı": 224,
      "ĠÐ¥": 225,
      "Ð¾Ð³Ð¾": 226,
      "ÐµÐ¹": 227,
      "Ð»ÑĮ": 228,
      "ÐµÐ²": 229,
      "ĠÐ·Ð°": 230,
      "Ð¸ÑĤ": 231,
      "ĠÐºÐ°Ðº": 232,
      "ĠÐł": 233,
      "ÐµÐ±": 234,
      "ÐºÐ¾": 235,
      "Ð°Ð½": 236,
      "ĠÐ½Ð¸": 237,
      "Ð°Ð»Ð¸": 238,
      "ÑĤÐ¸": 239,
      "Ð°Ñģ": 240,
      "ĠÑı": 241,
      "ĠÐµÐ³Ð¾": 242,
      "Ð¸Ð½": 243,
      "Ð½ÑĥÐ»": 244,
      "Ð¸Ð´": 245,
      "ÑĥÐ´": 246,
      "ĠÐŀÐ½": 247,
      "Ð¾Ð»ÑĮ": 248,
      "ĠÐ¶": 249,
      "ĠÐ½Ð¾": 250,
      "ĠÑĤÐ¾": 251,
      "ÐµÐ·": 252,
      "ĠÑģÑĤ": 253,
      "ĠÐ¸Ð·": 254,
      "ÐºÐ°": 255,
      "...": 256,
      "ĠÐłÐ¾Ð½": 257,
      "ĠÐ¿ÑĢÐ¸": 258,
      "ĠÐ¢": 259,
      "ÐµÐ³Ð¾": 260,
      "ĠÑħ": 261,
      "ÐµÐ½Ð¸": 262,
      "ÑĢÑĭ": 263,
      "Ð²Ð¾": 264,
      "ĠÑģÐºÐ°Ð·Ð°Ð»": 265,
      "ĠÑĪ": 266,
      "ĠÐ¿Ð¾Ð´": 267,
      "ÐºÑĥ": 268,
      "ĠÑįÑĤÐ¾": 269,
      "Ð¾Ð·": 270,
      "ÐµÐº": 271,
      "ĠÐ¾Ð±": 272,
      "Ð°Ð¿": 273,
      "Ð¸Ð²": 274,
      "Ð°Ð¶": 275,
      "ĠÑģÐ¿": 276,
      "ĠÑĤÐ°Ðº": 277,
      "ÑĢÑĥ": 278,
      "Ð°Ð³ÑĢÐ¸": 279,
      "ĠÐ¥Ð°Ð³ÑĢÐ¸": 280,
      "ĠÑģÐ»": 281,
      "ÐµÐ½ÑĮ": 282,
      "ĠÑĢÐ°Ð·": 283,
      "Ð¸ÑĤÑĮ": 284,
      "Ð°ÑĤ": 285,
      "Ð¾Ð¿": 286,
      "ÐµÑģÑĤ": 287,
      "ĠÐ³Ð¾": 288,
      "ĠÐ²ÑģÐµ": 289,
      "Ð°Ð»Ð°": 290,
      "ĠÐºÐ¾": 291,
      "ÑĥÑĩ": 292,
      "Ð¸Ð¼": 293,
      "ĠÐ¿ÐµÑĢ": 294,
      "ÑģÐ»Ð¸": 295,
      "Ð¾Ð³Ð´Ð°": 296,
      "ÐµÑĪ": 297,
      "ÑģÐº": 298,
      "Ð´Ð¾ÑĢ": 299,
      "ĠÐ¥Ð°Ð³ÑĢÐ¸Ð´": 300,
      "Ð°Ð±": 301,
      "ĠÐ°": 302,
      "ĠÐ¾Ð½Ð¸": 303,
      "Ð¾Ñĩ": 304,
      "Ð°Ð»ÑĮ": 305,
      "ÑĥÑĤ": 306,
      "ĠÐ¯": 307,
      "Ð½Ðµ": 308,
      "ĠÐĺ": 309,
      "ÐµÐ¿": 310,
      "ĠÐ¿Ð¾Ð»": 311,
      "ĠÐĵÐµÑĢ": 312,
      "Ð²Ð¸": 313,
      "Ð²ÐµÑĢ": 314,
      "ÑĥÐ¼": 315,
      "ĠÐĵÐµÑĢÐ¼Ð¸": 316,
      "Ð°Ð¼Ð¸": 317,
      "ĠÐĵÐµÑĢÐ¼Ð¸Ð¾Ð½": 318,
      "ÐµÑĩ": 319,
      "ÐµÐ¶": 320,
      "ÑīÐµ": 321,
      "Ð°Ñİ": 322,
      "Ð½ÑĭÐ¹": 323,
      "ĠÐ±ÑĭÐ»Ð¾": 324,
      "Ð´Ðµ": 325,
      "Ð°Ð»ÑģÑı": 326,
      "ĠÑĤÑĭ": 327,
      "ÑĪÐ¸": 328,
      "Ð½Ñı": 329,
      "ĠÐ±ÑĭÐ»": 330,
      "ĠÑģÑĤÐ¾": 331,
      "ÐµÐ»ÑĮ": 332,
      "Ð¸Ñģ": 333,
      "Ð¾Ñģ": 334,
      "ÑīÐ¸": 335,
      "Ð°Ð¹": 336,
      "ĠÐĳ": 337,
      "ÑĢÐ¾Ñģ": 338,
      "ÑĭÐ²": 339,
      "ÐµÐ»Ð¸": 340,
      "ÑĪÐµ": 341,
      "ÑĤÐ¾Ð¼": 342,
      "Ð»Ñĭ": 343,
      "ĠÐ¤": 344,
      "ĠÐĹ": 345,
      "ÑĩÐ¸": 346,
      "ÐµÐ³": 347,
      "ĠÐĵÐµÑĢÐ¼Ð¸Ð¾Ð½Ð°": 348,
      "Ð¾Ð²Ð°": 349,
      "ĠÐºÐ¾ÑĤÐ¾": 350,
      "Ð¸Ð·": 351,
      "ĠÐ£": 352,
      "Ð½Ð¾Ð¹": 353,
      "ĠÐ¿Ð¾Ðº": 354,
      "ÑģÑĤÑĮ": 355,
      "Ð¼Ñĥ": 356,
      "ĠÐ¿Ð¾Ñģ": 357,
      "ÐµÑĪÑĮ": 358,
      "ĠÐŃ": 359,
      "ÑĥÑİ": 360,
      "Ð²ÐµÑĤ": 361,
      "Ð¼Ð¾ÑĤ": 362,
      "ĠÐ¾Ð´": 363,
      "Ð»ÑĮÐºÐ¾": 364,
      "Ð¾ÑģÑĮ": 365,
      "ĠÐ²Ð·": 366,
      "Ð¸Ð»Ð°": 367,
      "Ð½Ð¾Ð³Ð¾": 368,
      "ÑĢÑĥÐ³": 369,
      "ĠÐ¾ÑģÑĤ": 370,
      "Ð¾Ð²Ð¾": 371,
      "Ð½ÑĭÐµ": 372,
      "ÑĭÐ¹": 373,
      "Ð´Ñĥ": 374,
      "ÐµÑģÑģ": 375,
      "ĠÐ§": 376,
      "ÑĤÐ¾Ð±": 377,
      "ĠÐ±ÑĥÐ´": 378,
      "Ð¸Ð»ÑģÑı": 379,
      "ÑĤÐµÑĢ": 380,
      "ÑĢÐµÐ»": 381,
      "ÑıÐ´": 382,
      "ĠÑģÐ²Ð¾": 383,
      "ĠÑĤÐµÐ±": 384,
      "ĠÑĩÑĤÐ¾Ð±": 385,
      "ÑįÐ¹": 386,
      "ĠÐ¶Ðµ": 387,
      "ÑĦÐµÑģÑģ": 388,
      "ÑĦÐµÑģÑģÐ¾ÑĢ": 389,
      "ÑħÐ¾Ð´": 390,
      "Ð»Ð¸ÑģÑĮ": 391,
      "ĠÐ¡Ð½": 392,
      "Ð»Ð¾Ð²": 393,
      "ĠÐ´Ð¾": 394,
      "ĠÐ»Ð¸": 395,
      "ĠÑĤÐ¾Ð»ÑĮÐºÐ¾": 396,
      "ÑıÑĤ": 397,
      "ĠÐ¾Ð½Ð°": 398,
      "Ð½ÑĭÐ¼": 399,
      "ĠÑĤÑĢ": 400,
      "Ð»ÑıÐ´": 401,
      "ĠÐĲ": 402,
      "ĠÐ²Ð¸Ð´": 403,
      "Ð¶Ðµ": 404,
      "ÑĤÐ°": 405,
      "ÑĥÐ¿": 406,
      "ĠÐºÐ¾Ð³Ð´Ð°": 407,
      "ÑįÐ¹Ð¿": 408,
      "ĠÐ½Ð°Ð´": 409,
      "ĠÐ¡Ð½ÑįÐ¹Ð¿": 410,
      "ĠÐĽ": 411,
      "Ð½ÑĥÐ»ÑģÑı": 412,
      "ĠÐ·Ð°Ð¼": 413,
      "ĠÐµÐ¼Ñĥ": 414,
      "Ð²Ð°": 415,
      "Ð°Ð¼Ð±": 416,
      "ĠÐĶÐ°Ð¼Ð±": 417,
      "Ð´Ð¸": 418,
      "Ð»ÑĮÐ´Ð¾ÑĢ": 419,
      "ÑĥÑĪ": 420,
      "ĠÐ±Ð¾Ð»ÑĮ": 421,
      "ĠÐŃÑĤÐ¾": 422,
      "ĠÐ¼Ð¾Ð³": 423,
      "ÐµÐ½Ð½Ð¾": 424,
      "ĠÐ³Ð»": 425,
      "ĠÐĶÐ°Ð¼Ð±Ð»ÑĮÐ´Ð¾ÑĢ": 426,
      "ÐµÑĢÐ¸": 427,
      "ĠÐ·Ð½Ð°": 428,
      "ĠÐµÑīÐµ": 429,
      "Ð¸Ñħ": 430,
      "ĠÐ¸Ñħ": 431,
      "ĠÐºÐ¾Ð½": 432,
      "ÐµÑĤÑģÑı": 433,
      "ÐµÑĢÐ½Ð¾": 434,
      "ĠÐŀÐ½Ð¸": 435,
      "Ð½ÑĭÑħ": 436,
      "ÑĦÑĦ": 437,
      "ĠÐ²Ð¾Ð»": 438,
      "ĠÐ²Ð¾Ð·": 439,
      "Ð²Ð¸Ð´": 440,
      "ĠÑĢÐ°Ñģ": 441,
      "ĠÑĩÑĤÐ¾Ð±Ñĭ": 442,
      "Ð°Ñħ": 443,
      "ÑĢÑı": 444,
      "ĠÐ¸Ð¼": 445,
      "ĠÑĢÑĥ": 446,
      "Ð¸ÑĢ": 447,
      "ÑģÑĤÐ²": 448,
      "ÑģÑĤÐ¾": 449,
      "ĠÐ¾Ñĩ": 450,
      "ĠÐķ": 451,
      "ÑģÑĤÐ¸": 452,
      "ĠÐ¼Ð¾Ð¶": 453,
      "Ð°Ð»Ð¸ÑģÑĮ": 454,
      "ĠÐ¼Ñĭ": 455,
      "ĠÐµÑģÐ»Ð¸": 456,
      "Ð°Ð´Ð»Ð¸": 457,
      "ĠÐĶÐ°Ð´Ð»Ð¸": 458,
      "ĠÐľÐ°Ð»": 459,
      "ÑĤÐµ": 460,
      "ÑĥÐ¶": 461,
      "ĠÐ¿Ð¾Ð²": 462,
      "ĠÐ²Ð¾": 463,
      "Ð¾Ð²Ð¾ÑĢÐ¸": 464,
      "ÑĢÐµÐ¼": 465,
      "ĠÐ½ÐµÐ³Ð¾": 466,
      "ÑĩÐ°": 467,
      "Ð°ÑĤÑĮÑģÑı": 468,
      "ĠÐºÐ¾Ð¼": 469,
      "ÐµÐ½Ñı": 470,
      "ĠÑģÐ°Ð¼": 471,
      "ÐºÐµ": 472,
      "Ð½Ð¸Ð¼": 473,
      "ÑģÑĤÐ°Ð²": 474,
      "ĠÑĩÐµÑĢ": 475,
      "ĠÐĿÐ¾": 476,
      "ÑĢÐ¾Ð¼": 477,
      "ÐµÑĤÑĮ": 478,
      "ĠÐĵÑĢÐ¸": 479,
      "ÐµÐ¼Ñĥ": 480,
      "ĠÑģÐ¿ÑĢÐ¾Ñģ": 481,
      "ÑĭÑĤ": 482,
      "ĠÑģÐ¾": 483,
      "ĠÑģÐ¼": 484,
      "ĠÐ±ÑĭÐ»Ð¸": 485,
      "Ð¸Ð³": 486,
      "ĠÐ¾Ðº": 487,
      "ĠÑĥÑģ": 488,
      "ĠÐŁÐ¾ÑĤ": 489,
      "ÑĭÑħ": 490,
      "ĠÐ½Ð¸Ðº": 491,
      "ĠÐºÐ¾ÑĤÐ¾ÑĢÑĭ": 492,
      "ĠÐľÐ°Ð»ÑĦ": 493,
      "Ð»Ñİ": 494,
      "ÑĢÐ°Ð²": 495,
      "ĠÑģÐ¾Ð±": 496,
      "ĠÐ½Ð°Ð¿": 497,
      "Ð¾Ð»Ð¶": 498,
      "ÑıÑĤÑĮ": 499,
      "Ð°ÐºÐ¾Ð½": 500,
      "Ð½ÑĥÑĤ": 501,
      "ĠÐ¿Ð¾ÑĤÐ¾Ð¼": 502,
      "Ðĵ": 503,
      "Ġ\"": 504,
      "Ð½ÑĥÐ»Ð°": 505,
      "ĠÐ»Ñİ": 506,
      "ĠÐ·Ð°Ð¿": 507,
      "ĠÐĿÐµÐ²": 508,
      "ĠÐ¿ÑĢÐµÐ´": 509,
      "ĠÐ´ÐµÐ»": 510,
      "ĠÐ¢Ñĭ": 511,
      "Ð²Ð¸ÑĢ": 512,
      "Ð»Ðµ": 513,
      "ĠÑģÐ½": 514,
      "ĠÑģÐ²": 515,
      "ĠÐ¼ÐµÐ½Ñı": 516,
      "ĠÑĩÐµÐ¼": 517,
      "ĠÐ¿ÑĢÐ¾ÑĦÐµÑģÑģÐ¾ÑĢ": 518,
      "ÑĥÐ±": 519,
      "ĠÐĿÐµÐ²Ð¸Ð»": 520,
      "Ð°Ð½Ð¸": 521,
      "ÑıÐ»": 522,
      "ĠÐ´Ð²": 523,
      "ĠÐĴÐµÑĢÐ½Ð¾": 524,
      "ĠÐļÐ²Ð¸ÑĢ": 525,
      "ĠÐļÐ²Ð¸ÑĢÑĢÐµÐ»": 526,
      "ÑĭÐµ": 527,
      "ĠÐ¿Ð¾Ð¿": 528,
      "ĠÑģÐ¾Ð²": 529,
      "ĠÐĿÐµ": 530,
      "ĠÐ¾ÑĤÐ²ÐµÑĤ": 531,
      "Ð¾Ð¶Ðµ": 532,
      "Ð°ÐµÑĤ": 533,
      "ÑĥÑģ": 534,
      "ĠÐ¿Ð¾Ñĩ": 535,
      "ĠÐ³Ð»Ð°Ð·": 536,
      "Ð°Ð»Ð¾": 537,
      "ĠÐŁÑĢÐ¾": 538,
      "ĠÑĦ": 539,
      "Ð¸Ð»Ð¸": 540,
      "Ð»ÐµÐ´": 541,
      "ÑģÐµ": 542,
      "ÑĩÐ½Ð¾": 543,
      "ÑĩÐ¸ÑĤ": 544,
      "ÐºÐ¾Ð¼": 545,
      "ĠÐ¼Ð½Ðµ": 546,
      "Ð°Ð»Ð»": 547,
      "Ð³Ð»ÑıÐ´": 548,
      "Ð½Ð¾Ð¼": 549,
      "ĠÐ¸Ñģ": 550,
      "Ð½ÑĥÑİ": 551,
      "Ð½Ð°Ñı": 552,
      "Ð¾Ð»ÑĮÐºÐ¾": 553,
      "ĠÐŁÐ¾ÑĤÑĤÐµÑĢ": 554,
      "Ðŀ": 555,
      "ÑĢÐ¾Ð²": 556,
      "ĠÐ¿Ð¾ÑĢ": 557,
      "Ð°Ð¶Ðµ": 558,
      "ÐĲ": 559,
      "ÑĤÑĥ": 560,
      "ÑĢÐµÐ´": 561,
      "ÑĪÐµÐ»": 562,
      "ĠÐľÐ°Ðº": 563,
      "ĠÐ³Ð¾Ð»Ð¾Ð²": 564,
      "Ð¾ÑĢÐ¾": 565,
      "ÑĥÑģÑĤ": 566,
      "Ð¾Ðµ": 567,
      "Ð°ÑĢÑģÐ»Ð¸": 568,
      "ĠÐĶÐ°ÑĢÑģÐ»Ð¸": 569,
      "Ð°Ð³Ð°Ð»Ð»": 570,
      "ÑĭÐ¼": 571,
      "ÑĭÑĪ": 572,
      "ĠÐ´Ð»Ñı": 573,
      "Ð½Ð¸Ðº": 574,
      "ĠÐµÐµ": 575,
      "ĠÑģÐµÐ±": 576,
      "ĠÐ²ÑĢÐµÐ¼": 577,
      "ÐºÐ¾Ð¹": 578,
      "ĠÑĤÐµÐ¼": 579,
      "ĠÐ§ÑĤÐ¾": 580,
      "ÐµÑĨ": 581,
      "ĠÑģÐµÑĢ": 582,
      "ÑĩÐµÐ³Ð¾": 583,
      "ĠÐ²ÐµÑĢ": 584,
      "ĠÑĤÐµÐ±Ñı": 585,
      "ĠÐľÐ°ÐºÐĵ": 586,
      "Ð¸ÑģÑĮ": 587,
      "ÑĪÐµÐ±": 588,
      "ĠÐ³Ð¾Ð²Ð¾ÑĢÐ¸": 589,
      "Ð¸Ð½Ð´Ð¾ÑĢ": 590,
      "ĠÐ¾ÑĩÐµÐ½ÑĮ": 591,
      "ĠÐľÐ°ÐºÐĵÐ¾Ð½": 592,
      "ĠÐ¼Ð¸": 593,
      "ĠÑħÐ¾ÑĤ": 594,
      "ÑĦÑĦÐ¸Ð½Ð´Ð¾ÑĢ": 595,
      "ĠÑģÐ¿ÑĢÐ¾ÑģÐ¸Ð»": 596,
      "ĠÐľÐ°ÐºÐĵÐ¾Ð½Ð°Ð³Ð°Ð»Ð»": 597,
      "Ðķ": 598,
      "ĠÑĥÐ¶Ðµ": 599,
      "ĠÐ±ÑĭÐ»Ð°": 600,
      "ÑĢÐ°Ð·": 601,
      "ĠÐ¼ÐµÑĤ": 602,
      "ĠÐ·Ð½": 603,
      "ĠÐ¼Ð°Ð³": 604,
      "Ð½Ð¾Ðµ": 605,
      "ÑĨÐµ": 606,
      "Ð°ÑıÑģÑĮ": 607,
      "ĠÐ´Ð¾Ð¼": 608,
      "ĠÐ´ÑĢÑĥÐ³": 609,
      "ĠÑģÐ½Ð¾Ð²Ð°": 610,
      "ÐµÑħ": 611,
      "Ð¼Ð¾": 612,
      "ÑĪÐ»Ð¸": 613,
      "ĠÐ´Ð²ÐµÑĢ": 614,
      "ÑĥÐ´ÑĮ": 615,
      "ÐµÐ½Ð¸Ðµ": 616,
      "ÐµÑĢÑĮ": 617,
      "ĠÐ´ÐµÑĢ": 618,
      "ĠÐ´ÑĥÐ¼": 619,
      "ÐºÐ¸Ð¹": 620,
      "ĠÑģÑĤÑĢÐ°": 621,
      "ĠÐ¿Ð¾ÐºÐ°": 622,
      "ĠÑĤÐµÐ±Ðµ": 623,
      "ĠÐĵÑĢÐ¸ÑĦÑĦÐ¸Ð½Ð´Ð¾ÑĢ": 624,
      "ĠÐĴÐµÑĢÐ½Ð¾Ð½": 625,
      "Ðĺ": 626,
      "ĠÐ¿Ð¾Ð¼": 627,
      "ĠÐ¾Ð¿": 628,
      "ĠÐ·Ð°Ð±": 629,
      "ĠÐºÑĤÐ¾": 630,
      "ĠÐ´ÑĢ": 631,
      "Ð¾Ð³Ð¸": 632,
      "ĠÐĴÑĭ": 633,
      "ĠÐ³Ð´Ðµ": 634,
      "ĠÐ·Ð°Ð¼ÐµÑĤ": 635,
      "ĠÐ¿Ð¾ÑĤÐ¾Ð¼Ñĥ": 636,
      "ÐºÐ¾Ð»": 637,
      "Ð°ÑĢÑĤ": 638,
      "Ð°Ð·ÑĭÐ²": 639,
      "ĠÐ±ÑĭÑĤÑĮ": 640,
      "ĠÑĤÑĥÑĤ": 641,
      "ĠÐ½Ð°Ñĩ": 642,
      "Ð½ÑĥÑĤÑĮ": 643,
      "ĠÑįÑĤ": 644,
      "ÐµÐ½Ð¸Ñı": 645,
      "ÐµÑĤÐµ": 646,
      "ĠÑĤÐ°Ð¼": 647,
      "ĠÐ»Ð¸ÑĨ": 648,
      "ĠÐ²Ð¾Ð»ÑĪÐµÐ±": 649,
      "ĠÐĿÐµÐ²Ð¸Ð»Ð»ÑĮ": 650,
      "Ð¾Ñħ": 651,
      "ÑĥÑĢ": 652,
      "ĠÐ¿Ð¾Ð·": 653,
      "ĠÐ´ÑıÐ´": 654,
      "ĠÐļÐ°Ðº": 655,
      "ĠÐ½Ð¸Ð¼": 656,
      "ĠÐ¿ÐµÑĢÐ²": 657,
      "ĠÐ¾ÑĤÐ²ÐµÑĤÐ¸Ð»": 658,
      "ÑĤÑı": 659,
      "Ð»ÑģÑı": 660,
      "ÑĢÐ¾Ð½": 661,
      "ĠÐ¿Ð°Ð»": 662,
      "ÐºÑĢÑĭ": 663,
      "ĠÑĥÐ´": 664,
      "ÑĮÑİ": 665,
      "ĠÐ²Ð¿": 666,
      "Ð»Ð¸Ð½": 667,
      "ĠÐ´Ð¾Ð»Ð¶": 668,
      "ĠÐ·Ð°Ðº": 669,
      "Ð½ÑĭÐ¼Ð¸": 670,
      "Ð°Ð»ÑĮÑĩÐ¸": 671,
      "ÑģÑĤÐµÑĢ": 672,
      "ĠÐ¿ÑĢÐ°Ð²": 673,
      "ĠÐľÐ°Ð»ÑĦÐ¾Ð¹": 674,
      "ĠÐļÐ²Ð¸ÑĢÑĢÐµÐ»Ð»": 675,
      "ĠÑĨ": 676,
      "ÑĥÐ½": 677,
      "ÑĥÐ´Ð°": 678,
      "ĠÐ¿Ð»Ð°": 679,
      "Ð°Ð»Ð¾ÑģÑĮ": 680,
      "ĠÑĩÑĥ": 681,
      "ĠÐ±ÑĥÐ´ÐµÑĤ": 682,
      "ÑĬ": 683,
      "ÑģÑĤÐ°": 684,
      "ĠÑĥÐ²Ð¸Ð´": 685,
      "ĠÐ½Ð°Ñģ": 686,
      "Ð¸ÑĤÑĮÑģÑı": 687,
      "ĠÐ½ÐµÑĤ": 688,
      "ÐµÐ¿ÐµÑĢÑĮ": 689,
      "ĠÑĩÐµÑĢÐµÐ·": 690,
      "ĠÐ¿Ð°Ð»Ð¾Ñĩ": 691,
      "Ð°ÑĪ": 692,
      "ÑģÐ°": 693,
      "ĠÑģÐ´": 694,
      "Ð²Ð°ÑĢÑĤ": 695,
      "ÑģÑĤÑĢÐ¾": 696,
      "ĠÐ¼Ð°Ð»ÑĮÑĩÐ¸": 697,
      "Ð¾Ð³Ð²Ð°ÑĢÑĤ": 698,
      "ÑĢÐ°ÑĤ": 699,
      "ÐµÐµ": 700,
      "ĠÐ¸Ð³": 701,
      "Ð½Ð¸Ð±": 702,
      "ĠÐĿÑĥ": 703,
      "ĠÐ½Ð¸ÑĩÐµÐ³Ð¾": 704,
      "ĠÑģÐ»ÐµÐ´": 705,
      "ÐµÐ»ÑĮÐ½Ð¾": 706,
      "Ð½Ð¸Ð±ÑĥÐ´ÑĮ": 707,
      "ÑĢÐµÑĤ": 708,
      "ÑĢÐ¾Ðº": 709,
      "ĠÑĤÐ¾Ð¶Ðµ": 710,
      "ÐµÐ»Ð°": 711,
      "Ð¢": 712,
      "ĠÐ¿Ð¾Ð½": 713,
      "ĠÐ¿Ð¾Ð±": 714,
      "ĠÐ´Ð°Ð¶Ðµ": 715,
      "Ð½Ð¸Ñı": 716,
      "ÐºÐ¾Ð²": 717,
      "ÑĢÐ°Ñģ": 718,
      "ĠÐ½Ð¸Ñħ": 719,
      "ĠÐ¿Ð¾Ð»ÑĥÑĩ": 720,
      "ÑīÐ¸Ð¹": 721,
      "ĠÐ¤Ð¸Ð»": 722,
      "ĠÑģÐ¸Ð»": 723,
      "ÐµÐ½ÑĤ": 724,
      "ĠÐ¥Ð¾Ð³Ð²Ð°ÑĢÑĤ": 725,
      "Ð°Ð¶Ð´": 726,
      "ĠÐ·Ð°Ð²": 727,
      "ĠÐ»ÑĥÑĩ": 728,
      "ĠÐ¿ÑĢÐ¾Ð±": 729,
      "ĠÐ±Ð¾Ð»ÑĮÑĪ": 730,
      "ĠÐºÐ¾ÑĤÐ¾ÑĢÑĭÐ¹": 731,
      "ĠÐ¿Ð¾Ð¹": 732,
      "ĠÐ¿ÑĭÑĤ": 733,
      "ĠÐºÐ½Ð¸": 734,
      "ÑĪÑĮ": 735,
      "Ð¿Ð°": 736,
      "ĠÐĶÐ°": 737,
      "ĠÐłÐ¾Ð½Ð°": 738,
      "ĠÐ¼Ð¾Ð¶ÐµÑĤ": 739,
      "ÑģÐ¸": 740,
      "ĠÑģÐ¼Ð¾ÑĤ": 741,
      "ĠÐ²ÑģÑĤ": 742,
      "ĠÑģÑĤÐ°ÑĢ": 743,
      "ĠÐ±Ð¾Ð»ÑĮÑĪÐµ": 744,
      "ĠÐ²ÑĢÐµÐ¼Ñı": 745,
      "ĠÐ´Ð²ÐµÑĢÑĮ": 746,
      "ÑĥÑħ": 747,
      "ĠÑģÐµÐ¼": 748,
      "ĠÐ²Ð´": 749,
      "Ð»Ð¸Ð²": 750,
      "ĠÐ´Ð°": 751,
      "ÐµÑĤÑĥ": 752,
      "ĠÑĥÐ±": 753,
      "ĠÐĿÐ°": 754,
      "Ð°Ð½ÑĮ": 755,
      "ĠÑĤÐ¾Ð»": 756,
      "Ð°Ð»Ð°ÑģÑĮ": 757,
      "ĠÐŁÑĢÐ¾ÑĦÐµÑģÑģÐ¾ÑĢ": 758,
      "ĠÐ¾Ñģ": 759,
      "Ð»Ð¸ÑĦ": 760,
      "ĠÑĥÐ¶": 761,
      "Ð°Ð´ÑĨ": 762,
      "ĠÑģÐºÐ°Ð·Ð°Ð»Ð°": 763,
      "ÐµÑĩÐ½Ð¾": 764,
      "ĠÐºÐ¾Ð¼Ð½Ð°": 765,
      "ĠÐ»ÑİÐ±": 766,
      "ÐŀÐ": 767,
      "Ð»Ð¸ÑĦÐµÑĢÐ¸": 768,
      "Ð°Ñĩ": 769,
      "ÐµÑģÑı": 770,
      "Ð¸Ðº": 771,
      "Ð½ÐµÑģ": 772,
      "ĠÑģÐ¸Ð´": 773,
      "ÑĤÐ¾ÑĢ": 774,
      "ÐµÑĢÐµÐ´": 775,
      "ĠÑįÑĤÐ¾Ð¼": 776,
      "ĠÑĤÐ²Ð¾": 777,
      "ĠÑģÑĤÐ¾ÑĢÐ¾Ð½": 778,
      "ĠÐ³Ð»Ð°Ð·Ð°": 779,
      "Ð´Ð¶": 780,
      "Ð¾Ð²Ð°Ð»": 781,
      "Ð³Ð»": 782,
      "ÑĨÐ°": 783,
      "ĠÐ¡Ð»Ð¸ÑĦÐµÑĢÐ¸": 784,
      "ĠÐ³Ð¾Ð»Ð¾": 785,
      "ĠÐ½Ð¸ÐºÐ¾Ð³Ð´Ð°": 786,
      "ĠÐĶÐ¶": 787,
      "Ð¸ÑĤÐµ": 788,
      "ĠÐ¿ÐµÑĢÐµÐ´": 789,
      "ĠÑģÐµÐ±Ñı": 790,
      "Ð¸Ð±": 791,
      "ĠÐ¿Ð»": 792,
      "ĠÐ¸Ð»Ð¸": 793,
      "Ð½Ð¸Ð»": 794,
      "ÑİÑĤ": 795,
      "ĠÑĥÐ¿": 796,
      "ĠÐŀÐ½Ð°": 797,
      "ĠÐ¥Ð°Ð³ÑĢÐ¸Ð´Ð°": 798,
      "ĠÐ²ÑģÐµÑħ": 799,
      "Ð°ÑİÑĤ": 800,
      "Ð´ÐµÑģÑĮ": 801,
      "Ð¸Ð·Ð»Ð¸": 802,
      "ĠÐ£Ð¸Ð·Ð»Ð¸": 803,
      "ĠÐ·Ð°Ð¼ÐµÑĤÐ¸Ð»": 804,
      "ÑĤÐ¾Ð²": 805,
      "ĠÐ¿Ð¸ÑģÑĮ": 806,
      "ĠÐ²Ð°Ñģ": 807,
      "ÐºÐ°Ð¼Ð¸": 808,
      "Ð²Ð°ÑĤ": 809,
      "ĠÐºÐ°ÑĢ": 810,
      "ĠÑĥÐ·": 811,
      "ĠÐŁÐµÑĢ": 812,
      "ĠÐļÐ°Ð¼": 813,
      "ĠÐ¿ÑĢÐ¾ÑĪ": 814,
      "ĠÐ¿ÑĢÐ¾Ð¸Ð·": 815,
      "ĠÐ¾Ð´Ð¸Ð½": 816,
      "Ð»Ð°Ð´": 817,
      "ÑĭÐ»": 818,
      "ÐºÐ½ÑĥÐ»": 819,
      "ĠÐ´ÐµÐ½ÑĮ": 820,
      "Ð½Ð¸Ð¹": 821,
      "ĠÐ±Ð»Ð¸": 822,
      "ĠÐ¼Ð°Ð»": 823,
      "ĠÐ·Ð°Ð´": 824,
      "ĠÐµÑģÑĤÑĮ": 825,
      "Ð¾Ð¶Ð´": 826,
      "Ð¾Ð¶Ð½Ð¾": 827,
      "Ð°Ð½Ð¾Ð²": 828,
      "ĠÑħÐ¾Ñĩ": 829,
      "ÐķÐ": 830,
      "ÑĢÐ°Ð¶": 831,
      "Ð½ÐµÐ¹": 832,
      "Ð¼Ð°": 833,
      "ÐµÐ»Ñı": 834,
      "Ð»Ð°Ñģ": 835,
      "ĠÐ»ÐµÑĤ": 836,
      "ĠÐĴÑģÐµ": 837,
      "ĠÑĪÐºÐ¾Ð»": 838,
      "ÑĪÐ¸Ð¹": 839,
      "ĠÐ²Ð¸Ð´ÐµÐ»": 840,
      "Ð¾ÑĢÐ¾ÑĪ": 841,
      "ĠÑģÐ´ÐµÐ»": 842,
      "ÑıÑģ": 843,
      "ĠÐ¾Ð³": 844,
      "ÑĢÐ¸Ð²": 845,
      "ĠÑĤÑĢÐ¸": 846,
      "ĠÑĤÐ¾Ð³Ð¾": 847,
      "Ð¾Ð²Ð¾ÑĢ": 848,
      "ĠÐŁÐµÑĤÑĥ": 849,
      "Ð¸ÑĤÑģÑı": 850,
      "Ð¾Ð»ÑĮÐ·": 851,
      "Ð¸ÑģÑģ": 852,
      "ĠÑħÐ¾ÑĤÐµÐ»": 853,
      "Ð½Ð¾Ð²": 854,
      "Ð½Ñİ": 855,
      "ĠÐ½ÐµÐ¼": 856,
      "ĠÐ·Ð´ÐµÑģÑĮ": 857,
      "ÑĨÑĭ": 858,
      "ĠÐĴÐ¾Ð»": 859,
      "ĠÐ¿ÑĢÑı": 860,
      "ĠÐľÑĭ": 861,
      "Ð¾Ð·ÑĮ": 862,
      "ÑģÐºÐ¾Ð»ÑĮÐºÐ¾": 863,
      "ĠÐ¿Ð¾ÑģÐ¼Ð¾ÑĤ": 864,
      "ÐĲÐ": 865,
      "ĠÐ½ÐµÐ´": 866,
      "ĠÐ±ÐµÐ·": 867,
      "ĠÐ¼Ð¾": 868,
      "Ð¾Ð¶ÐµÑĤ": 869,
      "ĠÐ¢Ð°Ðº": 870,
      "Ð°ÑİÑīÐ¸": 871,
      "ÐµÑī": 872,
      "Ð½ÐµÐ·": 873,
      "ĠÐ½Ð°Ð¼": 874,
      "ĠÐºÐ¾Ð»": 875,
      "ĠÑĩÐµÑĤ": 876,
      "ĠÑĩÐµÐ³Ð¾": 877,
      "ÐµÐ»Ð¾Ð²": 878,
      "ĠÐ¿ÑĢÐ¾ÑģÑĤÐ¾": 879,
      "ĠÑģÐ»ÑĭÑĪ": 880,
      "Ð»ÑĭÑĪ": 881,
      "ĠÐķÑģÐ»Ð¸": 882,
      "ĠÐĵÑĢÐ¸ÑĦÑĦÐ¸Ð½Ð´Ð¾ÑĢÐ°": 883,
      "Ð½ÐµÐ·Ð°Ð¿": 884,
      "Ð»ÐµÑĤ": 885,
      "ÑĮÑı": 886,
      "Ð²Ð½Ð¾": 887,
      "ĠÐ´Ð¾Ð±": 888,
      "ÐµÐ½Ñĭ": 889,
      "Ð°Ð´Ð¾": 890,
      "ÑĢÐ°Ñı": 891,
      "Ð»Ð¾ÑģÑĮ": 892,
      "Ð°Ð·Ð°Ð»Ð¾ÑģÑĮ": 893,
      "ÑĪÐ¸ÑģÑĮ": 894,
      "Ð»ÑĭÐ±": 895,
      "ĠÐ½Ð°Ð´Ð¾": 896,
      "ĠÐ¼Ð¾Ð¶Ð½Ð¾": 897,
      "Ð¸Ð¸": 898,
      "ÑĤÑĢ": 899,
      "ĠÑģÐµÐº": 900,
      "Ð¸Ð»Ð¾ÑģÑĮ": 901,
      "ĠÐŁÐ¾": 902,
      "ĠÐ¾ÑĤÐºÑĢÑĭ": 903,
      "ĠÐ¿ÑĢÐ¾Ð²": 904,
      "ĠÐļÐ¾Ð³Ð´Ð°": 905,
      "Ð°Ð½Ð´": 906,
      "Ð¸Ð½Ðµ": 907,
      "ĠÐ¿Ð¾ÑģÐ»ÐµÐ´": 908,
      "ĠÐ¾ÑģÑĤÐ°Ð²": 909,
      "Ð²Ð¸Ð´Ð´Ð¸": 910,
      "ĠÐºÐ½Ð¸Ð³": 911,
      "ĠÐ³Ð¾Ð»Ð¾Ñģ": 912,
      "ÑĤÑĭ": 913,
      "ÑĭÑĢ": 914,
      "ĠÑģÐ²ÐµÑĤ": 915,
      "ĠÐ½ÐµÐ¿": 916,
      "ÑĩÐµÐ·": 917,
      "ÑĢÐ¸Ñĩ": 918,
      "ĠÐºÑĢ": 919,
      "ĠÐ·Ð°Ð³": 920,
      "ÐµÐ»Ð¾": 921,
      "ĠÑĥÐº": 922,
      "Ð¶Ð¸": 923,
      "ĠÐ²ÑĭÑģ": 924,
      "ĠÑģÐ»ÑĥÑĩ": 925,
      "ĠÐ´ÑĢÐ°ÐºÐ¾Ð½": 926,
      "Ð»Ñĥ": 927,
      "ÑĢÐ°Ð±": 928,
      "ĠÐ¿Ð°ÑĢ": 929,
      "Ð´ÐµÐ¼": 930,
      "ÐµÑĢÐº": 931,
      "Ð½Ð¸ÑĤ": 932,
      "ĠÑĥÑĩ": 933,
      "ĠÑĥÐ»ÑĭÐ±": 934,
      "Ð¾ÐºÐ¾": 935,
      "ĠÑģÐºÐ²": 936,
      "ÑĤÐ¸Ð²": 937,
      "Ð¸Ð¼Ð¾": 938,
      "ĠÐ¸ÑģÑĩÐµÐ·": 939,
      "ĠÐ·Ð½Ð°Ð»": 940,
      "ÐĿ": 941,
      "Ð¸Ð»Ð¸ÑģÑĮ": 942,
      "ĠÑĤÐµÑĤ": 943,
      "ĠÑĤÐµÐ¿ÐµÑĢÑĮ": 944,
      "Ð·Ð°": 945,
      "ĠÐ±ÑĭÑģÑĤÑĢÐ¾": 946,
      "ĠÐ³Ð¾Ð´": 947,
      "ÐºÐ¸Ñħ": 948,
      "ĠÐļÐ²Ð¸Ð´Ð´Ð¸": 949,
      "ĠÐ½Ð¾Ñģ": 950,
      "ĠÑįÑĤÐ¾ÑĤ": 951,
      "Ð°ÐºÐ¾Ð½ÐµÑĨ": 952,
      "ĠÐ¨": 953,
      "Ð°ÑģÑĤ": 954,
      "ÑĢÐ°ÑĤÑĮ": 955,
      "ÑĥÐº": 956,
      "ĠÐ¿Ð¾Ð¶": 957,
      "ĠÐ½Ð°Ð·": 958,
      "Ð¾Ð¼Ñĥ": 959,
      "Ð±ÐµÑĢ": 960,
      "ĠÐĴÑĥÐ´": 961,
      "ĠÐ¿ÑĢÐ¾Ð´": 962,
      "ĠÐ¤Ð»": 963,
      "ÐµÐ³Ð´Ð°": 964,
      "ĠÑĢÐ°ÑģÑģÐº": 965,
      "ĠÐľÐ°Ð»ÑĦÐ¾": 966,
      "ĠÐ¼Ð¸Ð½ÑĥÑĤ": 967,
      "ĠÑģÑĤÑĢÐ°Ð½": 968,
      "ĠÐ´ÑıÐ´Ñı": 969,
      "Ð°Ð´ÑĨÐ°ÑĤÑĮ": 970,
      "Ð¸ÑģÑģÐ¸Ñģ": 971,
      "ÑĢÐ¾Ð´": 972,
      "Ð½ÑĮ": 973,
      "ĠÐ½Ð°Ðº": 974,
      "ĠÐ´Ð»Ð¸Ð½": 975,
      "Ð½Ð¸Ðµ": 976,
      "ĠÑĩÐµÐ»Ð¾Ð²": 977,
      "ĠÐ¶Ð¸Ð·": 978,
      "Ð½ÐµÐµ": 979,
      "ĠÐ¼Ð°Ð»ÐµÐ½ÑĮ": 980,
      "ĠÐ¿ÑĢÑıÐ¼Ð¾": 981,
      "Ð½ÐµÐ·Ð°Ð¿Ð½Ð¾": 982,
      "Ðļ": 983,
      "Ð°ÐµÑĪÑĮ": 984,
      "ĠÐ½ÐµÐ²": 985,
      "ÑĩÐ°Ñģ": 986,
      "ĠÐ²Ð¾ÑĤ": 987,
      "ÑĤÑĮÑģÑı": 988,
      "ĠÐ½ÐµÑģÐºÐ¾Ð»ÑĮÐºÐ¾": 989,
      "Ð³Ð»Ñı": 990,
      "Ð½ÑĥÐ²": 991,
      "ĠÐ³Ð»ÑıÐ´": 992,
      "ÐºÐ¸Ðµ": 993,
      "ÐµÑģÑĤÐ¾": 994,
      "ÐºÐ°Ñħ": 995,
      "ĠÐ¿Ð¾Ð´Ð½Ñı": 996,
      "ĠÑģÑĤÐ¾Ð»": 997,
      "ĠÐ·Ð½Ð°Ñİ": 998,
      "ĠÐ¸ÑģÐ¿": 999,
      "ĠÑģÐµÐ¹": 1000,
      "ĠÐ²ÐµÐ»Ð¸": 1001,
      "ĠÐ¸Ð½": 1002,
      "Ð½Ð¸Ð·": 1003,
      "ĠÐ·Ð²": 1004,
      "ĠÑĥÑĤ": 1005,
      "Ð½ÑĥÐ»Ð¸": 1006,
      "Ð°Ð´Ð¸": 1007,
      "ĠÐĿÐµÑĤ": 1008,
      "ĠÑĢÐ°Ð·Ð´": 1009,
      "ĠÑģÑĤÐ¾Ñı": 1010,
      "ĠÐ±ÑĥÐ´ÑĤÐ¾": 1011,
      "Ð»ÑİÑĩ": 1012,
      "ĠÑįÑĤÐ¾Ð³Ð¾": 1013,
      "ĠÑģÐ»ÐµÐ´ÑĥÑİ": 1014,
      "ĠÐ¤Ð¸Ð»Ñĩ": 1015,
      "ĠÐ»ÑĥÑĩÑĪÐµ": 1016,
      "ĠÐ²Ð´ÑĢÑĥÐ³": 1017,
      "ĠÐ¸ÑģÐº": 1018,
      "ĠÐ±Ð¾": 1019,
      "ĠÑĩÐ°Ñģ": 1020,
      "ÑİÐ´Ð°": 1021,
      "ĠÐŁÑĢÐ¸": 1022,
      "ĠÐĿÐ¾ÑĢ": 1023,
      "ĠÐ³ÑĢÐ¾Ð¼": 1024,
      "ÑĢÐ°Ñī": 1025,
      "ĠÐ²ÑĭÐ³Ð»ÑıÐ´": 1026,
      "ĠÑĤÐ¾ÑĤ": 1027,
      "ÐµÐ½Ð¸ÐµÐ¼": 1028,
      "ÑĢÑĭÐ²": 1029,
      "ĠÐ¿Ð¾Ð²ÐµÑĢ": 1030,
      "ĠÑģÐºÐ²Ð¾Ð·ÑĮ": 1031,
      "ĠÐ¿Ð¾Ð³": 1032,
      "ĠÐ½ÑĥÐ¶": 1033,
      "ĠÐ²Ð¾Ð¿": 1034,
      "ÐµÐ½Ð½ÑĭÐ¹": 1035,
      "Ð½ÑĥÐ»Ð¸ÑģÑĮ": 1036,
      "ĠÑĢÑıÐ´": 1037,
      "ĠÑįÑĤÐ¸": 1038,
      "ĠÐ²ÑģÐ¿": 1039,
      "ĠÐ¿ÑĢÐ¸Ñģ": 1040,
      "ĠÐ¿Ð¾Ð´ÑĥÐ¼": 1041,
      "ĠÑĢÐ°Ð·Ð³": 1042,
      "ÐµÐ¿ÑĤ": 1043,
      "ÐµÐ¶Ð´Ñĥ": 1044,
      "ĠÐ¾ÑģÑĤÐ°Ð»ÑĮ": 1045,
      "ÑĤÐµÑĢÐµÑģ": 1046,
      "ĠÐ²Ð¾Ð·Ð´Ñĥ": 1047,
      "ĠÐļÐ°Ð¼ÐµÐ½ÑĮ": 1048,
      "Ð¾ÑĤÐ¾": 1049,
      "ÑıÐ²": 1050,
      "ĠÑģÐ²ÐµÑĢ": 1051,
      "ĠÑģÐ¾Ñģ": 1052,
      "ĠÐ½Ð¾Ð²": 1053,
      "ĠÐ½Ð°ÑĢ": 1054,
      "ĠÐ²Ð°Ð¼": 1055,
      "ÑĢÐ¸Ð´Ð¾ÑĢ": 1056,
      "Ð¼Ðµ": 1057,
      "ÑĪÐºÐ°": 1058,
      "ĠÐ´ÐµÐ²": 1059,
      "ĠÐ¼ÐµÑĢ": 1060,
      "ÐµÑģÐ¿": 1061,
      "Ð¸Ð½Ð¾Ð¹": 1062,
      "ĠÐºÐ¾ÑĢÐ¸Ð´Ð¾ÑĢ": 1063,
      "Ð¸Ð»Ð°ÑģÑĮ": 1064,
      "ĠÐ²Ð¾Ð»Ð¾Ñģ": 1065,
      "ĠÑĥÑģÐ»ÑĭÑĪ": 1066,
      "Ð°Ð½Ð¸Ðµ": 1067,
      "ĠÐ¿Ð¾ÑĩÐµÐ¼Ñĥ": 1068,
      "ĠÐ»Ð¸ÑĨÐ¾": 1069,
      "ĠÐĶÐ¶Ð¾ÑĢ": 1070,
      "ĠÐ¿ÑĢÐ¾Ð¸Ð·Ð½ÐµÑģ": 1071,
      "ĠÐŁÐµÑĤÑĥÐ½Ð¸Ñı": 1072,
      "Ð¡": 1073,
      "ÐĽ": 1074,
      "Ð¸Ð½Ð°": 1075,
      "Ð¸ÑĪÑĮ": 1076,
      "Ð»Ð¾Ð¿": 1077,
      "ÑĥÐ¹": 1078,
      "ÑĥÐ³": 1079,
      "ĠÑģÐ»Ð¸": 1080,
      "ÑĩÐ¸Ð»": 1081,
      "Ð²ÑģÑĤÐ²": 1082,
      "ÑħÐ²Ð°ÑĤ": 1083,
      "Ð¿Ð¾Ð´": 1084,
      "ÐµÐ½Ð½ÑĭÐ¼": 1085,
      "Ð°Ð·Ð°ÑĤÑĮ": 1086,
      "ÐµÐ´Ð»": 1087,
      "Ð»Ð°ÑģÑĮ": 1088,
      "ĠÐľÐ¸": 1089,
      "ĠÐ·Ð°ÑĤ": 1090,
      "ĠÑģÑĤÐµÐ½": 1091,
      "ĠÑĪÐ»Ñı": 1092,
      "ÐµÑģÑĤÐµ": 1093,
      "ĠÑģÐ²Ð¾Ñİ": 1094,
      "ĠÐķÐ³Ð¾": 1095,
      "ĠÐ²Ð¾Ð¾Ð±": 1096,
      "ĠÑĥÑģÐ¿": 1097,
      "Ð½ÑĥÐ»Ð°ÑģÑĮ": 1098,
      "ĠÐ³Ð¾Ð»Ð¾Ð²Ñĥ": 1099,
      "ĠÑĥÐ²Ð¸Ð´ÐµÐ»": 1100,
      "ĠÐ¼Ð°Ð»ÑĮÑĩÐ¸Ðº": 1101,
      "Ð¾ÑĢÐ¾ÑĪÐ¾": 1102,
      "ĠÐ¿Ð°Ð»ÑĮ": 1103,
      "ĠÐºÐ°Ð¼": 1104,
      "ÑĪÐºÐ¾Ð¼": 1105,
      "ĠÐ¼Ð°ÑĤ": 1106,
      "Ð¾Ð»Ð¾Ð´": 1107,
      "ĠÐ½ÐµÑģ": 1108,
      "ĠÐ¿Ð¾Ð½Ð¸Ð¼": 1109,
      "ĠÑĢÐ¾Ð´": 1110,
      "Ð°Ð´Ð°Ð¼": 1111,
      "ĠÐŁÐ¾Ñģ": 1112,
      "ĠÐ²ÑģÐµÐ³Ð´Ð°": 1113,
      "ĠÐ½Ð¾Ñĩ": 1114,
      "ÐµÐ·Ð´": 1115,
      "ĠÐ¿ÑĢÐ¸ÑĪ": 1116,
      "ĠÐ¾Ð±ÑĬ": 1117,
      "ĠÐ¾ÑģÑĤÐ°Ð½Ð¾Ð²": 1118,
      "ĠÑĢÑĥÐºÑĥ": 1119,
      "ĠÑģÐµÐ±Ðµ": 1120,
      "ĠÑģÐ¸Ð»ÑĮ": 1121,
      "ĠÑĥÐ¶Ð°Ñģ": 1122,
      "ĠÐŁÐµÑĢÑģÐ¸": 1123,
      "Ð´ÐµÐ¼Ð¾ÑĢ": 1124,
      "ĠÐ²Ð¾Ð·Ð´ÑĥÑħ": 1125,
      "\".": 1126,
      "ÐŁ": 1127,
      "Ð¸Ðµ": 1128,
      "Ð¸Ð¹": 1129,
      "ÑĢÐµÑĤÑĮ": 1130,
      "ĠÐ½Ð°Ð²": 1131,
      "ĠÐ²Ð¼": 1132,
      "ĠÐ²Ð½ÐµÐ·Ð°Ð¿Ð½Ð¾": 1133,
      "ÑĤÐ¾Ð»": 1134,
      "Ð¼Ñĭ": 1135,
      "ĠÐºÐ¾ÑĢ": 1136,
      "ĠÐºÑĥÐ¿": 1137,
      "ĠÐ¼Ð¾Ð¼": 1138,
      "ĠÑĥÐ²ÐµÑĢ": 1139,
      "Ð¾ÑĢÐ¼Ð¾ÑĤ": 1140,
      "ĠÐµÐ´": 1141,
      "ĠÐŁÐ»Ð°": 1142,
      "ĠÐ²ÑĭÐ¿": 1143,
      "ĠÐľÐ¾Ð¶ÐµÑĤ": 1144,
      "ĠÑıÐ²Ð½Ð¾": 1145,
      "ÐµÑģÑĤÐ²": 1146,
      "ĠÑģÐµÑĢÐµÐ±": 1147,
      "ĠÐ¼Ð¸ÑģÑĤÐµÑĢ": 1148,
      "ĠÐ´ÐµÑĢÐµÐ²": 1149,
      "ĠÐ²Ð¿ÐµÑĢÐµÐ´": 1150,
      "ĠÐĴÐ¾Ð»Ð´ÐµÐ¼Ð¾ÑĢ": 1151,
      "ÐµÑİ": 1152,
      "ÑĢÐ¾Ð³": 1153,
      "ĠÐ½Ð¾Ð³": 1154,
      "ĠÐ½Ð°ÐºÐ¾Ð½ÐµÑĨ": 1155,
      "ĠÐ²Ðµ": 1156,
      "ĠÐ¾Ð½Ð¾": 1157,
      "ÑĪÐµÐ¹": 1158,
      "ÐµÑĢÐ²": 1159,
      "ĠÑĢÐ°Ð½ÑĮ": 1160,
      "Ð°Ð´Ð½Ð¾": 1161,
      "ĠÐĿÐ¸": 1162,
      "ĠÐ¿ÑĢÐ¾Ñģ": 1163,
      "Ð°ÑİÑī": 1164,
      "ĠÐ¤ÑĢÐµÐ´": 1165,
      "ĠÐĹÐ°ÑĤ": 1166,
      "ÑĦÑĦÐ»": 1167,
      "ĠÑģÐ²Ð¾Ð¹": 1168,
      "ĠÐļÐ²Ð¸ÑĢÑĢÐµÐ»Ð»Ð°": 1169,
      "ĠÐ´Ð¾Ð»Ð¶ÐµÐ½": 1170,
      "ĠÐļÐ²Ð¸Ð´Ð´Ð¸Ñĩ": 1171,
      "ĠÑĩÐµÐ»Ð¾Ð²ÐµÐº": 1172,
      "ĠÑĢÐ°Ð½ÑĮÑĪÐµ": 1173,
      "Ð°ÑĢÐ¸": 1174,
      "ÑĢÐ°Ð»": 1175,
      "ÑĥÑī": 1176,
      "ĠÐ¿ÑıÑĤÑĮ": 1177,
      "ĠÑģÑĩÐ¸ÑĤ": 1178,
      "ĠÐ²Ð¾Ðº": 1179,
      "ĠÐ²Ð½Ð¸Ð¼": 1180,
      "Ð´Ð°Ð»": 1181,
      "Ð²ÐµÑģÑĤ": 1182,
      "Ð½Ð¸Ð¸": 1183,
      "Ð¾Ð²Ð¾Ð»ÑĮ": 1184,
      "ĠÐ½ÐµÐµ": 1185,
      "ĠÐ¿Ð¾ÑĤ": 1186,
      "ĠÐ¿Ð¾ÑģÑĤ": 1187,
      "ĠÐŁÐ¸Ð²": 1188,
      "ĠÐ¡Ðº": 1189,
      "ÐµÐ½Ð¸Ð¸": 1190,
      "ĠÐ¾Ð±Ñĭ": 1191,
      "ĠÑģÐ»Ð¾Ð²": 1192,
      "ĠÐ²Ð·Ð³Ð»Ñı": 1193,
      "ĠÐºÐ¾Ð½ÑĨÐµ": 1194,
      "ĠÐ½Ð°Ð¿ÑĢÐ°Ð²": 1195,
      "ĠÐ´Ð²ÐµÑĢÐ¸": 1196,
      "ĠÐ¿Ð¾Ð¿ÑĭÑĤ": 1197,
      "ĠÐ³Ð¾Ð²Ð¾ÑĢÐ¸Ð»": 1198,
      "ĠÐ¿Ð¾Ð¹Ð¼": 1199,
      "ĠÐ¿Ð¸ÑģÑĮÐ¼Ð¾": 1200,
      "ĠÐŁÐ»Ð°Ñī": 1201,
      "Ð¸ÑĢÐ°": 1202,
      "ÑģÐµÐ¼": 1203,
      "ÑĭÐ¼Ð¸": 1204,
      "ĠÑģÑİÐ´Ð°": 1205,
      "ĠÐ½Ð°Ð±": 1206,
      "ĠÐ¸Ð´": 1207,
      "ĠÐºÑĢÐ¾Ð²": 1208,
      "ĠÐ´ÑĢÑĥ": 1209,
      "ĠÑĤÐµÐ»": 1210,
      "ĠÐ·Ð¾Ð»": 1211,
      "ÐµÐ»ÐµÐ½": 1212,
      "Ð¸Ð»Ð¾": 1213,
      "ĠÑĥÑħ": 1214,
      "ÑįÑĢ": 1215,
      "ÐµÐ´ÑĮ": 1216,
      "ĠÐ²ÑģÐµÐ³Ð¾": 1217,
      "ĠÐ·Ð°Ñģ": 1218,
      "ÐºÑĥÑģ": 1219,
      "ĠÐ¾Ð±ÑĢÐ°ÑĤ": 1220,
      "ĠÑĤÑĢÐ¾Ð»": 1221,
      "ÑĩÐ°ÑģÑĤ": 1222,
      "ĠÐºÐ¾ÑĤÐ¾ÑĢÑĭÐµ": 1223,
      "ĠÑģÐµÐ¼ÑĮ": 1224,
      "ĠÐ±Ð»Ð¸Ð·": 1225,
      "ĠÐ³Ð»ÑıÐ´Ñı": 1226,
      "ĠÑĢÑıÐ´Ð¾Ð¼": 1227,
      "ĠÑģÐ»Ð¸ÑĪÐºÐ¾Ð¼": 1228,
      "ĠÐ²Ð¾Ð¾Ð±ÑīÐµ": 1229,
      "ÑĤÐ°Ðº": 1230,
      "ĠÐ²Ð½Ð¸Ð·": 1231,
      "ĠÐ¼Ñı": 1232,
      "ĠÐ¼ÐµÐ¶Ð´Ñĥ": 1233,
      "ĠÑĥÑĢÐ¾Ðº": 1234,
      "ĠÐ»ÐµÐ¶": 1235,
      "ĠÐ»ÐµÐ³": 1236,
      "Ð¸Ð²Ð°Ñı": 1237,
      "ĠÑĤÐ°ÐºÐ¾Ð¹": 1238,
      "ÑĭÐ²Ð°Ñı": 1239,
      "ĠÐ¿ÑĭÑĤÐ°Ð»ÑģÑı": 1240,
      "ĠÐ¿ÑĢÐ¾ÑĪÐµÐ¿ÑĤ": 1241,
      "ĠÑģÐµÐºÑĥÐ½": 1242,
      "ĠÐ¼Ð¾Ð¼ÐµÐ½ÑĤ": 1243,
      "Ð¸Ð¼Ð¸": 1244,
      "ÑıÑģÑĮ": 1245,
      "ÑıÑī": 1246,
      "ĠÐ½ÐµÐ±": 1247,
      "ĠÐ²Ð¾Ñģ": 1248,
      "Ð¼ÐµÑĢ": 1249,
      "ĠÐºÑĢÐ¸": 1250,
      "ĠÐºÑĢÑĭ": 1251,
      "ÐµÑĢÐ¶": 1252,
      "ĠÐ´Ð¾ÑĢ": 1253,
      "ĠÐ±Ð¾Ð»": 1254,
      "ĠÐ¼Ð°Ð¼": 1255,
      "ĠÐ¼Ð¸Ð¼Ð¾": 1256,
      "Ð¾Ð´Ð½Ñı": 1257,
      "ĠÐŁÑĢ": 1258,
      "ĠÐĶÑıÐ´": 1259,
      "ÑĨÐ¾": 1260,
      "ÐºÐ¸Ð¼": 1261,
      "Ð¸ÑĤÐµÐ»ÑĮÐ½Ð¾": 1262,
      "Ð¾Ð»ÑĮÑĪ": 1263,
      "ÐµÑģÑĤÑĮ": 1264,
      "ĠÐ³Ð¾ÑĢ": 1265,
      "Ð°Ð¹ÑĤÐµ": 1266,
      "ÑĢÑıÑģ": 1267,
      "ĠÐ´ÐµÑĢÐ¶": 1268,
      "ĠÐ¥Ð¾Ð³Ð²Ð°ÑĢÑĤÑģÐµ": 1269,
      "ĠÑģÐ¼Ð¾ÑĤÑĢÐµÐ»": 1270,
      "Ð¾ÑĢÐ¼Ð¾ÑĤÐ°Ð»": 1271,
      "ĠÐ²Ð¾ÐºÑĢÑĥÐ³": 1272,
      "Ð°ÐµÑĤÑģÑı": 1273,
      "ÑĢÐµÐ¹": 1274,
      "ĠÐ¿Ñĥ": 1275,
      "ÑĩÑĤÐ¾": 1276,
      "Ð¼Ð°ÑĤ": 1277,
      "ĠÐºÑĥÐ´Ð°": 1278,
      "ĠÐºÐ°Ð¶Ð´": 1279,
      "ÑĪÐ»Ð°": 1280,
      "Ð»Ð¸Ñĩ": 1281,
      "ĠÑĤÐ¾Ð¼": 1282,
      "Ð¾Ð²Ð°ÑĤÑĮ": 1283,
      "Ð°ÑĢÑĥÐ¶": 1284,
      "ĠÑĥÑĩÐ¸ÑĤ": 1285,
      "ÑĢÐ¾Ðµ": 1286,
      "ÑĢÐ¾ÑĤ": 1287,
      "ĠÐ¶Ð¸Ð²": 1288,
      "ĠÑģÑĤÐ°Ð»": 1289,
      "ĠÑĤÐ°ÐºÐ¾Ðµ": 1290,
      "Ð°Ð±Ð¾ÑĤ": 1291,
      "ĠÐ§Ð°ÑĢ": 1292,
      "ĠÑģÐ²Ð¾ÐµÐ¹": 1293,
      "ĠÐ¡Ð½ÑįÐ¹Ð¿Ð°": 1294,
      "ÑĥÑĪÐºÐ°": 1295,
      "ĠÑĤÐµÐ¼Ð½Ð¾": 1296,
      "Ð½ÑĥÑĤÑĮÑģÑı": 1297,
      "ĠÐ¶Ð¸Ð·Ð½Ð¸": 1298,
      "ĠÐ¾Ð±ÑĬÑıÑģ": 1299,
      "ÐĹ": 1300,
      "Ġ(": 1301,
      "ĠÐ½Ð¾Ð³Ð¸": 1302,
      "ÑĩÐµ": 1303,
      "ÐºÐ°Ñı": 1304,
      "Ð´ÐµÐ¹": 1305,
      "ĠÐ¾Ñħ": 1306,
      "ÑģÑĤÐ²Ð¾": 1307,
      "Ð¿Ñĥ": 1308,
      "ĠÐ½Ð°ÑħÐ¾Ð´": 1309,
      "ĠÐ¿Ð¾Ñħ": 1310,
      "ĠÐ²ÑģÐµÐ¼": 1311,
      "ĠÐľÐ°Ð³": 1312,
      "ĠÐ·Ð°ÑģÑĤÐ°Ð²": 1313,
      "ĠÐ¶ÐµÐ»": 1314,
      "ĠÑĪÐ°Ð³": 1315,
      "ÐµÑģÑĤÐ½Ð¸": 1316,
      "ĠÐ³Ð¾Ð»": 1317,
      "ĠÐĺÐ·": 1318,
      "ĠÐĹÐ°": 1319,
      "ÑģÑĤÑĮÑİ": 1320,
      "ĠÑĤÑĢÑĥÐ´": 1321,
      "ĠÐºÐ¾Ð½ÐµÑĩÐ½Ð¾": 1322,
      "ĠÑĢÐ°ÑģÐ¿": 1323,
      "ÑıÐ»ÑģÑı": 1324,
      "ÑĢÐ°Ð·Ñĥ": 1325,
      "ĠÐ¿ÑĢÐ°Ð²Ð´Ð°": 1326,
      "ĠÑħÐ¾ÑĩÑĥ": 1327,
      "ÐµÐ´Ð»ÐµÐ½Ð½Ð¾": 1328,
      "ÑĢÐ°Ð¼": 1329,
      "ÑıÐ·": 1330,
      "Ð´Ð¾Ñħ": 1331,
      "Ð°Ð»Ðµ": 1332,
      "ĠÐ±Ð°Ð»": 1333,
      "ĠÐ¼Ð¾ÑĢ": 1334,
      "ĠÑĢÐ°Ð±Ð¾ÑĤ": 1335,
      "ÑĦÐ¾ÑĢ": 1336,
      "ĠÐ»ÐµÑģÑĤÐ½Ð¸": 1337,
      "ĠÑģÐºÐ°Ð¶": 1338,
      "ÑĢÐ°Ð½": 1339,
      "ĠÐ¿ÑĢÐ¸Ð²": 1340,
      "ĠÐ¢ÐµÐ¿ÐµÑĢÑĮ": 1341,
      "Ð°ÑĤÐµÐ»ÑĮÐ½Ð¾": 1342,
      "ĠÐ²Ð¸Ð´Ñĥ": 1343,
      "ÑĤÐ°Ñī": 1344,
      "ĠÐ´Ð¾Ð¼Ð°": 1345,
      "ĠÐ¿Ð°Ð»Ð¾ÑĩÐºÑĥ": 1346,
      "ĠÑĩÐµÑĤÑĭÑĢ": 1347,
      "ĠÐ¿ÑĢÐ¾Ð´Ð¾Ð»Ð¶": 1348,
      "ĠÐĶÐ¶Ð¾ÑĢÐ´Ð¶": 1349,
      "ĠÐľÐ¸ÑģÑĤÐµÑĢ": 1350,
      "ÑıÐ½": 1351,
      "ÑĭÐ»Ð¾": 1352,
      "ĠÑģÑĢÐ°Ð·Ñĥ": 1353,
      "ĠÐ½ÐµÐ¹": 1354,
      "ÑĩÐ°Ð»": 1355,
      "Ð¼Ð¾Ð¶Ð½Ð¾": 1356,
      "ĠÐ´Ð°Ð²": 1357,
      "ĠÐ±Ð»": 1358,
      "ĠÑĤÑĥÐ´Ð°": 1359,
      "ĠÐ¼Ð½Ð¾Ð³Ð¾": 1360,
      "ĠÐ¼ÐµÑģÑĤÐ¾": 1361,
      "ĠÐ·ÐµÑĢÐº": 1362,
      "Ð±ÑĥÑģ": 1363,
      "Ð°Ð¼ÐµÐ½Ð¸": 1364,
      "ĠÐŁÐ¾Ñĩ": 1365,
      "ĠÐŀÑĤ": 1366,
      "ĠÐĿÐ°Ð¿": 1367,
      "ÑĨÐ¾Ð²": 1368,
      "ĠÐ¡Ð¿": 1369,
      "ÐºÐ¸Ð²": 1370,
      "ĠÐ½Ð¸Ð¼Ð¸": 1371,
      "ĠÐ¿ÑĢÐ¸Ð±": 1372,
      "Ð¾Ð²Ð°ÑĢÐ¸Ð²": 1373,
      "ĠÐºÐ¾ÑĤÐ¾ÑĢ": 1374,
      "Ð´Ð¸Ð½Ð¾": 1375,
      "ĠÑģÐ¾Ð²ÑģÐµÐ¼": 1376,
      "ĠÐ´ÑĢÑĥÐ³Ð¾Ð¹": 1377,
      "ĠÐ½Ð°ÑĩÐ°Ð»": 1378,
      "ĠÐ¡Ð»Ð¸ÑĦÐµÑĢÐ¸Ð½": 1379,
      "ĠÑĥÐ·Ð½Ð°": 1380,
      "ĠÐ¤Ð»Ð°Ð¼": 1381,
      "ĠÐ²Ð¾Ð¿ÑĢÐ¾Ñģ": 1382,
      "ÑħÐ²Ð°ÑĤÐ¸Ð»": 1383,
      "ÐĴ": 1384,
      "ÐĶ": 1385,
      "Ð¸Ñı": 1386,
      "Ð¸Ð¶": 1387,
      "Ð½Ð°Ð´ÑĨÐ°ÑĤÑĮ": 1388,
      "ÑĥÐ·": 1389,
      "Ð°Ð³Ð¾": 1390,
      "ÑĩÐµÑģ": 1391,
      "ĠÐ²Ð½ÑĥÑĤ": 1392,
      "ĠÐºÐ°Ð·Ð°Ð»Ð¾ÑģÑĮ": 1393,
      "ÐµÑĢÐ°": 1394,
      "Ð»Ð¸Ð½Ð°": 1395,
      "Ð½Ð¸ÑĤÑĮ": 1396,
      "ĠÑĤÑı": 1397,
      "Ð½Ð¾Ñģ": 1398,
      "ĠÑĢÐµÑĪ": 1399,
      "ĠÐŁÐ¾Ð»": 1400,
      "Ð°Ð²Ð°": 1401,
      "Ð¾Ð¶Ð¸Ð»": 1402,
      "ĠÑģÐºÐ°Ð·Ð°ÑĤÑĮ": 1403,
      "ÑĢÐ°ÑĪ": 1404,
      "ĠÐ²ÑĭÐ±": 1405,
      "ĠÐ¿ÑĢÐ¾ÑħÐ¾Ð´": 1406,
      "Ð»ÑıÑĤÑĮ": 1407,
      "ÑĤÐ¸Ñı": 1408,
      "ĠÐ¢ÐµÐ¼": 1409,
      "ÐµÐ¶Ð´Ðµ": 1410,
      "ÑīÐµÐµ": 1411,
      "Ð¼Ð¾ÑĤÑĢÐ¸": 1412,
      "ĠÐ²Ð·Ð³Ð»ÑıÐ´": 1413,
      "ĠÐ·Ð½Ð°ÐµÑĪÑĮ": 1414,
      "ĠÑĢÐ°ÑģÑģ": 1415,
      "ĠÐĵÑĢÐ¸Ð½": 1416,
      "ĠÑģÐ¼Ð¾Ð³": 1417,
      "ĠÐ·Ð°Ð¿Ð¸Ñģ": 1418,
      "Ð°Ð½Ð¸Ñı": 1419,
      "ĠÐ´Ð²Ðµ": 1420,
      "ĠÐ¿Ð¾ÑĩÑĤÐ¸": 1421,
      "ĠÑģÐµÑĢÐ´": 1422,
      "ĠÐ¼ÐµÑĤÐ»Ñĥ": 1423,
      "ĠÐ²Ð¾Ð»ÑĪÐµÐ±Ð½Ð¸Ðº": 1424,
      "ĠÐ¿Ð»Ð°ÑĤ": 1425,
      "ĠÐ¿Ð¾Ð½ÑıÐ»": 1426,
      "ĠÐ¥Ð¾Ð³Ð²Ð°ÑĢÑĤÑģ": 1427,
      "ĠÑģÑĤÐ¾ÑĢÐ¾Ð½Ñĥ": 1428,
      "ĠÐ½Ð°Ð·Ð°Ð´": 1429,
      "ĠÑĢÐ¾Ð´Ð¸ÑĤ": 1430,
      "ĠÐ²Ð¼ÐµÑģÑĤÐµ": 1431,
      "ĠÐĹÐ°ÑĤÐµÐ¼": 1432,
      "ĠÐŁÐ¸Ð²Ñģ": 1433,
      "ĠÐ¿ÑĢÐ¾ÑĪÐµÐ¿ÑĤÐ°Ð»": 1434,
      "ÐĹÐ½Ð°": 1435,
      "ÑģÐ¾Ð²": 1436,
      "ÑĥÐµÑĤ": 1437,
      "ĠÐ¿ÑĥÑģÑĤ": 1438,
      "ĠÐ½Ð°Ð¹": 1439,
      "ĠÐ²ÑģÑı": 1440,
      "Ð»Ð¸ÑĤ": 1441,
      "ĠÐ´ÐµÑģÑı": 1442,
      "ÑģÑĤÐ½Ð¾": 1443,
      "ĠÑĤÐ¸Ñħ": 1444,
      "ĠÐ¼Ð½": 1445,
      "ĠÐ¼Ð¸ÑģÑģÐ¸Ñģ": 1446,
      "ĠÐ·ÐµÐ¼": 1447,
      "Ð°ÐºÐ¾": 1448,
      "Ð·ÐµÐ¼": 1449,
      "ĠÐµÐ´Ð¸Ð½Ð¾": 1450,
      "ĠÐŀÐ´": 1451,
      "ĠÐĿÐ¸Ðº": 1452,
      "ĠÐ¾ÑĤÐ²": 1453,
      "ĠÑįÐº": 1454,
      "Ð³Ð¾ÑĤ": 1455,
      "ĠÐ¿ÑĢÐ¾Ñĩ": 1456,
      "ÐµÐ¹ÑģÑĤÐ²": 1457,
      "ĠÐ·Ð°Ñħ": 1458,
      "ÐºÐ¾ÑĩÐ¸Ð»": 1459,
      "ĠÑģÑĤÐµÐº": 1460,
      "ĠÑħÐ¾ÑĢÐ¾ÑĪÐ¾": 1461,
      "ĠÑħÐ¾Ð»Ð¾Ð´": 1462,
      "ĠÑģÐ¿Ð°Ð»ÑĮ": 1463,
      "ÑģÐºÐ¾Ð¹": 1464,
      "Ð²Ð¸Ð³": 1465,
      "Ð´ÐµÑģÑı": 1466,
      "ÐµÐ³Ð¾Ð´Ð½Ñı": 1467,
      "ĠÐºÐ¾ÑĤÐ¾ÑĢÐ°Ñı": 1468,
      "ÑģÑĤÐ²ÐµÐ½": 1469,
      "Ð¾Ð²Ð¾ÑĢÐ¸Ð»": 1470,
      "ĠÐ¾ÐºÐ°Ð·Ð°Ð»": 1471,
      "ĠÐ½Ð¸ÐºÑĤÐ¾": 1472,
      "ĠÐ»ÑİÐ´ÐµÐ¹": 1473,
      "ĠÐ¿ÑĢÐµÐ´Ð¿": 1474,
      "ĠÐ´ÐµÐ»Ð¾": 1475,
      "ĠÐ²ÑĢÐµÐ¼ÐµÐ½Ð¸": 1476,
      "ĠÐ´ÑĥÐ¼Ð°Ð»": 1477,
      "ĠÑĥÐ´Ð¸Ð²": 1478,
      "ĠÑĨÐµÐ»": 1479,
      "ĠÑĤÐ¾Ð»ÑģÑĤ": 1480,
      "ĠÐ¡Ð»Ð¸ÑĦÐµÑĢÐ¸Ð½Ð°": 1481,
      "ĠÑģÐ´ÐµÐ»Ð°Ð»": 1482,
      "ĠÐ¿Ð¾Ð¶Ð°Ð»": 1483,
      "ĠÐľÐ°Ð»ÑĦÐ¾Ñı": 1484,
      "ĠÐĿÐ¾ÑĢÐ±ÐµÑĢ": 1485,
      "Ð²ÑģÑĤÐ²Ð¾Ð²Ð°Ð»": 1486,
      "ĠÐĴÐ¾Ð»Ð´ÐµÐ¼Ð¾ÑĢÑĤ": 1487,
      "!\"": 1488,
      "ĠÑī": 1489,
      "Ð¾ÑĤÑĮ": 1490,
      "Ð»ÐµÐ¼": 1491,
      "ÑĢÐµÐ¶": 1492,
      "Ð½Ð°Ð»": 1493,
      "Ð½ÐµÑĤ": 1494,
      "Ð½ÐµÐ¼": 1495,
      "Ð½ÐµÐ²": 1496,
      "ĠÑģÑįÑĢ": 1497,
      "ĠÐ²ÐµÑĤ": 1498,
      "ĠÐ²ÐµÐ´ÑĮ": 1499,
      "Ð´Ð¾": 1500,
      "ĠÐºÐ°Ð¿": 1501,
      "ĠÐºÑĢÐ°Ñģ": 1502,
      "ÑĪÐ¸Ð¼": 1503,
      "ÐµÑĢÑĪ": 1504,
      "Ð»Ð¸Ð¾ÑĤ": 1505,
      "ĠÐ±ÐµÑģÐ¿": 1506,
      "ĠÑĤÐµÑĢ": 1507,
      "ĠÐ¼Ð°Ð´Ð°Ð¼": 1508,
      "ĠÐĵÑĢÐµÐ¹": 1509,
      "ÐµÐ½Ð°": 1510,
      "Ð°Ð·Ð´": 1511,
      "ĠÐ½Ð°ÑģÑĤÐ¾": 1512,
      "Ð¾ÑĢÐ°": 1513,
      "ĠÑĢÐ¾Ð¶Ð´": 1514,
      "ÑĨÑĥ": 1515,
      "ĠÐĴÐ¾ÑĤ": 1516,
      "ĠÐ¡ÑĤ": 1517,
      "ĠÐ¿ÑĢÐ¾Ð³": 1518,
      "Ð¸ÑĤÐµÐ»ÑĮ": 1519,
      "ĠÑĤÐ¾ÑĢ": 1520,
      "ĠÑħÐ»Ð¾Ð¿": 1521,
      "ÐµÐ½Ð¸Ñİ": 1522,
      "Ð¸Ð²Ð°Ð»": 1523,
      "ÑĪÐ¸Ð±": 1524,
      "ÑīÐ¸Ðµ": 1525,
      "ĠÑģÐ²Ð¾Ð¸": 1526,
      "ÑıÑĤÐ½Ð¾": 1527,
      "ĠÐ¼Ð¾Ð³Ñĥ": 1528,
      "ĠÐĶÐ°Ð¼Ð±Ð»ÑĮÐ´Ð¾ÑĢÐ°": 1529,
      "ĠÐ³Ð¾Ð»Ð¾Ð²Ð¾Ð¹": 1530,
      "ĠÑģÑĤÑĢÐ°ÑĪ": 1531,
      "ĠÐ¾Ð¿Ð°Ñģ": 1532,
      "ÑĤÑıÐ½ÑĥÐ»": 1533,
      "Ð°Ð¶Ð´Ñĭ": 1534,
      "ĠÐºÐ¾Ð¼Ð½Ð°ÑĤÑĥ": 1535,
      "Ð¸Ð±Ð»Ð¸Ð¾ÑĤ": 1536,
      "ĠÐ¾Ð³ÑĢÐ¾Ð¼": 1537,
      "ĠÐ²ÑĭÐ³Ð»ÑıÐ´ÐµÐ»": 1538,
      "ĠÑģÐ»Ð¾Ð²Ð½Ð¾": 1539,
      "ĠÐ²Ð·Ð³Ð»ÑıÐ½ÑĥÐ»": 1540,
      "ĠÐ´Ð¾ÑĢÐ¾Ð³": 1541,
      "ĠÐĶÑıÐ´Ñı": 1542,
      "ĠÐĵÑĢÐ¸Ð½Ð³Ð¾ÑĤ": 1543,
      "ĠÐµÐ´Ð¸Ð½Ð¾ÑĢÐ¾Ð³": 1544,
      "ĠÐĵÑĢÐµÐ¹Ð½": 1545,
      "ÑĥÐ»": 1546,
      "ÑĩÐºÑĥ": 1547,
      "Ð²Ðµ": 1548,
      "ĠÐ´Ð²Ð°": 1549,
      "ĠÐ±Ð°ÑĢ": 1550,
      "ĠÐ±Ð»ÐµÐ´": 1551,
      "ĠÑĤÐµÑħ": 1552,
      "Ð¾Ð²Ð°Ð»Ð¸": 1553,
      "ĠÐĵÐ»": 1554,
      "ÑģÑıÑĩÐ¸": 1555,
      "ĠÑĥÐ»Ð¸": 1556,
      "ĠÑĢÑĭ": 1557,
      "ĠÑĢÐµÐ·": 1558,
      "ĠÑĢÐ°ÑģÑĤ": 1559,
      "ĠÐŁÐ¾Ð¼": 1560,
      "ĠÐ³Ð¾Ð²Ð¾ÑĢ": 1561,
      "ĠÐ²ÑģÑİ": 1562,
      "ĠÐľÐ½Ðµ": 1563,
      "ÐºÐ¾Ðµ": 1564,
      "Ð¸Ð´Ð¸Ð¼": 1565,
      "ĠÐ¶Ð°Ð±": 1566,
      "ĠÐ¸Ð·Ð²ÐµÑģÑĤ": 1567,
      "ĠÐłÐ¾Ð½Ñĥ": 1568,
      "ĠÑħÐ¾ÑĤÑĮ": 1569,
      "ÐµÐºÑĢÐ°Ñģ": 1570,
      "Ð°Ð¶ÐµÑĤÑģÑı": 1571,
      "ĠÑģÐ»Ð¾Ð²Ð°": 1572,
      "Ð¾ÑĩÐºÐ°": 1573,
      "Ð°Ð»ÑĮÐ½Ð¾": 1574,
      "Ð²Ð¸Ð¶": 1575,
      "Ð²ÐµÑĢÑħ": 1576,
      "ÑĪÐ¸Ðµ": 1577,
      "ĠÑģÑĤÐ¾ÑıÐ»": 1578,
      "ĠÐĳÐ»Ð°Ð´": 1579,
      "ĠÐĳÐ¾Ð»ÑĮÑĪ": 1580,
      "ĠÐĽÐ¾Ð½": 1581,
      "ĠÑģÐ¾Ð¾Ð±": 1582,
      "ĠÐ¿ÑĢÐµÐ´ÑģÑĤÐ°Ð²": 1583,
      "ĠÐ´ÐµÐ»Ð°ÑĤÑĮ": 1584,
      "ĠÐ´ÑĥÐ¼Ð°Ñİ": 1585,
      "Ð´Ð¶ÐµÑĢ": 1586,
      "Ð°ÑİÑīÐ¸Ñħ": 1587,
      "ĠÑģÐµÐ¹ÑĩÐ°Ñģ": 1588,
      "ĠÑĢÐ°Ð·Ð³Ð¾Ð²Ð°ÑĢÐ¸Ð²": 1589,
      "ĠÐ²Ð¾Ð»Ð¾ÑģÑĭ": 1590,
      "ĠÑģÐµÑĢÐµÐ±ÑĢÑı": 1591,
      "ÐµÑİÑģÑĮ": 1592,
      "ĠÐ¿Ð¾ÑĤÑĢÑıÑģ": 1593,
      "ĠÐ·Ð¾Ð»Ð¾ÑĤ": 1594,
      "ĠÐ§Ð°ÑĢÐ»Ð¸": 1595,
      "ĠÐĵÑĢÐµÐ¹Ð½Ð´Ð¶ÐµÑĢ": 1596,
      "ĠÐĳÐ»Ð°Ð´Ð¶": 1597,
      "Ð»ÑĥÑĪ": 1598,
      "ÑĢÐ±": 1599,
      "ÑģÐ¿": 1600,
      "Ð½Ð°ÑĢÑĥÐ¶": 1601,
      "ĠÐ½ÐµÐº": 1602,
      "ÑĩÐµÑĤ": 1603,
      "ĠÐºÐ»Ð°Ñģ": 1604,
      "ĠÐ´Ð¾Ð²Ð¾Ð»ÑĮ": 1605,
      "ĠÐ¼Ð°Ð½": 1606,
      "ĠÐ¼Ð½Ð¾Ð¹": 1607,
      "ĠÐĵÐ¾Ð¹": 1608,
      "ÐµÐ»Ñİ": 1609,
      "Ð³Ð¸": 1610,
      "Ð¾Ð¹ÑĤÐ¸": 1611,
      "ĠÐĶÑĢ": 1612,
      "ĠÐ²ÑĭÐ¸Ð³": 1613,
      "ÐµÑģÐº": 1614,
      "ĠÑıÑĢÐ¾": 1615,
      "Ð²Ð¾Ðµ": 1616,
      "ÐºÑĥÑİ": 1617,
      "ĠÐ¾Ð±Ð½Ð°ÑĢÑĥÐ¶": 1618,
      "ÐµÐ³ÐºÐ°": 1619,
      "ĠÐ¿Ð¾ÑģÐ»Ðµ": 1620,
      "ĠÐ¼Ð¾Ð³Ð»Ð¸": 1621,
      "ĠÑĢÑĥÐºÐ¸": 1622,
      "ÑĢÐ¾Ð¼Ðµ": 1623,
      "ĠÐ½Ð¸ÐºÐ°Ðº": 1624,
      "ĠÑģÐ¾Ð±Ð¾Ð¹": 1625,
      "ĠÑģÐ¾Ð±Ð¸ÑĢÐ°": 1626,
      "ĠÑħÐ¾ÑĤÑı": 1627,
      "ĠÐ¸Ð½ÑĤÐµÑĢÐµÑģ": 1628,
      "ĠÐ²ÑģÐ¿Ð¾Ð¼": 1629,
      "ĠÐ¿Ð¾Ð´ÑĥÐ¼Ð°Ð»": 1630,
      "ĠÑĥÐ²ÐµÑĢÐµÐ½": 1631,
      "ĠÐ¾Ð±ÑĭÑĩÐ½Ð¾": 1632,
      "ĠÐ¾Ð±ÑĢÐ°ÑĤÐ½Ð¾": 1633,
      "Ð´Ð¾ÑħÐ½ÑĥÐ»": 1634,
      "ĠÐ¿Ð»Ð°ÑĤÑĦÐ¾ÑĢ": 1635,
      "Ð¸Ð±Ð»Ð¸Ð¾ÑĤÐµÐº": 1636,
      "\",": 1637,
      "Ð¤": 1638,
      "Ð¯": 1639,
      "Ðľ": 1640,
      "Ð¸Ð¿": 1641,
      "Ð»Ð¾Ð¼": 1642,
      "Ð»Ð»Ð¸Ð²": 1643,
      "ÑĢÐ°Ð´": 1644,
      "ÑıÐ¼Ð¸": 1645,
      "ÑĭÐ¿": 1646,
      "ĠÑģÑĭ": 1647,
      "ĠÑģÐ²Ð¸": 1648,
      "ĠÑģÑĥÐ¼": 1649,
      "ĠÑģÐµÐ³Ð¾Ð´Ð½Ñı": 1650,
      "ÑĩÐµÐ¼": 1651,
      "Ð²Ð°Ð»": 1652,
      "Ð²Ð¸Ð»": 1653,
      "Ð²Ð¾ÑĢ": 1654,
      "ĠÐ¾ÑģÑĤÐ¾": 1655,
      "ÑĢÐ¸ÑĤ": 1656,
      "ÑĪÐ°Ñı": 1657,
      "ÑĪÐµÐ³Ð¾": 1658,
      "Ð½Ð¸ÐºÐ¸": 1659,
      "ĠÐ±Ð¾ÑĢ": 1660,
      "ĠÑĥÐ³": 1661,
      "Ð°Ð¼ÐµÐ½": 1662,
      "ÑĢÐ¾ÑĪ": 1663,
      "ĠÐµÐ¹": 1664,
      "ĠÐ¿Ð¾ÑĤÐ¾Ð»": 1665,
      "ĠÐŁÐ¾Ð´": 1666,
      "ĠÐŀÐ»Ð»Ð¸Ð²": 1667,
      "Ð´Ð°Ð½": 1668,
      "ĠÐ¿ÑĢÐ¾Ðº": 1669,
      "ĠÐļÑĤÐ¾": 1670,
      "ĠÐļÐ¾Ð½": 1671,
      "Ð»Ð¾Ñħ": 1672,
      "ĠÐ¢Ð¾Ð»ÑĮÐºÐ¾": 1673,
      "ĠÑģÐ»ÐµÐ³ÐºÐ°": 1674,
      "ĠÐºÐ¾ÑĪ": 1675,
      "ĠÐ¿Ð¾Ð»Ñĥ": 1676,
      "ÑĪÐ¸Ñħ": 1677,
      "Ð½ÑıÑĤÑĮ": 1678,
      "ĠÐ¾Ð´Ð½": 1679,
      "ĠÑģÐ²Ð¾Ð¸Ñħ": 1680,
      "ĠÐ³Ð»ÑĥÐ±": 1681,
      "ĠÑģÐ¿ÑĢÐ¾ÑģÐ¸Ð»Ð°": 1682,
      "ĠÑģÐ¾Ð²ÐµÑĢÑĪ": 1683,
      "ĠÑĦÑĥÑĤ": 1684,
      "Ð½Ð¾Ð¼Ñĥ": 1685,
      "ĠÐ·Ð½Ð°Ð¼ÐµÐ½Ð¸": 1686,
      "ĠÐ´Ð¾Ð»Ð¶Ð½Ñĭ": 1687,
      "ĠÐ·Ð°ÐºÐ»Ð¸Ð½Ð°": 1688,
      "ĠÑĩÑĥÐ»Ð°": 1689,
      "ÑģÑĤÐ°ÑĤÐ¾": 1690,
      "ĠÐ¿Ð¾Ð»ÑĥÑĩÐ¸Ð»": 1691,
      "ĠÑĪÐºÐ¾Ð»Ðµ": 1692,
      "ĠÐ½ÐµÐ¼Ð½Ð¾Ð³Ð¾": 1693,
      "ĠÑģÐ»ÑĭÑĪÐ°Ð»": 1694,
      "ĠÐ´ÑĢÐ°ÐºÐ¾Ð½Ð°": 1695,
      "ÑĢÐ°Ð±Ð±": 1696,
      "ÐļÑĤÐ¾": 1697,
      "Ð½ÑĥÐ²ÑĪÐ¸ÑģÑĮ": 1698,
      "ĠÑģÐ²ÐµÑĢÑĤ": 1699,
      "ĠÐ½Ð¾ÑĩÑĮÑİ": 1700,
      "ĠÑģÐ¸Ð»ÑĮÐ½Ð¾": 1701,
      "ĠÐ¸Ð´ÑĤÐ¸": 1702,
      "ĠÐŀÐ»Ð»Ð¸Ð²Ð°Ð½Ð´": 1703,
      "Ð£": 1704,
      "ÐµÑĦ": 1705,
      "ÑĢÐµÐ·": 1706,
      "ÑģÐºÐ¸Ð¹": 1707,
      "ÑĭÑģ": 1708,
      "ĠÑģÐµÐ»": 1709,
      "ĠÑģÐ±": 1710,
      "ĠÐ½Ñĥ": 1711,
      "ĠÐ½Ð°Ð³": 1712,
      "ĠÐ½Ð°Ð·ÑĭÐ²": 1713,
      "ÑĩÐºÐ¸": 1714,
      "ĠÐ²Ð°Ð¶": 1715,
      "ĠÐ¾Ð¶Ð¸": 1716,
      "ĠÐºÐ¾Ð³Ð¾": 1717,
      "ĠÐºÑĥÑĩ": 1718,
      "ÐµÑĢÐ½ÑĥÐ»ÑģÑı": 1719,
      "Ð»Ð¸Ð²Ð¾": 1720,
      "ÑģÑĤÑĢ": 1721,
      "Ð½Ð¸ÐºÐ°": 1722,
      "ĠÐ±ÐµÐ»": 1723,
      "ĠÐ±Ð¸Ð±Ð»Ð¸Ð¾ÑĤÐµÐº": 1724,
      "ĠÐ¼Ð¸ÑĢ": 1725,
      "ĠÐ·Ð°Ñı": 1726,
      "ĠÑĥÐ´Ð°": 1727,
      "Ð½ÑĥÐ»Ð¾": 1728,
      "ĠÑĢÐ°Ð´": 1729,
      "ĠÐŁÑĥÑĪÐºÐ°": 1730,
      "ĠÐĶÑĥÐ¼": 1731,
      "Ð´Ð°ÑĤÑĮ": 1732,
      "Ð´Ð°Ñİ": 1733,
      "Ð¾ÐºÐ°": 1734,
      "ĠÐ¡Ð¸Ð¼": 1735,
      "ĠÐ¿ÑĢÐµÐºÑĢÐ°Ñģ": 1736,
      "ĠÐ²ÑĭÑĤÐ°Ñī": 1737,
      "ĠÐļÑĢÐ°Ð±Ð±": 1738,
      "ĠÐ¿ÑĢÐ¾Ð¸Ñģ": 1739,
      "ĠÐ¿ÑĢÐ¾ÑĤÐ¸Ð²": 1740,
      "ĠÐľÐ¸ÑģÑģÐ¸Ñģ": 1741,
      "ĠÐ¶ÑĥÑĤ": 1742,
      "ĠÐłÐ¾Ð½Ð¾Ð¼": 1743,
      "ĠÑħÐ¾Ð´": 1744,
      "ĠÑģÐ¿Ð°Ñģ": 1745,
      "ÑĢÑĥÐ¶": 1746,
      "ÑīÐ¸Ñħ": 1747,
      "ĠÐ¤Ð»Ð¸ÑĤ": 1748,
      "ĠÐ¿Ð¾ÐºÐ°Ð·ÑĭÐ²": 1749,
      "ĠÐ·Ð½Ð°ÐµÑĤ": 1750,
      "ÐµÑĢÐ½Ð¾Ðµ": 1751,
      "ĠÑģÐ°Ð¼Ð¾Ð³Ð¾": 1752,
      "ĠÐĿÐµÐ²Ð¸Ð»Ð»Ñı": 1753,
      "Ð°ÐµÑĤÐµ": 1754,
      "ĠÐ¿Ð¾ÑĩÑĥ": 1755,
      "ĠÐ¼Ð°Ð³Ð°Ð·": 1756,
      "ĠÐ¼Ð°Ð³Ð³Ð»": 1757,
      "Ð¾ÑħÐ¾Ð¶Ðµ": 1758,
      "ĠÐ¿Ð»Ð°Ñī": 1759,
      "ĠÐ¿ÑĢÐ¾Ð±Ð¾ÑĢÐ¼Ð¾ÑĤÐ°Ð»": 1760,
      "ĠÐ²ÑģÑĤÑĢÐµÑĤ": 1761,
      "ĠÑģÐ¸Ð´ÐµÐ»": 1762,
      "ĠÑģÑĤÐ¾ÑĢÐ¾Ð½Ñĭ": 1763,
      "ĠÐ¿Ð»ÐµÑĩ": 1764,
      "ĠÐ¿Ð¾ÑģÐ¼Ð¾ÑĤÑĢÐµÐ»": 1765,
      "ĠÑĤÐµÑĤÑı": 1766,
      "ĠÐ¿Ð¾Ð¿ÑĭÑĤÐ°Ð»ÑģÑı": 1767,
      "ĠÐ±Ð»Ð¸Ð·Ð½Ðµ": 1768,
      "ĠÑįÐºÐ·": 1769,
      "ĠÐĳÐ»Ð°Ð´Ð¶ÐµÑĢ": 1770,
      "ÑģÑĤÐ°ÑĤÐ¾ÑĩÐ½Ð¾": 1771,
      "ĠÐ¡Ð¸Ð¼ÑĥÑģ": 1772,
      "ĠÐ¤Ð»Ð¸ÑĤÐ²Ð¸": 1773,
      "Ð»ÐµÐº": 1774,
      "ÑĢÑĥÐ´": 1775,
      "ÑĢÐ°Ð»Ð¸ÑģÑĮ": 1776,
      "ĠÐ²ÐµÑĩ": 1777,
      "ĠÐ¾Ð¶": 1778,
      "ĠÐ¾Ð³Ð»ÑıÐ´": 1779,
      "ĠÐºÑĥÑħ": 1780,
      "ĠÐºÑĢÐ¾Ð¼Ðµ": 1781,
      "ĠÐ´ÐµÐ¹ÑģÑĤÐ²": 1782,
      "ÑģÑĤÐ²Ð°": 1783,
      "ĠÑĤÐ¾Ð±": 1784,
      "ĠÐ¼Ð¾Ð»": 1785,
      "ÐµÐ»ÐµÐ¹": 1786,
      "ÐµÐ½Ð°Ð²": 1787,
      "ĠÑĥÐ¼": 1788,
      "Ð·Ñı": 1789,
      "ĠÐ½Ð°ÑĪ": 1790,
      "Ð³Ð½ÑĥÐ»": 1791,
      "ĠÑĢÐ°Ð´Ð¾": 1792,
      "ÑīÐ¸ÑĤ": 1793,
      "Ð°Ð´Ð¾Ð±": 1794,
      "ĠÐŁÐ¾ÑħÐ¾Ð¶Ðµ": 1795,
      "Ð°Ð²Ð½Ð¾": 1796,
      "Ð°Ð²Ð¸Ð»": 1797,
      "Ð¾ÐºÐ¾Ð¹": 1798,
      "ĠÐ¡Ð°Ð¼": 1799,
      "ĠÑģÐºÐ¾Ð»ÑĮÐºÐ¾": 1800,
      "ĠÐ²ÑĭÑħÐ¾Ð´": 1801,
      "ĠÐļÐ²Ð°": 1802,
      "ĠÐ·Ð°Ð½Ñı": 1803,
      "ĠÑģÑĤÐ°Ð½": 1804,
      "ĠÐ¢ÑĥÑĤ": 1805,
      "ĠÑĪÐµÐ»": 1806,
      "ĠÑĪÑĢÐ°Ð¼": 1807,
      "ĠÐ¾Ð±Ð»": 1808,
      "ĠÑĢÐ°Ð·Ð±": 1809,
      "ÐµÑģÑĤÐ²Ð¾": 1810,
      "ĠÐ¿ÐµÑĢÐµÐ²": 1811,
      "ĠÐĵÐµÑĢÐ¼Ð¸Ð¾Ð½Ð¾Ð¹": 1812,
      "ÑĢÐ¾ÑģÐ¸Ð»": 1813,
      "ĠÐĹÐ½Ð°": 1814,
      "ĠÐĹÐµÑĢÐº": 1815,
      "ĠÐ¾Ð´Ð½Ð¾Ð³Ð¾": 1816,
      "ĠÐĽÐµÑģ": 1817,
      "ĠÐ¸Ð¼Ñı": 1818,
      "ĠÐ¸Ð¼ÐµÐ½Ð½Ð¾": 1819,
      "ĠÐ¿Ð¾Ð²ÑĤÐ¾": 1820,
      "ĠÑįÑĤÐ¾Ð¹": 1821,
      "ĠÑĨÐ²ÐµÑĤ": 1822,
      "ĠÑĩÑĥÑĤÑĮ": 1823,
      "Ð°ÑİÑĤÑģÑı": 1824,
      "Ð°ÑİÑīÐ¸Ðµ": 1825,
      "ĠÑĩÐµÑĤÐ²ÐµÑĢ": 1826,
      "ÑĢÐ¸ÑĩÐ°Ð»": 1827,
      "ĠÑĥÑĩÐµÐ½Ð¸": 1828,
      "ÑĢÐ¾Ð´Ðµ": 1829,
      "ĠÑģÑĤÐ¾ÑıÐ»Ð¸": 1830,
      "ĠÑģÐ»ÐµÐ´ÑĥÑİÑī": 1831,
      "ĠÐ³ÑĢÐ¾Ð¼ÐºÐ¾": 1832,
      "ĠÐ¿Ð¾Ð²ÐµÑĢÐ½ÑĥÐ»ÑģÑı": 1833,
      "ĠÑĥÑģÐ»ÑĭÑĪÐ°Ð»": 1834,
      "ĠÐ·Ð°ÑĤÐµÐ¼": 1835,
      "ĠÐ¿ÑĢÐ¸ÑĪÐ»Ð¾ÑģÑĮ": 1836,
      "ĠÑĤÑıÐ¶": 1837,
      "ĠÑģÐ¾Ð¾Ð±Ñī": 1838,
      "ĠÐ¿ÑĢÐ¾Ð¸ÑģÑħÐ¾Ð´": 1839,
      "Ðł": 1840,
      "Ð»ÐµÐ½": 1841,
      "ÑĢÐµÐ½": 1842,
      "ÑĢÐµÐ²": 1843,
      "ÑıÐ»Ð¸ÑģÑĮ": 1844,
      "ĠÐ¿ÑıÑĤ": 1845,
      "ĠÐ¿Ð¾Ð³Ð¸": 1846,
      "ĠÑģÐ¾Ð½": 1847,
      "ĠÑģÐ¾Ð³": 1848,
      "ĠÐ²Ð²ÐµÑĢÑħ": 1849,
      "Ð´Ð°Ð»Ð¸": 1850,
      "Ð²Ð¾Ð»": 1851,
      "ĠÐ¾Ð³Ð¾": 1852,
      "ÑĢÐ¸Ñģ": 1853,
      "Ð¼Ð°Ñħ": 1854,
      "ĠÐºÐ°Ð¶ÐµÑĤÑģÑı": 1855,
      "ĠÐ´Ð¸": 1856,
      "ĠÐ´Ñİ": 1857,
      "ĠÑĤÑĢÐ¾": 1858,
      "ĠÐ·Ð¼Ðµ": 1859,
      "ĠÐ·ÐµÐ»ÐµÐ½": 1860,
      "ÑİÑĪÐºÐ°": 1861,
      "Ð¸Ð»ÑĮ": 1862,
      "ÐµÐ½ÑĨÐ¾": 1863,
      "ĠÑĥÑģÑĤÐ°Ð²": 1864,
      "Ð¾ÑĢÐµÐ½ÑĨÐ¾": 1865,
      "ĠÐ¿Ð¾ÑıÐ²": 1866,
      "ÑĦÑĢÐ¸": 1867,
      "Ð°Ð²Ð°Ð¹": 1868,
      "ĠÐĿÐ°Ð´": 1869,
      "ĠÐĶÐ°Ð¶Ðµ": 1870,
      "ÑĨÐµÐ¼": 1871,
      "ĠÐ¡Ð½Ð¸ÑĤ": 1872,
      "ĠÐ¿ÑĢÐµÐ¶Ð´Ðµ": 1873,
      "ĠÐ²ÑĭÑĪÐµÐ»": 1874,
      "ĠÐļÑĥÐ±": 1875,
      "ĠÑģÑĤÑĥÐ¿": 1876,
      "ĠÐ¿Ð¾Ð´Ð°ÑĢ": 1877,
      "Ð¸Ð²Ð°ÑıÑģÑĮ": 1878,
      "ĠÑģÐ¿Ð°ÑĤÑĮ": 1879,
      "ÑĢÑĥÑİ": 1880,
      "ĠÐ³Ð¾ÑģÑĤ": 1881,
      "ĠÐĵÐµÑĢÐ¼Ð¸Ð¾Ð½Ñĭ": 1882,
      "ÐµÐ¶Ð°Ð»Ð¸": 1883,
      "ĠÑĤÑĭÑģÑıÑĩÐ¸": 1884,
      "ÐµÐ»ÑĮÐ·Ñı": 1885,
      "ÑĭÐ²Ð°Ð»": 1886,
      "Ð»ÑĭÑħ": 1887,
      "ĠÐĹÐ°Ð»": 1888,
      "ĠÐ¾Ð´Ð½Ð¾": 1889,
      "ĠÐ±ÑĥÐ´Ñĥ": 1890,
      "ĠÐĽÐ°Ð´Ð½Ð¾": 1891,
      "ĠÑĢÑĥÐº": 1892,
      "ĠÐ¿Ð¾Ð²Ð¾Ð´": 1893,
      "Ð¸Ð³Ñĥ": 1894,
      "ĠÐ½Ð°Ð¿Ð¾Ð¼": 1895,
      "ĠÐ¿ÑĢÐµÐ´ÑĥÐ¿": 1896,
      "ĠÑģÐ¾Ð²Ñĥ": 1897,
      "ĠÐ¿Ð¾ÑĢÑĤ": 1898,
      "ÑĢÐµÐ´Ð¸": 1899,
      "ĠÐ¿ÐµÑĢÐ²ÑĭÐ¹": 1900,
      "Ð°Ð½ÑĮÐµ": 1901,
      "ĠÐºÐ¾Ð¼Ð½Ð°ÑĤÐµ": 1902,
      "ÐŀÐł": 1903,
      "ĠÑģÐ´ÐµÐ»Ð°ÑĤÑĮ": 1904,
      "ĠÐ¿Ð¾ÑģÐ¼Ð¾ÑĤÑĢÐµÑĤÑĮ": 1905,
      "ĠÐ¤Ð»Ð¾ÑĢÐµÐ½ÑĨÐ¾": 1906,
      "ĠÑĢÐ°ÑģÑģÐºÐ°Ð·ÑĭÐ²": 1907,
      "Ð¾ÑĤÐ¾ÑĢÑĭ": 1908,
      "ÑĥÐ¹ÑģÑĤÐ°": 1909,
      "ĠÐ²ÐµÑģÑĮ": 1910,
      "ĠÐ½Ð°Ð±Ð»Ñİ": 1911,
      "ĠÑĤÑĢÐ¾Ð»Ð»Ñı": 1912,
      "ĠÐ±Ð°Ð»Ð»Ð¾Ð²": 1913,
      "ĠÑĩÐµÑĤÑĭÑĢÐµ": 1914,
      "Ð´ÐµÑģÑıÑĤ": 1915,
      "ĠÐ´Ð¾Ð²Ð¾Ð»ÑĮÐ½Ð¾": 1916,
      "ĠÑģÐ¾Ð²ÐµÑĢÑĪÐµÐ½Ð½Ð¾": 1917,
      "ĠÐŀÐ»Ð»Ð¸Ð²Ð°Ð½Ð´ÐµÑĢ": 1918,
      "ĠÑĤÐ¾Ð±Ð¾Ð¹": 1919,
      "ĠÐļÐ²Ð°ÑĦÑĦÐ»": 1920,
      "ĠÐ¿Ð¾Ð³Ð¸Ð±": 1921,
      "Ð¬": 1922,
      "ĠÐĸ": 1923,
      "Ð¾ÑĦ": 1924,
      "Ð°ÑĦÑĦÐ»": 1925,
      "Ð¸Ñī": 1926,
      "ÑıÑħ": 1927,
      "ĠÑģÐ¾ÑĤ": 1928,
      "ĠÐ²Ð°ÑĪ": 1929,
      "Ð²Ð¾Ð¹": 1930,
      "Ð¼ÐµÑĤ": 1931,
      "ĠÐºÐ°Ð·Ð°Ð»": 1932,
      "ÐµÑĢÑĤ": 1933,
      "Ð»Ð¸Ð·": 1934,
      "ÑģÑĤÐ²Ð¸": 1935,
      "ÑģÑĤÑĥÐ¿": 1936,
      "ĠÐ±Ð°ÑĪ": 1937,
      "ĠÑĩÐ¸ÑĤ": 1938,
      "ÑİÑĪ": 1939,
      "Ð±Ð¾ÑĤ": 1940,
      "Ð¾ÑĢÐ²": 1941,
      "ĠÐŀÐ¹": 1942,
      "Ð¾ÑĤÐ¾Ð¼": 1943,
      "Ð¾Ð±Ñĭ": 1944,
      "ÑĨÐ¸Ð¸": 1945,
      "Ð°Ð³Ð°Ñİ": 1946,
      "ĠÐ»Ð¾Ð´": 1947,
      "Ð¾ÐºÐ¾Ð»": 1948,
      "Ð¾Ð¶Ð°Ð»": 1949,
      "ĠÐ¡Ð¼Ð¾ÑĤÑĢÐ¸": 1950,
      "ĠÐ¿ÑĢÐ¾Ð¿": 1951,
      "ĠÑįÑĤÑĥ": 1952,
      "ĠÐļÐ»Ñĭ": 1953,
      "ĠÐ·Ð°Ð½Ð¸Ð¼": 1954,
      "Ð°Ð½Ð½ÑĭÐ¹": 1955,
      "Ð¸Ð½Ð³": 1956,
      "ĠÑĤÐ¾ÑĩÐ½Ð¾": 1957,
      "ĠÐ¿Ð¾Ð´Ð¾": 1958,
      "Ð¸Ð²Ð°ÑĤÑĮ": 1959,
      "ĠÑĤÐ°ÐºÐ¸Ð¼": 1960,
      "ÐµÑģÑĤÐ¸": 1961,
      "ĠÐ¿ÐµÑĢÐµÑģÑĤ": 1962,
      "ĠÐ¥Ð°Ð³ÑĢÐ¸Ð´Ñĥ": 1963,
      "ĠÐ¿Ð¾Ð»Ð½Ð¾": 1964,
      "Ð½ÑıÐ»": 1965,
      "Ð¾ÑģÐ¾ÑĦ": 1966,
      "ĠÐ¿Ð¾ÑģÐ¿": 1967,
      "ĠÐ¾Ð´Ð½Ð°": 1968,
      "ĠÑģÐ²Ð¾Ðµ": 1969,
      "ĠÐĽÐ¾Ð²": 1970,
      "ĠÐ·Ð°Ð¼ÐµÑĩ": 1971,
      "ĠÐ·Ð½Ð°ÑĤÑĮ": 1972,
      "ĠÑĢÐ°ÑģÐºÑĢÑĭ": 1973,
      "ÑĤÐµÑģÑĮ": 1974,
      "ĠÐºÐ¾Ð¼Ð¿": 1975,
      "ĠÐºÐ¾Ð¼Ð°Ð½": 1976,
      "ĠÑģÐ°Ð¼Ð¾Ð¼": 1977,
      "ĠÑģÐ²Ð¸ÑĤ": 1978,
      "ĠÐ¿ÑĢÐ¾ÑĦÐµÑģÑģÐ¾ÑĢÐ°": 1979,
      "ĠÐĴÐµÑĢÐ½Ð¾Ð½Ð°": 1980,
      "ĠÐ¼ÐµÑĤÐ»Ð°": 1981,
      "ĠÐ¼ÐµÑĤÐ»Ñĭ": 1982,
      "ÐºÐ¾Ð»Ð°Ñģ": 1983,
      "ĠÐ½Ð°ÑĩÐ°Ð»Ð°": 1984,
      "ĠÐ»Ð¸ÑĨÐ°": 1985,
      "Ð¿Ð°ÑĦÑĦ": 1986,
      "ĠÐ¿Ð¾ÑģÐ»ÐµÐ´Ð½Ð¸Ð¹": 1987,
      "ĠÐ³Ð¾Ð»Ð¾ÑģÐ¾Ð¼": 1988,
      "ĠÐ½ÐµÐ¿ÑĢÐ¸": 1989,
      "ĠÑĢÐ°Ð·Ð´Ð°Ð»ÑģÑı": 1990,
      "ĠÐ½ÑĥÐ¶Ð½Ð¾": 1991,
      "ĠÐĿÐ¸ÐºÐ¾Ð»Ð°Ñģ": 1992,
      "ĠÐļÐ²Ð¸Ð´Ð´Ð¸ÑĩÑĥ": 1993,
      "ĠÐ¾ÑħÑĢÐ°": 1994,
      "ĠÑĤÑĢÑĥÐ´Ð½Ð¾": 1995,
      "ĠÐ»ÐµÑģÑĤÐ½Ð¸ÑĨÐµ": 1996,
      "ĠÐºÐ¾ÑĤÐ¾ÑĢÐ¾Ð³Ð¾": 1997,
      "ĠÐµÐ´Ð¸Ð½Ð¾ÑĢÐ¾Ð³Ð°": 1998,
      "ĠÐĵÐ»Ð°Ð²Ð°": 1999,
      "ĠÐ²ÑĭÑĤÐ°ÑīÐ¸Ð»": 2000,
      "ĠÐ¤Ð»Ð¸ÑĤÐ²Ð¸Ðº": 2001,
      "ĠÐ³Ð¾ÑģÑĤÐ¸Ð½Ð¾Ð¹": 2002,
      "Ð°ÑĦÑĦÐ»Ð¿Ð°ÑĦÑĦ": 2003,
      "Ð¾ÑĪ": 2004,
      "Ð°ÐµÐ¼": 2005,
      "Ð°ÑĪÐ¸": 2006,
      "Ð°ÑģÑĤÑĮ": 2007,
      "Ð¸Ð½Ñĥ": 2008,
      "Ð¸ÑģÐº": 2009,
      "Ð»Ð¾Ð¹": 2010,
      "ÑģÑĭ": 2011,
      "Ð½Ð³": 2012,
      "ÑĥÐ¶Ðµ": 2013,
      "ĠÐ¿Ð°Ð¿": 2014,
      "ĠÑģÐµÑģÑĤ": 2015,
      "ĠÐ½ÐµÐ½Ð°Ð²": 2016,
      "ÑĩÑĮ": 2017,
      "ĠÐ²ÑĢÐ¾Ð´Ðµ": 2018,
      "ÐºÐ°Ð¼": 2019,
      "ÐºÐ¾Ð»ÑĮ": 2020,
      "ÐºÐ½ÑĥÐ»Ð°": 2021,
      "Ð´Ñĭ": 2022,
      "Ð´ÐµÑĤ": 2023,
      "ĠÐ¸Ð´Ð¸": 2024,
      "ĠÐ´Ñĥ": 2025,
      "ĠÐ´Ð°Ð»": 2026,
      "ĠÐ´Ð½Ñı": 2027,
      "ĠÐ±ÑĥÑĤ": 2028,
      "ĠÑĤÐ¸": 2029,
      "ĠÑĤÑİ": 2030,
      "ĠÐ·Ð»": 2031,
      "ĠÐ·Ð°Ð¶": 2032,
      "ĠÐ·Ð°ÐºÐ¾Ð½": 2033,
      "Ð±Ñĥ": 2034,
      "ĠÐĿÐ¸Ð¼": 2035,
      "Ð¾Ð±Ð¾Ð´": 2036,
      "ÑĨÐµÐ¿": 2037,
      "Ð´Ð°Ñı": 2038,
      "ĠÐ»ÐµÑģ": 2039,
      "ĠÐ¡Ð¸Ð»": 2040,
      "ĠÑģÐºÐ¾ÑĢÐ¾": 2041,
      "ĠÐ¿ÑĢÐ¾ÑģÑĤ": 2042,
      "Ð»Ð¾Ð½Ð¸": 2043,
      "ĠÐ¥Ð°ÑĦÑĦÐ»Ð¿Ð°ÑĦÑĦ": 2044,
      "ĠÐłÐ°Ð·": 2045,
      "ĠÐłÐ¾Ð¶Ð´": 2046,
      "Ð°Ð½ÑĤ": 2047,
      "ĠÑģÑĤÐ°Ð»Ð°": 2048,
      "ĠÐ¸Ð·Ð±": 2049,
      "ĠÐ¢Ð°Ð¼": 2050,
      "ÐµÐ½Ð¸Ð¹": 2051,
      "ĠÑģÐ¿ÑĥÑģÑĤ": 2052,
      "ÑĢÑĥÐ±": 2053,
      "ÐµÐ¶Ð°Ð»": 2054,
      "ĠÐĳÑįÐ¹": 2055,
      "ÑĩÐ¸Ð»Ð¸": 2056,
      "ÐµÐ³Ñĩ": 2057,
      "ĠÐºÐ¾ÑĤÐ¾ÑĢÑĥÑİ": 2058,
      "ĠÑģÐ²Ð¾ÐµÐ³Ð¾": 2059,
      "ĠÐĽÑİ": 2060,
      "ÐµÑĢÐ¸ÑĤÑĮ": 2061,
      "ĠÐºÐ¾Ð½ÑĨÐ¾Ð²": 2062,
      "ĠÐ²Ð¾Ð·Ð²": 2063,
      "ĠÐ²Ð¾Ð·Ð¼Ð¾Ð¶Ð½Ð¾": 2064,
      "ÑģÑĤÐ¾ÑĢÐ¸": 2065,
      "ĠÐºÐ¾Ð¼Ð°Ð½Ð´": 2066,
      "ĠÑĦÐ¾ÑĢ": 2067,
      "ĠÐ¼Ð°Ð³Ð³": 2068,
      "ĠÐ»Ð¸ÑĨÐ¾Ð¼": 2069,
      "ĠÐ¿Ð¾Ð·Ð¶Ðµ": 2070,
      "ĠÐ´Ð¾Ð»Ð¶Ð½Ð¾": 2071,
      "ĠÐ¼Ð°Ð»ÑĮÑĩÐ¸ÐºÐ°": 2072,
      "ĠÐ±Ð¾Ð»ÑĮÑĪÐ¾Ð¹": 2073,
      "ĠÐºÐ½Ð¸Ð¶": 2074,
      "ĠÑĥÐ±Ð¸ÑĤÑĮ": 2075,
      "ĠÐ¾ÑģÐ²": 2076,
      "ĠÑģÐ¸Ð´ÐµÐ½ÑĮ": 2077,
      "Ð¸Ð±Ð¾": 2078,
      "ĠÐºÐ°ÑĢÑĤÐ¾": 2079,
      "ĠÑħÐ¾ÑĤÐµÐ»Ð¾ÑģÑĮ": 2080,
      "ĠÐºÐ½Ð¸Ð³Ð¸": 2081,
      "ĠÑĢÐ°ÑģÑģÐºÐ°Ð·Ð°Ð»": 2082,
      "ĠÐ¼ÐµÑĢÐµ": 2083,
      "ĠÐ²ÐµÑīÐ¸": 2084,
      "ĠÐŁÐ¾ÑĩÐµÐ¼Ñĥ": 2085,
      "ÑĥÐ·Ð¸Ð½": 2086,
      "ĠÐ´ÐµÑģÑıÑĤÑĮ": 2087,
      "ĠÑĤÐ¸ÑħÐ¾": 2088,
      "ĠÐ·ÐµÐ¼Ð»Ðµ": 2089,
      "ĠÐ¸Ð·Ð²ÐµÑģÑĤÐ½Ð¾": 2090,
      "ĠÐ¼Ð°Ð½ÑĤÐ¸": 2091,
      "ĠÑģÐ²Ð¸ÑģÑĤ": 2092,
      "ĠÐ·Ð½Ð°Ð¼ÐµÐ½Ð¸ÑĤ": 2093,
      "ĠÐĶÑĥÐ¼Ð°Ñİ": 2094,
      "ĠÐ´ÐµÐ¹ÑģÑĤÐ²Ð¸ÑĤÐµÐ»ÑĮÐ½Ð¾": 2095,
      "ĠÐ¾Ð±Ð»ÐµÐ³Ñĩ": 2096,
      "ĠÐ¾Ð³Ð¾Ð½ÑĮ": 2097,
      "ĠÐ¿Ð¾ÑĢÑĤÑĢÐµÑĤ": 2098,
      "ĠÐĿÐ¸Ð¼Ð±ÑĥÑģ": 2099,
      "Ð§": 2100,
      "Ðĳ": 2101,
      "ĠÑĢÐ¾ÑĤ": 2102,
      "Ð¸Ð½Ñĭ": 2103,
      "ÑĤÐ¾Ð¹": 2104,
      "ÑĢÐ²": 2105,
      "ÑĢÐµÐ±": 2106,
      "ÑĢÐµÑĩ": 2107,
      "ÑģÐ¾Ð»": 2108,
      "ÑĥÐ»ÑĮ": 2109,
      "ÑıÐ³": 2110,
      "ÑıÑīÐ¸Ð¹": 2111,
      "ĠÑģÑĬ": 2112,
      "ĠÑģÑħÐ²Ð°ÑĤÐ¸Ð»": 2113,
      "ĠÐ½ÐµÐ¼Ñĥ": 2114,
      "ĠÐ²ÐµÐ»": 2115,
      "ĠÐ²ÐºÑĥÑģ": 2116,
      "ÐºÐ½ÑĥÐ»ÑģÑı": 2117,
      "Ð´Ð¾Ð½": 2118,
      "Ð°Ð»ÐµÑĤ": 2119,
      "ÑĤÐ¾Ðµ": 2120,
      "ĠÐ¾Ð·": 2121,
      "ĠÐ¾ÑĪÐ¸Ð±": 2122,
      "Ð¼ÐµÐ½": 2123,
      "ĠÐºÐ¸Ð²": 2124,
      "ĠÐ´Ð¾Ð»": 2125,
      "ĠÐ´Ð¾Ñģ": 2126,
      "ĠÐ¼ÐµÑģÑĤ": 2127,
      "Ð°ÐºÐ¾Ð¼": 2128,
      "Ð±ÑģÐ¾Ð»": 2129,
      "ĠÐ½Ð°ÑĤÑı": 2130,
      "ĠÐ¿Ð¾ÑĪÐ»Ð¸": 2131,
      "ĠÐ¿Ð¾ÑĤÑĢ": 2132,
      "ĠÐŁÐ¸ÑĢ": 2133,
      "ĠÐĶÐ°Ð²Ð°Ð¹": 2134,
      "Ð¾Ð±Ð»Ð¸Ð½": 2135,
      "ĠÐĴÐ¸Ð´": 2136,
      "ĠÐ¿ÑĢÐµÐ²": 2137,
      "ĠÐ¿ÑĢÐ°Ð·Ð´": 2138,
      "ĠÐ²ÑģÐº": 2139,
      "ĠÐ²ÑģÐµÐ¹": 2140,
      "ĠÐ¥Ð¾ÑĤ": 2141,
      "ĠÐ·Ð°ÑģÑĤ": 2142,
      "ÑĤÐ¸ÑĤÑĮ": 2143,
      "ĠÑıÑĢ": 2144,
      "ĠÐłÐ¾Ð½Ð°Ð½": 2145,
      "Ð²Ð¾ÑĢÐ¸": 2146,
      "ĠÐ¾Ð±ÐµÑĢÐ½ÑĥÐ»ÑģÑı": 2147,
      "ĠÑģÐ»Ð¾Ð¼": 2148,
      "ĠÑģÐ»ÑĥÑĪ": 2149,
      "ĠÑĢÐ°Ð·Ð²ÐµÑĢ": 2150,
      "Ð¸Ð¼ÑģÑı": 2151,
      "ÐµÑĩÑĮ": 2152,
      "ĠÐĳÑĥÐ·Ð¸Ð½": 2153,
      "ĠÐ¿Ð¾ÐºÐ°Ð·Ð°Ð»": 2154,
      "ĠÐ¾Ð´Ð½Ð¾Ð¹": 2155,
      "ĠÐ´Ð¾ÑģÑĤ": 2156,
      "ĠÑĤÑĢÐµÐ½Ð¸": 2157,
      "ĠÐĽÐ¸": 2158,
      "ĠÐ·Ð½Ð°ÑĩÐ¸ÑĤ": 2159,
      "Ð°ÑħÐ¼Ð°ÑĤ": 2160,
      "ĠÑĢÑĥÐºÐ°Ð¼Ð¸": 2161,
      "ĠÑģÐ¼ÐµÑĢ": 2162,
      "ĠÑģÐ¾Ð±Ð°Ðº": 2163,
      "ĠÑģÐ¾Ð±Ð¸ÑĢ": 2164,
      "ĠÐ¿Ð¾ÑĢÑıÐ´": 2165,
      "ÑĤÑĥÐ´Ð°": 2166,
      "ÑĥÑģÑĤÐ¸Ð»": 2167,
      "ĠÐ¼Ð°Ð³Ð¸Ð¸": 2168,
      "ĠÐ¾Ð¿ÑıÑĤÑĮ": 2169,
      "ĠÑįÑĤÐ°Ð¶": 2170,
      "ĠÐ¿Ð¾Ð·Ð°Ð´Ð¸": 2171,
      "ĠÑĥÐ´Ð°Ð»": 2172,
      "ĠÐ¿Ð¾Ð±ÐµÐ´": 2173,
      "ĠÐ¤Ð¸Ð»Ð¾ÑģÐ¾ÑĦ": 2174,
      "ÐµÐ½ÑĤÐ°Ð²": 2175,
      "ĠÐ¿Ð¾Ð¹ÑĤÐ¸": 2176,
      "ĠÐ²ÑģÑĤÑĢÐµÑĩ": 2177,
      "ĠÐ¾ÑģÐ¾Ð±": 2178,
      "ĠÐºÐ¾Ð¼Ð½Ð°ÑĤÑĭ": 2179,
      "ĠÐºÐ°ÑĢÐ¼Ð°": 2180,
      "ĠÑģÐµÐºÑĢÐµÑĤ": 2181,
      "ĠÑĥÐºÐ°Ð·ÑĭÐ²": 2182,
      "ĠÑģÐµÐ¹ÑĦ": 2183,
      "ĠÑĩÐ°ÑģÐ¾Ð²": 2184,
      "ĠÐ¾ÑģÑĤÐ°Ð»ÑĮÐ½ÑĭÐµ": 2185,
      "ĠÐ½Ð°ÑĢÑĥÑĪ": 2186,
      "ÑĥÐ³Ð°Ð½": 2187,
      "ĠÑĥÑģÐ¿ÐµÐ»": 2188,
      "ĠÐ²Ð¾Ð·Ð´ÑĥÑħÐµ": 2189,
      "ĠÐµÐ´Ð¸Ð½": 2190,
      "ÐµÑĢÐ²ÑĭÐµ": 2191,
      "ĠÑģÐµÐºÑĥÐ½Ð´": 2192,
      "ĠÐ²Ð¾ÑģÑĤÐ¾ÑĢ": 2193,
      "Ð¸Ð¶Ñĥ": 2194,
      "ÐĹÐ½Ð°ÐµÑĪÑĮ": 2195,
      "ĠÑģÑĤÑĢÐ°ÑĪÐ½Ð¾": 2196,
      "ĠÐŁÐ¾Ð¼ÑĦÑĢÐ¸": 2197,
      "ĠÐļÐ¾Ð½ÐµÑĩÐ½Ð¾": 2198,
      "ĠÑģÐ²ÐµÑĢÑĤÐ¾Ðº": 2199,
      "ÐµÑĦÐµÐº": 2200,
      "ĠÐ·Ð°ÑıÐ²Ð¸Ð»": 2201,
      "Ð¾ÐºÐ¾Ð»Ð°Ð´": 2202,
      "ĠÑĤÑİÑĢÐ±": 2203,
      "Ð±ÑģÐ¾Ð»ÑİÑĤ": 2204,
      "Ġ1": 2205,
      "Ð°Ñī": 2206,
      "ÑĢÐ°Ð»ÑģÑı": 2207,
      "ÑĢÐµÐ»Ð¸": 2208,
      "ÑĢÑıÑĤ": 2209,
      "ÑģÐ½Ð¾": 2210,
      "ÑıÐ»Ð¸": 2211,
      "ĠÑģÐ¾Ð·": 2212,
      "ĠÑģÑĩÐ°ÑģÑĤ": 2213,
      "ĠÐ½ÐµÐ·": 2214,
      "ĠÐ²Ð¸Ñģ": 2215,
      "ĠÐ²ÐµÑĩÐ½Ð¾": 2216,
      "ĠÐºÑĢÑĥÐ³": 2217,
      "ĠÐºÐ»ÑİÑĩ": 2218,
      "ĠÐ´Ð°Ð¼": 2219,
      "ĠÐ´Ð°Ð»ÑĮ": 2220,
      "ĠÐ±Ð°Ð½": 2221,
      "ĠÑĤÐµ": 2222,
      "ĠÑĤÑĥ": 2223,
      "ĠÑĤÐ¾Ð³Ð´Ð°": 2224,
      "ĠÐ¼ÐµÐ½": 2225,
      "ĠÐ·Ð°Ð»": 2226,
      "ÐµÐ»ÑģÑı": 2227,
      "ĠÑĥÐ³Ð»": 2228,
      "ÑĢÐ¾ÑĤÐ¸Ð²": 2229,
      "ĠÐ¿Ð¾ÑĤÐµÑĢ": 2230,
      "ĠÐ¿Ð¾ÑĪÐµÐ»": 2231,
      "ĠÐ¿Ð¾ÑĤÑı": 2232,
      "ĠÑĢÐ°Ð²Ð½Ð¾": 2233,
      "Ð¶Ð°Ð»": 2234,
      "ĠÐŁÐ¾ÐºÐ°": 2235,
      "ĠÐĿÐ°Ð¼": 2236,
      "ĠÐĶÐ¾Ð¼": 2237,
      "ÑĨÐ°Ð¼Ð¸": 2238,
      "ĠÐ¾ÑĤÐ¿": 2239,
      "ĠÐ³Ð¸Ð³": 2240,
      "Ð¾Ð¶Ð¸": 2241,
      "ĠÐ¡ÑĤÐ¾": 2242,
      "ĠÐ²ÑĭÑĪÐµ": 2243,
      "ĠÐ²ÑĭÑĪÐ»Ð¸": 2244,
      "ĠÐ¿ÑĢÐ¾ÑĤÑıÐ½ÑĥÐ»": 2245,
      "ĠÐľÐ°ÑĢ": 2246,
      "ĠÐºÐ°ÐºÐ¾Ð¹": 2247,
      "ĠÐ¶ÐµÐ½": 2248,
      "ĠÐ¸Ð·ÑĥÑĩ": 2249,
      "ĠÐ¿ÑĢÐ¸Ðº": 2250,
      "ĠÐ¿ÑĢÐ¸Ð´": 2251,
      "ĠÐ¿ÑĢÐ¸Ð·": 2252,
      "ĠÐ¿ÑĢÐ¸ÑħÐ¾Ð´": 2253,
      "ĠÐ¿ÑĢÐ¸Ð²Ð¸Ð´": 2254,
      "ĠÑħÐ²Ð¾": 2255,
      "ĠÐ¿Ð¾Ð´Ð±": 2256,
      "Ð¾Ð·Ð´": 2257,
      "ĠÐ¾Ð±ÑĢÐ°Ð·": 2258,
      "ĠÐ¾Ð±ÑĢÐ°Ñī": 2259,
      "ĠÑĤÐ°ÐºÐ¾Ð³Ð¾": 2260,
      "ĠÑĢÐ°Ð·Ð¼": 2261,
      "Ð¾Ð¿ÑĭÑĤ": 2262,
      "ĠÐ³Ð¾ÑģÑĤÐ¸": 2263,
      "ĠÐ³Ð¾ÑĢÐ°Ð·": 2264,
      "ĠÐ³Ð¾ÑĤÐ¾Ð²": 2265,
      "ÑģÐºÐ¾Ð³Ð¾": 2266,
      "ĠÐ¿Ð¾Ð»Ñı": 2267,
      "ĠÐĳÑĭÐ»Ð¾": 2268,
      "ĠÐ¤Ð»Ð¸Ð½": 2269,
      "ÑĩÐ¸Ð½Ð°": 2270,
      "ĠÐ±ÑĥÐ´ÑĮ": 2271,
      "ĠÐ´Ð¾ÑģÑĤÐ°ÑĤÐ¾ÑĩÐ½Ð¾": 2272,
      "ÐµÐ½Ð½Ð¾Ðµ": 2273,
      "ĠÐºÐ¾Ð½ÑĨÐ°": 2274,
      "ĠÐ¼Ð¾Ð¶ÐµÑĪÑĮ": 2275,
      "ĠÐ»ÑİÐ´Ð¸": 2276,
      "ĠÐ´ÐµÐ»Ðµ": 2277,
      "ĠÐ³Ð¾Ð»Ð¾Ð²Ðµ": 2278,
      "ĠÐ³Ð¾Ð»Ð¾Ð²Ñĭ": 2279,
      "Ð½Ð¸ÐºÐ¾Ð²": 2280,
      "ĠÐ²ÐµÑĢÐ½ÑĥÐ»ÑģÑı": 2281,
      "ĠÐ³Ð¾Ð²Ð¾ÑĢÐ¸Ð»Ð¸": 2282,
      "ĠÐ¼Ð°Ð³Ð¸": 2283,
      "ĠÐ´ÑĢÐ¾Ð¶": 2284,
      "ĠÐ¿Ð°Ð»Ð¾ÑĩÐºÐ°": 2285,
      "Ð°Ð´ÑĨÐ°ÑĤ": 2286,
      "ĠÐºÐ°ÑĢÐ¼": 2287,
      "ĠÐ±Ð»Ð¸Ð¶Ðµ": 2288,
      "ĠÑħÐ¾ÑĩÐµÑĤ": 2289,
      "ÐķÐł": 2290,
      "ĠÐŁÐ¾ÑĪÐ»Ð¸": 2291,
      "ĠÐºÑĢÐµÑģ": 2292,
      "ĠÑģÐ»ÑĥÑĩÐ¸Ð»Ð¾ÑģÑĮ": 2293,
      "ÐĿÐµÐ²": 2294,
      "ĠÐ³Ð¾Ð´Ñĥ": 2295,
      "ĠÐ¶Ð¸Ð·Ð½ÑĮ": 2296,
      "ĠÑģÐ»ÐµÐ´ÑĥÑİÑīÐ¸Ð¹": 2297,
      "ĠÑģÐ¾ÑģÐµÐ´": 2298,
      "Ð¿Ð¾Ð´Ð¸Ð½": 2299,
      "ĠÑģÑĤÐµÐ½Ðµ": 2300,
      "ĠÐºÐ°Ð¼ÐµÐ½ÑĮ": 2301,
      "ĠÐŁÐ¾ÑģÐ»Ðµ": 2302,
      "ĠÐ±Ð¾Ð»ÐµÐµ": 2303,
      "ĠÐľÐ°Ð³Ð¸Ð¸": 2304,
      "ĠÐ½Ð°Ð¹ÑĤÐ¸": 2305,
      "ĠÐĿÐ¾ÑĢÐ±ÐµÑĢÑĤÐ°": 2306,
      "ĠÑīÐµÐ»": 2307,
      "ĠÑĢÐ¾Ð¶Ð´ÐµÐ½Ð¸Ñı": 2308,
      "ĠÐĽÐ¾Ð½Ð´Ð¾Ð½": 2309,
      "ÑĢÐ¾ÑĪÐµÑĩ": 2310,
      "ĠÐ¿Ð¾ÑĩÑĥÐ²ÑģÑĤÐ²Ð¾Ð²Ð°Ð»": 2311,
      "ĠÑģÐ¾Ð³Ð»Ð°Ñģ": 2312,
      "ĠÐĿÐ°Ð´ÐµÑİÑģÑĮ": 2313,
      "ĠÐ¡Ð½Ð¸ÑĤÑĩ": 2314,
      "ĠÐļÑĥÐ±Ð¾Ðº": 2315,
      "ĠÐ¾ÑħÑĢÐ°Ð½Ñı": 2316,
      "ĠÐ½ÐµÐ½Ð°Ð²Ð¸Ð´": 2317,
      "ÑıÐ³ÑĥÑĪ": 2318,
      "ĠÐ²Ð¾ÑģÑĤÐ¾ÑĢÐ³": 2319,
      "ĠÐ¼ÐµÐ½ÐµÐµ": 2320,
      "ĠÐ³Ð¾ÑĢÐ°Ð·Ð´Ð¾": 2321,
      "Ð«": 2322,
      "Ġ...": 2323,
      "Ð°Ð½Ð¾": 2324,
      "Ð°Ð½Ð°": 2325,
      "ÑĤÐµÐº": 2326,
      "ÑĤÐµÐ»ÑĮ": 2327,
      "ÑģÐºÐ¸Ñħ": 2328,
      "ÑģÐºÐ¸Ðµ": 2329,
      "Ð½ÐµÑĤÑģÑı": 2330,
      "ÑıÑĤÐ¸": 2331,
      "ÑĭÐ»Ð¸": 2332,
      "ĠÑģÐ¾Ð»": 2333,
      "ĠÑģÑĥÐ´": 2334,
      "ĠÑģÐ¾Ð¿": 2335,
      "ĠÐ½ÐµÑĢ": 2336,
      "ĠÐ½Ð¾ÑĢ": 2337,
      "ĠÐ½ÐµÑĢÐ²": 2338,
      "ĠÐ½ÐµÐ»ÑĮÐ·Ñı": 2339,
      "ÑĩÐ°Ñı": 2340,
      "ÐºÐ½Ð¸": 2341,
      "ÐºÐ¾Ð³Ð¾": 2342,
      "ÐºÐ°Ð½": 2343,
      "Ð´Ð¾Ð²": 2344,
      "Ð²Ð°ÑĤÑĮ": 2345,
      "Ð²ÑĭÑĢ": 2346,
      "ÑĢÐ¸Ð¿": 2347,
      "ĠÐºÐ¸": 2348,
      "ĠÐºÐ°Ð½Ð¸": 2349,
      "ĠÐºÐ»ÐµÑĤ": 2350,
      "ĠÐºÐµÐ½ÑĤÐ°Ð²": 2351,
      "ÑĪÑĥÑİ": 2352,
      "ÑħÐ»Ð¸": 2353,
      "ÑģÑĤÐµÐ¹": 2354,
      "ĠÑĤÐ°": 2355,
      "ĠÑĤÐ¾Ð¼Ñĥ": 2356,
      "Ð¾Ð²Ñĭ": 2357,
      "ĠÐ¼ÐµÐ´Ð»ÐµÐ½Ð½Ð¾": 2358,
      "ĠÑĩÑĥÐ´": 2359,
      "ĠÐĵÐµÐ´": 2360,
      "ÐµÐ½Ð½ÑĭÐµ": 2361,
      "ĠÑĥÑģÑĤ": 2362,
      "ĠÑĥÐ³Ð¾": 2363,
      "Ð·Ð°Ð´Ð¸": 2364,
      "ĠÐ¿Ð¾ÐµÐ·": 2365,
      "ĠÐ¿Ð¾ÐµÐ·Ð´": 2366,
      "Ð¾Ð³Ð¾Ð´": 2367,
      "ĠÐŁÐ°ÑĢ": 2368,
      "ĠÐŀÑĩ": 2369,
      "Ð°Ð²ÐµÐ½": 2370,
      "ĠÐĶÐ¾": 2371,
      "ĠÐ¾ÑĤÑģ": 2372,
      "ĠÐ¾ÑĤÑĭ": 2373,
      "ĠÐ¿ÑĢÐ¾Ð½": 2374,
      "ĠÐ¿ÑĢÐ¾Ð¹ÑĤÐ¸": 2375,
      "ĠÐ²ÑĭÑĥÑĩ": 2376,
      "Ð»Ð¾Ñĥ": 2377,
      "Ð»ÑıÐ»ÑģÑı": 2378,
      "ĠÐľÐ°Ð´Ð°Ð¼": 2379,
      "ĠÐ¥Ð¾ÑĢÐ¾ÑĪÐ¾": 2380,
      "ÐµÐ·Ð½Ð¾": 2381,
      "ÐµÐ·Ð»Ð¾": 2382,
      "ĠÐ¿ÑĢÐ¸Ð¼": 2383,
      "ĠÐ¢ÐµÑĤ": 2384,
      "ĠÑĪÐµÐ²": 2385,
      "ĠÑĪÐµÐ¿": 2386,
      "ĠÑĪÑĥÐ¼": 2387,
      "ĠÑĪÐµÑģÑĤÑĮ": 2388,
      "ĠÑĪÐºÐ¾Ð»ÑĮ": 2389,
      "ĠÑĪÐ°ÑħÐ¼Ð°ÑĤ": 2390,
      "ĠÐ¿Ð¾Ð´Ñģ": 2391,
      "ĠÐ¿Ð¾Ð´Ð¾Ð±": 2392,
      "ĠÐ¿Ð¾Ð´Ð·ÐµÐ¼": 2393,
      "ÐºÑĥÐ´Ð°": 2394,
      "ĠÐ¾Ð±Ð¾": 2395,
      "ĠÑģÐ¿ÑĢÑıÑĤ": 2396,
      "ÑĢÑĥÑĪ": 2397,
      "Ð°ÑĤÐµÐ»ÑĮ": 2398,
      "ÑģÐºÐ¾Ð»ÑĮÐ·": 2399,
      "Ð°Ð±Ð±ÐµÑĢ": 2400,
      "ĠÐĵÐµÑĢÐ¼Ð¸Ð¾Ð½Ðµ": 2401,
      "ÑĪÐ¸Ð¼Ð¸": 2402,
      "ĠÑģÑĤÐ¾Ð»ÑĮÐºÐ¾": 2403,
      "ĠÐ²Ð·ÑıÐ»": 2404,
      "Ð¾Ð²Ð¾Ðµ": 2405,
      "ĠÐ§ÐµÑĢ": 2406,
      "ĠÑĤÑĢÐµÑħ": 2407,
      "ĠÐ½Ð°Ð´Ðµ": 2408,
      "ĠÐ¡Ð½ÑįÐ¹Ð¿Ñĥ": 2409,
      "ĠÐĶÐ°Ð¼Ð±Ð»ÑĮÐ´Ð¾ÑĢÑĥ": 2410,
      "ĠÐķÑīÐµ": 2411,
      "ĠÐķÐ¼Ñĥ": 2412,
      "ĠÑģÐ°Ð¼ÑĭÐ¹": 2413,
      "ĠÑģÐ¼Ðµ": 2414,
      "ĠÐ¾ÐºÐ½Ð°": 2415,
      "ĠÐºÐ¾ÑĤÐ¾ÑĢÑĭÑħ": 2416,
      "ĠÑģÐ¾Ð±ÑģÑĤÐ²ÐµÐ½": 2417,
      "ĠÐ¿ÑĢÐµÐ´Ð»": 2418,
      "ĠÐ³Ð¾Ð²Ð¾ÑĢÐ¸ÑĤÑĮ": 2419,
      "ĠÐ¿Ð¾Ð·Ð°Ð±": 2420,
      "ĠÐ²Ð¿ÐµÑĢÐ²ÑĭÐµ": 2421,
      "ÑĥÐ½Ð´Ñĥ": 2422,
      "ĠÑĩÑĥÐ²": 2423,
      "ĠÐ¿Ð°Ð»Ð¾ÑĩÐºÐ¾Ð¹": 2424,
      "ĠÐ¸Ð³ÑĢÐ°": 2425,
      "ĠÐ¸Ð³ÑĢÐ¾Ðº": 2426,
      "ĠÐ¿ÑĭÑĤÐ°ÑıÑģÑĮ": 2427,
      "ĠÑģÑĤÐ°ÑĢÐ°ÑıÑģÑĮ": 2428,
      "ĠÑĤÐ²Ð¾Ð¸": 2429,
      "ĠÐ½ÐµÐ´ÐµÐ»Ñİ": 2430,
      "ĠÑģÐ²ÐµÑĤÐ°": 2431,
      "ĠÐ²ÑĭÑģÐ¾Ðº": 2432,
      "ĠÑĥÑĩÐµÐ±": 2433,
      "ĠÑĥÑĤÑĢÐ¾": 2434,
      "ĠÐĿÐ¾ÑĢÑĢÐ¸Ñģ": 2435,
      "ĠÑįÑĤÐ¸Ð¼": 2436,
      "ĠÐ´ÐµÐ²ÑıÑĤÑĮ": 2437,
      "ĠÑĪÐ»ÑıÐ¿Ð°": 2438,
      "ĠÑĪÐ»ÑıÐ¿Ñĥ": 2439,
      "ĠÐ½Ð¾Ð³Ñĥ": 2440,
      "ÑĥÑīÐµÑģÑĤÐ²": 2441,
      "ĠÐ¡ÐºÐ°Ð±Ð±ÐµÑĢ": 2442,
      "ĠÐ´ÑĢÑĥÐ·": 2443,
      "ĠÑģÐµÐºÑĥÐ½Ð´Ñĥ": 2444,
      "ĠÐ¼Ð°Ð¼Ð°": 2445,
      "ĠÐĿÐ¸ÐºÑĤÐ¾": 2446,
      "ĠÐºÐ°Ð¿ÑİÑĪ": 2447,
      "ĠÐ¶Ð°Ð±Ñĥ": 2448,
      "ĠÐ½ÐµÐºÐ¾ÑĤÐ¾ÑĢÑĭ": 2449,
      "ĠÐ¾ÑģÑĤÐ¾ÑĢ": 2450,
      "ĠÐ²ÐµÑĩÐµÑĢ": 2451,
      "ĠÐ¾Ð¶Ð¸Ð´": 2452,
      "ĠÑĨÐ²ÐµÑĤÐ°": 2453,
      "ĠÐ¿ÑĢÐ¾Ð¸ÑģÑħÐ¾Ð´Ð¸ÑĤ": 2454,
      "ĠÐ¿Ð¾Ð´Ð¾ÑĪÐµÐ»": 2455,
      "ĠÐ·Ð»Ð¾Ð±": 2456,
      "ĠÐĳÑįÐ¹Ð½": 2457,
      "ĠÐ²Ð¾Ð·Ð²ÑĢÐ°Ñī": 2458,
      "ĠÑĤÑĢÐµÐ½Ð¸ÑĢÐ¾Ð²": 2459,
      "ĠÐ¾Ð±ÑĢÐ°Ð·Ð¾Ð¼": 2460,
      "ÐĿÐµÐ²Ð¸Ð´Ð¸Ð¼": 2461,
      "ĠÐĵÐµÐ´Ð²Ð¸Ð³": 2462,
      "ĠÐºÐ°Ð¿ÑİÑĪÐ¾Ð½": 2463,
      "Ð°ÑģÑĤÐ¸": 2464,
      "Ð¸Ð¶Ð¸": 2465,
      "ÑĢÐµ": 2466,
      "ÑĢÑĮ": 2467,
      "ÑĢÐ¾Ð±": 2468,
      "ÑĥÑģÐº": 2469,
      "ÑĮÐµ": 2470,
      "ÑĭÑĤÐ°": 2471,
      "ĠÐ¿ÐµÑĩ": 2472,
      "ĠÑģÐ¾Ð²Ð°": 2473,
      "ĠÑģÐ¸Ñħ": 2474,
      "ĠÐ²Ð¾Ð²": 2475,
      "ĠÐ²Ð¾Ð´": 2476,
      "ĠÐ²ÑħÐ¾Ð´": 2477,
      "ĠÐ²ÑģÑĤÐ°Ð²": 2478,
      "ĠÐ²ÐµÑī": 2479,
      "Ð°Ð»Ñĥ": 2480,
      "ĠÐºÐ»Ñİ": 2481,
      "ĠÐºÑĢÐ¾ÑĪÐµÑĩ": 2482,
      "ÑħÐ²Ð°": 2483,
      "ĠÐ´Ð¸Ð²": 2484,
      "ĠÐ±Ð¾Ðº": 2485,
      "ĠÐ±ÐµÐ¶": 2486,
      "ĠÑĤÐ°ÑĢ": 2487,
      "Ð¾Ð²Ð°Ð»ÑģÑı": 2488,
      "ĠÐ¼ÐµÐ½ÑĮ": 2489,
      "ĠÐ¼ÐµÑĩ": 2490,
      "ĠÐ¼ÐµÑģÑĤÐµ": 2491,
      "ĠÐĵÐ´Ðµ": 2492,
      "ĠÐ·Ð´Ð¾ÑĢ": 2493,
      "ĠÐ·ÑĥÐ±": 2494,
      "Ð¾Ð»Ð¾Ñģ": 2495,
      "ÑİÑī": 2496,
      "Ð¶Ð¸Ð¼": 2497,
      "ĠÐ±ÑĭÑģÑĤÑĢ": 2498,
      "ĠÐŀÐ½Ð¾": 2499,
      "ĠÐĶÐ¾Ð±": 2500,
      "ĠÐ»Ð°Ð¼": 2501,
      "ĠÐ»Ð°Ð´Ð¾": 2502,
      "ĠÐ»Ð°Ð´Ð½Ð¾": 2503,
      "ĠÐĴÐ¾": 2504,
      "ĠÐ¾ÑĤÐº": 2505,
      "ĠÐ¾ÑĤÐµÑĨ": 2506,
      "ĠÐ¾ÑĤÑĢÐ°Ð¶": 2507,
      "ĠÐ¾ÑĤÑĤÑĥÐ´Ð°": 2508,
      "ĠÐ³ÑĢÐ¸": 2509,
      "ĠÐ³ÑĢÑı": 2510,
      "ĠÐ³ÑĥÐ±": 2511,
      "ĠÑįÑĤÐ°": 2512,
      "Ð³Ð¾Ð»Ð¾Ð²": 2513,
      "Ð³Ð¾ÑĤÐ¾Ð²": 2514,
      "ĠÐ²ÑĭÐ´": 2515,
      "ĠÐļÐ°Ð¶Ð´": 2516,
      "ĠÐ²ÑģÐºÐ¾ÑĩÐ¸Ð»": 2517,
      "ĠÐ¥ÑĥÑĤ": 2518,
      "ÐµÐ²Ð°": 2519,
      "ĠÑıÑīÐ¸": 2520,
      "ĠÑĤÐ¾Ð½": 2521,
      "ÐµÐ·Ð¶": 2522,
      "ĠÑģÑĤÐ°Ð»Ð¾": 2523,
      "ĠÑģÑĤÐµÐ½Ñĭ": 2524,
      "ĠÐ¢ÑĢÐ¸": 2525,
      "ĠÐ¢Ð¾ÑĤ": 2526,
      "ĠÑħÐ²Ð°ÑĤ": 2527,
      "ĠÑħÐ¾ÑĢÐ¾ÑĪ": 2528,
      "ĠÑħÑĢÐ°Ð±": 2529,
      "ĠÑħÑĥÐ¶Ðµ": 2530,
      "ĠÑĪÐ»Ð¸": 2531,
      "ĠÐ¾Ð±Ð°": 2532,
      "Ð¸Ð²Ð°Ð»Ð¸": 2533,
      "Ð°Ð¶Ñĥ": 2534,
      "ÑģÐºÐ¾Ð»ÑĮ": 2535,
      "Ð°Ð¹ÑģÑı": 2536,
      "ĠÐĳÐµÐ·": 2537,
      "ÑĪÐµÐµ": 2538,
      "ÑĩÐ¸Ðº": 2539,
      "ÐµÑĪÑĮÑģÑı": 2540,
      "ÑĥÑİÑĤ": 2541,
      "ĠÐ²Ð·Ð´Ð¾ÑħÐ½ÑĥÐ»": 2542,
      "ĠÑģÐ²Ð¾ÐµÐ¼": 2543,
      "ÑıÑĤÑģÑı": 2544,
      "ĠÑĤÑĢÐµÑĤÑĮ": 2545,
      "ĠÐĲÐ»ÑĮ": 2546,
      "ĠÐ¸Ð¼Ðµ": 2547,
      "ĠÑĢÑĥÐºÐ¾Ð¹": 2548,
      "ĠÑĢÑĥÐºÐ°Ñħ": 2549,
      "ĠÐ²Ð¾ÑģÐº": 2550,
      "ĠÐ¾ÐºÐ½Ð¾": 2551,
      "ĠÐ¾ÐºÐ¾Ð½": 2552,
      "Ð½ÑĥÑĤÑĢÐ¸": 2553,
      "ĠÑģÐ²ÑıÐ·": 2554,
      "ĠÐ´Ð²ÑĥÑħ": 2555,
      "ĠÐ¿Ð¾Ð¼Ð¾Ð³": 2556,
      "ĠÐ¾Ð¿ÑĥÑģÑĤ": 2557,
      "ĠÐ´ÑıÐ´Ð¸": 2558,
      "ĠÐ·Ð°Ð²ÑĤ": 2559,
      "Ð¸ÐºÐ»": 2560,
      "ĠÐ¿Ð¸ÑģÑĮÐ¼Ð°": 2561,
      "ĠÐŁÐµÑĢÐ²": 2562,
      "ĠÐ¾Ð´Ð¸Ð½Ð½Ð°Ð´ÑĨÐ°ÑĤÑĮ": 2563,
      "ĠÑĪÐºÐ¾Ð»Ñĥ": 2564,
      "ĠÑĪÐºÐ¾Ð»Ñĭ": 2565,
      "ĠÐºÐ¾Ð»ÐµÐ½": 2566,
      "ĠÐºÐ¾Ð»Ð´Ñĥ": 2567,
      "ĠÐ´Ð¾Ð±Ð°Ð²Ð¸Ð»": 2568,
      "ĠÐ¿ÑĢÐ¾Ð²Ð¾Ð´": 2569,
      "ĠÐ½ÐµÐ¿Ð¾Ð´": 2570,
      "ĠÐ½Ð°ÐºÐ°Ð·": 2571,
      "ĠÐ¿Ð¾Ð´Ð½ÑıÐ»": 2572,
      "ĠÐ¸ÑģÐ¿Ð¾Ð»ÑĮÐ·": 2573,
      "ĠÐ±Ð¾ÑıÐ»ÑģÑı": 2574,
      "ĠÐ¿Ð¾Ð³Ð»ÑıÐ´": 2575,
      "ĠÑĢÐ°Ð·Ð³Ð¾Ð²Ð¾ÑĢ": 2576,
      "ĠÐ¾ÑģÑĤÐ°Ð½Ð¾Ð²Ð¸Ð»ÑģÑı": 2577,
      "ĠÐºÑĥÐ¿Ðµ": 2578,
      "ĠÐµÐ´Ð²Ð°": 2579,
      "ĠÐ²Ð½Ð¸Ð¼Ð°Ð½Ð¸Ðµ": 2580,
      "ĠÐ¼ÑıÐ³": 2581,
      "ĠÑĥÑĩÐ¸ÑĤÐµÐ»Ñı": 2582,
      "ĠÐ¤Ð»Ð°Ð¼ÐµÐ»Ñı": 2583,
      "ĠÐ²Ð½ÑĥÑĤÑĢÑĮ": 2584,
      "ĠÑĢÐ¾Ð´Ð¸ÑĤÐµÐ»Ð¸": 2585,
      "ĠÐ¿Ð¾Ð¶Ð°Ð»ÑĥÐ¹ÑģÑĤÐ°": 2586,
      "ĠÐ³Ð¾Ð²Ð¾ÑĢÑı": 2587,
      "ĠÑĢÐ°Ð·Ð³Ð¾Ð²Ð°ÑĢÐ¸Ð²Ð°Ð»": 2588,
      "ĠÐºÐ»Ð°ÑģÑģ": 2589,
      "ĠÐ¾Ð±Ð½Ð°ÑĢÑĥÐ¶Ð¸Ð»": 2590,
      "ĠÐ±Ð¾ÑĢÐ¾Ð´": 2591,
      "ĠÑĩÑĥÐ»Ð°Ð½Ðµ": 2592,
      "ĠÐ¼Ð¸ÑĢÐµ": 2593,
      "ĠÑįÐºÐ·Ð°Ð¼ÐµÐ½": 2594,
      "ĠÐĽÐµÑģÑĥ": 2595,
      "ĠÑĤÑıÐ¶ÐµÐ»": 2596,
      "ĠÑģÐ¿ÑĥÑģÑĤÑı": 2597,
      "ĠÑģÐ¸Ð´ÐµÐ½ÑĮÐµ": 2598,
      "ĠÐºÐ¸Ð²Ð½ÑĥÐ»": 2599,
      "ĠÐ¿Ð¾ÑĢÑıÐ´ÐºÐµ": 2600,
      "ĠÐºÐ°ÑĢÐ¼Ð°Ð½Ð°": 2601,
      "Ð±ÑģÐ¾Ð»ÑİÑĤÐ½Ð¾": 2602,
      "ĠÐºÐ°ÑĢÐ¼Ð°Ð½": 2603,
      "ĠÐºÐ°Ð½Ð¸ÐºÑĥ": 2604,
      "ĠÐ¥ÑĥÑĤÑĩ": 2605,
      "Ð¥": 2606,
      "ĠÑĢÐ¸": 2607,
      "Ð°ÑģÑĮ": 2608,
      "Ð»Ð°Ð»": 2609,
      "Ð»Ð¾Ð½": 2610,
      "ÑģÐ¾ÑĤ": 2611,
      "ÑĥÑı": 2612,
      "ÑĥÑģÑĤÑĮ": 2613,
      "ĠÐ¿Ð°Ðº": 2614,
      "ĠÐ¿Ð¾Ð»ÑĮÐ·": 2615,
      "ĠÑģÐ°Ð´": 2616,
      "ĠÑģÐ·Ð°Ð´Ð¸": 2617,
      "ĠÑģÑĥÐ½Ð´Ñĥ": 2618,
      "ĠÐ½Ð¾Ð¼": 2619,
      "ĠÐ½ÑĢÐ°Ð²": 2620,
      "ÑĩÐµÐ½": 2621,
      "ÑĩÐ¸Ð²": 2622,
      "ĠÐ²Ð¸": 2623,
      "ĠÐ²ÐµÑģ": 2624,
      "ĠÐ²Ð¸Ð¶Ñĥ": 2625,
      "ÑĢÐ¸Ð»": 2626,
      "ÑĢÐ¸Ð»ÑģÑı": 2627,
      "ĠÐºÑĢÐ°": 2628,
      "ĠÐºÑĢÑĥ": 2629,
      "ĠÐºÑĥÑĢ": 2630,
      "ÐµÑĢÐ¾": 2631,
      "ÑħÑĥ": 2632,
      "ÑħÐ¾Ð¶": 2633,
      "Ð»Ð¸Ð¶Ðµ": 2634,
      "Ð»Ð¸ÑĩÐ½Ð¾": 2635,
      "Ð»Ð¸Ð»ÑģÑı": 2636,
      "Ð»Ð¸ÐºÐ½ÑĥÐ»": 2637,
      "ĠÐ´ÐµÐ½": 2638,
      "ĠÐ´ÑĭÑĪ": 2639,
      "ĠÐ±ÐµÑĢ": 2640,
      "ĠÐ±ÑĢÐ°ÑĤÑĮ": 2641,
      "ĠÐ¼Ð¾Ð¹": 2642,
      "ĠÐ¼Ð»Ð°Ð´": 2643,
      "ĠÐ¼Ð°ÑĪÐ¸": 2644,
      "Ð½Ð¾ÑģÑĤÑĮ": 2645,
      "Ð½Ð¾ÑģÑĤÐ¸": 2646,
      "Ð¾Ð¼Ð¸Ð½Ð°": 2647,
      "Ð°ÐºÑĤÐ¸": 2648,
      "ÐµÐ½Ð½ÑĥÑİ": 2649,
      "Ð·Ñĭ": 2650,
      "Ð°Ð¼Ñı": 2651,
      "ĠÐ½Ð°ÑĪÐµÐ»": 2652,
      "ĠÐ½Ð°ÑĩÐ¸Ð½Ð°": 2653,
      "Ð¾ÑĢÐ°Ð»": 2654,
      "ÐµÐ¼ÑģÑı": 2655,
      "ĠÐµÑħ": 2656,
      "ĠÑĢÑĥÑĩ": 2657,
      "Ð°Ð´Ð¾Ñĩ": 2658,
      "ĠÐŀÐ±": 2659,
      "ĠÐĿÐ°ÐºÐ¾Ð½ÐµÑĨ": 2660,
      "ÑĨÐ¸": 2661,
      "ĠÐ¾ÑĤÑĤ": 2662,
      "ĠÐ¾ÑĤÑĩÐ°Ñı": 2663,
      "ĠÐ¿ÑĢÑĭ": 2664,
      "ĠÐ¿ÑĢÐ¾Ð¼": 2665,
      "ĠÑģÐºÐ¾ÑĢ": 2666,
      "ÐºÐ¸Ð¼Ð¸": 2667,
      "ÑĢÐ°ÑĩÐ½Ð¾": 2668,
      "ĠÐ²ÑĭÐº": 2669,
      "ĠÐ²ÑĭÐ¹": 2670,
      "ĠÐ²ÑĭÑĢÐ²": 2671,
      "Ð»ÑıÑı": 2672,
      "ĠÐľÐ¾Ð¶Ð½Ð¾": 2673,
      "Ð¸Ð½Ð¾Ðº": 2674,
      "ĠÐ¸Ð·ÑĥÐ¼": 2675,
      "ĠÐ¿ÑĢÐ¸ÑģÑĤ": 2676,
      "ĠÐ¿ÑĢÐ¸Ð½ÐµÑģ": 2677,
      "ĠÑĪÐ¸ÑĢ": 2678,
      "ĠÐ¿Ð¾Ð´Ð¿": 2679,
      "Ð¾Ð·Ð¼Ð¾Ð¶Ð½Ð¾": 2680,
      "ĠÑģÐ¿ÑĢÐ°Ð²": 2681,
      "ĠÑģÐ¿ÑĢÐ°ÑĪ": 2682,
      "ĠÑĤÐ°ÐºÐ¸Ðµ": 2683,
      "ĠÑģÐ»Ð°Ð±": 2684,
      "ĠÑĢÐ°Ð·ÑĥÐ¼": 2685,
      "ĠÑĢÐ°Ð·Ð³Ð»ÑıÐ´": 2686,
      "Ð¾Ð¿Ð¾Ð»": 2687,
      "Ð¾Ð¿Ð°Ñģ": 2688,
      "ÐµÑģÑĤÐ²Ð°": 2689,
      "ĠÐ¿ÐµÑĢÐµÐ¼": 2690,
      "ĠÐ¿ÐµÑĢÐµÐ¶": 2691,
      "Ð¾ÑĩÐµÐº": 2692,
      "ĠÐĺÐ½": 2693,
      "Ð°ÑİÑīÐ¸Ð¹": 2694,
      "ÑĤÐ¾Ð¼Ñĥ": 2695,
      "ĠÐ²Ð·Ð±": 2696,
      "ĠÐ±ÑĥÐ´ÑĥÑĤ": 2697,
      "ĠÑģÐ²Ð¾Ð¸Ð¼": 2698,
      "ĠÑĤÑĢÐ°Ð²": 2699,
      "ĠÐĽÑıÐ³ÑĥÑĪ": 2700,
      "ĠÐ·Ð°Ð¼Ð¾Ðº": 2701,
      "ĠÐ¼Ð¾Ð³ÑĥÑĤ": 2702,
      "ĠÐ²Ð¾Ð·Ð»Ðµ": 2703,
      "ĠÐ¸Ð¼ÐµÐ½Ð¸": 2704,
      "ĠÐĵÑĢÐ¸Ð¿": 2705,
      "ĠÑģÐ¼Ð¾Ð¶ÐµÑĤ": 2706,
      "Ð¸Ð³Ð³": 2707,
      "ĠÐ·Ð°Ð¿ÐµÑĢ": 2708,
      "ĠÐ·Ð°Ð¿Ð°Ñħ": 2709,
      "ĠÐ´ÐµÐ»Ð°": 2710,
      "ĠÐ´Ð²ÐµÐ½": 2711,
      "ĠÐ³Ð»Ð°Ð·Ð°Ð¼Ð¸": 2712,
      "ĠÐ³Ð»Ð°Ð·Ð°Ñħ": 2713,
      "ÐĲÐĲ": 2714,
      "ĠÐ²ÐµÑĢÐ½ÑĥÑĤÑĮÑģÑı": 2715,
      "ĠÐ³Ð¾Ð²Ð¾ÑĢÐ¸ÑĤ": 2716,
      "ĠÐ·Ð½Ð°Ð»Ð¸": 2717,
      "ĠÐ²Ð¾Ð»ÑĪÐµÐ±Ð½ÑĭÑħ": 2718,
      "ĠÐ´ÑıÐ´ÑİÑĪÐºÐ°": 2719,
      "ĠÑĩÑĥÐ²ÑģÑĤÐ²Ð¾Ð²Ð°Ð»": 2720,
      "ĠÑĥÐ²Ð¸Ð´ÐµÑĤÑĮ": 2721,
      "ĠÐ¿Ð°Ð»Ð¾ÑĩÐºÐ¸": 2722,
      "ĠÐ¤Ð¸Ð»ÑĩÐ°": 2723,
      "ĠÐ±Ð¾Ð»ÑĮÑĪÑĥÑİ": 2724,
      "ĠÐ²Ð´Ð¾Ð»ÑĮ": 2725,
      "ĠÑĥÐ¿Ð°Ð»": 2726,
      "ĠÑĥÐ·Ð½Ð°Ð»": 2727,
      "ĠÑħÐ¾ÑĩÐµÑĪÑĮ": 2728,
      "ĠÐĴÐ¾Ð»ÑĪÐµÐ±": 2729,
      "ĠÐ¾ÑĤÐºÑĢÑĭÐ»": 2730,
      "ĠÐºÑĢÐ°Ð¹": 2731,
      "ĠÐ·Ð°Ð³Ð»Ñı": 2732,
      "ĠÑĥÐºÐ°Ð·Ð°Ð»": 2733,
      "ĠÑģÐ»ÑĥÑĩÐ°Ð¹": 2734,
      "ĠÐļÐ²Ð¸Ð´Ð´Ð¸ÑĩÐ°": 2735,
      "ĠÐ¸ÑģÐºÐ»ÑİÑĩ": 2736,
      "ĠÑįÑĤÐ¸Ñħ": 2737,
      "ĠÐ¿Ð°Ð»ÑĮÑĤÐ¾": 2738,
      "ĠÐ½Ð¾ÑĩÑĮ": 2739,
      "ĠÐºÐ¾ÑĢÐ¾Ð±": 2740,
      "ÐµÑģÑĤÐ²ÐµÐ½": 2741,
      "ĠÐ²Ð¿ÐµÑĢÐµÐ´Ð¸": 2742,
      "ĠÐ²Ð½Ð¸Ð¼Ð°ÑĤÐµÐ»ÑĮÐ½Ð¾": 2743,
      "ĠÐ²Ð½Ð¸Ð¼Ð°Ð½Ð¸Ñı": 2744,
      "ĠÐ´ÑĢÑĥÐ¶": 2745,
      "ÑĤÐ°ÐºÐ¸": 2746,
      "ĠÐ»ÐµÐ³ÐºÐ¾": 2747,
      "ĠÐ¿ÑĥÑĤÐ¸": 2748,
      "Ð¼Ð°ÑĤÑĢÐ¸Ð²": 2749,
      "ĠÐ¿Ð¾ÑħÐ¾Ð¶": 2750,
      "ĠÐ¿Ð¾ÑħÐ¾Ð¶Ðµ": 2751,
      "ĠÐ³Ð¾Ð»Ð¾Ð²Ð°": 2752,
      "ĠÐ¿ÑĢÐ¾Ð´Ð¾Ð»Ð¶Ð°Ð»": 2753,
      "ĠÐĿÐ°Ð¿Ð°Ð´": 2754,
      "ĠÑĢÐµÑĪÐ¸Ð»": 2755,
      "ÐĹÐ½Ð°ÐµÑĤÐµ": 2756,
      "ĠÐŀÐ´Ð½": 2757,
      "ĠÑģÐ¿Ð°Ð»ÑĮÐ½Ñİ": 2758,
      "ĠÐ¿ÑĢÐµÐ´Ð¿Ð¾Ñĩ": 2759,
      "ĠÑĥÐ»Ð¸ÑĨÐµ": 2760,
      "ĠÐĳÐ¾Ð»ÑĮÑĪÐ¾Ð¹": 2761,
      "ĠÐĵÐ¾Ð¹Ð»": 2762,
      "ĠÐĶÑĢÐ°ÐºÐ¾": 2763,
      "ĠÑıÑĢÐ¾ÑģÑĤÐ½Ð¾": 2764,
      "Ð²Ð¾ÑĢÐ°Ñĩ": 2765,
      "ĠÐ¾Ð´Ð½Ð°Ð¶Ð´Ñĭ": 2766,
      "ĠÑĢÐ°Ð´Ð¾ÑģÑĤÐ½Ð¾": 2767,
      "ĠÐĹÐµÑĢÐºÐ°Ð»Ð¾": 2768,
      "ĠÐ´ÑİÐ¹": 2769,
      "ĠÐ±ÑĥÑĤÑĭÐ»Ð¾": 2770,
      "ĠÐłÐ¾Ð¶Ð´ÐµÑģÑĤÐ²Ð¾": 2771,
      "ĠÐ¸Ð·Ð±Ð°Ð²": 2772,
      "ĠÐºÐ¾Ð¼Ð°Ð½Ð´Ñĭ": 2773,
      "ĠÑıÑĢÐºÐ¾": 2774,
      "ĠÑĥÐºÐ°Ð·ÑĭÐ²Ð°Ñı": 2775,
      "ĠÐ³Ð¸Ð³Ð°Ð½ÑĤ": 2776,
      "ĠÐ³Ð¾ÑģÑĤÐ¸Ð½ÑĥÑİ": 2777,
      "ĠÐ½Ð¾ÑĢÐ¼": 2778,
      "ĠÐŀÑĩÐµÐ½ÑĮ": 2779,
      "ĠÐ¾Ð¶Ð¸Ð´Ð°Ð»": 2780,
      "ĠÐļÐ°Ð¶Ð´ÑĭÐ¹": 2781,
      "ĠÐĲÐ»ÑĮÐ±ÑĥÑģ": 2782,
      "ĠÐ½Ð¾Ð¼ÐµÑĢ": 2783,
      ").": 2784,
      "Ð°Ð½Ñĭ": 2785,
      "Ð¸Ð½ÑĥÐ»": 2786,
      "ÑĤÐ°Ñı": 2787,
      "ÑĤÑĭÐµ": 2788,
      "Ð»ÐµÑģ": 2789,
      "Ð»ÐµÐ½Ð¸Ðµ": 2790,
      "ÑģÑİ": 2791,
      "Ð½Ð°Ð´": 2792,
      "Ð½Ð°Ð²": 2793,
      "Ð½Ð°Ð´ÑĨÐ°ÑĤ": 2794,
      "ĠÐ¿Ð°Ð´": 2795,
      "ĠÐ¿Ð¸Ñģ": 2796,
      "ĠÑģÑĥÑīÐµÑģÑĤÐ²": 2797,
      "ĠÐ½Ð°Ð»": 2798,
      "ÑĩÑĥ": 2799,
      "ÑĩÐ½ÑĭÐ¹": 2800,
      "ĠÐ²Ð»": 2801,
      "ĠÐ²ÑĤÐ¾ÑĢ": 2802,
      "ÐºÑģ": 2803,
      "ÐºÐ°Ð»": 2804,
      "ÐºÐºÑĥ": 2805,
      "ÐºÐ»Ð¾Ñĥ": 2806,
      "Ð´ÐµÑĪÑĮ": 2807,
      "ĠÐ¾Ñī": 2808,
      "ĠÐ¸ÑģÑĤÐ¾ÑĢÐ¸": 2809,
      "Ð»Ð¸Ð¶": 2810,
      "ĠÐ´Ð¾Ð²": 2811,
      "ĠÐ´Ð¾ÑĤ": 2812,
      "ÑģÑĤÐ¸ÑĤÐµ": 2813,
      "Ð½Ð¸Ñĩ": 2814,
      "ĠÐ±Ð¾ÑĢÐ¼Ð¾ÑĤÐ°Ð»": 2815,
      "ĠÑĤÐ°Ð±": 2816,
      "ĠÑĤÑĥÐ¿": 2817,
      "ĠÑĤÐ²Ð¾Ð¹": 2818,
      "Ð¾Ð²Ð°Ð»Ð°": 2819,
      "Ð°ÑĢÑĮ": 2820,
      "Ð°ÑĢÑĭ": 2821,
      "ÐµÑĤÑĭ": 2822,
      "ĠÐ¼Ð¸Ð»": 2823,
      "ĠÐ¼Ð°ÑĤÑĮ": 2824,
      "ĠÐ¼ÑĥÐ¶": 2825,
      "ĠÑĩÐ°Ð¹": 2826,
      "ĠÐĵÐ¾Ñģ": 2827,
      "ĠÐĵÐ¾Ð²Ð¾ÑĢ": 2828,
      "ĠÐ·Ð¾Ð½": 2829,
      "Ð¾Ð»Ð¾": 2830,
      "Ð¾Ð»Ð·": 2831,
      "Ð°ÐºÐ¾Ð²": 2832,
      "Ð¾Ð½Ñĥ": 2833,
      "ÐµÐ½ÐµÐ¼": 2834,
      "ÐµÐ½Ð½Ð¾Ð³Ð¾": 2835,
      "ÐµÐ½Ð½ÑĭÐ¼Ð¸": 2836,
      "Ð±Ð¾Ð»": 2837,
      "ĠÐ¿Ð¾ÑģÑĤÐ°Ð²": 2838,
      "ĠÐ¿Ð¾ÑıÑģ": 2839,
      "ĠÑĢÐ²Ð°": 2840,
      "ĠÐŀÑģÑĤ": 2841,
      "ÐµÐ´Ð¸": 2842,
      "ÐµÐ´ÐµÑĤ": 2843,
      "ĠÐĿÐ°Ð²": 2844,
      "ĠÐĿÐ°Ð´Ð¾": 2845,
      "ĠÐĶÐ²": 2846,
      "ÑĨÐ¾Ð¼": 2847,
      "ÑĨÐ¸Ñı": 2848,
      "Ð°Ð³Ð¾Ð´": 2849,
      "ĠÐ»Ð°Ð´": 2850,
      "ĠÐ»Ð±Ñĥ": 2851,
      "ĠÐ¾ÑĤÐ´": 2852,
      "ĠÐ¾ÑĤÐ±": 2853,
      "ĠÐ¾ÑĤÑĢÑĭÐ²": 2854,
      "ĠÐ¾ÑĤÐ¼ÐµÑĤ": 2855,
      "ĠÐ³ÑĢ": 2856,
      "ĠÐ³Ð°Ð·": 2857,
      "ĠÐ³Ð°Ð´": 2858,
      "ĠÐ¿ÑĢÐ°ÐºÑĤÐ¸": 2859,
      "ĠÑģÐºÐ¾Ð»ÑĮÐ·": 2860,
      "ÐºÐ¸Ð½": 2861,
      "Ð³Ð¾Ðµ": 2862,
      "ÑĢÐ°ÑĦ": 2863,
      "ĠÐ²ÑĭÐ³": 2864,
      "ĠÐ²ÑĭÐ´Ð¾ÑħÐ½ÑĥÐ»": 2865,
      "ĠÐļÑĢÐ¾Ð²": 2866,
      "ĠÐļÐ°Ð·Ð°Ð»Ð¾ÑģÑĮ": 2867,
      "ĠÐ²ÑģÐºÐ¾": 2868,
      "ĠÐ²ÑģÐµÐ¼Ñĥ": 2869,
      "ĠÐ²ÑģÑħÐ»Ð¸": 2870,
      "ĠÐ·Ð°ÑīÐ¸ÑĤ": 2871,
      "ĠÐºÐ°ÐºÐ°Ñı": 2872,
      "ĠÐłÐ°Ð²ÐµÐ½": 2873,
      "ÐµÐ±Ðµ": 2874,
      "Ð°Ð½Ð½ÑĭÑħ": 2875,
      "Ð°ÑģÐ¸Ð±Ð¾": 2876,
      "ĠÑıÐ¹": 2877,
      "Ð¸Ð½ÑĤÐµÑĢÐµÑģ": 2878,
      "ĠÐ½Ð¾ÑĩÐ¸": 2879,
      "ĠÐ¿ÑĢÐ¸ÑĤ": 2880,
      "ĠÐ¿ÑĢÐ¸Ð·ÐµÐ¼": 2881,
      "ĠÐ¢Ð¸Ð³": 2882,
      "ĠÑħÐ¸Ð¶Ð¸": 2883,
      "ĠÑĪÐµÑĢ": 2884,
      "ĠÑĪÐ°Ð½": 2885,
      "ĠÑĪÐµÑģÑĤ": 2886,
      "ĠÐ¾Ð±ÐµÐ´": 2887,
      "Ð¸Ð²Ð°Ð»Ð°": 2888,
      "Ð¸Ð²ÑĪÐ¸ÑģÑĮ": 2889,
      "ĠÑģÐ¿Ð¸Ð½Ð¾Ð¹": 2890,
      "ĠÑĢÐ°Ð·Ð¼ÐµÑĢ": 2891,
      "ĠÑĢÐ°Ð·Ð»Ð¸Ñĩ": 2892,
      "Ð¾Ð¿Ð¸Ð»": 2893,
      "ĠÐ³Ð¾Ñģ": 2894,
      "ĠÐºÐ¾Ñģ": 2895,
      "ĠÐºÐ¾ÑĪÐºÐ°": 2896,
      "ĠÐ¿ÐµÑĢÐµ": 2897,
      "ĠÐ¿ÐµÑĢÐµÐ¿": 2898,
      "ĠÐ¿ÐµÑĢÐµÑģÐ¿": 2899,
      "ĠÐĺÑĤÐ°Ðº": 2900,
      "ĠÐ¿Ð¾Ð»Ð¾Ð²": 2901,
      "ÐµÐ»ÑĮÐµ": 2902,
      "ÑīÐ¸Ð½Ð°": 2903,
      "ÑīÐ¸ÐµÑģÑı": 2904,
      "ĠÐĳÐ°ÑĢ": 2905,
      "ÑĭÐ²Ð°ÑıÑģÑĮ": 2906,
      "ĠÐĹÐ°Ðº": 2907,
      "Ð¾Ð²Ð°ÑĤÐ¸": 2908,
      "ĠÐºÐ¾ÑĤÐ¾ÑĢÐ¾Ð¼": 2909,
      "ĠÐºÐ¾ÑĤÐ¾ÑĢÐ¾Ðµ": 2910,
      "ĠÐ¿Ð¾ÐºÑĥÐ¿": 2911,
      "ÑģÑĤÑĮÑı": 2912,
      "ĠÐ²Ð·Ð¼Ð°Ñħ": 2913,
      "ĠÑĤÑĢÐ¾Ð¿": 2914,
      "ĠÐ²Ð¸Ð´ÐµÐ»Ð¸": 2915,
      "ĠÐ·Ð°Ð¼ÐµÑĢ": 2916,
      "ĠÐ³Ð»ÑĥÐ¿": 2917,
      "Ð¸ÑħÐ¸Ðº": 2918,
      "ĠÐ²Ð¾Ð·Ð½Ð¸Ðº": 2919,
      "ĠÐ¾ÑĩÐºÐ¸": 2920,
      "ĠÐķÐµ": 2921,
      "ÑĥÐ¶Ð´": 2922,
      "ÑĢÐµÐ¼ÐµÐ½Ð½Ð¾": 2923,
      "ĠÑģÐ¿ÑĢÐ¾ÑģÐ¸ÑĤÑĮ": 2924,
      "ĠÐ¾ÐºÐ¾Ð»Ð¾": 2925,
      "ĠÐ½Ð°Ð¿Ð¸Ñģ": 2926,
      "ÑıÑĤÑĮÑģÑı": 2927,
      "ĠÐ´ÐµÐ»Ð°ÐµÑĤ": 2928,
      "ĠÑģÐ¾Ð²Ñĭ": 2929,
      "ĠÐŁÑĢÐ¾ÑĤÐµÐº": 2930,
      "ĠÐ²ÐµÑĢÑħ": 2931,
      "ĠÐ³Ð¾Ð²Ð¾ÑĢÐ¸Ð»Ð°": 2932,
      "ĠÐ´Ð¾Ð¼Ð°ÑĪ": 2933,
      "ÐµÑħÐ°Ð»": 2934,
      "ĠÐ´ÑĥÐ¼Ð°ÐµÑĪÑĮ": 2935,
      "Ð¾Ð³Ð¸Ðµ": 2936,
      "ĠÐ·Ð°Ð¼ÐµÑĤÐ¸Ð»Ð¸": 2937,
      "ÑĥÑĢÑĩÐ°Ð»": 2938,
      "ÑģÑĤÐ°ÑĤÐ¸": 2939,
      "ĠÐ¸Ð³ÑĢÑĭ": 2940,
      "ĠÐ¥Ð¾Ð³Ð²Ð°ÑĢÑĤÑģÐ°": 2941,
      "ÑģÐ¸Ð»Ð¸ÑģÑĮ": 2942,
      "ĠÑģÐ¼Ð¾ÑĤÑĢÐ¸": 2943,
      "ĠÑģÐ¼Ð¾ÑĤÑĢÐµÑĤÑĮ": 2944,
      "ĠÑĤÐ¾Ð»Ð¿": 2945,
      "ĠÐ¿Ð»Ð°Ðº": 2946,
      "ĠÐ¿Ð»Ð°Ð¼Ñı": 2947,
      "ĠÑĥÐ¿ÑĢÐ°Ð²": 2948,
      "ĠÐŁÐµÑĤÑĥÐ½Ð¸Ð¸": 2949,
      "ĠÐ½ÐµÐ¼ÐµÐ´Ð»ÐµÐ½Ð½Ð¾": 2950,
      "ĠÐ¿ÑĢÐ¾Ð²ÐµÐ»": 2951,
      "ĠÑģÐ²ÐµÑĤÐµ": 2952,
      "ĠÐºÑĢÐ¾Ð²Ð°ÑĤÐ¸": 2953,
      "ĠÐ´ÑĢÐ°ÐºÐ¾Ð½Ð¾Ð²": 2954,
      "ĠÐ³Ð¾Ð´Ð°": 2955,
      "ĠÐ¨Ð¾ÐºÐ¾Ð»Ð°Ð´": 2956,
      "ĠÐľÐ°Ð»ÑĦÐ¾ÐµÐ¼": 2957,
      "ĠÐ¼Ð¸Ð½ÑĥÑĤÑĥ": 2958,
      "ĠÐ½Ð°ÐºÐ»Ð¾Ð½Ð¸": 2959,
      "ĠÐ²ÐµÐ»Ð¸Ñĩ": 2960,
      "ĠÐ¸Ð½Ð¾Ð³Ð´Ð°": 2961,
      "ĠÐ·Ð²ÑĥÐº": 2962,
      "ĠÐ¸ÑģÐºÐ°ÑĤÑĮ": 2963,
      "ĠÐ¼Ð°ÑĤÑĩ": 2964,
      "ĠÐ¼Ð°ÑĤÐµÑĢÐ¸": 2965,
      "ĠÐ¿Ð¾Ð½Ð¸Ð¼Ð°Ð»": 2966,
      "ĠÑĥÐ¶Ð°ÑģÐµ": 2967,
      "ĠÐºÑĥÐ¿Ð¸Ð»": 2968,
      "Ð°ÑİÑīÐµÐ¹": 2969,
      "ĠÑĩÐµÐ»Ð¾Ð²ÐµÐºÐ°": 2970,
      "ĠÐ¿Ð¾ÑģÑĤÑĥÑĩ": 2971,
      "ĠÐ¿Ð¾Ð¹Ð¼Ð°ÑĤÑĮ": 2972,
      "ĠÑĤÐµÐ»ÐµÐ¶": 2973,
      "ĠÑĥÑħÐ¼Ñĭ": 2974,
      "ĠÐ¼ÑıÑĩ": 2975,
      "ĠÐºÐ°Ð¶Ð´ÑĭÐ¹": 2976,
      "ĠÐ·Ð°ÑģÑĤÐ°Ð²Ð¸Ð»": 2977,
      "ĠÐ·ÐµÑĢÐºÐ°Ð»Ð¾": 2978,
      "ĠÐŁÐ¾ÑĩÑĤÐ¸": 2979,
      "ÐºÐ¸Ð²Ð°Ñı": 2980,
      "ĠÐºÐ¾ÑĤÐ¾ÑĢÐ¾Ð¹": 2981,
      "ĠÑĥÐ·Ð½Ð°ÑĤÑĮ": 2982,
      "Ð°Ð³Ð¾Ð½": 2983,
      "ĠÐŁÐ¾Ð»Ð°Ð³Ð°Ñİ": 2984,
      "ĠÐ²Ð¾Ð»ÑĪÐµÐ±Ð½Ð¸ÐºÐ¾Ð²": 2985,
      "ĠÑĢÐ¾Ð´Ð¸ÑĤÐµÐ»ÐµÐ¹": 2986,
      "ĠÐ¿ÑĢÐ¾ÑĩÐµÐ»": 2987,
      "ĠÐ·Ð°ÑħÐ»Ð¾Ð¿": 2988,
      "ĠÐ¾ÐºÐ°Ð·Ð°Ð»ÑģÑı": 2989,
      "ĠÐ¿ÑĢÐµÐ´Ð¿Ð¾Ð»": 2990,
      "ĠÐĿÐ¾ÑĢÐ±ÐµÑĢÑĤ": 2991,
      "ĠÐ±ÐµÑģÐ¿Ð¾ÐºÐ¾": 2992,
      "ĠÐ´Ð¾ÑĢÐ¾Ð³Ñĥ": 2993,
      "ĠÑĢÐµÐ·ÐºÐ¾": 2994,
      "ĠÐ¿Ð¾ÑĤÐ¾Ð»ÐºÐ°": 2995,
      "ĠÐ¼Ð°Ð³Ð°Ð·Ð¸Ð½Ð°": 2996,
      "ÑĢÑĥÐ´Ð½Ð¾": 2997,
      "ÐłÐĺ": 2998,
      "ĠÑģÑĤÑĥÐ¿ÐµÐ½ÑĮ": 2999,
      "Ð¸Ð³ÑĥÑĢÐ°": 3000,
      "ĠÐºÐ°Ð·Ð°Ð»Ð¸ÑģÑĮ": 3001,
      "ĠÐ¿Ð¾ÑģÐ¿ÐµÑĪ": 3002,
      "ĠÑģÐ²Ð¸ÑĤÐµÑĢ": 3003,
      "ĠÐ¼Ð°Ð³Ð³Ð»Ð¾Ð²": 3004,
      "ĠÐŁÐ¸ÑĢÑģ": 3005,
      "ĠÐµÐ´Ð¸Ð½ÑģÑĤÐ²": 3006,
      "ÐµÑĦÐµÐºÑĤ": 3007,
      "ĠÑĤÑİÑĢÐ±Ð°Ð½": 3008,
      "ĠÑĢÐ°Ð·Ð¼ÑĭÑĪ": 3009,
      "ĠÑģÐ¾Ð³Ð»Ð°ÑģÐ¸Ð»ÑģÑı": 3010,
      "ĠÐ¾ÑħÑĢÐ°Ð½ÑıÐµÑĤ": 3011,
      "ĠÐ±ÑĭÑģÑĤÑĢÐµÐµ": 3012,
      "ĠÐ²Ð¾ÑģÐºÐ»Ð¸ÐºÐ½ÑĥÐ»": 3013,
      "ĠÐ´ÐµÐ½ÐµÐ³": 3014,
      "ĠÐ´ÑİÐ¹Ð¼": 3015,
      "ÐºÐºÑĥÑĢÐ°ÑĤ": 3016,
      "ĠÐ·Ð¾Ð½ÑĤÐ¸": 3017,
      "ĠÐ²ÑģÑħÐ»Ð¸Ð¿": 3018,
      "ĠÐłÐ°Ð²ÐµÐ½ÐºÐ»Ð¾Ñĥ": 3019,
      "Ð¾ÑĢÐ¸": 3020,
      "ÑĤÐ°Ð»": 3021,
      "ÑĤÐ²ÐµÑĢ": 3022,
      "Ð»Ð¾Ð´": 3023,
      "Ð»Ð¾ÑĤ": 3024,
      "Ð»ÑĥÐ±": 3025,
      "Ð»ÐµÐ½Ð¸ÐµÐ¼": 3026,
      "ÑĢÐ°Ð»Ð¸": 3027,
      "ÑĢÐ°ÑĤÑĮÑģÑı": 3028,
      "Ð½ÐµÐ³Ð¾": 3029,
      "ÑĥÐºÐ¸": 3030,
      "ÑĥÑģÑĤÐ¸": 3031,
      "ÑĮÐµÐ²": 3032,
      "ÑĭÐ»Ð°": 3033,
      "ĠÐ¿Ð°": 3034,
      "ĠÑģÐ½Ð¸Ð¼": 3035,
      "ĠÐ½Ð°Ð¼Ð¸": 3036,
      "ĠÐ½Ð¾Ð·Ð´": 3037,
      "ÑĩÐ¸Ð»Ð°": 3038,
      "ĠÐ²Ð¾Ð½": 3039,
      "ĠÐ²Ð¸Ð½": 3040,
      "ĠÐ²Ð¸Ð·": 3041,
      "Ð´ÐµÐ»": 3042,
      "Ð´ÑĨ": 3043,
      "ÑĤÐ¾ÑĨ": 3044,
      "ĠÐ¾ÑĢ": 3045,
      "ĠÐ¾Ð´Ðµ": 3046,
      "Ð¼ÐµÐ»": 3047,
      "Ð¼ÑĭÐ»": 3048,
      "ĠÐºÑĥÑģ": 3049,
      "ÑĪÐºÑĥ": 3050,
      "ÐµÑĢÑı": 3051,
      "ÑħÑĥÐº": 3052,
      "ĠÐ´Ð¾Ð³": 3053,
      "ĠÐ´ÑĥÐ±": 3054,
      "ĠÐ´ÑĥÑĢ": 3055,
      "Ð½Ð¸Ñħ": 3056,
      "Ð½Ð¸Ð»Ð¸ÑģÑĮ": 3057,
      "Ð½Ð¸ÑĤÐµ": 3058,
      "ĠÐ±Ð¸Ð»": 3059,
      "ĠÐ±ÑĥÐ¼": 3060,
      "ĠÑĤÐµÐ¿": 3061,
      "ĠÑĤÐ¸Ð³": 3062,
      "ĠÑĤÐµÐ»Ð¾": 3063,
      "Ð¾Ð²Ð°ÑĤÑĮÑģÑı": 3064,
      "ĠÐ¼Ð°Ñģ": 3065,
      "ĠÐ¼Ð°Ñħ": 3066,
      "ĠÐ¼ÑĢÐ°ÑĩÐ½Ð¾": 3067,
      "ĠÑĩÐµÑģÑĤ": 3068,
      "ÑİÑīÐ¸Ð¹": 3069,
      "Ð¾Ð½Ð°": 3070,
      "ÐµÐ½ÐµÐ»": 3071,
      "ÐµÐ½Ð½Ð°Ñı": 3072,
      "ĠÐ½ÐµÑģÐºÐ¾Ð»ÑĮ": 3073,
      "Ð±Ð¾": 3074,
      "Ð·ÐµÐ»ÐµÐ½": 3075,
      "Ð°Ð·Ð°ÑĤÑĮÑģÑı": 3076,
      "ÑĢÐ¾Ð½Ð¸": 3077,
      "ÑĢÐ¾Ð½Ð¸Ð»": 3078,
      "ĠÐ½Ð°ÑģÑĤÑĢÐ¾": 3079,
      "Ð³Ð±Ð¾ÑĤ": 3080,
      "ÑįÐ»": 3081,
      "ĠÐŁÐ¾Ð²": 3082,
      "Ð°Ð²Ð°Ð»Ð¾ÑģÑĮ": 3083,
      "Ð°Ð²ÑĪÐ¸Ð¹": 3084,
      "ĠÐĿÐµÑģÐº": 3085,
      "ÑĨÐµÐ²": 3086,
      "ĠÐ»Ð¾Ð²": 3087,
      "ĠÐĴÑģ": 3088,
      "ĠÐ¾ÑĤÐ»Ð¸Ñĩ": 3089,
      "ĠÐ³Ð¾Ð±Ð»Ð¸Ð½": 3090,
      "ĠÐ¡Ð¾Ð²": 3091,
      "ĠÐ¡ÐµÐº": 3092,
      "ĠÐ¡ÑįÑĢ": 3093,
      "ĠÑģÐºÐ°Ð·": 3094,
      "ÑĢÐ°ÑģÑĤÑĮ": 3095,
      "ĠÐ¿ÑĢÐ¾ÑĪÐ»Ð¸": 3096,
      "ĠÐ¿ÑĢÐ¾ÑĤÑı": 3097,
      "ĠÐ¿ÑĢÐ¾ÐµÐ·Ð´": 3098,
      "Ð»ÑıÐ»": 3099,
      "ĠÐľÐ¾Ð¹": 3100,
      "ĠÐ¥ÑįÐ»": 3101,
      "ÐµÐ²Ð¸Ð´": 3102,
      "ÐµÐ²Ð¸Ð·": 3103,
      "ĠÐ½Ð¸Ð·": 3104,
      "ÑĤÐ¸Ñħ": 3105,
      "ÑĤÐ¸Ð½Ð³": 3106,
      "ĠÑıÑģÐ½Ð¾": 3107,
      "ĠÐ¶Ð°ÑĢ": 3108,
      "ĠÑģÑĤÐ°Ð½Ð¾Ð²": 3109,
      "ĠÐ¸Ð·Ð¾": 3110,
      "ĠÐ¢Ð¾": 3111,
      "ĠÐ¢ÑĢ": 3112,
      "ĠÑħÐ¾Ð»": 3113,
      "ÑĢÑĭÐ¹": 3114,
      "ĠÑĪÑĤÑĥ": 3115,
      "ĠÐ¿Ð¾Ð´Ð¾Ð·": 3116,
      "ĠÐ¿Ð¾Ð´ÑĤÐ²ÐµÑĢ": 3117,
      "Ð¾Ð·Ð¾Ð²": 3118,
      "ĠÑģÐ¿Ð°Ð»": 3119,
      "ĠÑģÐ¿Ð¾Ñģ": 3120,
      "ĠÑģÐ»Ð¾Ð²Ð¾": 3121,
      "ĠÑĢÐ°Ð·Ð²Ð¾ÑĢÐ°Ñĩ": 3122,
      "ĠÐ¿ÐµÑĢÐ³": 3123,
      "ĠÐ¿ÐµÑĢÐµÑģ": 3124,
      "ĠÐ¿ÐµÑĢÐµÑĪ": 3125,
      "ĠÐ¥Ð°Ð³ÑĢÐ¸Ð´Ð¾Ð¼": 3126,
      "ĠÐ°Ñħ": 3127,
      "ĠÐ¿Ð¾Ð»Ðµ": 3128,
      "ĠÐ¿Ð¾Ð»Ð¾Ð¶": 3129,
      "ÑĥÐ¼Ñı": 3130,
      "ÑīÐ¸Ð¼Ð¸": 3131,
      "ÑĭÐ²Ð°Ð»Ð¸ÑģÑĮ": 3132,
      "ĠÐ£Ñĩ": 3133,
      "ĠÐ¿Ð¾ÐºÐ°Ð·Ð°Ð»Ð¾ÑģÑĮ": 3134,
      "ĠÐ¾ÑģÑĤÐ°ÑĤÑĮÑģÑı": 3135,
      "ĠÐ´Ð¾ÑģÑĤÐ°Ð²": 3136,
      "ĠÐĲÑħ": 3137,
      "ĠÐ²Ð¸Ð´ÐµÑĤÑĮ": 3138,
      "ĠÐ½Ð°Ð´ÐµÑİÑģÑĮ": 3139,
      "Ð²Ð°ÐµÑĤ": 3140,
      "ĠÐ²Ð¾Ð»Ð½Ñĥ": 3141,
      "ÑĢÑıÑħ": 3142,
      "ĠÐ¿Ð¾Ð²ÐµÐ·Ð»Ð¾": 3143,
      "ĠÑģÐ¾Ñħ": 3144,
      "ĠÑģÐ¾ÑģÑĤÐ°Ð²": 3145,
      "ĠÑģÐ¼ÑĭÑģ": 3146,
      "Ð¸Ð³ÑĥÑĢ": 3147,
      "ĠÐ½Ð¸ÐºÐ¾Ð¼Ñĥ": 3148,
      "ĠÑģÐ¾Ð±Ñĭ": 3149,
      "ĠÐ¿Ð¾Ð¿Ð°Ð´": 3150,
      "ĠÐ¾ÑĤÐ²ÐµÑĤÐ¸Ð»Ð°": 3151,
      "ĠÑĦÐ¾ÑĤ": 3152,
      "ĠÑĦÐ¸Ð³ÑĥÑĢ": 3153,
      "ĠÐ³Ð¾Ð»Ð¾Ð²Ð°Ð¼Ð¸": 3154,
      "Ð¾ÑĢÐ¾ÑĤ": 3155,
      "ĠÑģÐµÑĢÐµÐ´": 3156,
      "ÐķÐ¢": 3157,
      "ĠÐ´Ð¾Ð¼Ðµ": 3158,
      "ĠÐ´ÑĢÑĥÐ³Ð¾Ð¼": 3159,
      "ĠÐ´ÐµÑĢÐ³": 3160,
      "ĠÐ¿Ð¾Ð·Ð²Ð¾": 3161,
      "ĠÐ¿ÐµÑĢÐ²ÑĥÑİ": 3162,
      "ĠÑĥÐ´Ð°Ð²Ð°Ð»Ð¾ÑģÑĮ": 3163,
      "ĠÐ¿ÑĢÐ°Ð²Ð¸Ð»": 3164,
      "ĠÐ¿ÑĢÐ°Ð²Ð¸Ð»Ð°": 3165,
      "ĠÐ¸Ð³ÑĢÐ°ÑĤÑĮ": 3166,
      "ĠÐ¿Ð¾Ð±Ð»Ð¸Ð¶Ðµ": 3167,
      "ĠÐ¿Ð¾Ð»ÑĥÑĩÐ¸ÑĤÑĮ": 3168,
      "ĠÐ·Ð°Ð²Ð¸Ð·": 3169,
      "ĠÐ·Ð°Ð²ÑĤÑĢ": 3170,
      "ĠÑģÐ¼Ð¾ÑĤÑĢÐµÐ»Ð¸": 3171,
      "ĠÐ²ÑģÑĤÐ°Ð»": 3172,
      "ĠÑģÑĤÐ°ÑĢÐ°Ð»ÑģÑı": 3173,
      "ĠÑģÐµÐ¼ÐµÐ¹": 3174,
      "ĠÐ»ÑİÐ±Ð¾Ð¿ÑĭÑĤ": 3175,
      "ÐŀÐĽ": 3176,
      "ĠÑĤÐ²Ð¾Ð¸Ñħ": 3177,
      "ĠÐ¿ÑĢÐ¾Ð¸Ð·Ð¾ÑĪ": 3178,
      "Ð½ÑİÑİ": 3179,
      "ĠÐ¿Ð¾ÑģÐ¼Ð¾ÑĤÑĢÐ¸": 3180,
      "ĠÐ½ÐµÐ´Ð¾": 3181,
      "ĠÐ±ÐµÐ·Ð¾Ð¿Ð°Ñģ": 3182,
      "ĠÐ¼Ð¾Ð¸": 3183,
      "ĠÐ¼Ð¾ÑĤÐ¾ÑĨ": 3184,
      "ĠÐºÐ½Ð¸Ð³Ñĥ": 3185,
      "ĠÑģÐ»ÑĥÑĩÐ°": 3186,
      "ÑĢÐ°Ð±Ð¾ÑĤ": 3187,
      "ĠÑĥÐ»ÑĭÐ±Ð½ÑĥÐ»ÑģÑı": 3188,
      "ĠÑĤÐµÑĤÐºÐ°": 3189,
      "ĠÐ½Ð°Ð·Ð²Ð°ÑĤÑĮ": 3190,
      "ĠÐľÐ°Ð»ÑĦÐ¾Ñİ": 3191,
      "ĠÐ´Ð»Ð¸Ð½Ð½ÑĭÐ¼": 3192,
      "ĠÑĩÐµÐ»Ð¾Ð²ÐµÑĩ": 3193,
      "ĠÑģÑĤÐ¾Ð»Ð¾Ð¼": 3194,
      "ĠÐ·Ð²ÐµÐ·Ð´": 3195,
      "ĠÑģÑĤÐ¾ÑıÐ»Ð°": 3196,
      "ĠÑĩÐ°ÑģÑĭ": 3197,
      "ĠÐ²ÑģÐ¿ÑĭÑĪ": 3198,
      "ĠÐ¿ÑĢÐ¸ÑģÐ¾": 3199,
      "ĠÐ¾ÑģÑĤÐ°Ð»ÑĮÐ½ÑĭÐ¼": 3200,
      "ĠÑģÐ¾ÑģÑĤÐ¾": 3201,
      "ĠÑģÐ¾ÑģÑĢÐµÐ´": 3202,
      "ĠÐ½Ð¾Ð²Ð°Ñı": 3203,
      "ÐĽÐĺ": 3204,
      "ĠÑĪÐ»ÑıÐ¿": 3205,
      "ĠÐ½Ð°Ð²ÐµÑĢÐ½Ð¾Ðµ": 3206,
      "ĠÐ²Ð¼ÐµÑģÑĤÐ¾": 3207,
      "ĠÐ´ÐµÑĢÐµÐ²ÑĮÑı": 3208,
      "ĠÐĿÐ¸ÑĩÐµÐ³Ð¾": 3209,
      "ĠÐĹÐ°ÑĤÐºÐ½Ð¸": 3210,
      "Ð°ÑĢÐ¸Ðº": 3211,
      "ĠÐ¿ÑıÑĤÑĮÐ´ÐµÑģÑıÑĤ": 3212,
      "ĠÐ¾Ð±ÑĭÑĩ": 3213,
      "ĠÐ½Ð°Ð¿ÑĢÐ°Ð²Ð»": 3214,
      "ĠÐ½Ð°Ð¿ÑĢÐ°Ð²Ð¸Ð»ÑģÑı": 3215,
      "ĠÐºÑĢÐ¾Ð²Ð¸": 3216,
      "ĠÐºÑĢÐ¾Ð²ÑĮ": 3217,
      "ĠÑĤÐµÐ»ÐµÐ²Ð¸Ð·": 3218,
      "ĠÑģÐµÐ¼ÑĮÐ¸": 3219,
      "ĠÐ±Ð»Ð¸Ð·ÐºÐ¾": 3220,
      "ĠÐ¡Ð¿Ð°ÑģÐ¸Ð±Ð¾": 3221,
      "ĠÐ¿ÑĢÐ¸Ð±Ð»Ð¸Ð¶": 3222,
      "ĠÑĥÐ·Ð½Ð°ÐµÑĤ": 3223,
      "ĠÐ¤Ð»Ð°Ð¼ÐµÐ»ÑĮ": 3224,
      "ĠÐ²Ð½ÑĥÑĤÑĢÐ¸": 3225,
      "ĠÐ·Ð°Ð¿Ð¸ÑģÐºÑĥ": 3226,
      "ĠÑģÐµÑĢÐ´ÑĨÐµ": 3227,
      "ĠÐ¾ÐºÐ°Ð·Ð°Ð»Ð¸ÑģÑĮ": 3228,
      "ĠÑĨÐµÐ»ÑĭÐ¹": 3229,
      "ĠÐ½Ð°ÑģÑĤÐ¾Ð»ÑĮÐºÐ¾": 3230,
      "ĠÑĢÐ¾Ð¶Ð´ÐµÑģÑĤÐ²ÐµÐ½": 3231,
      "ĠÐ¿ÑĢÐ¾Ð³Ð¾Ð²Ð¾ÑĢÐ¸Ð»": 3232,
      "ĠÐ±Ð°ÑĢÑĮ": 3233,
      "ĠÐĽÐ¾Ð½Ð³Ð±Ð¾ÑĤ": 3234,
      "ĠÐ½Ð¸ÐºÐ°ÐºÐ¸Ñħ": 3235,
      "ĠÐ¾Ð´Ð½Ð°ÐºÐ¾": 3236,
      "ĠÐ³Ð»ÑĥÐ±Ð¾ÐºÐ¾": 3237,
      "ĠÐ²Ð°Ð¶Ð½Ð¾": 3238,
      "ĠÐ±Ð¸Ð±Ð»Ð¸Ð¾ÑĤÐµÐºÐ¸": 3239,
      "ĠÐ¿Ð»ÐµÑĩÐ¾": 3240,
      "ĠÐ¼Ð¾Ð»ÑĩÐ°": 3241,
      "ĠÐ¿Ð¾Ð²ÑĤÐ¾ÑĢÑı": 3242,
      "ĠÑĥÑĩÐµÐ½Ð¸ÐºÐ¾Ð²": 3243,
      "ĠÐ·Ð¼ÐµÑı": 3244,
      "ĠÑĥÑģÑĤÐ°Ð²Ð¸Ð»ÑģÑı": 3245,
      "ĠÐ¿ÑĢÐµÐ´ÑĥÐ¿ÑĢÐµÐ´": 3246,
      "ĠÐ¿ÑĢÐµÐ´ÑĥÐ¿ÑĢÐµÐ¶": 3247,
      "ĠÐļÐ»ÑĭÐº": 3248,
      "ĠÐ½ÐµÐ¿ÑĢÐ¸ÑıÑĤÐ½Ð¾": 3249,
      "ĠÑĤÐ¸ÑĪÐ¸": 3250,
      "ĠÑģÐ¾Ð±Ð¸ÑĢÐ°Ð»ÑģÑı": 3251,
      "ĠÐ´Ð°Ð¼Ñĭ": 3252,
      "ĠÑĥÐ³Ð»Ñĥ": 3253,
      "ĠÐĶÐ¾Ð¼Ð¾Ð²": 3254,
      "ĠÑħÐ²Ð¾ÑģÑĤ": 3255,
      "ĠÐ¤Ð»Ð¸Ð½ÑĤ": 3256,
      "ĠÐ½ÐµÑĢÐ²Ð½Ð¾": 3257,
      "Ð²ÑĭÑĢÐ½ÑĥÐ»": 3258,
      "ĠÑĥÐ³Ð¾Ð»": 3259,
      "ĠÐ¿Ð¾ÐµÐ·Ð´Ðµ": 3260,
      "ĠÐ³ÑĢÑıÐ·": 3261,
      "ĠÐ·Ð°Ð²ÑĤÑĢÐ°": 3262,
      "ĠÐ¿Ð¾Ð´Ð¿ÑĢÑĭ": 3263,
      "ĠÐĵÑĢÐ¸Ð¿ÑħÑĥÐº": 3264,
      "ĠÐ¿ÑĢÐµÐ´Ð¿Ð¾ÑĩÐµÐ»": 3265,
      "ĠÐ¿ÑĢÐ°ÐºÑĤÐ¸ÑĩÐµÑģ": 3266,
      "ĠÐ´ÑİÐ¹Ð¼Ð¾Ð²": 3267,
      "Ð´ÑĨÐ°ÑĤÑĮ": 3268,
      "ĠÑģÐ¼ÑĭÑģÐ»Ðµ": 3269,
      "ĠÐ¿ÑĢÐ¾Ð¸Ð·Ð¾ÑĪÐ»Ð¾": 3270,
      "),": 3271,
      "ĠÑİ": 3272,
      "Ð¸ÑĢÐ°Ñı": 3273,
      "Ð»Ð±": 3274,
      "Ð»ÐµÑĩÑĮ": 3275,
      "ÑĢÑİ": 3276,
      "ÑĢÐ¾Ð¹": 3277,
      "ÑĢÐ°Ð³": 3278,
      "ÑģÐ¾Ð½": 3279,
      "Ð½ÐµÐ»": 3280,
      "Ð½Ð°Ð»Ð¸": 3281,
      "ÑĥÐµÑĤÑģÑı": 3282,
      "ÑĮÐ¸": 3283,
      "ÑĭÐº": 3284,
      "ĠÐ¿Ð¾Ð²Ð¾": 3285,
      "ĠÐ¿Ð»Ð¾Ñħ": 3286,
      "ĠÐ¿ÑıÑĤÐ¸": 3287,
      "ĠÑģÐ¾ÑĢ": 3288,
      "ĠÑģÐ¾Ð´": 3289,
      "ĠÑģÐ°Ð¼Ð¸": 3290,
      "ĠÑģÑĢÐµÐ´": 3291,
      "ĠÑģÑħÐ²Ð°ÑĤ": 3292,
      "ĠÑģÑĢÐµÐ´Ð¸": 3293,
      "ĠÐ½Ð¾Ð²Ð¾": 3294,
      "ÑĩÐºÐ°": 3295,
      "ÑĩÐ¸ÑĤÑĮ": 3296,
      "ÑĩÐ°ÑĤ": 3297,
      "ĠÐ²ÑĤÐ¾": 3298,
      "Ð´Ð½Ð¾": 3299,
      "Ð´ÑĢÑĥÐ³": 3300,
      "Ð°Ð»ÐµÐº": 3301,
      "ĠÐ¾ÑĤÐ¾ÑĢ": 3302,
      "ÑĢÐ¸ÑģÑĤ": 3303,
      "ĠÐ¸Ñī": 3304,
      "ĠÐºÐ°Ñģ": 3305,
      "ĠÐºÐµÐº": 3306,
      "ĠÐºÐ°Ñĩ": 3307,
      "ÑĪÐµÐ¼": 3308,
      "ÑĪÐºÐ¸": 3309,
      "ÐµÑĢÑĥ": 3310,
      "ÐµÑĢÐ¿": 3311,
      "ÐµÑĢÐ²Ð°": 3312,
      "ĠÐ´Ð²Ð¸Ð³": 3313,
      "ÑģÑĤÑģÑı": 3314,
      "ÑģÑĤÑĢÐ°": 3315,
      "Ð½Ð¸ÐºÐ¾Ð¼": 3316,
      "ĠÐ±ÐµÑģ": 3317,
      "ĠÐ±ÑĢÐ¾Ñģ": 3318,
      "ĠÐ±ÐµÐ³": 3319,
      "ĠÐ±ÑĢÐ°ÑĤ": 3320,
      "ĠÑĤÐ°Ð¹": 3321,
      "ĠÑĤÑĢÐ¾Ðµ": 3322,
      "ĠÑĤÑĢÑĥÐ±": 3323,
      "Ð¾Ð²Ð¾Ð¹": 3324,
      "ÐµÑĤÐ°": 3325,
      "ĠÐ¼ÐµÑģÑı": 3326,
      "ĠÐ·Ð¾Ð²": 3327,
      "ĠÐ·Ð°Ð¹": 3328,
      "Ð¿Ð¸": 3329,
      "ÐµÐ»ÐµÐ¼": 3330,
      "Ð¾Ð»ÐµÑĤ": 3331,
      "ÑİÑģÑĮ": 3332,
      "ÐµÐ½Ð½ÑĭÑħ": 3333,
      "ĠÐ½ÐµÑĩÑĤÐ¾": 3334,
      "ĠÐ½ÐµÐ¾Ð±Ñĭ": 3335,
      "ĠÑĥÑħÐ¾Ð´": 3336,
      "ĠÑĥÑĩÐ°": 3337,
      "ĠÑĥÑĪÐµÐ»": 3338,
      "ĠÐ½Ð°ÑĤ": 3339,
      "ĠÐ½Ð°ÑĪÐ»Ð¸": 3340,
      "ĠÐ½Ð°ÑģÐºÐ¾Ð»ÑĮÐºÐ¾": 3341,
      "Ð¾ÑĢÐ½Ð¾Ð¹": 3342,
      "Ð¾ÑĢÐ°Ñĩ": 3343,
      "ĠÐµÐ»": 3344,
      "Ð¹ÑĤÐ¸": 3345,
      "Ð¾Ð´Ð½Ð¾": 3346,
      "Ð½Ð°ÑĩÐµ": 3347,
      "Ð¾Ð³ÑĢÐ°ÑĦ": 3348,
      "ÑįÑĤÐ¾Ð¼Ñĥ": 3349,
      "ÐµÐ´Ñĥ": 3350,
      "ĠÐ»ÑĥÐ½": 3351,
      "ĠÐĴÐ¿": 3352,
      "ĠÐĴÑģÑı": 3353,
      "ĠÐĴÐµÐ»Ð¸": 3354,
      "ĠÐĴÑĥÐ´Ð°": 3355,
      "ĠÐĴÐ½ÐµÐ·Ð°Ð¿Ð½Ð¾": 3356,
      "ĠÐĴÐ½ÑĥÑĤÑĢÐ¸": 3357,
      "ĠÐ¾ÑĤÐºÑĥÐ´Ð°": 3358,
      "ĠÐ¡Ð»ÐµÐ´": 3359,
      "ĠÑģÐºÐ°Ð¼": 3360,
      "ĠÐ²ÑĭÐ»ÐµÑĤ": 3361,
      "ĠÐļÑģÑĤÐ°ÑĤÐ¸": 3362,
      "ĠÐ¿ÑĢÐ¾ÑĪÐµÐ»": 3363,
      "Ð»ÑıÐµÑĤÑģÑı": 3364,
      "ÐµÐ¹ÑĩÐ°Ñģ": 3365,
      "ÐµÐ²Ð°Ð»": 3366,
      "ĠÐ·Ð°Ð¾ÑĢÐ°Ð»": 3367,
      "Ð°Ð½Ð½ÑĭÐ¼": 3368,
      "ÑĤÐ¸Ð¹": 3369,
      "Ð¸Ð½Ð½": 3370,
      "ĠÑģÑĤÐ°Ð»Ð¸": 3371,
      "ĠÑģÑĤÑĥÑĩ": 3372,
      "ĠÐ¸Ð·Ð¼": 3373,
      "ĠÐ¿ÑĢÐ¸Ð³": 3374,
      "ĠÐ¿ÑĢÐ¸Ð½Ð°Ð´": 3375,
      "ĠÐ¢Ð²Ð¾": 3376,
      "ĠÐ¢ÐµÐ±Ðµ": 3377,
      "ÑĢÑĭÐ¼": 3378,
      "ÑĢÑĭÐ·": 3379,
      "ĠÑģÐºÐ°Ð·Ð°Ð»Ð¸": 3380,
      "ĠÑĪÑĥÑĤ": 3381,
      "ĠÐ¿Ð¾Ð´ÑĥÑĪ": 3382,
      "ÐºÑĥÑģÐ°": 3383,
      "Ð¾Ð·Ð³": 3384,
      "ĠÐ¾Ð±Ð¼": 3385,
      "ĠÑģÐ¿Ð¾ÑĢ": 3386,
      "ĠÑģÐ¿Ð¾ÐºÐ¾Ð¹": 3387,
      "ĠÑĤÐ°ÐºÐ¾Ð¼": 3388,
      "ĠÑĤÐ°ÐºÐ°Ñı": 3389,
      "ĠÑĤÐ°ÐºÐ¶Ðµ": 3390,
      "ĠÑĤÐ°ÐºÐ¸Ð¼Ð¸": 3391,
      "ĠÑģÐ»ÐµÐ·": 3392,
      "Ð°ÑĤÐ°": 3393,
      "Ð¾Ð¿Ð°ÑĢ": 3394,
      "ĠÐºÐ¾Ðµ": 3395,
      "ĠÐ¿ÐµÑĢÐµÐº": 3396,
      "ĠÐ°Ð¿": 3397,
      "ĠÐ°Ð±ÑģÐ¾Ð»ÑİÑĤÐ½Ð¾": 3398,
      "ĠÐ°ÐºÐºÑĥÑĢÐ°ÑĤ": 3399,
      "Ð¾ÑĩÐºÐ¸": 3400,
      "Ð°Ð»ÑĮÐ½ÑĭÐ¹": 3401,
      "ÐµÐ¿ÐºÐ¾": 3402,
      "Ð²Ð¸Ð½ÑĥÐ»ÑģÑı": 3403,
      "Ð²ÐµÑĢÑĤ": 3404,
      "ĠÐĵÐµÑĢÐ¼Ð¸Ð¾Ð½Ñĥ": 3405,
      "ÐµÐ¶Ð½Ð¾": 3406,
      "ĠÐĳÐ»": 3407,
      "ĠÐĳÐµÐ»": 3408,
      "ÑĭÐ²Ð°ÑĤÑĮ": 3409,
      "ÑĭÐ²Ð°ÐµÑĤ": 3410,
      "ĠÐ¤Ð¸Ð³Ð³": 3411,
      "ĠÐĹÐ°Ð¿": 3412,
      "ĠÐĹÐ°Ð±": 3413,
      "ĠÐ¿Ð¾ÑģÑĤÐ¾": 3414,
      "ĠÐŃÐ¹": 3415,
      "ĠÐŃÑĤÐ¸": 3416,
      "ĠÐ¾Ð´Ð½Ñĥ": 3417,
      "ĠÐ¾Ð´Ð½Ð¾Ð²": 3418,
      "ĠÐ²Ð·ÑıÑĤÑĮ": 3419,
      "ĠÐ¾ÑģÑĤÐ°Ð½": 3420,
      "ĠÐ¾ÑģÑĤÐ°Ð»ÑģÑı": 3421,
      "ĠÐ§ÐµÐ³Ð¾": 3422,
      "ĠÐ±ÑĥÐ´ÐµÐ¼": 3423,
      "ĠÐ±ÑĥÐ´ÐµÑĪÑĮ": 3424,
      "ĠÑĤÑĢÐµÐ±": 3425,
      "ĠÑĤÑĢÐµÐ¿": 3426,
      "ĠÐ²Ð¸Ð´Ð½Ð¾": 3427,
      "ĠÐ²Ð¸Ð´Ð¸ÑĪÑĮ": 3428,
      "ĠÐ½Ð°Ð´Ð¿": 3429,
      "ĠÐ·Ð°Ð¼ÐºÐ°": 3430,
      "ĠÐ¼Ð¾Ð³Ð»Ð°": 3431,
      "ĠÐ·Ð½Ð°ÐµÑĤÐµ": 3432,
      "ĠÐºÐ¾Ð½ÑĩÐ¸": 3433,
      "ĠÐºÐ¾Ð½ÐµÑĨ": 3434,
      "ĠÐ¸Ð¼ÐµÑĤÑĮ": 3435,
      "ĠÐ¾ÑĩÐºÐ¾Ð²": 3436,
      "ĠÐ¾ÑĩÐµÑĢÐµÐ´": 3437,
      "ÑģÑĤÐ¸Ð³": 3438,
      "ĠÐ¼ÑĭÑģ": 3439,
      "ĠÐ¿Ð¾Ð²ÐµÑĢÐ¸ÑĤÑĮ": 3440,
      "ĠÐ²Ð¾ÑĪÐ»Ð¸": 3441,
      "ĠÐºÐ¾Ð¼Ñĥ": 3442,
      "ĠÑģÐ°Ð¼Ð°": 3443,
      "ĠÑģÐ°Ð¼Ð¾Ð¹": 3444,
      "ĠÑĩÐµÑĢÐ½ÑĭÐµ": 3445,
      "ĠÑģÐ¼ÐµÑĪ": 3446,
      "ĠÑģÐ¼ÐµÑħ": 3447,
      "ĠÑĥÑģÐ»ÑĭÑħ": 3448,
      "ĠÑģÐ¾Ð±ÑģÑĤÐ²": 3449,
      "ĠÐ½Ð°Ð¿ÑĥÐ³Ð°Ð½": 3450,
      "ĠÐ½Ð°Ð¿ÑĢÐ¾ÑĤÐ¸Ð²": 3451,
      "ÐĵÐŀ": 3452,
      "ĠÑģÐ²Ð¾Ð±Ð¾Ð´": 3453,
      "ĠÐ¿ÑĢÐ¾ÑĦÐµÑģÑģÐ¾ÑĢÐ¾Ð¼": 3454,
      "ĠÐ´Ð²ÑĥÐ¼Ñı": 3455,
      "ĠÐ¿Ð¾ÑĩÑĤÑĥ": 3456,
      "ĠÐŁÐ¾ÑĤÑĤÐµÑĢÐ°": 3457,
      "ĠÐ¿Ð¾ÑĢÐ°": 3458,
      "ÑĥÑģÑĤÐ¸ÑĤÑĮ": 3459,
      "ĠÐ´ÑĢÑĥÐ³Ð°": 3460,
      "ĠÐ´Ð²ÐµÑĢÑĮÑİ": 3461,
      "ÐĺÐĿ": 3462,
      "ĠÐ·Ð°Ð±ÑĭÐ»": 3463,
      "ĠÐĴÑĭÐ±": 3464,
      "ĠÐ¿ÐµÑĢÐ²Ð¾Ð¹": 3465,
      "ĠÐ¿ÐµÑĢÐ²Ð¾Ð³Ð¾": 3466,
      "ĠÐ¿ÐµÑĢÐ²ÑĭÐ¼": 3467,
      "ĠÑĥÐ´Ð°Ð»Ð¾ÑģÑĮ": 3468,
      "ĠÑĥÐ´Ð¾Ð²Ð¾Ð»ÑĮ": 3469,
      "ĠÐ·Ð°ÐºÑĢÑĭ": 3470,
      "ĠÐ½Ð°ÑģÑĩÐµÑĤ": 3471,
      "ĠÐ½ÐµÑĤÐµÑĢÐ¿": 3472,
      "ĠÑģÐ»ÐµÐ´ÑĥÐµÑĤ": 3473,
      "ĠÐ¿Ð¾Ð½ÑıÑĤÑĮ": 3474,
      "ĠÐ¿ÑĢÐ¾Ð±ÑĥÑĢÑĩÐ°Ð»": 3475,
      "ĠÐ±Ð¾Ð»ÑĮÑĪÐ°Ñı": 3476,
      "ĠÐ±Ð¾Ð»ÑĮÑĪÐ¸Ð¼": 3477,
      "ĠÐ±Ð¾Ð»ÑĮÑĪÐ¾Ðµ": 3478,
      "ĠÑĥÐ±Ð¸Ð»": 3479,
      "ĠÐ»ÑİÐ±Ð¸Ð¼": 3480,
      "ĠÑģÐ¸Ð´ÐµÐ»Ð¸": 3481,
      "ĠÐ±Ð»Ð¸Ð¶": 3482,
      "ĠÑĪÐºÐ¾Ð»Ð°": 3483,
      "ÐĲÐł": 3484,
      "Ð°ÑİÑīÐ¸Ð¼Ð¸": 3485,
      "ĠÑģÐ»ÑĭÑĪÐ°Ð»Ð¸": 3486,
      "ĠÐ´Ð¾Ð±ÑĢÐ°Ð»Ð¸ÑģÑĮ": 3487,
      "ĠÐ¾ÑĤÐºÑĢÑĭÐ²": 3488,
      "ÑĢÐ¸ÑĩÐ°Ð»Ð°": 3489,
      "ÑĢÐ¸ÑĩÐ½ÐµÐ²": 3490,
      "ĠÐ·Ð°Ð³Ð¾Ð²Ð¾ÑĢÐ¸Ð»": 3491,
      "ĠÐ·Ð°Ð³Ð°Ð´Ð¾Ñĩ": 3492,
      "ĠÐ²ÑĭÑģÐ¾ÐºÐ¾": 3493,
      "ĠÐ¿Ð°ÑĢÐ°": 3494,
      "ĠÑĥÐ»ÑĭÐ±Ð°ÑıÑģÑĮ": 3495,
      "ĠÑĤÐµÑĤÐµÐ¹": 3496,
      "ĠÑģÑĤÑĢÐ°Ð½Ð½Ð¾Ð³Ð¾": 3497,
      "ĠÑģÑĤÑĢÐ°Ð½Ð½Ð¾Ðµ": 3498,
      "ĠÐ¿Ð¾Ð´Ð½ÑıÐ»ÑģÑı": 3499,
      "ĠÐ¿Ð¾Ð²ÐµÑĢÐ½ÑĥÐ»Ð°ÑģÑĮ": 3500,
      "ĠÐ¿Ð¾Ð´ÑĥÐ¼Ð°ÑĤÑĮ": 3501,
      "ÑĤÐµÑĢÐµÑģÐ½Ð¾": 3502,
      "ĠÐ´ÐµÐ²Ð¾ÑĩÐºÐ°": 3503,
      "ĠÐ¼ÐµÑĢÐ·": 3504,
      "ĠÑĥÑģÐ»ÑĭÑĪÐ°Ð»Ð¸": 3505,
      "ÑĥÐ¹ÑĤÐµ": 3506,
      "ĠÑĥÑģÐ¿Ð¾ÐºÐ¾": 3507,
      "ĠÐ¿Ð°Ð»ÑĮÑĨÑĭ": 3508,
      "ĠÐ¿Ð¾Ð½Ð¸Ð¼Ð°ÐµÑĪÑĮ": 3509,
      "ĠÐŁÐ¾ÑģÐ»ÐµÐ´": 3510,
      "ĠÐ´ÐµÑĢÐµÐ²ÑıÐ½": 3511,
      "ĠÐ¿Ð¾Ð¹Ð¼Ð°Ð»": 3512,
      "ĠÐ¸Ð´ÐµÑĤ": 3513,
      "ĠÐ´ÑĢÑĥÐ³Ð¾Ðµ": 3514,
      "ĠÑĥÑĢÐ¾ÐºÐ°": 3515,
      "ĠÐ»ÐµÐ¶Ð°Ð»": 3516,
      "ĠÐ½ÐµÐ±Ð¾": 3517,
      "ĠÐ½ÐµÐ±Ð¾Ð»ÑĮÑĪ": 3518,
      "ĠÐºÑĢÐ¸ÐºÐ¸": 3519,
      "ĠÐºÑĢÐ¸ÐºÐ½ÑĥÐ»": 3520,
      "Ð°ÑĢÑĥÐ¶Ð¸": 3521,
      "ĠÑĥÑĩÐ¸ÑĤÐµÐ»ÑĮ": 3522,
      "ĠÐ¾Ð±ÑĬÑıÑģÐ½Ð¸ÑĤÑĮ": 3523,
      "ĠÐ½Ð°ÑħÐ¾Ð´Ð¸ÑĤÑģÑı": 3524,
      "ĠÐ³Ð¾Ð»Ð¾Ð´": 3525,
      "ĠÐ³Ð¾Ð»ÑĥÐ±": 3526,
      "ĠÑĤÑĢÑĥÐ´Ð¾Ð¼": 3527,
      "ÑıÐ½Ð½Ð¾": 3528,
      "ĠÐ±Ð»ÐµÑģÑĤ": 3529,
      "ĠÐĿÐ°Ð¿Ð¾Ð¼Ð¸Ð½Ð°": 3530,
      "ĠÐ²Ð¾Ð¿ÑĢÐ¾ÑģÐ¾Ð²": 3531,
      "ĠÐ¢ÐµÐ¼Ð½ÑĭÑħ": 3532,
      "ĠÐ¼Ð½Ð¾Ð³": 3533,
      "ĠÐ·ÐµÐ¼Ð»Ð¸": 3534,
      "ĠÑģÑĤÐµÐºÐ»Ñĥ": 3535,
      "ĠÑħÐ¾Ð»Ð¾Ð´Ð½Ð¾": 3536,
      "ĠÑĤÐ¾Ð»ÑģÑĤÐ¾Ð¹": 3537,
      "ĠÐ´Ð¾ÑĢÐ¾Ð³Ð¾Ð¹": 3538,
      "ĠÐĵÑĢÐ¸Ð½Ð³Ð¾ÑĤÑĤ": 3539,
      "ĠÐĵÑĢÐ¸Ð½Ð³Ð¾ÑĤÑĤÐ°": 3540,
      "Ð»ÑĥÑĪÐ°Ð¹": 3541,
      "ĠÐ¾ÑģÑĤÐ¾Ð»Ð±": 3542,
      "ĠÐ¾Ð¶Ð¸Ð´Ð°": 3543,
      "ĠÐ¾Ð¶Ð¸Ð´Ð°Ñı": 3544,
      "ĠÐºÑĥÑĩÑĥ": 3545,
      "ĠÑĥÐ´Ð°ÑģÑĤÑģÑı": 3546,
      "ĠÐ±Ð»Ð¸Ð·Ð½ÐµÑĨÑĭ": 3547,
      "ĠÐ±Ð»Ð¸Ð·Ð½ÐµÑĨÐ¾Ð²": 3548,
      "ĠÑįÐºÐ·Ð°Ð¼": 3549,
      "ĠÑĩÐµÑĤÐ²ÐµÑĢÑĤÐ¸": 3550,
      "ĠÑĢÐ°ÑģÑģÐºÐ°Ð·ÑĭÐ²Ð°Ð»": 3551,
      "ĠÑģÐ¾ÑĤÐ½Ð¸": 3552,
      "Ð¾ÑĢÐ²Ð°Ð»ÑģÑı": 3553,
      "ĠÑĢÐ°ÑģÐºÑĢÑĭÐ»": 3554,
      "ĠÐ¸Ð´Ð¸Ð¾ÑĤÐ¾Ð¼": 3555,
      "ĠÐĽÑİÐ±": 3556,
      "ĠÐ¼Ð°Ð½ÑĤÐ¸Ð¸": 3557,
      "ĠÐĳÑĥÐ·Ð¸Ð½Ð½ÑĭÐ¹": 3558,
      "ĠÑģÐ¼ÐµÑĢÑĤÐ¸": 3559,
      "ĠÑģÑĩÐ°ÑģÑĤÐ»Ð¸Ð²": 3560,
      "ĠÐ´Ð°Ð»ÑĮÑĪÐµ": 3561,
      "ĠÐ±Ð°Ð½Ðº": 3562,
      "ĠÐ¾ÑĤÐ¿ÑĢÐ°Ð²": 3563,
      "ĠÐ¶ÐµÐ½ÑīÐ¸Ð½Ð°": 3564,
      "ĠÐ¿ÑĢÐ¸Ð´ÐµÑĤÑģÑı": 3565,
      "ĠÐ¾ÑĤÑĭÑģÐº": 3566,
      "ĠÐ¿ÑĢÐ¾Ð½Ð·": 3567,
      "ĠÑĪÐ°ÑħÐ¼Ð°ÑĤÑĭ": 3568,
      "ĠÑĩÑĥÐ²ÑģÑĤÐ²Ð¾": 3569,
      "ĠÐ´ÑĢÑĥÐ·ÑĮÑı": 3570,
      "ĠÐ¾ÑģÑĤÐ¾ÑĢÐ¾Ð¶Ð½Ð¾": 3571,
      "ĠÐ·Ð´Ð¾ÑĢÐ¾Ð²": 3572,
      "ĠÐ»Ð°Ð´Ð¾ÑĪÐ¸": 3573,
      "ĠÐ¼ÑıÐ³ÐºÐ¾": 3574,
      "ĠÐ±ÐµÑĢÐµÐ³": 3575,
      "ĠÐ¿ÑĢÐ¸ÑģÑĤÐ°Ð»ÑĮÐ½Ð¾": 3576,
      "ĠÐĺÐ½ÑĤÐµÑĢÐµÑģÐ½Ð¾": 3577,
      "ÑģÑİÐ´Ñĥ": 3578,
      "ĠÐĵÐ¾ÑģÐ¿Ð¾Ð´Ð¸Ð½": 3579,
      "ĠÐ´Ð¾Ð³Ð°Ð´": 3580,
      "ĠÐĿÐµÑģÐºÐ¾Ð»ÑĮÐºÐ¾": 3581,
      "ĠÑģÐ¿Ð¾ÑģÐ¾Ð±": 3582,
      "ĠÑģÐ¾ÑħÑĢÐ°": 3583,
      "ĠÑĦÐ¾ÑĤÐ¾Ð³ÑĢÐ°ÑĦ": 3584,
      "ĠÐ¿ÑĢÐ¸ÑģÐ¾ÐµÐ´Ð¸": 3585,
      "ĠÑĤÐµÐ»ÐµÐ²Ð¸Ð·Ð¾ÑĢ": 3586,
      "ĠÐĽÐ¾Ð½Ð³Ð±Ð¾ÑĤÑĤÐ¾Ð¼": 3587,
      "ĠÐ¿ÑĢÐ¸Ð½Ð°Ð´Ð»": 3588,
      "ĠÐ¾Ð´Ð½Ð¾Ð²ÑĢÐµÐ¼ÐµÐ½Ð½Ð¾": 3589,
      "ĠÑĥÐ´Ð¾Ð²Ð¾Ð»ÑĮÑģÑĤÐ²Ð¸": 3590,
      "ĠÑĢÐ¾": 3591,
      "Ð¾Ð¾Ð¿Ð°ÑĢ": 3592,
      "Ð°Ð½Ñĥ": 3593,
      "ÐµÑģÑĮ": 3594,
      "ÐµÐµÑĤÑģÑı": 3595,
      "Ð¸ÑĩÐµÑģ": 3596,
      "Ð¸Ð°Ð³Ð¾Ð½": 3597,
      "ÑĤÑģÑı": 3598,
      "Ð»ÑĥÑİ": 3599,
      "Ð»ÐµÐ½Ð¸Ñı": 3600,
      "ÑĢÐ°Ðº": 3601,
      "ÑĢÐµÑĪ": 3602,
      "ÑģÑĦ": 3603,
      "ÑģÐºÐ¸": 3604,
      "Ð½Ð½Ð¾": 3605,
      "Ð½Ð½ÑĭÐ¹": 3606,
      "ÑĥÐ½ÑĥÐ»": 3607,
      "ÑĥÐºÐ°": 3608,
      "ÑıÐ´Ðµ": 3609,
      "ÑıÑīÐ¸Ñħ": 3610,
      "ÑĭÑĤÑĮ": 3611,
      "ĠÐ¿Ð¸": 3612,
      "ĠÐ¿Ð»Ð¾": 3613,
      "ĠÐ¿Ð»Ñİ": 3614,
      "ĠÑģÐ°ÑĢ": 3615,
      "ĠÑģÐ¾Ð¼": 3616,
      "ĠÑģÐ³Ð»": 3617,
      "ĠÑģÑĢÐ°Ð¶": 3618,
      "ĠÐ²Ð¸ÑĤ": 3619,
      "ĠÐ²Ð°Ð¼Ð¸": 3620,
      "ĠÐ²ÑĨÐµÐ¿": 3621,
      "Ð²Ñĭ": 3622,
      "Ð²Ð¾Ð´": 3623,
      "Ð²ÐµÑģ": 3624,
      "Ð²Ð¸Ð½": 3625,
      "Ð°Ð»Ð¸Ð»ÑģÑı": 3626,
      "ÑĢÐ¸Ðº": 3627,
      "ÑĢÐ¸ÑĢÐ¾Ð²": 3628,
      "ĠÐ¸Ð½Ð°ÑĩÐµ": 3629,
      "ĠÐºÐ¾Ð²": 3630,
      "ĠÐºÐ¾Ð»ÑĮ": 3631,
      "ĠÐºÐ¾Ð¿": 3632,
      "ĠÐºÐ°Ð±": 3633,
      "ĠÐºÑĢÑĥÐ¶": 3634,
      "ĠÐºÐ»ÑĥÐ±": 3635,
      "ÐµÑĢÐ½Ñı": 3636,
      "ÑħÐ¸Ñī": 3637,
      "Ð»Ð¸ÑĤÑĮ": 3638,
      "ĠÐ´Ñĭ": 3639,
      "ĠÐ´ÐµÑĤ": 3640,
      "ĠÐ´Ð¾Ð½": 3641,
      "ĠÐ´ÑĭÐ¼": 3642,
      "ĠÐ´Ð²Ð¸Ð¶": 3643,
      "Ð½Ð¸ÑģÑĤÐµÑĢ": 3644,
      "Ð½Ð¸ÑĨÐ°": 3645,
      "Ð½Ð¸Ð»Ð¾ÑģÑĮ": 3646,
      "ĠÐ±ÐµÐº": 3647,
      "ĠÐ±ÐµÑģÑģ": 3648,
      "ĠÐ±Ð°Ð»Ð»": 3649,
      "ĠÐ±ÑĥÑĢ": 3650,
      "ĠÐ±ÑĥÐº": 3651,
      "ĠÐ±Ð¸Ð½Ð¾Ðº": 3652,
      "ĠÑĤÐ¾Ð¹": 3653,
      "ĠÐ¼Ð¾Ð½": 3654,
      "ĠÐ¼Ð¸Ð½": 3655,
      "ĠÐ¼ÑĥÑģ": 3656,
      "ĠÐ¼Ð°ÑĪ": 3657,
      "ĠÐ¼ÑĢÐ°Ð¼": 3658,
      "ĠÑĩÐµÑĢÐ½Ð¾Ðµ": 3659,
      "ĠÐ·Ð¾Ð¾Ð¿Ð°ÑĢ": 3660,
      "Ð½Ð¾ÑģÐ¸Ð»Ð¸ÑģÑĮ": 3661,
      "Ð¿ÐµÑħ": 3662,
      "Ð¾Ð»Ð¾ÑĤ": 3663,
      "Ð¾Ð»Ð»ÑĮ": 3664,
      "Ð°ÐºÐ¸": 3665,
      "ÐµÐ½Ð½Ð¾Ð¹": 3666,
      "ĠÐ½ÐµÐ¾Ð¶Ð¸": 3667,
      "ĠÑĥÐ½Ð¸ÑĤ": 3668,
      "ĠÑĥÐ¼ÐµÑĢ": 3669,
      "Ð·Ð¾Ð²": 3670,
      "ĠÐ½Ð°ÑĥÑĩ": 3671,
      "ĠÐµÐ³": 3672,
      "Ð³Ð½ÑĥÐ»Ð°": 3673,
      "Ð³Ð½Ð¾Ð²": 3674,
      "ĠÐ¿Ð¾ÑĪ": 3675,
      "ĠÑĢÐµÐ´": 3676,
      "ĠÑĢÐµÑĩ": 3677,
      "Ð¶ÐµÐ²": 3678,
      "ĠÐ±ÑĭÑģÑĤ": 3679,
      "Ð½Ð°ÑĤÑĮ": 3680,
      "Ð°Ð²Ð¸ÑĤÑĮ": 3681,
      "ÐµÐ´Ð°Ð»": 3682,
      "ĠÐĿÐĺ": 3683,
      "Ð¾ÑĤÐ½ÑĥÐ»": 3684,
      "Ð¾ÑĤÑĤÐµÑĢ": 3685,
      "ĠÐĶÐ°Ð¹": 3686,
      "ĠÐĶÐ¸Ð°Ð³Ð¾Ð½": 3687,
      "ĠÐ»ÐµÐ´": 3688,
      "ĠÐĴÐ¾Ð·ÑĮ": 3689,
      "ĠÐĴÐ´ÑĢÑĥÐ³": 3690,
      "ĠÐ¾ÑĤÑĨÐ°": 3691,
      "ĠÐ¾ÑĤÐ´Ð°Ð»": 3692,
      "ĠÐ¾ÑĤÑĢÐµÐ·": 3693,
      "Ð¾ÐºÐ¾Ð¼": 3694,
      "ĠÐ³ÑĥÑģÑĤ": 3695,
      "Ð¾Ð¶ÐµÐ½": 3696,
      "ĠÐ¡ÐµÐ¹ÑĩÐ°Ñģ": 3697,
      "ĠÐ¿ÑĢÐµÐ¿": 3698,
      "ĠÑģÐºÑĢÑĭÐ²": 3699,
      "Ð³Ð¾Ð½": 3700,
      "ÑĢÐ°ÑĨ": 3701,
      "ÑĢÐ°ÑĤÐ¸": 3702,
      "ĠÐ²ÑĭÐ»": 3703,
      "ĠÐ²ÑĭÑĢÐ°Ð¶": 3704,
      "ĠÐ²ÑĭÐ³Ð»Ñı": 3705,
      "ĠÐļÑĥÐ´Ð°": 3706,
      "ĠÐ¿ÑĢÐ¾ÐµÐ·": 3707,
      "ĠÐ¿ÑĢÐ¾ÑĥÐ»": 3708,
      "Ð»ÑıÐµÑĤ": 3709,
      "Ð»ÑıÐ»Ð°": 3710,
      "ĠÐ²ÑģÐ»ÐµÐ´": 3711,
      "ĠÐľÐ°Ð¼": 3712,
      "ÐµÐ²Ð¾": 3713,
      "ĠÐºÐ°ÐºÐ¾Ðµ": 3714,
      "ĠÑıÐ·Ñĭ": 3715,
      "Ð¸Ð½Ð½Ð¸": 3716,
      "ÑĥÐ´Ð¸ÑĤÑĮ": 3717,
      "ĠÐ¶Ð¸Ð»": 3718,
      "ĠÑĤÐ¾ÑĪ": 3719,
      "ĠÐ¸Ð·Ð¾Ð±": 3720,
      "ĠÐ¸Ð·Ð´Ð°Ð»": 3721,
      "ĠÐ¿ÑĢÐ¸Ð»": 3722,
      "ĠÐ¿ÑĢÐ¸ÑĪÐ»Ð¸": 3723,
      "ĠÑħÐ°Ð»": 3724,
      "ĠÑħÑĢÐ°": 3725,
      "ĠÑħÑĥÐ´": 3726,
      "ĠÑħÐ¾ÑĢÐ¾": 3727,
      "ĠÑħÐ¸Ð¶": 3728,
      "ĠÑĪÑĤÐ¾ÑĢ": 3729,
      "ĠÐ¿Ð¾Ð´ÑĭÐ¼": 3730,
      "ĠÐ¿Ð¾Ð´Ð³Ð¾ÑĤÐ¾Ð²": 3731,
      "Ð¾Ð·Ð²": 3732,
      "ÐµÐºÐ¾": 3733,
      "ĠÐ¾Ð±ÐµÑī": 3734,
      "ĠÑģÐ»Ð¾Ð¶": 3735,
      "ĠÑĢÐ°Ð·ÑĢÐµÑĪ": 3736,
      "ĠÐ³Ð¾ÑĢÑı": 3737,
      "ĠÐ³Ð¾ÑĢÐ¾Ð´": 3738,
      "ĠÐºÐ¾ÑĢÐ¾ÑĤ": 3739,
      "Ð¸Ð¼Ð¾Ð½": 3740,
      "ĠÐ¿ÐµÑĢÐ¾": 3741,
      "ĠÐ¿ÐµÑĢÑĮÑı": 3742,
      "Ð¾ÑĩÑĮ": 3743,
      "Ð°Ð»ÑĮÐ½ÑĭÐµ": 3744,
      "ĠÐĺÑħ": 3745,
      "ĠÐĺÑģÐ¿": 3746,
      "ĠÐ¿Ð¾Ð»Ð½Ð¾Ð¹": 3747,
      "Ð°ÑİÑģÑĮ": 3748,
      "ÑĪÐ¸Ð¿": 3749,
      "ĠÑģÑĤÐ¾Ð»Ð°": 3750,
      "ĠÐĳÐ¾Ð»ÑĮ": 3751,
      "ÑĢÐ¾ÑģÑģ": 3752,
      "ÑĢÐ¾ÑģÐ¸ÑĤÑĮ": 3753,
      "Ð»ÑĭÐµ": 3754,
      "Ð»ÑĭÐ¼": 3755,
      "ĠÐ¿Ð¾ÑģÑĢÐµÐ´Ð¸": 3756,
      "ĠÐ¾ÑģÑĤÐ°Ð»Ð¸ÑģÑĮ": 3757,
      "ĠÐ¡Ð½Ð°Ð´Ð¾Ð±": 3758,
      "ĠÐ»Ð¸ÑĩÐ½Ð¾": 3759,
      "ĠÐ²Ð¸Ð´Ðµ": 3760,
      "ÑĥÐ¿Ð¸Ð»": 3761,
      "ĠÐ¡Ð½ÑįÐ¹Ð¿Ð¾Ð¼": 3762,
      "ĠÐĽÐ¸Ð»Ð¸": 3763,
      "ĠÐ¼Ð¾Ð³Ð»Ð¾": 3764,
      "ÐµÑĢÐ¸Ð»": 3765,
      "ĠÐºÐ¾Ð½Ð²ÐµÑĢÑĤ": 3766,
      "ĠÑĢÐ°ÑģÑħ": 3767,
      "ĠÑĢÑĥÑħ": 3768,
      "Ð¸ÑĢÐµÐº": 3769,
      "Ð¸ÑĢÐ°Ð»Ð¸ÑģÑĮ": 3770,
      "ĠÐ¼Ð¾Ð¶ÐµÐ¼": 3771,
      "ĠÐ¼ÑĭÑģÐ»Ð¸": 3772,
      "ĠÐľÐ°Ð»ÐºÐ¸Ð½": 3773,
      "ĠÐ¿Ð¾Ð²ÑģÑİÐ´Ñĥ": 3774,
      "ĠÐ²Ð¾ÑĪÐµÐ»": 3775,
      "ĠÑģÐ°Ð¼Ð¾Ðµ": 3776,
      "ĠÑģÐ¼Ð¾Ð¶": 3777,
      "ĠÐ¾ÐºÐ½Ð¾Ð¼": 3778,
      "ĠÐºÐ¾ÑĤÐ¾ÑĢÑĭÐ¼": 3779,
      "Ð»ÑİÑģÑĮ": 3780,
      "ĠÐ½Ð°Ð¿Ð¾Ð»": 3781,
      "ĠÑģÐ½Ð°ÑĢÑĥÐ¶Ð¸": 3782,
      "ÑĥÐ±Ð±Ð¾ÑĤ": 3783,
      "ĠÐĿÐµÐ²Ð¸Ð»Ð»ÐµÐ¼": 3784,
      "Ð°Ð½Ð¸Ð¹": 3785,
      "ĠÐ´Ð²Ð°Ð´ÑĨÐ°ÑĤÑĮ": 3786,
      "ĠÐ¿Ð¾Ð¿Ð°ÑģÑĤÑĮ": 3787,
      "ĠÐ¿Ð¾Ð¿ÑĢÐ¾Ð±": 3788,
      "ĠÐ¾ÑĤÐ²ÐµÑĤÐ¸ÑĤÑĮ": 3789,
      "ĠÐŁÑĢÐ¾ÑĪ": 3790,
      "ĠÐŁÑĢÐ¾ÑģÑĤÐ¸ÑĤÐµ": 3791,
      "ĠÑĦÐ¾Ð½": 3792,
      "ÑĩÐ½Ð¾Ðµ": 3793,
      "ÑĢÐµÐ´ÐµÐ»": 3794,
      "ĠÐ²ÐµÑĢÐ½ÐµÑĤÑģÑı": 3795,
      "ÑĢÐ°Ð·Ð¸Ð»": 3796,
      "ĠÐ¼ÐµÑĤÐµÐ»": 3797,
      "ĠÐ´Ð¾Ð¼Ñĥ": 3798,
      "ĠÐ´ÑĢÑĥÐ³Ð¾Ð³Ð¾": 3799,
      "ĠÐ·Ð°Ð±ÑĭÐ²": 3800,
      "ĠÐĴÑĭÑģ": 3801,
      "ĠÐ½Ð°ÑĩÐ°ÑĤÑĮ": 3802,
      "ĠÑįÑĤÐ°Ð¶Ðµ": 3803,
      "ÐµÑĤÐµÑģÑĮ": 3804,
      "ÑĥÑĢÐ¿": 3805,
      "ĠÐ·Ð°ÐºÑĢÐ¸ÑĩÐ°Ð»": 3806,
      "ĠÑĩÑĥÐ²ÑģÑĤÐ²": 3807,
      "ĠÑģÐ´Ð°Ð²": 3808,
      "ĠÐ¼Ð°Ð»ÑĮÑĩÐ¸ÐºÐ¾Ð²": 3809,
      "ĠÐ¿Ð¾Ð½Ð°Ð´Ð¾Ð±": 3810,
      "ĠÐ¿Ð¾Ð±ÐµÐ¶Ð°Ð»Ð¸": 3811,
      "ĠÐ¿Ð¾Ð±Ð»ÐµÑģ": 3812,
      "ĠÑģÐ¸Ð»Ñĭ": 3813,
      "ĠÑģÐ¸Ð»Ð¾Ð¹": 3814,
      "ĠÐ¿Ð¾Ð¹Ð´Ñĥ": 3815,
      "ĠÑģÑĤÐ°ÑĢÐ¾Ð¹": 3816,
      "ĠÐ¾ÑģÐ¾Ð·": 3817,
      "ĠÐ»ÑİÐ±Ð¾Ð¹": 3818,
      "ÐŀÐĿ": 3819,
      "Ð°ÑĩÐµÐ¼": 3820,
      "ÐµÑĢÐµÐ´Ð¸": 3821,
      "ĠÑĤÐ²Ð¾Ñı": 3822,
      "ĠÑģÑĤÐ¾ÑĢÐ¾Ð½Ðµ": 3823,
      "ĠÐļÐ°Ð¼Ð½Ñı": 3824,
      "ĠÐ¼Ð°Ð»ÐµÐ¹": 3825,
      "ĠÐ·Ð°Ð´ÑĥÐ¼": 3826,
      "ĠÐ·Ð°Ð´ÑĭÑħ": 3827,
      "Ð»Ð°ÑģÐ¸Ð»Ð°": 3828,
      "ÑĪÐ¸Ð¹ÑģÑı": 3829,
      "ĠÐ¼Ð¾Ð¸Ñħ": 3830,
      "Ð»ÐµÑĤÐµÐ»": 3831,
      "ĠÐ¾ÑģÑĤÐ°Ð²Ð°Ð»Ð¾ÑģÑĮ": 3832,
      "ĠÑĥÐºÑĢÐ°ÑģÑĤÑĮ": 3833,
      "ĠÐ¿Ð°ÑĢÑĥ": 3834,
      "Ð½Ð¸ÑĤÐµÐ»ÑĮ": 3835,
      "ĠÐ¸ÑģÑĩÐµÐ·Ð»Ð°": 3836,
      "ĠÐ´Ð»Ð¸Ð½Ð½ÑĭÐµ": 3837,
      "ĠÐ¼Ð°Ð»ÐµÐ½ÑĮÐºÐ¸Ð¹": 3838,
      "ĠÐ¼Ð°Ð»ÐµÐ½ÑĮÐºÐ¸Ðµ": 3839,
      "ĠÐ¼Ð°Ð»ÐµÐ½ÑĮÐºÐ°Ñı": 3840,
      "ĠÐ½ÐµÐ²Ð·": 3841,
      "ĠÐ½ÐµÐ²Ð¸Ð´Ð¸Ð¼": 3842,
      "ĠÑĥÑĤÑĢÐ¾Ð¼": 3843,
      "ĠÑģÐ»ÐµÐ´ÑĥÑİÑīÐµÐµ": 3844,
      "ĠÐ¿ÑĢÐ¸ÑģÐ»ÑĥÑĪ": 3845,
      "ĠÐ¾ÑģÑĤÐ°Ð»ÑĮÐ½ÑĭÑħ": 3846,
      "ĠÐ½Ð¾Ð²ÑĭÐ¹": 3847,
      "ĠÐºÐ¾ÑĢÐ¸Ð´Ð¾ÑĢÐ°": 3848,
      "ĠÐºÐ¾ÑĢÐ¸Ð´Ð¾ÑĢÑĥ": 3849,
      "ĠÑĥÑģÐ»ÑĭÑĪÐ°ÑĤÑĮ": 3850,
      "ĠÐĶÐ¶Ð¾ÑĢÐ´Ð°Ð½": 3851,
      "ĠÐľÐ¸Ð½Ð¸ÑģÑĤÐµÑĢ": 3852,
      "ĠÐ·Ð°ÑĤÑĭÐ»": 3853,
      "ĠÐ¿Ð°Ð»ÑĮÑĨÐµÐ¼": 3854,
      "ĠÐ¿Ð°Ð»ÑĮÑĨÐ°Ð¼Ð¸": 3855,
      "ĠÐ¿Ð¾Ð½Ð¸Ð¼Ð°Ñİ": 3856,
      "ĠÐŁÐ¾ÑģÐ¼Ð¾ÑĤÑĢÐ¸": 3857,
      "ĠÐ¾ÑģÑĤÐ°Ð½Ð¾Ð²Ð¸ÑĤÑĮ": 3858,
      "ĠÐĴÐ¾Ð»Ð´ÐµÐ¼Ð¾ÑĢÑĤÐ°": 3859,
      "Ð°ÑİÑīÐµÐ³Ð¾": 3860,
      "ĠÐŁÐ¸Ð²ÑģÐ°": 3861,
      "ĠÐºÑĢÐ¾Ð²Ð°ÑĤÑĮ": 3862,
      "ĠÐ·Ð¾Ð»Ð¾ÑĤÐ¾": 3863,
      "ĠÑĥÑħÐ¾": 3864,
      "ĠÑĤÑĢÐ¾Ð»Ð»ÑĮ": 3865,
      "ĠÑģÐµÐ¼ÑĮÑģÐ¾ÑĤ": 3866,
      "ÑıÑīÐ¸Ð¼": 3867,
      "ĠÐºÑĢÐ¸Ðº": 3868,
      "ĠÐºÑĢÑĭÑģ": 3869,
      "ĠÐĶÑıÐ´ÑİÑĪÐºÐ°": 3870,
      "ĠÐ³Ð¾ÑĢÐ´Ð¾": 3871,
      "ĠÐ¿ÑĥÑĤÑĮ": 3872,
      "ĠÐºÐ°Ð¶Ð´Ð¾Ð¹": 3873,
      "ĠÑĤÐµÐ¼Ð½Ð¾ÑĤÑĭ": 3874,
      "ĠÑĪÐ°Ð³Ð¸": 3875,
      "ĠÐ±Ð°Ð»Ð»Ñĭ": 3876,
      "ĠÑĢÐ°Ð±Ð¾ÑĤÐ°": 3877,
      "ĠÑģÐºÐ°Ð¶Ñĥ": 3878,
      "ĠÐ¿ÑĢÐ¸Ð²Ð»ÐµÐº": 3879,
      "ĠÐ´Ð°Ð²Ð°Ð¹": 3880,
      "ĠÐ·ÐµÑĢÐºÐ°Ð»Ñĥ": 3881,
      "ÐĶÐŀÐł": 3882,
      "Ð»ÑıÑĤÑĮÐµ": 3883,
      "ĠÑĢÐ°ÑģÑģÐ¼Ð°ÑĤÑĢÐ¸Ð²": 3884,
      "ĠÑģÑĤÐµÐºÐ»Ð¾": 3885,
      "ĠÑģÐ¿Ð°Ð»ÑĮÐ½Ð¸": 3886,
      "ĠÐ¡ÑĤÑĢÐ°Ð½": 3887,
      "ĠÑĢÐ°ÑģÑĤÐµÐ½Ð¸Ðµ": 3888,
      "ĠÐ³Ð¾Ð²Ð¾ÑĢÑıÑĤ": 3889,
      "Ð°ÑİÑīÐ¸ÑħÑģÑı": 3890,
      "ĠÐĵÐ¾Ð¹Ð»Ð°": 3891,
      "ĠÐ²ÑģÐ¿Ð¾Ð¼Ð½Ð¸Ð»": 3892,
      "ĠÐ²ÑģÐ¿Ð¾Ð¼Ð½Ð¸ÑĤÑĮ": 3893,
      "ĠÐ¿Ð»Ð°ÑĤÑĦÐ¾ÑĢÐ¼": 3894,
      "ÑĢÐ¸ÑĤÐµÐ»ÑĮÐ½Ð¾": 3895,
      "ĠÐ·Ð°ÐºÐ»Ð¸Ð½Ð°Ð½Ð¸Ñı": 3896,
      "ĠÐ·Ð°ÐºÐ»Ð¸Ð½Ð°Ð½Ð¸Ðµ": 3897,
      "ĠÐ½Ð°Ð³ÑĢÐ°Ð´": 3898,
      "ĠÐļÑĢÐ°Ð±Ð±Ð°": 3899,
      "ĠÐ¶ÑĥÑĤÐºÐ¸Ð¹": 3900,
      "ĠÐ¿Ð¾ÐºÐ°Ð·ÑĭÐ²Ð°ÐµÑĤ": 3901,
      "ĠÐºÑĥÑħÐ½Ð¸": 3902,
      "ĠÐºÑĥÑħÐ½Ñİ": 3903,
      "ĠÑģÐ»ÐµÐ´ÑĥÑİÑīÐµÐ¹": 3904,
      "ĠÐ¿Ð¾ÑıÐ²Ð¸Ð»ÑģÑı": 3905,
      "Ð»Ð¸Ð·Ð½Ðµ": 3906,
      "ĠÑĩÐ¸ÑĤÐ°Ð»": 3907,
      "ĠÐºÐ¾Ð¼Ð°Ð½Ð´Ð°": 3908,
      "ĠÐºÐ¾Ð¼Ð°Ð½Ð´Ñĥ": 3909,
      "ĠÐ´Ð°Ð»ÐµÐºÐ¾": 3910,
      "ĠÐ·Ð°ÐºÐ¾Ð½ÑĩÐ¸Ð»Ð¸": 3911,
      "ĠÐ»ÐµÑģÐ°": 3912,
      "ĠÐłÐ°Ð·Ð²Ðµ": 3913,
      "ĠÐĽÑİÐ´Ð¸": 3914,
      "ĠÐ¾ÑģÐ²ÐµÑī": 3915,
      "ĠÐ¾ÑģÐ²Ð¾Ð±Ð¾Ð´": 3916,
      "ĠÐºÐ°ÑĢÑĤÐ¾ÑĩÐºÑĥ": 3917,
      "ĠÐ¼Ð°Ð½ÑĤÐ¸Ñİ": 3918,
      "ĠÐ¾Ð±Ð»ÐµÐ³ÑĩÐµÐ½Ð¸ÐµÐ¼": 3919,
      "ÑĥÐ»ÑĮÑĤ": 3920,
      "ĠÐ´Ð¾ÑģÐ¿ÐµÑħ": 3921,
      "ĠÐ¥Ð¾ÑĤÑı": 3922,
      "ĠÑĢÐ°Ð·Ð²ÐµÑĢÐ½ÑĥÐ»": 3923,
      "ĠÑģÐ¼ÐµÑĢÑĤÑĮ": 3924,
      "ĠÐ¤Ð¸Ð»Ð¾ÑģÐ¾ÑĦÑģÐºÐ¸Ð¹": 3925,
      "ĠÐ¾ÑģÐ¾Ð±Ð¾": 3926,
      "ĠÐ¿ÑĢÐ¸Ð²Ð¸Ð´ÐµÐ½Ð¸Ðµ": 3927,
      "ĠÐºÑĢÐµÑģÐ»Ð°": 3928,
      "ĠÐºÐµÐ½ÑĤÐ°Ð²ÑĢ": 3929,
      "ĠÑĥÑģÑĤÑĢÐµÐ¼": 3930,
      "ĠÐ¿ÑĢÐ¸Ð¼ÐµÑĢÐ½Ð¾": 3931,
      "ĠÐ¢ÐµÑĤÑı": 3932,
      "ĠÐ¿Ð¾Ð´Ð·ÐµÐ¼ÐµÐ»ÑĮÐµ": 3933,
      "ĠÐ§ÐµÑĢÐµÐ·": 3934,
      "ĠÐ½Ð°Ð´ÐµÑıÑģÑĮ": 3935,
      "ĠÐ¿ÑĢÐµÐ´Ð»Ð¾Ð¶Ð¸Ð»": 3936,
      "ĠÐ¡ÐºÐ°Ð±Ð±ÐµÑĢÑģ": 3937,
      "ĠÐ·Ð»Ð¾Ð±Ð½Ð¾": 3938,
      "ĠÑĤÐ°ÑĢÐµÐ»": 3939,
      "ĠÐ¼ÐµÐ½ÑĮÑĪÐµ": 3940,
      "ĠÐ¸Ð¼ÐµÐµÑĤ": 3941,
      "ĠÐ¾Ð¿ÑĥÑģÑĤÐ¸Ð»ÑģÑı": 3942,
      "ĠÐ¸ÑģÐ¿Ð¾Ð»ÑĮÐ·Ð¾Ð²Ð°ÑĤÑĮ": 3943,
      "ĠÐ´ÑĭÑĪÐ°": 3944,
      "ĠÐµÑħÐ°ÑĤÑĮ": 3945,
      "ĠÑĢÐ°Ð·ÑĥÐ¼ÐµÐµÑĤÑģÑı": 3946,
      "ĠÐºÑĢÐ°Ð¹Ð½ÐµÐ¹": 3947,
      "ĠÐŀÐ´Ð½Ð°Ð¶Ð´Ñĭ": 3948,
      "ĠÐ¸Ð·Ð±Ð°Ð²Ð¸ÑĤÑĮÑģÑı": 3949,
      "ĠÑģÑĥÑīÐµÑģÑĤÐ²ÑĥÐµÑĤ": 3950,
      "ĠÐĵÐ¾Ð²Ð¾ÑĢÑıÑĤ": 3951,
      "Ð°Ð³Ð¾Ð´Ð°ÑĢ": 3952,
      "ĠÐļÑĢÐ¾Ð²Ð°Ð²": 3953,
      "ĠÐ¿ÑĢÐ¸ÑĤÐ²Ð¾ÑĢ": 3954,
      "ĠÐ¿ÐµÑĢÐµÑģÐ¿ÑĢÐ¾ÑģÐ¸Ð»": 3955,
      "ĠÐºÐ¾ÑĤÐ¾ÑĢÐ¾Ð¼Ñĥ": 3956,
      "ĠÐ³Ð»ÑĥÐ¿Ð¾": 3957,
      "ĠÐµÐ´Ð¸Ð½ÑģÑĤÐ²ÐµÐ½Ð½ÑĭÐ¹": 3958,
      "ĠÐ·Ð¾Ð½ÑĤÐ¸Ðº": 3959,
      "ĠÐ¥ÑįÐ»Ð»Ð¾Ð²": 3960,
      "ĠÐ¢ÑĢÐ¾Ð»Ð»ÑĮ": 3961,
      "ĠÐ¿Ð¾Ð´ÑĤÐ²ÐµÑĢÐ´": 3962,
      "ĠÐ²Ð¾Ð»Ð½ÑĥÐ¹": 3963,
      "ĠÑģÐ¾Ð±ÑĭÑĤÐ¸Ñı": 3964,
      "ĠÑģÐµÑĢÐµÐ´Ð¸Ð½Ðµ": 3965,
      "ĠÐ¼Ð¾ÑĤÐ¾ÑĨÐ¸ÐºÐ»": 3966,
      "ĠÑģÐ¾ÑģÑĢÐµÐ´Ð¾ÑĤÐ¾": 3967,
      "ĠÐ¿ÑĢÐ°ÐºÑĤÐ¸ÑĩÐµÑģÐºÐ¸": 3968,
      "ĠÐ·Ð¾Ð²ÑĥÑĤ": 3969,
      "ĠÐ¿Ð¾ÑģÑĤÐ¾ÑıÐ½Ð½Ð¾": 3970,
      "ĠÐ¼ÑĭÑģÐ»ÑĮ": 3971,
      "ĠÐ±Ð»Ð¸Ð¶Ð°Ð¹": 3972,
      "ĠÐĿÐ°Ð¿Ð¾Ð¼Ð¸Ð½Ð°ÑĤÐµÐ»ÑĮ": 3973,
      "ÐµÑĢÐ½ÑıÐºÐ°": 3974,
      "ĠÐ½ÐµÐ¾Ð¶Ð¸Ð´Ð°Ð½": 3975,
      "ĠÑĥÐ½Ð¸ÑĤÐ°Ð·": 3976,
      "ĠÐĴÐ¾Ð·ÑĮÐ¼Ð¸": 3977,
      "\"...": 3978,
      "?\"": 3979,
      "¤Ð¤": 3980,
      "Ð¨": 3981,
      "ÐĻ": 3982,
      "ĽÐ¬": 3983,
      "ĠÐ¦": 3984,
      "Ð°ÑĦ": 3985,
      "Ð°ÑĤÐ¸": 3986,
      "ÐµÐ½Ð¾": 3987,
      "Ð¸Ð½Ð¾": 3988,
      "ÑĤÐ¸Ð»": 3989,
      "ÑĤÐºÐ¸": 3990,
      "Ð»ÐµÐ¹": 3991,
      "Ð»ÐµÐ½Ñĭ": 3992,
      "ÑĢÐ¾Ð¶": 3993,
      "ÑĢÐµÑģ": 3994,
      "ÑĢÐµÑģÑĤ": 3995,
      "ÑĢÑıÐ´": 3996,
      "ÑĢÐµÑī": 3997,
      "ÑģÐºÑĥÑİ": 3998,
      "Ð½ÐµÑĢ": 3999,
      "Ð½Ð¾Ð¶": 4000,
      "Ð½Ð°ÐºÐ¾Ð¼": 4001,
      "ÑĮÐ¼Ð¸": 4002,
      "ÑıÐ¼": 4003,
      "ÑıÐ¹": 4004,
      "ÑıÐ»Ð°": 4005,
      "ÑıÐ·Ð°": 4006,
      "ÑıÐ½Ð¸Ðµ": 4007,
      "ÑıÐ½Ð¸Ð¸": 4008,
      "ĠÐ¿ÑĤÐ¸": 4009,
      "ĠÐ¿ÑĥÐ´": 4010,
      "ĠÐ¿Ð°Ð½Ð¸": 4011,
      "ĠÐ¿Ð°ÑģÑĤ": 4012,
      "ĠÐ¿ÑĥÑĢÐ¿": 4013,
      "ĠÑģÐ³": 4014,
      "ĠÑģÐ°Ð¿": 4015,
      "ĠÑģÐ¸Ð¼": 4016,
      "ĠÑģÐ½Ðµ": 4017,
      "ĠÑģÑĩÐµÑĤ": 4018,
      "ĠÑģÑħÐ²Ð°": 4019,
      "ĠÑģÑĥÐ±Ð±Ð¾ÑĤ": 4020,
      "ÑĩÐ°Ð»Ð°": 4021,
      "ÑĩÐµÑĢÐ°": 4022,
      "ĠÐ²Ð¾ÑĢ": 4023,
      "ĠÐ²ÐµÐº": 4024,
      "ĠÐ²Ð³Ð»ÑıÐ´": 4025,
      "ĠÐ²ÑĢÐµÐ·": 4026,
      "ÐºÐ°Ð»Ð¸ÑģÑĮ": 4027,
      "ÐºÐ½Ð¾Ð²": 4028,
      "Ð´Ñı": 4029,
      "Ð´ÐµÐ½": 4030,
      "Ð´ÐµÐ²": 4031,
      "Ð´Ð°Ð»Ð°": 4032,
      "ĠÐ¾ÑĤÐ¾": 4033,
      "Ð¼Ð¼": 4034,
      "Ð¼Ð¾Ð¼": 4035,
      "Ð¼ÐµÐ½ÑĤ": 4036,
      "ĠÐºÑĢÐ¾": 4037,
      "ĠÐºÐ¾Ð¶": 4038,
      "ÐµÑĢÐ½ÑĥÐ»": 4039,
      "Ð»Ð¸Ð»": 4040,
      "Ð»Ð¸Ð±Ð¾": 4041,
      "ĠÐ´Ð°ÑĢ": 4042,
      "ĠÐ´Ð¶": 4043,
      "ĠÐ´Ð°ÑĤÑĮ": 4044,
      "ĠÐ´Ð°Ð¹": 4045,
      "ĠÐ´ÑĥÑħ": 4046,
      "ĠÐ´Ð¾Ð¶Ð´": 4047,
      "ĠÐ´Ð½ÐµÐ¼": 4048,
      "ĠÐ´ÑıÐ´Ðµ": 4049,
      "ÑģÑĤÐ¾Ð¹": 4050,
      "Ð½Ð¸Ð»Ð¸": 4051,
      "Ð½Ð¸Ñİ": 4052,
      "Ð½Ð¸ÐµÐ¼": 4053,
      "Ð½Ð¸Ð»Ð°": 4054,
      "Ð½Ð¸Ð»Ð¾": 4055,
      "Ð½Ð¸Ð¼Ð¸": 4056,
      "ĠÐ±ÐµÐ´": 4057,
      "ĠÐ±ÑĢÐ¾Ð½": 4058,
      "ĠÐ±ÑĢÐ¾ÑģÐ¸Ð»": 4059,
      "ĠÑĤÑĢÑĥ": 4060,
      "ĠÑĤÐµÐ½ÑĮ": 4061,
      "ĠÑĤÐµÑĤÐµ": 4062,
      "Ð°ÑĢÐ°Ð±": 4063,
      "ÐµÑĤÐ¸Ð¹": 4064,
      "ĠÐ¼Ð¾ÑĤ": 4065,
      "ĠÐ¼Ð¾Ðµ": 4066,
      "ĠÐ¼Ð¸ÑģÑģ": 4067,
      "ĠÐ¼Ð¾Ð»Ð¾Ð´": 4068,
      "ĠÐ¼Ð³Ð½Ð¾Ð²": 4069,
      "ĠÑĩÐµÐ¼Ñĥ": 4070,
      "ĠÑĩÐ°ÑģÑĤÑĮ": 4071,
      "ĠÐĵÐ¾ÑĤ": 4072,
      "ĠÐ·Ð²ÐµÑĢ": 4073,
      "ÑİÐ±": 4074,
      "Ð°ÐºÐ°": 4075,
      "ÐµÐ½ÑĤÐ°": 4076,
      "ÐµÐ½ÐµÐ»Ð¾": 4077,
      "Ð±Ñĭ": 4078,
      "Ð±ÑĥÐ¶Ð´": 4079,
      "ĠÑĥÑģÑĤÑĢÐ¾": 4080,
      "ĠÑĥÑĤÑĢ": 4081,
      "ĠÑĥÑĩÐ°ÑģÑĤ": 4082,
      "Ð·Ð²": 4083,
      "ÑĢÐ¾Ñħ": 4084,
      "ĠÐ½Ð°Ð¸Ð·": 4085,
      "ĠÐ½Ð°ÑģÑĤÐ°": 4086,
      "Ð¾ÑĢÐ¾Ð¼": 4087,
      "ÐµÐ¼ÑĮ": 4088,
      "ĠÐµÐ»Ðµ": 4089,
      "Ð½ÑĥÑģÑĮ": 4090,
      "ĠÐ¿Ð¾Ð¸Ñģ": 4091,
      "ĠÐ¿Ð¾Ð¸ÑģÐº": 4092,
      "ĠÐ¿Ð¾Ð¸Ð½ÑĤÐµÑĢÐµÑģ": 4093,
      "ĠÐ¿Ð¾ÑįÑĤÐ¾Ð¼Ñĥ": 4094,
      "ĠÑĢÑı": 4095,
      "ĠÑĢÐµÐ±": 4096,
      "ĠÑĢÑĤÐ°": 4097,
      "ĠÑĢÑıÐ²": 4098,
      "ĠÑĢÐ¾Ð·Ð¾Ð²": 4099,
      "ÑīÐ°Ñı": 4100,
      "ÑīÐµÐ¹": 4101,
      "ÑīÐ¸Ð¼": 4102,
      "Ð½Ð°Ñħ": 4103,
      "ĠÐŁÐ°Ð¿": 4104,
      "ĠÐŁÐ¾Ð¿": 4105,
      "ĠÐŁÑĥÑĪ": 4106,
      "ĠÐŁÐ¾Ð´Ð½Ñı": 4107,
      "ĠÐŁÑĥÑģÑĤÑĮ": 4108,
      "Ð°Ð²Ð°Ñı": 4109,
      "ÐµÐ´Ð½ÐµÐ²": 4110,
      "ĠÐĿÐķ": 4111,
      "ĠÐĶÐ¸Ð½": 4112,
      "ĠÐĶÐ¾Ð»Ð¶": 4113,
      "ĠÐ»ÐµÐ²": 4114,
      "ĠÐ»Ð¸Ð¼Ð¾Ð½": 4115,
      "ĠÐĴÐ°Ð¼": 4116,
      "ĠÐĴÐµÑģÑĮ": 4117,
      "ĠÐ¾ÑĤÑĪ": 4118,
      "ĠÐ³ÑĢÑĥ": 4119,
      "ĠÐ³ÑĢÑĥÐ±": 4120,
      "ĠÐ¡Ð¾": 4121,
      "ĠÐ¡Ð¢": 4122,
      "ĠÐ¡ÑĩÐ°ÑģÑĤ": 4123,
      "ĠÐ¡Ð¼ÐµÐ»": 4124,
      "ĠÐ¡Ð»ÑĥÑĪÐ°Ð¹": 4125,
      "ÑĢÐ°Ñĩ": 4126,
      "ĠÐ²ÑĭÐ¼": 4127,
      "ĠÐ²ÑĭÑĪ": 4128,
      "ĠÐ²ÑĭÑĪÐ»Ð°": 4129,
      "ĠÐ²ÑĭÑĢÐ¾Ð½Ð¸Ð»": 4130,
      "ĠÐļÐ¸Ð½Ð³": 4131,
      "ĠÐļÑĢÐ¾ÑģÑģ": 4132,
      "Ð»ÑıÑİ": 4133,
      "Ð»ÑıÐ»Ð¸ÑģÑĮ": 4134,
      "ĠÐ¥Ð¾Ñĩ": 4135,
      "ÐµÐ²ÐµÑĢ": 4136,
      "ĠÐ·Ð°ÑĪ": 4137,
      "ĠÐ·Ð°ÑĪÐµÐ»": 4138,
      "Ð¸ÑĤÑĭ": 4139,
      "Ð¸ÑĤÐ°Ð»ÑĮ": 4140,
      "ĠÐºÐ°ÐºÐ¾Ð¼": 4141,
      "ĠÐºÐ°ÐºÐ¸Ð¼": 4142,
      "ĠÐºÐ°ÐºÐ¸Ñħ": 4143,
      "ĠÐłÐ°Ð·Ð´": 4144,
      "Ð°Ð½Ð½Ð¾": 4145,
      "Ð°Ð½Ð½ÑĭÐµ": 4146,
      "Ð°Ð½Ð½Ð¾Ðµ": 4147,
      "ĠÐ½Ð¸ÑĩÑĤÐ¾": 4148,
      "ĠÑıÐ´Ð¾Ð²": 4149,
      "Ð¸Ð½Ð°Ð»": 4150,
      "Ð¸Ð½ÐµÑĤ": 4151,
      "ĠÐ¶Ð°Ð»": 4152,
      "ĠÐ¶Ð°Ð»ÑĮ": 4153,
      "ĠÐ¶Ð¸ÑĢ": 4154,
      "ĠÐ¶Ð´Ð°Ð»Ð¸": 4155,
      "ĠÑģÑĤÐ°ÑĤ": 4156,
      "...\"": 4157,
      "ĠÐ¿ÑĢÐ¸ÑĪÐµÐ»": 4158,
      "ĠÐ¢Ð¾Ð³Ð´Ð°": 4159,
      "ÐµÐ½Ð¸Ðº": 4160,
      "ĠÑĪÐµ": 4161,
      "ĠÑĪÑĤ": 4162,
      "ĠÑĪÐ°ÑĢ": 4163,
      "ĠÑĪÑĤÐ°": 4164,
      "ĠÐ¿Ð¾Ð´Ð´": 4165,
      "ĠÐ¿Ð¾Ð´Ð¶": 4166,
      "ĠÐ¾Ð±Ðµ": 4167,
      "ĠÐ¾Ð±ÑħÐ¾Ð´": 4168,
      "ĠÐ¾Ð±ÑıÐ·": 4169,
      "ĠÐ¾Ð±Ð¾ÑĢÐ¾ÑĤ": 4170,
      "Ð¸Ð²Ð°Ð»ÑģÑı": 4171,
      "ĠÑģÐ¿Ð¸": 4172,
      "ĠÑģÐ¿Ð¾ÑĤ": 4173,
      "ĠÑģÐ¿Ð¸Ñģ": 4174,
      "ĠÑģÐ¿ÐµÑĨ": 4175,
      "ĠÑģÐ¿Ð¸Ð½Ñĥ": 4176,
      "ĠÑĤÐ°ÐºÐ¸Ñħ": 4177,
      "ÐµÐ½ÑĮÐºÐ¾": 4178,
      "ĠÑĢÐ°Ð·Ð½ÑĭÐµ": 4179,
      "ĠÑĢÐ°Ð·Ð²Ðµ": 4180,
      "Ð°ÑĤÑĭ": 4181,
      "Ð°ÑĤÐ¸Ð»ÑĮ": 4182,
      "ĠÐ³Ð¾ÑģÐ¿": 4183,
      "ĠÐºÐ¾ÑĢÐ¸ÑĩÐ½ÐµÐ²": 4184,
      "ÑģÐºÐ¾Ð¼": 4185,
      "ÑģÐºÐ°Ðº": 4186,
      "ĠÐ°Ð´": 4187,
      "ĠÐ°ÑĢÐ±": 4188,
      "ĠÐĺÐ¼": 4189,
      "ĠÐĺÐ´Ð¸": 4190,
      "ĠÐĺÑģÑĤÐ¾ÑĢÐ¸": 4191,
      "ĠÐ¿Ð¾Ð»ÐµÑĤ": 4192,
      "ĠÐ¿Ð¾Ð»Ð¾Ð¶Ð¸Ð»": 4193,
      "ĠÐ¿Ð¾Ð»Ð°Ð³Ð°Ñİ": 4194,
      "Ð²Ð¸Ð½Ð¸": 4195,
      "ÐµÐ¶Ð´Ñĭ": 4196,
      "Ð°ÑİÑīÐµ": 4197,
      "Ð½ÑıÐ¼Ð¸": 4198,
      "ĠÑģÑĤÐ¾Ð»ÑĮ": 4199,
      "ĠÑģÑĤÐ¾Ð¸ÑĤ": 4200,
      "Ð¸ÑģÑĤÐ¾Ðµ": 4201,
      "ÑĭÐ²Ð°Ð»Ð¸": 4202,
      "Ð»ÑĭÐ¹": 4203,
      "ĠÐĹÐ½": 4204,
      "ÑĩÐ¸Ð²Ð¾": 4205,
      "ĠÐ£Ð³": 4206,
      "ĠÐ¿Ð¾ÐºÑĢÐ°Ñģ": 4207,
      "Ð¼ÑĥÑī": 4208,
      "ĠÐ¿Ð¾ÑģÐ»Ð°": 4209,
      "Ð¼Ð¾ÑĤÑĢÐµÑĤÑĮ": 4210,
      "ĠÐ¾Ð´Ð¸Ð½Ð¾": 4211,
      "ĠÐ²Ð·Ð´": 4212,
      "ĠÐ¾ÑģÑĤÐ°Ð»Ð¾ÑģÑĮ": 4213,
      "ĠÐ§ÑĤÐ¾Ð±": 4214,
      "ĠÑģÐ²Ð¾Ð¸Ð¼Ð¸": 4215,
      "ÑħÐ¾Ð´Ð¸": 4216,
      "ĠÐ´Ð¾ÑģÑĤÐ¸Ð³": 4217,
      "ĠÐ»Ð¸ÑĨÐµ": 4218,
      "ÑıÑĤÐ¸Ð»": 4219,
      "ĠÑĤÑĢÐµÑĤÐ¸Ð¹": 4220,
      "ĠÐĽÑĥÑĩ": 4221,
      "ĠÐ±Ð¾Ð»ÑĮÐ½Ð¾": 4222,
      "ĠÐĶÐ°Ð¼Ð±Ð»ÑĮÐ´Ð¾ÑĢÐ¾Ð¼": 4223,
      "ĠÐ·Ð½Ð°Ñı": 4224,
      "ĠÐºÐ¾Ð½Ñĩ": 4225,
      "ĠÐ²Ð¾Ð·Ð±ÑĥÐ¶Ð´": 4226,
      "ĠÑĢÑĥÐºÐ°": 4227,
      "ĠÑĢÑĥÐºÐµ": 4228,
      "ĠÐ¾ÑĩÐµÐ²Ð¸Ð´": 4229,
      "ÑĢÐµÐ¼Ñı": 4230,
      "ÑĩÐ°ÑģÑĤÑĮÑİ": 4231,
      "ĠÐ¾ÐºÑĢÑĥÐ¶": 4232,
      "ĠÐ¾ÐºÐ°Ð·Ð°ÑĤÑĮÑģÑı": 4233,
      "ĠÑĥÑģÐ¸Ð»Ð¸": 4234,
      "ĠÐŁÐ¾ÑĤÐ¾Ð¼": 4235,
      "ÑĢÐ°Ð²Ð´Ñĥ": 4236,
      "ĠÑģÐ¾Ð±Ð°Ñĩ": 4237,
      "Ð½ÑĥÑĤÑģÑı": 4238,
      "Ð½ÑĥÑĤÑģÐ¾Ð²": 4239,
      "ĠÐ·Ð°Ð¿Ñı": 4240,
      "ĠÐ·Ð°Ð¿Ð¾Ð¼": 4241,
      "ĠÐ·Ð°Ð¿Ð¸Ñħ": 4242,
      "ĠÐ¿Ð¾Ð¿Ð°Ð»": 4243,
      "ĠÑĦÐ¸Ð³Ñĥ": 4244,
      "ĠÐ¸ÑģÑħÐ¾Ð´": 4245,
      "ĠÐŁÐ¾ÑĤÑĤÐµÑĢÐ¾Ð²": 4246,
      "ÐŀÐ¢": 4247,
      "ĠÐ¿Ð¾ÑĢÐ¾Ð³": 4248,
      "ĠÐľÐ°ÐºÐ³Ð¾Ð½": 4249,
      "ĠÐ²ÐµÑĢÐµÐ²": 4250,
      "ĠÑħÐ¾ÑĤÐµÐ»Ð¸": 4251,
      "ĠÐ¼ÐµÑĤÐ»Ðµ": 4252,
      "ĠÐ¼ÐµÑĤÐ»Ð¾Ð¹": 4253,
      "ĠÐ´Ð¾Ð¼Ð¾Ð¹": 4254,
      "ĠÐ´ÑĢÑĥÐ³Ð¸Ñħ": 4255,
      "ĠÐ´ÑĥÐ¼Ð°Ð»Ð°": 4256,
      "ĠÐ¿Ð¾Ð¼Ð°Ñħ": 4257,
      "ĠÐ¿Ð¾Ð¼Ð½Ð¸Ð»": 4258,
      "ĠÐ¿Ð¾Ð¼Ð¾ÑĩÑĮ": 4259,
      "ĠÐ¾Ð¿Ð¾Ð·": 4260,
      "ĠÐ·Ð°Ð±Ð°Ð²": 4261,
      "ĠÐ·Ð°Ð±ÑĢÐ°ÑĤÑĮ": 4262,
      "ĠÐ½Ð°ÑĩÐ°Ð»Ð¸": 4263,
      "ĠÐ²Ð¾Ð»ÑĪÐµÐ±Ð½ÑĭÐµ": 4264,
      "ĠÐ¿ÐµÑĢÐ²Ð¾Ðº": 4265,
      "ĠÐ¿ÐµÑĢÐ²Ð¾Ð³Ð¾Ð´": 4266,
      "ÑĮÑİÑĤÐµÑĢ": 4267,
      "ĠÐ·Ð°ÐºÑĢÑĭÐ²": 4268,
      "ĠÐ¿Ð»Ð°Ð½ÐµÑĤ": 4269,
      "ÑĬÑı": 4270,
      "Ð¢Ðķ": 4271,
      "ĠÐ¿Ð¾Ð±ÐµÐ¶Ð°Ð»": 4272,
      "ĠÐ¿Ð¾Ð»ÑĥÑĩÐ¸Ð»Ð¸": 4273,
      "ĠÐ·Ð°Ð²ÐµÑĢ": 4274,
      "ĠÐ·Ð°Ð²Ð¾Ð¿Ð¸Ð»": 4275,
      "ĠÐ¿ÑĢÐ¾Ð±Ð»ÐµÐ¼": 4276,
      "ĠÐ±Ð¾Ð»ÑĮÑĪÐ¾Ð³Ð¾": 4277,
      "Ð¿Ð°ÑĤÐ¸": 4278,
      "ĠÑģÐµÐ¼ÑĮÑİ": 4279,
      "ĠÑĤÐ¾Ð»Ð¿Ñĥ": 4280,
      "ÐŀÐĴ": 4281,
      "ĠÑģÐ¸Ð´ÐµÑĤÑĮ": 4282,
      "ĠÑĤÐ²Ð¾ÐµÐ³Ð¾": 4283,
      "Ð¸ÑĤÐµÑģÑĮ": 4284,
      "Ð¸Ð±Ð¾Ð»": 4285,
      "ĠÑĥÐ¿Ð¾Ð¼": 4286,
      "ĠÑĥÐ·Ð½Ð°Ð»Ð¸": 4287,
      "ĠÐ¿ÑĢÐ¾ÑĪÐ»Ð¾Ð¼": 4288,
      "ĠÐ´ÐµÐ½ÑĮÐ³Ð¸": 4289,
      "ÐķÐľ": 4290,
      "ÐµÐ»ÑıÐ¼Ð¸": 4291,
      "ĠÐ»ÐµÑĤÐ°ÑĤÑĮ": 4292,
      "ĠÐ¾Ð³Ð»Ñı": 4293,
      "ĠÐ¾Ð³Ð½Ñı": 4294,
      "ĠÑĤÑĢÐ¸Ð½Ð°Ð´ÑĨÐ°ÑĤÑĮ": 4295,
      "ĠÑĤÑĢÐ¸Ð´ÑĨÐ°ÑĤÑĮ": 4296,
      "ÐĲÐľ": 4297,
      "ÐĲÐ¤Ð¤": 4298,
      "Ð°Ð´Ð¾ÑģÑĤÐ¸": 4299,
      "ĠÐ¾ÑĤÐºÑĢÑĭÑĤ": 4300,
      "ĠÐ¾ÑģÑĤÐ°Ð²Ð¸Ð»": 4301,
      "ĠÐ¾ÑģÑĤÐ°Ð²Ð¸Ð²": 4302,
      "ĠÐ½ÐµÐ¿Ð»Ð¾Ñħ": 4303,
      "ÑĢÐ¸ÑĩÐ°Ð»Ð¸": 4304,
      "ĠÑĥÑĩÐ¸Ð»ÑģÑı": 4305,
      "ĠÐ½Ð¾ÑģÐ¾Ð¼": 4306,
      "ĠÐ¨Ð»Ñı": 4307,
      "ĠÑģÑĤÑĢÐ°Ð½Ð½Ð¾": 4308,
      "ĠÑģÑĤÑĢÐ°Ð½Ð½ÑĭÐ¹": 4309,
      "ĠÐ´Ð»Ð¸Ð½Ð½ÑĭÐ¹": 4310,
      "ĠÐ½ÐµÐ²ÐµÑĢÐ¾": 4311,
      "ĠÐ½ÐµÐ²Ð¾Ð·Ð¼Ð¾Ð¶Ð½Ð¾": 4312,
      "ÑĩÐ°ÑģÐ°": 4313,
      "ĠÐ¿Ð¾Ð´Ð½ÑıÐ»Ð¸ÑģÑĮ": 4314,
      "ĠÐ¸ÑģÐ¿Ð¾Ð»": 4315,
      "ĠÐ¸ÑģÐ¿ÑĥÐ³": 4316,
      "ĠÑĢÐ°Ð·Ð´ÑĢÐ°Ð¶": 4317,
      "ĠÐ¸ÑģÐºÐ»Ñİ": 4318,
      "ĠÑĩÐ°ÑģÑĤÐ¾": 4319,
      "ĠÐŁÑĢÐ¸Ð¼": 4320,
      "ĠÐ½ÑĥÐ¶Ð½Ð°": 4321,
      "ĠÐ²ÑģÐ¿ÑĭÑħ": 4322,
      "ĠÐ½Ð°ÑĢÐ¾Ð´": 4323,
      "ĠÐ½Ð°ÑĢÑĥÐ¶": 4324,
      "ĠÐ´ÐµÐ²Ð¾ÑĩÐµÐº": 4325,
      "ĠÐ¿ÑĢÐ¾Ð¸Ð·Ð½ÐµÑģÐ»Ð°": 4326,
      "Ð¡Ð¢": 4327,
      "ĠÑģÐ¸Ð»ÑĮÐ½ÐµÐµ": 4328,
      "ĠÑĥÐ¶Ð°ÑģÐ½Ð¾": 4329,
      "ĠÐºÑĥÐ¿Ð¸ÑĤÑĮ": 4330,
      "ĠÐ´ÐµÑĢÐµÐ²Ð°": 4331,
      "Ð°ÑİÑīÑĥÑİ": 4332,
      "Ð°ÑĢÐ¸Ð»": 4333,
      "ĠÑģÑĩÐ¸ÑĤÐ°Ð»": 4334,
      "ĠÐ¿Ð¾ÑģÑĤÐ°ÑĢ": 4335,
      "ĠÐ¿Ð¾ÑģÑĤÐµÐ»ÑĮ": 4336,
      "ĠÐ²Ð·Ð³Ð»ÑıÐ½ÑĥÑĤÑĮ": 4337,
      "ĠÐ¿Ð¾Ð¹Ð¼Ð°ÑİÑĤ": 4338,
      "ĠÐ¾Ð±ÑĢÐ°ÑĤÐ¸Ð»": 4339,
      "ĠÐ¼ÑıÑĩÐ°": 4340,
      "ĠÐ»ÐµÐ¶Ð°Ð»Ð¸": 4341,
      "ĠÐ´Ð¾ÑĢÐ¾Ð³Ð¸": 4342,
      "ĠÐ¼Ð°Ð¼Ð¾ÑĩÐºÐ°": 4343,
      "ĠÐŁÑĢÐµÐ¶Ð´Ðµ": 4344,
      "ĠÑģÐ¼Ð¾ÑĤÑĢÐµÐ»Ð°": 4345,
      "ĠÐ¶Ð¸Ð²Ð¾ÑĤ": 4346,
      "ĠÐ¶Ð¸Ð²ÑĭÑħ": 4347,
      "ĠÐ¾ÑħÐ¾ÑĤ": 4348,
      "ĠÐ²ÑģÐµÐ¼Ð¸": 4349,
      "ĠÐ·Ð°ÑģÑĤÐ°Ð²Ð¸ÑĤÑĮ": 4350,
      "ĠÐĹÐ°ÑīÐ¸ÑĤ": 4351,
      "ĠÐ»ÐµÑģÑĤÐ½Ð¸ÑĨÑĭ": 4352,
      "ĠÑģÐºÐ°Ð¶ÐµÑĤ": 4353,
      "ĠÐ¿ÑĢÐ¸Ð±Ð»Ð¸Ð·": 4354,
      "ĠÐ²Ð¾Ð¿ÑĢÐ¾ÑģÑĭ": 4355,
      "Ð½Ð¾ÑģÐ¸ÑĤÑĮ": 4356,
      "ĠÑģÐ¼Ð¾Ð³ÑĥÑĤ": 4357,
      "ĠÐŀÐ´Ð¸Ð½": 4358,
      "ĠÐĿÐ¸ÐºÐ¾Ð³Ð´Ð°": 4359,
      "ĠÐ¾ÐºÐ°Ð·Ð°Ð»Ð°ÑģÑĮ": 4360,
      "ĠÑĤÐ¾Ð»ÑģÑĤÑĭÐ¹": 4361,
      "ĠÐ²ÐµÑĤÐµÑĢ": 4362,
      "ĠÐ½Ð°ÑģÑĤÐ¾Ñı": 4363,
      "ĠÐ¾Ð¿Ð°ÑģÐ½Ð¾": 4364,
      "ĠÑĢÐµÐ·ÐºÐ¸Ð¹": 4365,
      "ĠÑģÐµÑĢÐµÐ±ÑĢÑıÐ½ÑĭÐ¹": 4366,
      "ĠÐ¼Ð°Ð½ÑĤÐ¸Ñı": 4367,
      "ĠÐĶÑĢÐ°Ð¶Ðµ": 4368,
      "ĠÐ²ÑĭÐ¸Ð³ÑĢÐ°ÑĤÑĮ": 4369,
      "ĠÐ¿Ð»Ð°ÑĤÑĦÐ¾ÑĢÐ¼Ñĭ": 4370,
      "ĠÑģÑĭÐ½": 4371,
      "ĠÑģÑĥÐ¼ÐµÐ»": 4372,
      "ĠÑĥÐ³Ð¾Ð´Ð½Ð¾": 4373,
      "ĠÐ¿Ð¾ÑĤÐ¾Ð»Ð¾Ðº": 4374,
      "ĠÐºÐ¾ÑĪÐºÑĥ": 4375,
      "ĠÐ½Ð°Ð·ÑĭÐ²Ð°ÑĤÑĮ": 4376,
      "ĠÐ±Ð¸Ð±Ð»Ð¸Ð¾ÑĤÐµÐºÐµ": 4377,
      "ĠÐ¿ÑĢÐ¾ÑĤÐ¸Ð²Ð¾Ð¿Ð¾Ð»": 4378,
      "ĠÑģÐ¿Ð°ÑģÐ¸Ð±Ð¾": 4379,
      "ĠÐ¾Ð³Ð»ÑıÐ´ÐµÐ»": 4380,
      "ĠÐ²ÑĭÑħÐ¾Ð´Ñĥ": 4381,
      "ĠÑģÑĤÐ°Ð½ÐµÑĤ": 4382,
      "ĠÑģÑĤÐ°Ð½ÑĨÐ¸Ð¸": 4383,
      "ĠÐĹÐ½Ð°ÑĩÐ¸ÑĤ": 4384,
      "ĠÐ¿Ð¾Ð²ÑĤÐ¾ÑĢÐ¸Ð»": 4385,
      "ĠÑĤÑıÐ¶ÐµÐ»Ð¾": 4386,
      "ĠÑģÐ¾Ð¾Ð±ÑīÐ¸Ð»": 4387,
      "ĠÐ´ÑİÐ¶Ð¸": 4388,
      "ĠÐ·ÐµÐ»ÐµÐ½Ð¾Ð³Ð¾": 4389,
      "ĠÐ½Ð°Ð¿Ð¾Ð¼Ð½Ð¸Ð»": 4390,
      "ĠÐºÐ°Ð·Ð°Ð»ÑģÑı": 4391,
      "ÐµÑĢÑĤÐ²": 4392,
      "Ð¾Ð¶Ð°Ð»ÑĥÐ¹ÑģÑĤÐ°": 4393,
      "ĠÐ·Ð°Ð½Ð¸Ð¼Ð°ÑĤÑĮÑģÑı": 4394,
      "ĠÐ¿Ð¾Ð»Ð½Ð¾ÑĩÑĮ": 4395,
      "ĠÐºÐ¾Ð¼Ð¿ÑĮÑİÑĤÐµÑĢ": 4396,
      "ĠÐ½ÐµÐ¿ÑĢÐ¸ÑıÑĤ": 4397,
      "ĠÐ¿Ð°Ð¿Ð°": 4398,
      "ĠÐ¿Ð°Ð¿Ð¾Ð¹": 4399,
      "ĠÐ¿ÑĢÐ¾ÑģÑĤÑĭ": 4400,
      "ĠÐ¼Ð°Ð³Ð³Ð»Ñĭ": 4401,
      "ĠÐ²ÐµÐ»ÐµÐ»": 4402,
      "ĠÐ¼ÐµÑģÑĤÐ°": 4403,
      "ĠÐ¿Ð¾ÑĤÑĢÐµÐ±": 4404,
      "ĠÐ¿Ð¾ÑĤÑĢÐµÐ¿": 4405,
      "ĠÐĴÐ¸Ð´Ð¸ÑĪÑĮ": 4406,
      "ĠÐ¿ÑĢÐµÐ²ÑĢÐ°Ñī": 4407,
      "ĠÑĥÐ´Ð°Ð»Ð¸Ð»ÑģÑı": 4408,
      "ĠÐ¾ÑģÐ¾Ð±ÐµÐ½Ð½Ð¾": 4409,
      "ĠÑģÐµÐ¹ÑĦÐ°": 4410,
      "ĠÑģÐ¾Ð·Ð´Ð°": 4411,
      "ĠÐ¿Ð¾ÑĤÐµÑĢÑıÐ»": 4412,
      "ĠÐ¿ÑĢÐ¸ÐºÐ»ÑİÑĩ": 4413,
      "ĠÑīÐµÐ»ÐºÐ½ÑĥÐ»": 4414,
      "ĠÐ½ÐµÐ½Ð°Ð²Ð¸Ð´ÐµÐ»": 4415,
      "ĠÑģÐ¾Ð»Ð½": 4416,
      "ĠÐ¢ÐµÑĤÐºÐ°": 4417,
      "ĠÑĪÐµÐ²ÐµÐ»Ð¸": 4418,
      "ĠÑĪÐµÐ¿Ð¾ÑĤÐ¾Ð¼": 4419,
      "ĠÑĤÑĢÐµÑħÐ³Ð¾Ð»Ð¾Ð²": 4420,
      "ĠÐ¸Ð³ÑĢÐ¾ÐºÐ¾Ð²": 4421,
      "ĠÐ¡ÐºÐ°Ð±Ð±ÐµÑĢÑģÐ°": 4422,
      "ĠÐ½ÐµÐºÐ¾ÑĤÐ¾ÑĢÑĭÐµ": 4423,
      "ĠÑĤÑĢÐµÐ½Ð¸ÑĢÐ¾Ð²ÐºÐ¸": 4424,
      "ÐĿÐµÐ²Ð¸Ð´Ð¸Ð¼ÐºÐ°": 4425,
      "ÐĿÐµÐ²Ð¸Ð´Ð¸Ð¼ÐºÑĥ": 4426,
      "ĠÐĵÐµÐ´Ð²Ð¸Ð³Ð°": 4427,
      "ÑĭÑĤÐ°ÐµÑĤÑģÑı": 4428,
      "ĠÐ²Ð¾Ð²ÑĢÐµÐ¼Ñı": 4429,
      "ĠÐ±ÐµÐ¶Ð°ÑĤÑĮ": 4430,
      "ĠÐ¾ÑĤÑĢÐ°Ð¶ÐµÐ½Ð¸Ðµ": 4431,
      "ĠÐ³ÑĢÐ¸ÑĦÑĦÐ¸Ð½Ð´Ð¾ÑĢ": 4432,
      "ĠÑıÑīÐ¸Ðº": 4433,
      "ĠÑĤÐ¾Ð½ÐºÐ¸Ð¹": 4434,
      "ĠÑħÑĢÐ°Ð±ÑĢÐ¾": 4435,
      "ĠÑģÐ²ÑıÐ·ÑĭÐ²": 4436,
      "ĠÐºÐ¾Ð»Ð´ÑĥÐ½ÑĮ": 4437,
      "ĠÐ½ÐµÐ¿Ð¾Ð´Ð²Ð¸Ð¶": 4438,
      "ĠÐºÐ°Ð½Ð¸ÐºÑĥÐ»Ñĭ": 4439,
      "ĠÑĢÐ¸ÑģÐº": 4440,
      "ĠÐ¿Ð°ÐºÐµÑĤ": 4441,
      "ĠÑģÑĥÐ½Ð´ÑĥÐº": 4442,
      "ĠÐ²Ð¸Ð´Ð°": 4443,
      "ĠÐºÑĢÐ°Ñİ": 4444,
      "ĠÐ±ÑĢÐ°ÑĤÑĮÑı": 4445,
      "ĠÐ¾ÑĤÑĤÐ¾Ð³Ð¾": 4446,
      "ĠÑĪÐ¸ÑĢÐ¾ÐºÐ¾": 4447,
      "ĠÐ´Ð²ÐµÐ½Ð°Ð´ÑĨÐ°ÑĤÑĮ": 4448,
      "ĠÐ·Ð°Ð³Ð»ÑıÐ½ÑĥÐ»": 4449,
      "ĠÑģÐ»ÑĥÑĩÐ°Ð¹Ð½Ð¾": 4450,
      "ĠÐ±ÑĥÑĤÑĭÐ»Ð¾ÑĩÐºÑĥ": 4451,
      "Ð½Ð°Ð´ÑĨÐ°ÑĤÐ°Ñı": 4452,
      "ĠÐ²ÑĤÐ¾ÑĢÐ¾Ð¹": 4453,
      "ĠÐ¿Ð¾ÑıÑģÐ½Ð¸Ð»": 4454,
      "ĠÐ»Ð°Ð´Ð¾Ð½": 4455,
      "ĠÐ³Ð°Ð·ÐµÑĤÑĥ": 4456,
      "ĠÐ²ÑģÐºÐ¾ÑĩÐ¸Ð»Ð°": 4457,
      "ĠÑıÐ¹ÑĨÐ¾": 4458,
      "ĠÐ¿ÑĢÐ¸Ð·ÐµÐ¼Ð»Ð¸Ð»ÑģÑı": 4459,
      "ĠÐ³Ð¾ÑģÐ¿Ð¾Ð´Ð¸Ð½": 4460,
      "ĠÐ¿ÐµÑĢÐµÐ¾Ð´": 4461,
      "ĠÐĹÐ°ÐºÑĢÑĭ": 4462,
      "ĠÐ¿Ð¾ÑģÑĤÑĥÑĩÐ°Ð»": 4463,
      "ĠÑĥÑħÐ¼ÑĭÐ»ÑĮ": 4464,
      "ĠÐ¿ÑĢÐµÐ´Ð¿Ð¾Ð»Ð¾Ð¶Ð¸Ð»": 4465,
      "ĠÑģÑĤÑĥÐ¿ÐµÐ½ÑĮÐºÐ°Ð¼": 4466,
      "ĠÐ¾Ð´ÐµÑıÐ»": 4467,
      "ĠÐ±ÑĥÐ¼Ð°Ð³": 4468,
      "ĠÐ½ÐµÑģÐºÐ¾Ð»ÑĮÐºÐ¸Ñħ": 4469,
      "ĠÐ³Ð¾Ð±Ð»Ð¸Ð½Ð¾Ð²": 4470,
      "ĠÑģÑĤÐ°Ð½Ð¾Ð²Ð¸Ð»ÑģÑı": 4471,
      "ĠÑħÐ¾Ð»Ð»": 4472,
      "ĠÐ¿ÐµÑĢÐ³Ð°Ð¼ÐµÐ½": 4473,
      "ĠÑģÐ»ÑĥÑĩÐ°Ðµ": 4474,
      "ĠÐ½Ð°Ð¿ÑĢÐ°Ð²Ð»ÐµÐ½Ð¸Ð¸": 4475,
      "ĠÐ¿ÑĢÐµÐ´ÑĥÐ¿ÑĢÐµÐ¶Ð´Ð°Ñİ": 4476,
      "ĠÐ½ÐµÐ¿ÑĢÐ¸ÑıÑĤÐ½Ð¾ÑģÑĤÐ¸": 4477,
      "ĠÐ¿Ð¾Ð²Ð¾ÑĢÐ¾": 4478,
      "ĠÑģÐ¿Ð¾ÐºÐ¾Ð¹Ð½Ð¾": 4479,
      "ĠÑįÐºÐ·Ð°Ð¼ÐµÐ½Ñĭ": 4480,
      "ĠÑģÐ³Ð»Ð¾ÑĤÐ½ÑĥÐ»": 4481,
      "ĠÐ²Ð¸ÑĤÑĢÐ¸": 4482,
      "ĠÐ±ÐµÐºÐ¾Ð½": 4483,
      "ĠÐ±Ð¸Ð½Ð¾ÐºÐ»ÑĮ": 4484,
      "ĠÐ¼Ð°ÑĪÐ¸Ð½Ðµ": 4485,
      "ĠÑĢÐµÑĩÐ¸": 4486,
      "ĠÑħÐ¸Ð¶Ð¸Ð½Ðµ": 4487,
      "ĠÐ³Ð¾ÑĢÑıÑĩ": 4488,
      "ĠÐĺÑģÐ¿Ð¾Ð»ÑĮÐ·": 4489,
      "ĠÐ¥ÑįÐ»Ð»Ð¾Ð²Ð¸Ð½": 4490,
      "ĠÐ½ÐµÐ¾Ð¶Ð¸Ð´Ð°Ð½Ð½Ð¾": 4491,
      "ĠÐ¿Ð°ÑģÑĤÐ¸Ð»": 4492,
      "ĠÐ¿ÑĥÑĢÐ¿ÑĥÑĢ": 4493,
      "ĠÑģÐ¸Ð¼Ð¿Ð°ÑĤÐ¸": 4494,
      "ĠÐ¡Ð¼ÐµÐ»ÑĤÐ¸Ð½Ð³": 4495,
      "ĠÐļÐ¸Ð½Ð³Ñģ": 4496,
      "ĠÑģÐ¿ÐµÑĨÐ¸": 4497,
      "ĠÐ³Ð¾ÑģÐ¿Ð¸ÑĤÐ°Ð»ÑĮ": 4498,
      "ĠÐ°ÑĢÐ±Ð°Ð»ÐµÑĤ": 4499,
      "ĠÐ¾Ð´Ð¸Ð½Ð¾ÑĩÐºÑĥ": 4500,
      "ĠÐľÐ°ÐºÐ³Ð¾Ð½Ð°Ð³Ð°Ð»Ð»": 4501,
      "ĠÐ¿ÑĢÐ¾ÑĤÐ¸Ð²Ð¾Ð¿Ð¾Ð»Ð¾Ð¶": 4502,
      "!!": 4503,
      "ÐŃ": 4504,
      "Ð¾Ñī": 4505,
      "Ð¸ÑĤÐ¾": 4506,
      "Ð¸ÑģÑĤ": 4507,
      "Ð¸ÑīÐµ": 4508,
      "ÑĤÑĭÑħ": 4509,
      "Ð»Ñħ": 4510,
      "Ð»ÐµÐ¿": 4511,
      "Ð»Ð°Ð¼Ð¸": 4512,
      "Ð»ÐµÐ½Ð½Ð¾": 4513,
      "ÑĢÐ¼": 4514,
      "ÑĢÐ¾Ð³Ð¾": 4515,
      "ÑģÐºÐ¸Ð¼": 4516,
      "Ð½Ð°Ð»ÑģÑı": 4517,
      "Ð½ÐµÐ½Ð¸Ñı": 4518,
      "ÑĥÑģÑĮ": 4519,
      "ÑıÑĤÐ¸Ñı": 4520,
      "ĠÐ¿ÐµÑĤ": 4521,
      "ĠÑģÐµÐ½": 4522,
      "ĠÑģÐ¶": 4523,
      "ĠÑģÐ»Ð°": 4524,
      "ĠÑģÐ½Ñı": 4525,
      "ĠÑģÑĢÐ°Ð²": 4526,
      "ĠÑģÑĥÐ´ÑĮ": 4527,
      "ĠÑģÐµÑģÑĤÑĮ": 4528,
      "ĠÐ½ÐµÐ»": 4529,
      "ĠÐ½ÐµÐ»Ð¾Ð²": 4530,
      "ÑĩÐµÑĢ": 4531,
      "ÑĩÐ°Ð»Ð¸": 4532,
      "ÑĩÐ°Ð»ÑģÑı": 4533,
      "ÑĩÐ½Ð¾Ð¹": 4534,
      "ÑĩÐºÐµ": 4535,
      "ĠÐ²Ð½Ðµ": 4536,
      "ĠÐ²ÑĢÐ°Ð³": 4537,
      "ĠÐ²ÑĩÐµÑĢÐ°": 4538,
      "ÐºÐ²": 4539,
      "Ð´ÑĥÐ¼": 4540,
      "Ð´Ð¸ÑĤÐµ": 4541,
      "Ð²ÐµÐ¹": 4542,
      "Ð²Ð¾Ð·ÑĮ": 4543,
      "Ð²ÑĪÐ¸ÑģÑĮ": 4544,
      "ÑĢÐ¸Ð¶": 4545,
      "ÑĢÐ¸Ð»Ð°": 4546,
      "ÑĢÐ¸Ð»Ð°ÑģÑĮ": 4547,
      "Ð¼Ð¾Ð¶": 4548,
      "ĠÐ¸Ð´Ðµ": 4549,
      "ĠÐ¸Ð´Ñĥ": 4550,
      "ĠÐºÐµÐ¼": 4551,
      "ĠÐºÐ°ÑĪ": 4552,
      "ĠÐºÑĥÐ»": 4553,
      "ĠÐºÑĢÐ¸ÑĩÐ°Ð»": 4554,
      "ĠÐºÐ½ÑĥÑĤÑģÐ¾Ð²": 4555,
      "ÑĪÐµÐ¼Ñĥ": 4556,
      "ÐµÑĢÐµÐ¼": 4557,
      "Ð»Ð¸ÑģÑĤ": 4558,
      "Ð»Ð¸Ð½Ñĥ": 4559,
      "Ð»Ð¸Ð²ÐµÑĢ": 4560,
      "Ð»Ð¸ÐºÑģ": 4561,
      "ĠÐ´Ð½Ð¸": 4562,
      "ĠÐ´ÑĥÐ´": 4563,
      "ĠÐ´ÐµÐ»Ð¸": 4564,
      "ĠÐ´ÑĥÑĪ": 4565,
      "ĠÐ´Ð²Ð¾Ðµ": 4566,
      "ĠÐ´Ð¾Ð¿Ð¾Ð»": 4567,
      "ÑģÑĤÑıÑħ": 4568,
      "Ð½Ð¸ÑģÑĤ": 4569,
      "Ð½Ð¸ÑĨÑĥ": 4570,
      "ĠÐ±Ñĥ": 4571,
      "ĠÐ±Ð°Ð±": 4572,
      "ĠÐ±ÑĢÐ¾Ð²": 4573,
      "ĠÑĤÐµÐ½Ð¸": 4574,
      "Ð¾Ð²Ð°ÑĤ": 4575,
      "Ð¾Ð²Ð°Ð»Ð¾": 4576,
      "ĠÐ¼Ñĥ": 4577,
      "ĠÐ¼Ð°ÑĢ": 4578,
      "ĠÐ¼ÐµÐ»": 4579,
      "ĠÐ¼ÐµÐ´": 4580,
      "ĠÐ¼ÐµÑĪ": 4581,
      "ĠÐ¼ÐµÐ»ÑĮ": 4582,
      "ĠÐ¼ÑıÑĤ": 4583,
      "ĠÐ¼Ð¸Ð³": 4584,
      "ĠÐ¼ÑıÑģ": 4585,
      "ĠÐ¼ÐµÐ´Ð»": 4586,
      "ĠÐ¼ÑĥÐ·": 4587,
      "ĠÑĩÐ°Ñı": 4588,
      "ĠÑĩÐ°ÑģÑĤÐ¸": 4589,
      "ĠÐĵÐ¾Ð²Ð¾ÑĢÐ¸": 4590,
      "ĠÐĵÐ¾Ð±Ð»Ð¸Ð½": 4591,
      "ĠÐ·Ð°Ð³Ð¾": 4592,
      "Ð½Ð¾ÑĢÐ¼": 4593,
      "Ð¿Ñĭ": 4594,
      "Ð¿ÐµÑĢÐ²": 4595,
      "ÐµÐ»Ðµ": 4596,
      "Ð¾Ð»Ð´Ð¾Ð²": 4597,
      "Ð¾Ð½ÐµÑĩ": 4598,
      "ÐµÐ½Ð¾Ðº": 4599,
      "ÐµÐ½Ð½Ð¾Ð¼": 4600,
      "ĠÐ½ÐµÐ¸Ð·": 4601,
      "ĠÐ½ÐµÑĩÐµÐ³Ð¾": 4602,
      "ĠÐ½ÐµÐ½Ð¾ÑĢÐ¼": 4603,
      "Ð±Ð¸": 4604,
      "Ð±ÑĢÑı": 4605,
      "ĠÑĥÑĪÐ¸": 4606,
      "ĠÑĥÑĪÐ»Ð¸": 4607,
      "ĠÑĥÐ¼Ð°": 4608,
      "ĠÑĥÐºÑĥÑģ": 4609,
      "ĠÑĥÐ¹ÑĤÐ¸": 4610,
      "ĠÐ½Ð°ÑĪÐ»Ð°": 4611,
      "ĠÐ½Ð°Ð¸Ð±Ð¾Ð»": 4612,
      "Ð¾ÑĢÐµ": 4613,
      "Ð¾ÑĢÐ¾Ð³": 4614,
      "ĠÐµÑİ": 4615,
      "Ð³ÑĢÐ°": 4616,
      "Ð³Ð¸Ð²Ð°Ñı": 4617,
      "Ð½ÑĥÐ»Ð¾ÑģÑĮ": 4618,
      "Ð¾Ð´Ð¾Ð±": 4619,
      "ĠÐ¿Ð¾ÑĪÐ»Ð°": 4620,
      "ĠÑĢÐ°Ð½": 4621,
      "ĠÑĢÐ°Ð´Ð¸": 4622,
      "ĠÐ±ÑĭÐ²Ð°Ð»": 4623,
      "ÑīÐµÐ½": 4624,
      "ÑīÐ°Ð´": 4625,
      "ĠÐŁÐ¾Ð½": 4626,
      "ĠÐŁÐ°Ð´": 4627,
      "ĠÐŀÐ»Ð¸Ð²ÐµÑĢ": 4628,
      "Ð°Ð²ÑĪÐ¸ÑģÑĮ": 4629,
      "Ð°Ð²ÑĪÐµÐ¹": 4630,
      "Ð°Ð²ÑĪÐ¸Ð¼": 4631,
      "ĠÐĿÐµÐº": 4632,
      "ĠÐĿÐµÐ¿": 4633,
      "ĠÐĿÐµÐ»ÑĮÐ·Ñı": 4634,
      "Ð¾ÑĤÐµÐ»": 4635,
      "ĠÐĶÐ»Ñı": 4636,
      "ĠÐĶÐ²ÐµÑĢ": 4637,
      "ĠÐĶÐµÑģÑı": 4638,
      "ĠÐĶÑĮÑı": 4639,
      "ĠÐĶÐµÑĢÐ¶": 4640,
      "ĠÐĶÐ¾ÑĢÐ¾Ð³": 4641,
      "Ð¾Ð±ÑħÐ¾Ð´": 4642,
      "ÑĨÐµÐ¹": 4643,
      "Ð°Ð³Ð°Ð»": 4644,
      "ĠÐ»ÑĮ": 4645,
      "ĠÐ»Ð°Ð²": 4646,
      "ĠÐ»Ð°Ð¿": 4647,
      "ĠÐ»ÑĭÑģ": 4648,
      "ĠÐĴÐ·": 4649,
      "ĠÐĴÐµÐ´ÑĮ": 4650,
      "ĠÐĴÐ¾Ð·Ð¼Ð¾Ð¶Ð½Ð¾": 4651,
      "ĠÐĴÐºÑĥÑģÐ°": 4652,
      "ĠÐĴÐŀÐĿ": 4653,
      "ĠÐ¾ÑĤÐ²ÐµÑĢ": 4654,
      "ĠÐ¾ÑĤÑĬ": 4655,
      "Ð¾ÐºÑĥÑģ": 4656,
      "ĠÐ³Ð°ÑĢ": 4657,
      "ĠÐ³Ð»Ñı": 4658,
      "ĠÐ³Ð°Ð»Ðµ": 4659,
      "ĠÐ³ÑĢÑĥÐ´": 4660,
      "Ð¾Ð¶Ð¸Ð²": 4661,
      "Ð¾Ð¶Ð´Ð¸": 4662,
      "ĠÐ¡Ð»": 4663,
      "ĠÐ¡ÐµÑĢ": 4664,
      "ĠÐ¡ÑĤÑĢ": 4665,
      "ĠÐ¿ÑĢÐ¾Ð·Ð²": 4666,
      "ÐºÐ¸Ð½ÑĥÐ»": 4667,
      "ÑĢÐ°ÑĤÐ¸ÑĤÑĮ": 4668,
      "ĠÐ²ÑĭÑĤ": 4669,
      "ĠÐ²ÑĭÐ½Ñĥ": 4670,
      "ĠÐ²ÑĭÑĢÐ°": 4671,
      "ĠÐ²ÑĭÑĤÑı": 4672,
      "ĠÐ²ÑĭÑħÐ²Ð°ÑĤÐ¸Ð»": 4673,
      "ĠÐ²ÑĭÐ²ÐµÑģ": 4674,
      "ĠÐļÐ¾": 4675,
      "ĠÐ¿ÑĢÐ¾Ñħ": 4676,
      "ĠÐ¿ÑĢÐ¾ÑĤÐ¸": 4677,
      "ĠÐ¿ÑĢÐ¾ÑģÑĤÐ¸": 4678,
      "ĠÐ¿ÑĢÐ¾Ð¸Ð³": 4679,
      "ĠÐ¿ÑĢÐ¾ÑħÐ¾Ð¶": 4680,
      "ĠÐ¿ÑĢÐ¾Ð½Ð¾ÑģÐ¸Ð»Ð¸ÑģÑĮ": 4681,
      "Ð»Ð¾Ðµ": 4682,
      "Ð»ÑıÐ»Ð¸": 4683,
      "ĠÐľÐµÑĤ": 4684,
      "ĠÐľÐ¾Ð³": 4685,
      "ĠÐľÐµÐ½Ñı": 4686,
      "ĠÐľÐ°Ð»ÑĮÑĩÐ¸": 4687,
      "Ð°ÑıÐ½Ð¸Ð¹": 4688,
      "ĠÐ¥Ð¾ÑĢÐ¾ÑĪ": 4689,
      "ÐµÐ¹Ð¼": 4690,
      "ÐµÐ²ÐµÐ»Ð¸": 4691,
      "ĠÐ·Ð°ÑĩÐµÐ¼": 4692,
      "ĠÐ·Ð°Ð½Ð°Ð²": 4693,
      "Ð¸ÑĤÐ¾Ð¹": 4694,
      "ĠÐºÐ°ÐºÑĥÑİ": 4695,
      "ĠÐłÑĥÐ¼": 4696,
      "ÐºÐ¾Ñģ": 4697,
      "Ð°Ð½Ð½Ð¾Ð³Ð¾": 4698,
      "Ð°ÑģÐºÐ¸Ð²Ð°Ñı": 4699,
      "ĠÑıÑģ": 4700,
      "ĠÑıÐ²": 4701,
      "ÑĥÐ´ÐµÑĤ": 4702,
      "ÑĥÐ´Ð¸Ð²": 4703,
      "ĠÑģÑĤÐ°": 4704,
      "ĠÑģÑĤÑĥ": 4705,
      "ĠÑģÑĤÑĭ": 4706,
      "ĠÑģÑĤÐ°ÑĤÑĮ": 4707,
      "ĠÑģÑĤÐ¾Ð¿": 4708,
      "ĠÑģÑĤÐ°ÑĢÐ¸": 4709,
      "ĠÑģÑĤÑĥÐ»ÑĮ": 4710,
      "ĠÑģÑĤÑĢÑıÑħ": 4711,
      "ĠÐ¿ÑĢÐ¸Ð¶": 4712,
      "ĠÐ¿ÑĢÐ¸Ð²ÐµÑĤ": 4713,
      "ĠÐ¿ÑĢÐ¸ÐºÑĢÑĭ": 4714,
      "ĠÐ¿ÑĢÐ¸Ð½ÑıÑĤÑĮ": 4715,
      "ĠÐ¿ÑĢÐ¸Ð¶Ð¸Ð¼": 4716,
      "ĠÐ¢Ð²Ð¾Ð¹": 4717,
      "ĠÐ¢ÑĢÑĥÐ´Ð½Ð¾": 4718,
      "ĠÑħÐ»": 4719,
      "ĠÑħÐ¸ÑħÐ¸Ðº": 4720,
      "ÑĢÑĭÐµ": 4721,
      "ÑĢÑĭÑħ": 4722,
      "ĠÑĪÐ¾ÐºÐ¾Ð»Ð°Ð´": 4723,
      "ĠÑĪÐ°ÑĢÐ¸Ðº": 4724,
      "ĠÐ¿Ð¾Ð´Ð¼Ð¸": 4725,
      "ÐµÐºÐ¸": 4726,
      "ĠÐ¾Ð±Ð»Ð°": 4727,
      "ĠÐ¾Ð±Ð»Ð°Ð´": 4728,
      "Ð¸Ð²Ð°ÐµÑĤ": 4729,
      "Ð°Ð¶Ð½Ð¾": 4730,
      "ĠÑĤÐ°ÐºÑĥÑİ": 4731,
      "ÑĢÑĥÑģÑĤ": 4732,
      "ÑĢÑĥÐ·": 4733,
      "ĠÑģÐ»ÑĭÑħ": 4734,
      "ĠÑģÐ»ÑĥÑħ": 4735,
      "ĠÑģÐ»ÐµÐ²Ð°": 4736,
      "ÐµÐ½ÑĮÐºÐ¸Ð¹": 4737,
      "ĠÑĢÐ°Ð·ÑĢÑĥÑĪ": 4738,
      "ĠÐ³Ð¾Ð½Ð¾": 4739,
      "ĠÐ³Ð¾ÑĢÑĭ": 4740,
      "ĠÐ¿ÐµÑĢÐµÐ±": 4741,
      "ĠÐ¿ÐµÑĢÐµÐ³": 4742,
      "ÐµÑĪÐ¸Ð²": 4743,
      "ÑģÐºÐ¾Ð²": 4744,
      "ĠÐ°Ð²": 4745,
      "ĠÐĺÐ»Ð¸": 4746,
      "ĠÐ¿Ð¾Ð»Ð¾Ðº": 4747,
      "ĠÐ¿Ð¾Ð»ÐµÐ·": 4748,
      "ĠÐ¿Ð¾Ð»ÑĩÐ°ÑģÐ°": 4749,
      "ĠÐĵÐµÑĢÐ±Ð¾Ð»": 4750,
      "Ð²Ð¸ÑģÑĤ": 4751,
      "ÐµÑĩÐ°ÑĤ": 4752,
      "ÑĪÐ¸ÐµÑģÑı": 4753,
      "Ð½ÑıÑı": 4754,
      "ĠÑģÑĤÐ¾ÑıÑĤÑĮ": 4755,
      "ĠÐĳÐ¸Ð»": 4756,
      "ĠÐĳÐµÐ´": 4757,
      "ĠÐ¤Ð¸Ð½Ð½": 4758,
      "ĠÐĹÐ´ÐµÑģÑĮ": 4759,
      "ĠÐĹÐ¼Ðµ": 4760,
      "Ð¾Ð²Ð°Ð½Ð¸Ñı": 4761,
      "Ð¾Ð²Ð°Ð½Ð¸Ðµ": 4762,
      "Ð¸Ð·Ð½Ð¸": 4763,
      "ĠÐ£Ð±": 4764,
      "ĠÐ¿Ð¾ÐºÐ°Ð·Ð°ÑĤÑĮ": 4765,
      "ĠÐ¿Ð¾ÑģÑĭÐ»": 4766,
      "ĠÐ¿Ð¾ÑģÐ»ÑĭÑĪ": 4767,
      "ĠÐŃÐ»Ð¸ÐºÑģ": 4768,
      "Ð¼Ð¾ÑĤÑĢÐµÐ»": 4769,
      "Ð¼Ð¾ÑĤÑĢÑı": 4770,
      "ĠÐ²Ð·ÑıÐ»ÑģÑı": 4771,
      "ĠÐ²Ð·Ð¼ÑĭÐ»": 4772,
      "ĠÐ§Ð°ÑıÐ½Ð¸Ð¹": 4773,
      "ĠÐ±ÑĥÐ´ÐµÑĤÐµ": 4774,
      "ĠÑģÐ²Ð¾ÐµÐ¼Ñĥ": 4775,
      "ĠÐ»Ð¸ÑĪÑĮ": 4776,
      "ÑıÑĤÐ¾Ð³Ð¾": 4777,
      "ĠÑĤÑĢÑıÑģ": 4778,
      "ĠÐĲÐ½": 4779,
      "ĠÐĲÐ³": 4780,
      "ĠÐ²Ð¸Ð´ÐµÐ»Ð°": 4781,
      "ĠÐ¡Ð½ÑįÐ¹Ð¿Ðµ": 4782,
      "ĠÐ·Ð°Ð¼ÐµÑĪ": 4783,
      "Ð²Ð°ÑĤÐ¸": 4784,
      "Ð´Ð¸ÑĤÐ¾": 4785,
      "ÑĥÑĪÑĮ": 4786,
      "ÑĥÑĪÐºÐ¸": 4787,
      "ĠÐ³Ð»Ð°Ð²": 4788,
      "ĠÐ³Ð»Ð¾ÑĤ": 4789,
      "ĠÐ·Ð½Ð°ÑİÑĤ": 4790,
      "ĠÐºÐ¾Ð½ÑĤÑĢ": 4791,
      "ĠÑĢÐ°ÑģÑģÑĤÐ¾": 4792,
      "ÑĢÑıÐ¼Ð¸": 4793,
      "ĠÐ¸Ð¼ÐµÐ½ÐµÐ¼": 4794,
      "Ð¸ÑĢÐ°ÑĤÑĮ": 4795,
      "Ð¸ÑĢÐ°Ð»ÑģÑı": 4796,
      "Ð¸ÑĢÐ°ÑĤÑĮÑģÑı": 4797,
      "ÑģÑĤÐ²Ð¾Ð¼": 4798,
      "ÑĥÐ¶Ð½Ð¾": 4799,
      "ÑĥÐ¶ÐµÐ»Ð¸": 4800,
      "Ð¾Ð²Ð¾ÑĢÐ¸ÑĤÑĮ": 4801,
      "ÑĩÐ°ÑģÑĤÑĮÑı": 4802,
      "ĠÑģÐ°Ð¼ÑĭÐ¼": 4803,
      "Ð½Ð¸Ð¼Ð°Ñı": 4804,
      "ĠÑĩÐµÑĢÐ½Ð¸Ð»": 4805,
      "ĠÑģÐ¾ÑģÐºÐ¾Ð»ÑĮÐ·": 4806,
      "ĠÑģÐ¼ÐµÐ»": 4807,
      "ĠÐ¾ÐºÐ½Ñĥ": 4808,
      "ĠÐŁÐ¾ÑĤÐ¾Ð¼Ñĥ": 4809,
      "ÑĭÑħÐ°Ð½Ð¸Ðµ": 4810,
      "ĠÐ½Ð¸ÐºÐ¾Ð³Ð¾": 4811,
      "ĠÐ½Ð°Ð¿ÑĢÑı": 4812,
      "ĠÐ»ÑİÐº": 4813,
      "ĠÐ·Ð°Ð¿ÑĢÐµÑĤ": 4814,
      "ĠÐ¿ÑĢÐµÐ´Ð²": 4815,
      "ĠÐ¢ÑĭÑģÑı": 4816,
      "ĠÑģÐ½Ð°Ð´Ð¾Ð±": 4817,
      "ĠÑģÐ²ÑıÐ·Ð°": 4818,
      "ĠÐ´Ð²Ð°Ð¶Ð´Ñĭ": 4819,
      "ĠÐĴÐµÑĢÐ½Ð¾Ð½Ñĥ": 4820,
      "ĠÑģÐ¾Ð²Ð¾Ð¹": 4821,
      "ĠÐŁÐ¾ÑĤÑĤÐµÑĢÑĭ": 4822,
      "ĠÐ¿Ð¾ÑĢÐ°Ð·": 4823,
      "ĠÐ²ÑĢÐµÐ¼ÐµÐ½ÐµÐ¼": 4824,
      "ĠÑģÐµÑĢÑĮ": 4825,
      "ĠÐ²ÐµÑĢÑĤ": 4826,
      "ĠÐ²ÐµÑĢÐ½ÑĥÐ»Ð¸ÑģÑĮ": 4827,
      "ĠÐ²ÐµÑĢÐ½ÑĥÐ»Ð°ÑģÑĮ": 4828,
      "ĠÑħÐ¾ÑĤÐ¸Ð¼": 4829,
      "ÑĢÐ°Ð·Ð´": 4830,
      "ÑĢÐ°Ð·Ð¸ÑĤÑĮ": 4831,
      "ĠÐ·Ð½Ð°Ð»Ð°": 4832,
      "ĠÐ´Ð²ÐµÑĢÐµÐ¹": 4833,
      "ĠÐ´ÑĥÐ¼Ð°Ð»Ð¸": 4834,
      "ĠÐ´ÑĥÐ¼Ð°ÐµÑĤÐµ": 4835,
      "ĠÑģÑĤÑĢÐ°Ð½Ðµ": 4836,
      "ĠÐ¿Ð¾Ð¼ÐµÑĪ": 4837,
      "ĠÐ¿Ð¾Ð¼Ð½Ñİ": 4838,
      "ĠÐ¿Ð¾Ð¼Ð¾Ð¶ÐµÑĤ": 4839,
      "ĠÐ·Ð°Ð±Ð»": 4840,
      "ĠÐ·Ð°Ð¼ÐµÑĤÐ¸ÑĤÑĮ": 4841,
      "ĠÐ»Ð¸ÑĨÑĥ": 4842,
      "ĠÐ²Ð¾Ð»ÑĪÐµÐ±Ð½Ð¾Ð¹": 4843,
      "ĠÐ²Ð¾Ð»ÑĪÐµÐ±Ð½ÑĥÑİ": 4844,
      "ĠÐ²Ð¾Ð»ÑĪÐµÐ±Ð½Ð°Ñı": 4845,
      "ĠÐ²Ð¾Ð»ÑĪÐµÐ±Ð½Ð¸ÐºÐ¸": 4846,
      "ĠÐ²Ð¾Ð»ÑĪÐµÐ±Ð½Ð¸ÐºÐ°": 4847,
      "ĠÐ²Ð¾Ð»ÑĪÐµÐ±Ð½Ð¸ÐºÐ¾Ð¼": 4848,
      "ÑĥÑĢÑģ": 4849,
      "ĠÐ´ÑıÐ´ÐµÐ¹": 4850,
      "ÑĢÐ¾Ð½Ñĥ": 4851,
      "ĠÑĨÑĭÐ¿": 4852,
      "ĠÑĥÐ²Ð¸Ð´ÐµÐ»Ð¸": 4853,
      "ĠÑĥÐ²Ð¸Ð´Ð¸Ð¼ÑģÑı": 4854,
      "ĠÐ¿Ð°Ð»Ð¾ÑĩÐµÐº": 4855,
      "ĠÐ¸Ð³ÑĢÑĥ": 4856,
      "Ð¢Ðŀ": 4857,
      "ĠÐ¿Ð¾Ð½ÑıÑĤÐ½Ð¾": 4858,
      "ĠÐ¿Ð¾Ð½ÑıÑĤÐ¸Ñı": 4859,
      "ĠÐ¿ÑĭÑĤÐ°Ð»Ð¸ÑģÑĮ": 4860,
      "ĠÐ¿ÑĭÑĤÐ°ÑĤÑĮÑģÑı": 4861,
      "ĠÑģÐµÐ¼ÑĮÑı": 4862,
      "ĠÐ²Ð´Ð²Ð¾Ðµ": 4863,
      "Ð»Ð¸Ð²Ð¾Ð³Ð¾": 4864,
      "ĠÑĥÐ±ÐµÐ´": 4865,
      "ĠÑĥÐ±ÐµÐ¶": 4866,
      "ĠÑĤÐ¾Ð»Ðº": 4867,
      "ĠÑĤÐ¾Ð»ÐºÐ½ÑĥÐ»": 4868,
      "ĠÐ¾ÑģÐ½Ð¾Ð²": 4869,
      "ĠÐºÐ¾Ð¼Ð½Ð°ÑĤÐ°": 4870,
      "Ð°ÑĩÐ¾Ðº": 4871,
      "ĠÑģÐ¸Ð´ÐµÐ»Ð°": 4872,
      "ĠÑįÑĤÐ¾Ð¼Ñĥ": 4873,
      "ĠÑĤÐ²Ð¾Ðµ": 4874,
      "ĠÑĤÐ²Ð¾ÐµÐ¹": 4875,
      "Ð³Ð»ÑĥÑĪ": 4876,
      "ĠÐ³Ð¾Ð»Ð¾ÑģÐµ": 4877,
      "ĠÐĶÐ¶Ð¸Ð½Ð½Ð¸": 4878,
      "ĠÐĶÐ¶ÐµÐ¹Ð¼": 4879,
      "ĠÐ¿Ð»Ð¾ÑĤ": 4880,
      "ÑİÑĤÑģÑı": 4881,
      "ÑĤÐ¾Ð²Ð¾Ð¹": 4882,
      "ÐķÐĻ": 4883,
      "ĠÐ½ÐµÐ´ÐµÐ»ÑĮ": 4884,
      "ĠÐ¼Ð¾Ñİ": 4885,
      "ĠÐ¼Ð¾ÐµÐ³Ð¾": 4886,
      "ĠÐºÐ¾Ð»Ð´": 4887,
      "ĠÑģÐ»ÑĭÑĪÐ°Ð»Ð°": 4888,
      "ÐµÐ½ÑĭÐ¼Ð¸": 4889,
      "ĠÐ¿ÑĢÐ¾Ð²ÐµÐ´ÐµÑĤ": 4890,
      "ĠÐ¿Ð¾ÑģÐ»ÐµÐ´Ð½Ð¸Ðµ": 4891,
      "ĠÐ¿Ð¾ÑģÐ»ÐµÐ´Ð½ÐµÐµ": 4892,
      "ĠÐ¾ÑģÑĤÐ°Ð²Ð°ÑĤÑĮÑģÑı": 4893,
      "ĠÐºÑĢÐµÐ¿ÐºÐ¾": 4894,
      "ĠÑĥÐºÐ°Ð·": 4895,
      "ĠÑĥÐºÑĢÐ°ÑĪ": 4896,
      "ĠÐ²ÑĭÑģÐºÐ¾ÑĩÐ¸Ð»": 4897,
      "ĠÐ¿Ð°ÑĢÑĭ": 4898,
      "ĠÐ¿Ð°ÑĢÐµÐ½ÑĮ": 4899,
      "ĠÑĤÐµÑĤÐ¸": 4900,
      "ĠÐ³Ð¾Ð´Ñĭ": 4901,
      "ĠÐ¿Ð¾Ð¶Ð¸Ð¼": 4902,
      "ĠÑĢÐ°ÑģÑģÐºÐ°Ð·Ð°ÑĤÑĮ": 4903,
      "Ð°ÐµÑĪÑĮÑģÑı": 4904,
      "ĠÐ¿Ð¾Ð´Ð½ÑıÑĤÑĮÑģÑı": 4905,
      "ĠÐ¸ÑģÐ¿Ð¾ÑĢ": 4906,
      "Ð½Ð¸Ð·Ñĥ": 4907,
      "ĠÑĥÑĤÑĢÐ°": 4908,
      "ĠÑĥÑĤÐµÑĪ": 4909,
      "ĠÑĥÑĤÑĢÐ°ÑĤ": 4910,
      "ĠÑĢÐ°Ð·Ð´ÐµÐ²Ð°Ð»": 4911,
      "ĠÐ»ÑĥÑĩÑĪÐµÐµ": 4912,
      "ĠÐ±Ð¾Ð»Ð¸": 4913,
      "ĠÐ±Ð¾ÑıÐ»Ð¸ÑģÑĮ": 4914,
      "ĠÑĩÐ°ÑģÐ°": 4915,
      "ĠÐŁÑĢÐ¸Ð²ÐµÑĤ": 4916,
      "ĠÐ³ÑĢÐ¾Ð¼ÐºÐ¸Ð¹": 4917,
      "ĠÐ²ÑĭÐ³Ð»ÑıÐ´ÐµÐ»Ð°": 4918,
      "ĠÐ½ÑĥÐ¶ÐµÐ½": 4919,
      "ĠÑģÐ²ÐµÑĢÑħÑĥ": 4920,
      "ĠÐ¼ÐµÑĢÑĨ": 4921,
      "ÐµÑģÐ¿Ð¾ÐºÐ¾": 4922,
      "ĠÐ²Ð¾Ð»Ð¾ÑģÐ°Ð¼Ð¸": 4923,
      "ĠÑģÑĤÐµÐ½Ñĥ": 4924,
      "ĠÑģÑĤÐµÐ½Ð°Ð¼": 4925,
      "ĠÐ²Ð¾Ð¾Ð±ÑĢÐ°Ð¶": 4926,
      "ĠÐºÐ°Ð¼Ð¸Ð½": 4927,
      "ĠÐ¿ÑĢÐ¸ÑĪÐ»Ð¾": 4928,
      "ÐŁÐ¾ÑĤÑĤÐµÑĢ": 4929,
      "ĠÐ½Ð°Ð²ÐµÑĢÐ½ÑıÐºÐ°": 4930,
      "ĠÐºÐ¾ÑĢÐ¾Ð»": 4931,
      "ĠÐ´ÐµÑĢÐµÐ²ÑĮÐµÐ²": 4932,
      "ĠÐ½Ð¾Ð³Ð¾Ð¹": 4933,
      "ÑĥÑīÐµÐ³Ð¾": 4934,
      "ĠÐ¿ÑıÑĤÑĮÑİ": 4935,
      "ĠÑģÑĩÐ¸ÑĤÐ°Ñİ": 4936,
      "ĠÐ¡ÐºÐ°Ð·Ð°Ð»": 4937,
      "ĠÑĤÐµÐ»ÐµÑĦ": 4938,
      "ĠÐ·Ð°ÑģÑĥ": 4939,
      "ĠÐ·Ð°ÑģÐ½ÑĥÐ»": 4940,
      "ĠÑĤÑĢÐ¾Ð»Ð»ÐµÐ¼": 4941,
      "ĠÑĥÑĢÐ¾ÐºÐ¸": 4942,
      "ĠÐ»ÐµÐ³ÑĩÐµ": 4943,
      "ĠÐ¿ÑĢÐ¾ÑĪÐµÐ¿ÑĤÐ°Ð»Ð°": 4944,
      "ÑıÑīÐ°Ñı": 4945,
      "ĠÐ½ÐµÐ±ÑĢÐµÐ¶": 4946,
      "ĠÐ²Ð¾ÑģÑħÐ¸Ñī": 4947,
      "ĠÐ±Ð¾Ð»ÑĤ": 4948,
      "ĠÐŁÑĢÐµÑĦÐµÐºÑĤ": 4949,
      "ĠÐ´ÐµÑĢÐ¶Ð°": 4950,
      "ĠÐ´ÐµÑĢÐ¶Ð°ÑĤÑĮ": 4951,
      "ĠÑĥÑĩÐ¸ÑĤÐµÐ»ÐµÐ¹": 4952,
      "ĠÐľÐ°Ð³Ð¸ÑĩÐµÑģ": 4953,
      "ĠÑĪÐ°Ð³Ð½ÑĥÐ»": 4954,
      "ĠÑĢÐ°ÑģÐ¿Ð°Ñħ": 4955,
      "ĠÐ¼Ð¾ÑĢÐ³Ð½ÑĥÐ»": 4956,
      "ĠÑĢÐ°Ð±Ð¾ÑĤÑĥ": 4957,
      "ÑĢÐ°Ð½ÑģÑĦ": 4958,
      "ĠÐ¿ÑĢÐ¸Ð²ÑĭÐº": 4959,
      "ĠÐ¿ÑĢÐ¾Ð´Ð¾Ð»Ð¶Ð°Ð»Ð°": 4960,
      "ÑıÐ½ÐºÐ¸": 4961,
      "ĠÐ´Ð°Ð²Ð°Ñı": 4962,
      "ĠÐ±Ð»Ð°Ð³Ð¾Ð´Ð°ÑĢ": 4963,
      "ĠÐ·ÐµÑĢÐºÐ°Ð»Ðµ": 4964,
      "ÐĶÐĲ": 4965,
      "ĠÐ²Ð½ÑĥÑĤÑĢÐµÐ½": 4966,
      "ĠÐ²Ð·Ð³Ð»ÑıÐ´Ð¾Ð¼": 4967,
      "ĠÑģÐ¼Ð¾Ð³Ñĥ": 4968,
      "ĠÑģÐµÑĢÐ´ÑĨÐµÐ¼": 4969,
      "ĠÐ²ÑģÑıÐºÐ¸Ð¹": 4970,
      "ĠÐ¼Ð½Ð¾Ð³Ð¸Ðµ": 4971,
      "ĠÐ¾ÑĤÐ²ÐµÑĩ": 4972,
      "ĠÐ·Ð°ÑħÐ¾Ñĩ": 4973,
      "ĠÐ·Ð°ÑħÐ¸ÑħÐ¸Ðº": 4974,
      "ĠÑĨÐµÐ»Ð°Ñı": 4975,
      "ĠÐ²ÐµÑĤÐ²ÐµÐ¹": 4976,
      "ĠÐ±ÐµÑģÐ¿Ð¾ÐºÐ¾Ð¹": 4977,
      "ĠÑĤÐ¾ÑĢÐ³": 4978,
      "ĠÑĤÐ¾ÑĢÐ¾Ð¿": 4979,
      "ĠÐĵÑĢÐ¸Ð½Ð³Ð¾ÑĤÑĤÐ¾Ð²": 4980,
      "ĠÐ±Ð»ÐµÐ´Ð½ÑĭÐ¹": 4981,
      "ĠÐ±Ð»ÐµÐ´Ð½ÑĭÐ¼": 4982,
      "ĠÑĥÐ»Ð¸ÑĨÑĭ": 4983,
      "ĠÑģÐ»Ð¾Ð²Ð°Ñħ": 4984,
      "ĠÑĢÐ°Ð·Ð³Ð¾Ð²Ð°ÑĢÐ¸Ð²Ð°Ð»Ð¸": 4985,
      "ĠÐ¿Ð¾ÑĤÑĢÑıÑģÐµÐ½": 4986,
      "ĠÐ¿Ð¾ÑĤÑĢÑıÑģÐµÐ½Ð½ÑĭÐ¼": 4987,
      "ĠÐ·Ð¾Ð»Ð¾ÑĤÐ¾Ð¹": 4988,
      "ĠÐ²ÑĭÐ¸Ð³ÑĢÐ°Ð»": 4989,
      "ĠÑıÑĢÐ¾ÑģÑĤÐ¸": 4990,
      "ĠÐ½Ð¸ÐºÐ°ÐºÐ¾Ð¹": 4991,
      "ĠÐ¸Ð½ÑĤÐµÑĢÐµÑģÐ½Ð¾": 4992,
      "Ð¤Ð¤": 4993,
      "ĠÑģÑĭÐ³": 4994,
      "ÑĢÐ¸ÑĤÐµÐ»ÑĮ": 4995,
      "ÑĪÐ°ÑıÑģÑı": 4996,
      "ĠÐºÐ¾ÑĪÐºÐ¸": 4997,
      "ĠÑĦÑĥÑĤÐ¾Ð²": 4998,
      "ĠÐ·Ð°ÐºÐ»Ð¸Ð½Ð°Ð½Ð¸Ð¹": 4999,
      "ĠÑĩÑĥÐ»Ð°Ð½Ð°": 5000,
      "ĠÐ±Ð¸Ð±Ð»Ð¸Ð¾ÑĤÐµÐºÑĥ": 5001,
      "ĠÐ·Ð°ÑıÐ²": 5002,
      "ĠÐ¿ÑĢÐµÐºÑĢÐ°ÑģÐ½Ð¾": 5003,
      "ÑīÐ¸ÑħÑģÑı": 5004,
      "ĠÐ¿Ð¾ÐºÐ°Ð·ÑĭÐ²Ð°Ñı": 5005,
      "ĠÐ¿Ð¾ÑĩÑĥÐ²ÑģÑĤÐ²": 5006,
      "ĠÐĳÐ»Ð°Ð´Ð¶ÐµÑĢÐ¾Ð²": 5007,
      "ĠÐ²ÐµÑĩÐµÑĢÐ°": 5008,
      "ĠÐ·Ð°Ð½ÑıÑĤÐ¸Ð¹": 5009,
      "ĠÑĢÐ°Ð·Ð±Ð¸Ð»": 5010,
      "ĠÐĹÐ½Ð°Ñİ": 5011,
      "ĠÑģÐ»ÐµÐ´ÑĥÑİÑīÑĥÑİ": 5012,
      "ÑĢÐµÐ²Ð°Ð»": 5013,
      "Ð²Ð¾Ð»Ð°": 5014,
      "ĠÐ¿Ð¾Ð´Ð°ÑĢÐºÐ¾Ð²": 5015,
      "ĠÐ¿Ð¾Ð²Ð¾Ð´Ñĥ": 5016,
      "ĠÑĢÐ°ÑģÑģÐºÐ°Ð·ÑĭÐ²Ð°ÑĤÑĮ": 5017,
      "Ð¾ÑĤÐ¾ÑĢÑĭÐµ": 5018,
      "ĠÐ¿Ð¾Ð³Ð¸Ð±Ð»Ð¸": 5019,
      "ĠÐ²Ð°ÑĪÐµÐ¹": 5020,
      "ÑģÑĤÑĥÐ¿Ð¸Ð»": 5021,
      "ĠÐ¡Ð¼Ð¾ÑĤÑĢÐ¸ÑĤÐµ": 5022,
      "ĠÐļÐ»ÑĭÐºÐ¾Ð¼": 5023,
      "ĠÐ¿ÐµÑĢÐµÑģÑĤÐ°Ð²Ð°Ñı": 5024,
      "ĠÐĽÐ¾Ð²ÐµÑĨ": 5025,
      "ĠÐ´ÑĥÑĢÐ°ÑĨ": 5026,
      "ĠÐ±ÑĥÑĤÑĭÐ»": 5027,
      "ĠÐ·Ð°Ð¶Ð°ÑĤ": 5028,
      "ĠÐ¡Ð¸Ð»ÐºÐ¸": 5029,
      "ĠÐłÐ¾Ð¶Ð´ÐµÑģÑĤÐ²Ð°": 5030,
      "ĠÑĦÐ¾ÑĢÐ¼Ð°": 5031,
      "ĠÑĦÐ¾ÑĢÐ¼Ñĭ": 5032,
      "ĠÐºÐ½Ð¸Ð¶ÐºÐ¸": 5033,
      "ĠÑģÑĬÐµÐ´": 5034,
      "ĠÐ´Ð¾Ð»Ð³": 5035,
      "ĠÐ´Ð¾Ð»Ð³Ð¾": 5036,
      "ĠÐ½Ð°ÑĤÑıÐ½ÑĥÐ»Ð¸": 5037,
      "ĠÐ¿ÑĢÐ°Ð·Ð´Ð½Ð¸Ðº": 5038,
      "ĠÐ¥Ð¾ÑĤÐµÐ»": 5039,
      "ĠÑģÐ¾Ð±Ð°ÐºÐ°": 5040,
      "ĠÐ²ÑģÑĤÑĢÐµÑĩÐ°Ð»": 5041,
      "ĠÐµÐ´Ð¸Ð½ÑģÑĤÐ²ÐµÐ½": 5042,
      "ĠÑģÐµÐºÑĥÐ½Ð´Ð¾Ð¹": 5043,
      "ĠÑģÑĩÐ°ÑģÑĤÐ»Ð¸Ð²Ð¾": 5044,
      "ĠÐ½ÐµÐ·Ð½Ð°ÐºÐ¾Ð¼": 5045,
      "ĠÐ²ÐµÑĩÐ½Ð¾ÑģÑĤÑĮ": 5046,
      "ĠÐľÐ°ÑĢÐ´Ð¶": 5047,
      "ĠÐ¿ÑĢÐ¸Ð·ÑĢÐ°Ðº": 5048,
      "ĠÐ¿ÑĢÐ¸ÑħÐ¾Ð´Ð¸Ð»Ð¾ÑģÑĮ": 5049,
      "ĠÐ¼Ð°Ð³Ð¸ÐµÐ¹": 5050,
      "ĠÐ¼Ð°Ð³Ð¸ÑĩÐµÑģ": 5051,
      "ĠÐ´ÑĢÐ¾Ð¶ÑĮ": 5052,
      "ĠÐºÑĢÐµÑģÐ»Ðµ": 5053,
      "ĠÑģÐ¾ÑģÐµÐ´Ð½ÐµÐ¹": 5054,
      "ĠÐ²Ð¾ÑģÑĤÐ¾ÑĢÐ³Ðµ": 5055,
      "ĠÑģÐ¾Ð¿ÑĢÐ¾Ð²": 5056,
      "ÑĢÐ¸Ð¿ÐµÐ»": 5057,
      "ĠÐºÐ¸Ð½ÑĥÐ»ÑģÑı": 5058,
      "ĠÐºÐ»ÐµÑĤÐºÐ¸": 5059,
      "ĠÑĩÑĥÐ´Ð¾Ð²": 5060,
      "ĠÑĩÑĥÐ´ÐµÑģ": 5061,
      "ĠÐ¿ÑĢÐ¾Ð½ÐµÑģ": 5062,
      "ĠÑĪÐµÐ¿Ð¾ÑĤ": 5063,
      "ĠÐ¿Ð¾Ð´ÑģÐºÐ¾ÑĩÐ¸Ð»": 5064,
      "ĠÐ¾Ð±Ð¾Ð¸Ñħ": 5065,
      "ĠÑģÐ¾Ð±ÑģÑĤÐ²ÐµÐ½Ð½Ð¾Ð¹": 5066,
      "ĠÐ¿Ð¾Ð·Ð°Ð±ÑĭÐ»": 5067,
      "ĠÑĩÑĥÐ²ÑģÑĤÐ²Ð°": 5068,
      "ĠÐ´ÑĢÑĥÐ·ÐµÐ¹": 5069,
      "ĠÐ½ÐµÐºÐ¾ÑĤÐ¾ÑĢÑĭÐ¼": 5070,
      "ĠÐ²ÐµÑĩÐµÑĢÐ¾Ð¼": 5071,
      "ĠÐºÐ°Ð¿ÑİÑĪÐ¾Ð½Ðµ": 5072,
      "ĠÐ²Ð¾Ð²ÑģÐµ": 5073,
      "ĠÐºÑĢÐ¾ÑĪÐµÑĩÐ½ÑĭÐ¹": 5074,
      "ĠÐ´Ð¸Ð²Ð°Ð½": 5075,
      "ĠÐĶÐ¾Ð±ÑĢÑĭÐ¹": 5076,
      "Ð³Ð¾Ð»Ð¾Ð²ÑĭÐ¹": 5077,
      "ÐµÐ·Ð¶Ð°Ð»Ð¸": 5078,
      "ĠÐĳÐµÐ·Ð³Ð¾Ð»Ð¾Ð²ÑĭÐ¹": 5079,
      "ĠÐ¾ÐºÐ¾Ð½Ñĩ": 5080,
      "ĠÐŁÐµÑĢÐ²ÑĭÐ¹": 5081,
      "ĠÐºÐ¾Ð»ÐµÐ½ÐºÐ¸": 5082,
      "ĠÐ½Ð°ÐºÐ°Ð·Ð°Ð½Ð¸Ðµ": 5083,
      "ĠÑįÐºÐ·Ð°Ð¼ÐµÐ½Ð¾Ð²": 5084,
      "ĠÐ½ÑĢÐ°Ð²Ð¸ÑĤÑģÑı": 5085,
      "ĠÐ¼Ð°ÑĪÐ¸Ð½Ñĭ": 5086,
      "ÑĨÐ¸Ñİ": 5087,
      "ÑĨÐ¸Ð¾Ð½": 5088,
      "ĠÐ¾ÑĤÑĩÐ°ÑıÐ½Ð½Ð¾": 5089,
      "ĠÐ¿ÑĢÑĭÐ³": 5090,
      "ĠÐ²ÑĭÐºÑĢÐ¸": 5091,
      "ĠÐ¸Ð·ÑĥÐ¼ÑĢÑĥÐ´Ð½Ð¾": 5092,
      "ĠÑģÐ¿ÑĢÐ°ÑĪÐ¸Ð²Ð°ÑĤÑĮ": 5093,
      "ĠÑĢÐ°Ð·Ð³Ð»ÑıÐ´ÐµÑĤÑĮ": 5094,
      "ĠÐ¿ÐµÑĢÐµÐ¶Ð¸Ð²": 5095,
      "ĠÐĽÑıÐ³ÑĥÑĪÐµÐº": 5096,
      "ĠÐ¸ÑģÐºÐ»ÑİÑĩÐ°ÑĤ": 5097,
      "ĠÐºÐ¾ÑĢÐ¾Ð±ÐºÑĥ": 5098,
      "ĠÐ½Ð¾ÑĢÐ¼Ð°Ð»ÑĮ": 5099,
      "ĠÐ½Ð¾ÑĢÐ¼Ð°Ð»ÑĮÐ½Ð¾": 5100,
      "ĠÐ¿Ð¸ÑģÐµÐ¼": 5101,
      "ĠÐ¾ÑīÑĥÑī": 5102,
      "Ð½Ð¸ÑĩÑĤ": 5103,
      "ĠÐ¿Ð¾ÑģÑĤÐ°Ð²Ð¸Ð»": 5104,
      "ĠÑĪÐµÑĢÐ±": 5105,
      "ĠÑĪÐ°Ð½Ñģ": 5106,
      "ĠÐ¾Ð±ÐµÐ´Ð°": 5107,
      "ĠÐĳÐ°ÑĢÐ¾Ð½": 5108,
      "ĠÑĤÐ¾Ð»Ð¿Ðµ": 5109,
      "ĠÐ²ÐµÐ»Ð¸ÑĩÐ°Ð¹": 5110,
      "ĠÐ·Ð°ÑħÐ»Ð¾Ð¿Ð½ÑĥÐ»": 5111,
      "ÐłÐĺÐ¤Ð¤": 5112,
      "ÑĥÑģÑĤÐ¸Ð»Ð¸ÑģÑĮ": 5113,
      "ĠÐ¾ÑĢÐµÑħ": 5114,
      "ĠÑĤÐ¸Ð³Ð»ÑĮ": 5115,
      "ĠÐ½Ð°ÑģÑĤÑĢÐ¾ÐµÐ½Ð¸Ð¸": 5116,
      "ĠÑĪÑĤÑĥÐºÐ°": 5117,
      "ĠÐ¿Ð¾Ð´Ð¾Ð·ÑĢÐµÐ²Ð°Ð»": 5118,
      "ĠÐ¿ÐµÑĢÐµÑĪÐµÐ¿ÑĤ": 5119,
      "ĠÐ·Ð°Ð²Ð¸Ð·Ð¶": 5120,
      "ĠÐ²ÑģÐ¿ÑĭÑĪÐºÑĥ": 5121,
      "ĠÐĹÐ°ÑĤÐºÐ½Ð¸ÑģÑĮ": 5122,
      "ĠÐ¿ÑĢÐ¸Ð±Ð»Ð¸Ð¶Ð°Ð»ÑģÑı": 5123,
      "ĠÐ±Ð°ÑĢÑĮÐµÑĢ": 5124,
      "ĠÑħÐ²Ð¾ÑģÑĤÐ¾Ð¼": 5125,
      "ĠÐ¿Ð¾Ð´Ð¿ÑĢÑĭÐ³": 5126,
      "ĠÐ±ÐµÑģÐµÐ´": 5127,
      "ĠÐ½ÐµÐ¾Ð±ÑĭÑĩÐ½Ð¾Ðµ": 5128,
      "ĠÐĴÐµÐ»Ð¸ÐºÐ°Ð½": 5129,
      "ĠÐ¢Ð²Ð¾Ñı": 5130,
      "ĠÐ°Ð¿Ð»Ð¾Ð´": 5131,
      "ĠÐĹÐ°Ð¿ÑĢÐµÑĤ": 5132,
      "ĠÐ½Ð°Ð´Ð¿Ð¸ÑģÑĮ": 5133,
      "ĠÑģÐ¼ÐµÑħÐ°": 5134,
      "ÐĺÐĿÐĶÐŀÐł": 5135,
      "ĠÐĴÑĭÐ±Ð¾ÑĢÐ°": 5136,
      "ĠÐĽÑİÐ±Ð¾Ð³Ð¾": 5137,
      "ĠÐ¿ÑĢÐ¾Ð½Ð·Ð¸ÑĤÐµÐ»ÑĮ": 5138,
      "ĠÐ´ÑĢÑĥÐ·ÑĮÑıÐ¼": 5139,
      "ĠÑĥÐ´Ð¾Ð²Ð¾Ð»ÑĮÑģÑĤÐ²Ð¸ÐµÐ¼": 5140,
      "ĠÑĢÐ¾ÑģÐ»Ð¸": 5141,
      "ĠÑĥÐ¼ÐµÑĢÐµÑĤÑĮ": 5142,
      "ĠÑĪÑĤÐ¾ÑĢÐ¼": 5143,
      "Ð¸ÑĢÐµÐºÑĤÐ¾ÑĢ": 5144,
      "ÑĢÐµÐ´ÐµÐ»ÐµÐ½Ð½Ð¾": 5145,
      "ĠÐ¿Ð¾Ð±Ð»ÐµÑģÐºÐ¸Ð²": 5146,
      "ĠÐľÐ¸Ð½Ð¸ÑģÑĤÐµÑĢÑģÑĤÐ²Ð¾": 5147,
      "ĠÐ²Ð¾Ð»Ð½ÑĥÐ¹ÑģÑı": 5148,
      "ĠÑģÐ¾ÑģÑĢÐµÐ´Ð¾ÑĤÐ¾Ñĩ": 5149,
      "ĠÐ¿ÑĥÐ´Ð¸Ð½Ð³": 5150,
      "ĠÐ±ÑĢÐ¾Ð½Ð·Ð¾Ð²": 5151,
      "ĠÐ½Ð°Ð¸Ð·ÑĥÑģÑĤÑĮ": 5152,
      "ĠÐ¿Ð¾Ð¸ÑģÐºÐ°Ñħ": 5153,
      "ĠÐ¥Ð¾ÑĩÐµÑĪÑĮ": 5154,
      "ÐµÐ²ÐµÑĢÑĥÑģ": 5155,
      "ĠÑĪÐµÐ¸": 5156,
      "ĠÐ¾ÑĩÐµÐ²Ð¸Ð´Ð½Ð¾": 5157,
      "ĠÐ·Ð°Ð²ÐµÑĢÐµÑī": 5158,
      "ĠÐ½Ð°ÑĢÐ¾Ð´Ñĥ": 5159,
      "ĠÑĥÑħÐ¼ÑĭÐ»ÑĮÐ½ÑĥÐ»ÑģÑı": 5160,
      "ĠÐ¿ÐµÑĢÐ³Ð°Ð¼ÐµÐ½ÑĤÐ°": 5161,
      "ĠÐĺÑģÐ¿Ð¾Ð»ÑĮÐ·ÑĥÐ¹": 5162,
      "ĠÑģÑĢÐ°Ð²Ð½": 5163,
      "ĠÐ´Ð¾Ð¿Ð¾Ð»Ð½Ð¸ÑĤÐµÐ»ÑĮ": 5164,
      "ĠÐĿÐµÐºÐ¾ÑĤÐ¾ÑĢÑĭÐµ": 5165,
      "ĠÐĶÐ²ÐµÑĢÑĮ": 5166,
      "ĠÐĶÐµÑģÑıÑĤÑĮ": 5167,
      "ĠÐĶÑĮÑıÐ²Ð¾Ð»Ð°": 5168,
      "ĠÐ³Ð°Ð»ÐµÐ¾Ð½": 5169,
      "ĠÐłÑĥÐ¼Ñĭ": 5170,
      "ÑĥÐ´Ð¸Ð²Ð¸ÑĤÐµÐ»ÑĮÐ½Ð¾": 5171,
      "ĠÐĵÐµÑĢÐ±Ð¾Ð»Ð¾Ð³Ð¸": 5172,
      "ĠÐ¤Ð¸Ð½Ð½ÐµÐ³": 5173,
      "ĠÐĹÐ¼ÐµÑı": 5174,
      "ĠÐŃÐ»Ð¸ÐºÑģÐ¸ÑĢ": 5175,
      "ĠÐ½ÐµÐ±ÑĢÐµÐ¶Ð½Ð¾": 5176,
      "ÑĢÐ°Ð½ÑģÑĦÐ¸Ð³ÑĥÑĢÐ°": 5177,
      "ÐłÐĺÐ¤Ð¤ÐĺÐĿÐĶÐŀÐł": 5178,
      "Ð®": 5179,
      "Ðĸ": 5180,
      "Ġ3": 5181,
      "Ð¾Ñİ": 5182,
      "Ð¾ÑģÑĤÐ°Ð²": 5183,
      "Ð¾ÑģÑĤÐµÑĢ": 5184,
      "ÐµÑĤÐ¾": 5185,
      "Ð¸Ð²Ð¾": 5186,
      "Ð¸Ð½Ð°Ñı": 5187,
      "ÑĤÐ²": 5188,
      "ÑĤÑĢÐ¾": 5189,
      "ÑĤÐ¾Ð³Ð¾": 5190,
      "ÑĤÑĭÐ¹": 5191,
      "Ð»ÑĭÐ²": 5192,
      "Ð»ÑĥÐ¶": 5193,
      "Ð»ÐµÐ½Ð½ÑĭÐ¼": 5194,
      "Ð»ÐµÐ½Ð¸Ñİ": 5195,
      "ÑĢÐµÐ¿": 5196,
      "ÑĢÐ°Ð¹": 5197,
      "ÑĢÐµÐ½Ð¸Ñı": 5198,
      "ÑĢÐ°Ð»Ð°ÑģÑĮ": 5199,
      "ÑģÑģ": 5200,
      "ÑģÐµÐ³Ð´Ð°": 5201,
      "Ð½Ð´": 5202,
      "Ð½ÐµÐ½": 5203,
      "Ð½ÐºÑĥ": 5204,
      "Ð½ÐµÑĪÑĮ": 5205,
      "Ð½ÐµÐ¼Ñĥ": 5206,
      "Ð½ÑĮÑı": 5207,
      "Ð½ÐµÐ½Ð¸Ð¹": 5208,
      "ÑĥÐµÐ¼": 5209,
      "ÑĥÑĢÐ¾Ð²": 5210,
      "ÑıÑıÑģÑĮ": 5211,
      "ÑıÑīÐ¸Ð¼Ð¸": 5212,
      "ÑĭÐ½Ð¾Ñģ": 5213,
      "ĠÐ¿Ñģ": 5214,
      "ĠÐ¿ÐµÐ½": 5215,
      "ĠÐ¿ÐµÑģ": 5216,
      "ĠÐ¿ÑĥÑĤ": 5217,
      "ĠÐ¿Ð¸ÑĢ": 5218,
      "ĠÐ¿Ð°ÑĢÑĤ": 5219,
      "ĠÐ¿ÑģÐ°": 5220,
      "ĠÐ¿ÑĭÐ»": 5221,
      "ĠÐ¿ÑĥÐ³": 5222,
      "ĠÐ¿Ð°ÑĢÐ¸": 5223,
      "ĠÐ¿ÑĭÐ»Ð°": 5224,
      "ĠÑģÐ¾Ñĩ": 5225,
      "ĠÑģÐ¸Ð»Ð°": 5226,
      "ĠÑģÑĪÐ¸Ð±": 5227,
      "ĠÑģÐ¾Ð¶Ð°Ð»": 5228,
      "ĠÑģÐ½ÑıÐ»": 5229,
      "ĠÑģÐ¶Ð¸Ð¼": 5230,
      "ĠÑģÑĢÐ°Ð±Ð¾ÑĤ": 5231,
      "ĠÑģÑĥÐ½ÑĥÐ»": 5232,
      "ĠÐ½Ð°Ð»ÐµÑĤ": 5233,
      "ÑĩÐ¾Ðº": 5234,
      "ÑĩÐµÐº": 5235,
      "ÑĩÐ°Ð¹": 5236,
      "ÑĩÐ°Ð½ÑĮÐµ": 5237,
      "ĠÐ²Ðº": 5238,
      "ĠÐ²Ð°Ð»": 5239,
      "ĠÐ²ÐµÐ·": 5240,
      "ĠÐ²ÑĢÑĥ": 5241,
      "ĠÐ²ÐµÑĢÐ¸": 5242,
      "ĠÐ²ÐµÑĢÐ½Ð¾": 5243,
      "ĠÐ²Ð½Ð¾Ð²": 5244,
      "ĠÐ²Ð½ÐµÐ·Ð°Ð¿": 5245,
      "ÐºÐ¾Ð½": 5246,
      "ÐºÐ¾Ð´": 5247,
      "ÐºÐ°Ð»ÑģÑı": 5248,
      "ÐºÑĢÐ°Ñģ": 5249,
      "ÐºÐ½ÑĥÐ²": 5250,
      "ÐºÐ½ÑĥÐ»Ð¸ÑģÑĮ": 5251,
      "Ð´Ð¾Ð¹": 5252,
      "Ð´ÑĥÑĤ": 5253,
      "Ð´ÐµÑĤÑģÑı": 5254,
      "Ð´ÐµÑĤÐµ": 5255,
      "Ð²Ð¸ÑĤ": 5256,
      "Ð²Ð°Ð»Ð¸": 5257,
      "Ð²Ð»ÐµÐº": 5258,
      "ÑĤÐ¾ÑĢÐ¸": 5259,
      "ÑĤÐ¾ÑĢÐ°": 5260,
      "ĠÐ¾ÐºÐ¾": 5261,
      "ĠÐ¾ÑĢÐ°Ð½": 5262,
      "ĠÐ¾ÑħÐ²Ð°ÑĤÐ¸Ð»": 5263,
      "ÑĢÐ¸Ð°ÑĢ": 5264,
      "ÑĢÐ¸ÑĤÑĮ": 5265,
      "ÑĢÐ¸Ð¼ÐµÑĢ": 5266,
      "Ð¼ÐµÑĪ": 5267,
      "Ð¼ÐµÐ»Ð¸": 5268,
      "Ð¼ÐµÑģÑĤÐ¾": 5269,
      "ĠÐºÐ°Ð¼Ð¸": 5270,
      "ĠÐºÐ»Ñĭ": 5271,
      "ĠÐºÐ°ÑĦ": 5272,
      "ĠÐºÐ¾ÑĤÐµÐ»": 5273,
      "ÑĪÐµÐ´": 5274,
      "ÑĪÐµÐº": 5275,
      "ÑĪÐ°Ñħ": 5276,
      "ÑĪÐµÐ½Ð¸Ñı": 5277,
      "ÑĪÐ¸Ð½Ðµ": 5278,
      "ÐµÑĢÑħ": 5279,
      "ÐµÑĢÑĤÐ¸": 5280,
      "ÐµÑĢÑĭÐ²": 5281,
      "ÑħÐ°": 5282,
      "ĠÐ´Ð½Ðµ": 5283,
      "ĠÐ´Ð²Ð¸": 5284,
      "ĠÐ´Ð°Ð½Ð½ÑĭÐ¹": 5285,
      "ĠÐ´ÑĭÑħÐ°Ð½Ð¸Ðµ": 5286,
      "ÑģÑĤÑĢÐ¸Ðº": 5287,
      "Ð½Ð¸ÐµÐ¹": 5288,
      "Ð½Ð¸Ð»ÑģÑı": 5289,
      "Ð½Ð¸ÑĤÑĮÑģÑı": 5290,
      "ĠÐ±ÑĢÐ°": 5291,
      "ĠÐ±ÐµÑĢÐ¸": 5292,
      "ĠÐ±Ð¾ÑĢÐ¾": 5293,
      "ĠÐ±ÑĢÐµÐ½": 5294,
      "ĠÑĤÐµÑģ": 5295,
      "ĠÑĤÐ²ÐµÑĢ": 5296,
      "Ð¾Ð²ÑĥÑİ": 5297,
      "Ð¾Ð²Ð°Ð»Ð¾ÑģÑĮ": 5298,
      "Ð¾Ð²Ð°Ð»Ð°ÑģÑĮ": 5299,
      "ĠÐ¼Ð¾Ð·": 5300,
      "ĠÐ¼Ð°Ð»Ð¾": 5301,
      "ĠÑĩÐ°ÑĪ": 5302,
      "ĠÑĩÐ»ÐµÐ½": 5303,
      "ĠÐ·ÐµÐ²": 5304,
      "ĠÐ·Ð°Ð»Ð°": 5305,
      "ĠÐ·Ð¸Ð³": 5306,
      "ÑĤÑĮÑİ": 5307,
      "Ð¿Ð¾Ñĩ": 5308,
      "Ð¿Ð¸ÑĢ": 5309,
      "ÐµÐ»ÐµÐ½ÑĭÐ¼Ð¸": 5310,
      "Ð¾Ð»Ñı": 5311,
      "Ð¾Ð»ÐµÐ½": 5312,
      "Ð¾Ð»Ð½Ðµ": 5313,
      "Ð¾Ð»Ð²Ð¸Ð»": 5314,
      "Ð¾Ð»ÐµÐ·Ð½Ð¾": 5315,
      "Ð¾Ð»ÑİÐ±": 5316,
      "ÑİÑīÐ¸Ðµ": 5317,
      "ÑģÑıÑĤÑģÑı": 5318,
      "Ð°ÐºÐ°ÑĤÑĮ": 5319,
      "Ð°ÐºÐ°Ð½": 5320,
      "Ð¾Ð½Ðµ": 5321,
      "Ð¾Ð½ÑģÐ¾Ð½": 5322,
      "ÐµÐ½Ñĥ": 5323,
      "ÐµÐ½Ð³": 5324,
      "ÐµÐ½Ð¾Ð³Ð¾": 5325,
      "ÐµÐ½ÑĭÐµ": 5326,
      "ĠÐ½ÐµÐ¾Ð±ÑħÐ¾Ð´": 5327,
      "Ð±Ð°": 5328,
      "Ð±Ð¾Ð»ÑĮ": 5329,
      "ĠÑĥÐ»": 5330,
      "ĠÑĥÐ»ÐµÑĤ": 5331,
      "ĠÑĥÐ²Ð¸Ð¶": 5332,
      "ĠÑĥÐµÑħÐ°Ð»": 5333,
      "ĠÑĥÑĢÐ¾Ð½Ð¸": 5334,
      "ĠÑĥÐ½Ð¸ÑĩÑĤ": 5335,
      "ĠÑĥÑĪÐ°Ñħ": 5336,
      "Ð·Ð°Ð³": 5337,
      "Ð°Ð·Ð°Ð´": 5338,
      "ĠÐ½Ð°Ñħ": 5339,
      "ĠÐ½Ð°ÑģÑĤÐ¾Ð¹": 5340,
      "Ð¾ÑĢÐ´": 5341,
      "Ð¾ÑĢÐ¾Ð´": 5342,
      "Ð¾ÑĢÐ¾Ð¶Ð½Ð¾": 5343,
      "Ð¹Ð´Ð¸": 5344,
      "Ð³Ð°Ð»": 5345,
      "Ð³Ð¸Ð²Ð°ÑıÑģÑĮ": 5346,
      "Ð¾Ð´Ñĭ": 5347,
      "ĠÐ¿Ð¾ÑĨ": 5348,
      "ĠÐ¿Ð¾ÐµÐ¶": 5349,
      "ĠÐ¿Ð¾ÑħÐ¾Ð´": 5350,
      "ĠÑĢÑĤÑĥ": 5351,
      "ĠÑĢÐµÑĩÑĮ": 5352,
      "Ð¶ÐµÐ»Ð¸": 5353,
      "Ð¶Ð´Ñĭ": 5354,
      "Ð¶Ð´ÐµÐ½": 5355,
      "Ð¶ÐµÐ´Ð½ÐµÐ²": 5356,
      "ÑīÐ°ÑĤÑĮ": 5357,
      "ÑīÐ¸Ð½Ðµ": 5358,
      "Ð½ÑĭÑĢÑı": 5359,
      "Ð°Ð´Ð½Ð¸Ðº": 5360,
      "ĠÐŁÐ¾Ð¹": 5361,
      "ĠÐŁÑĢÐ°Ð²": 5362,
      "ĠÐŁÑıÑĤÑĮ": 5363,
      "ĠÐŁÑĢÐµÐ´": 5364,
      "ĠÐŁÐŀÐ": 5365,
      "ĠÐŁÐ°ÑĤÐ¸Ð»ÑĮ": 5366,
      "ĠÐŀÑħ": 5367,
      "ĠÐŀÐ¿": 5368,
      "ĠÐŀÐºÐ¾Ð»": 5369,
      "Ð°Ð²Ð°ÑĤÑĮ": 5370,
      "Ð°Ð²Ð»Ð¸Ð²": 5371,
      "Ð°Ð²ÑĪÐ¸Ñħ": 5372,
      "Ð°Ð²ÑĪÑĥÑİ": 5373,
      "ÐµÐ´ÐµÐ»ÑĮ": 5374,
      "ÐµÐ´Ð»Ð¸Ð»": 5375,
      "ĠÐĿÐ°Ðº": 5376,
      "ĠÐĿÐ°Ð³": 5377,
      "ĠÐĿÐ°Ñģ": 5378,
      "Ð¾ÑĤÑĭ": 5379,
      "Ð¾ÑĤÑĤÐ°": 5380,
      "ĠÐĶÐµÐ²": 5381,
      "ĠÐĶÑĢÑĥÐ³": 5382,
      "ĠÐĶÐ¸Ð³": 5383,
      "ĠÐĶÐµÐ»Ð¾": 5384,
      "ĠÐĶÐµÐ´Ð°Ð»": 5385,
      "Ð¾Ð±ÑĢÐ°Ð·": 5386,
      "ÑĨÐ°ÑĢ": 5387,
      "ÑĨÐ°Ð¼": 5388,
      "Ð´Ð°ÐµÐ¼": 5389,
      "ĠÐ»Ð¾Ð¼": 5390,
      "ĠÐ»Ð¸Ð»": 5391,
      "ĠÐĴÐ¾Ð½": 5392,
      "ĠÐĴÑĢÐ°ÑĤ": 5393,
      "ĠÐĴÑģÐµÐ¼": 5394,
      "ĠÐĴÐ¼ÐµÑģÑĤÐ¾": 5395,
      "ĠÐ¾ÑĤÐºÐ°": 5396,
      "ĠÐ¾ÑĤÑĤÐ¾Ð»": 5397,
      "ĠÐ¾ÑĤÐ»Ð¸ÑĩÐ½Ð¾": 5398,
      "ĠÐ³Ñĥ": 5399,
      "ĠÐ³Ð°ÑĢÑĢÐ¸": 5400,
      "ĠÐ³Ð½Ñĥ": 5401,
      "ĠÐ³Ð¾Ð±": 5402,
      "ĠÐ³ÑĢÐ¾Ñħ": 5403,
      "Ð¾Ð¶Ð¸Ð»Ð°": 5404,
      "ĠÐ¡Ð¾Ð±": 5405,
      "ĠÐ¡ÐµÐ³Ð¾Ð´Ð½Ñı": 5406,
      "ĠÐ¡ÐµÐ²ÐµÑĢÑĥÑģ": 5407,
      "ĠÐ¿ÑĢÐµÐ»": 5408,
      "ĠÐ¿ÑĢÐ¾Ð»": 5409,
      "ĠÐ¿ÑĢÑıÑĤ": 5410,
      "ĠÐ¿ÑĢÐ¾Ð²Ð¾ÑĢ": 5411,
      "ĠÐ¿ÑĢÐµÑĦÐµÐºÑĤ": 5412,
      "ĠÑģÐºÐ¾Ð¼": 5413,
      "ĠÑģÐºÑĢÑĭ": 5414,
      "ĠÑģÐºÑĥÑĩ": 5415,
      "ÑĢÐ°ÑĥÑĤ": 5416,
      "ĠÐ²ÑĭÐ¶": 5417,
      "ĠÐ²ÑĭÑĤÐµÑĢ": 5418,
      "ĠÐļÐ¾Ð¼": 5419,
      "ĠÐļÐ°Ð¶ÐµÑĤÑģÑı": 5420,
      "ĠÐ¿ÑĢÐ¾Ñī": 5421,
      "ĠÐ¿ÑĢÐ¾ÑĩÐ¸": 5422,
      "Ð»ÑıÐ½": 5423,
      "Ð»ÑıÑħ": 5424,
      "Ð»ÑıÑģÑĤÑĮ": 5425,
      "ĠÐ²ÑģÐ°Ð´Ð½Ð¸Ðº": 5426,
      "ĠÐľÐ¾ÑĢ": 5427,
      "ĠÐľÐµÐ¶Ð´Ñĥ": 5428,
      "Ð°Ð·Ð°Ð»Ð¸": 5429,
      "ĠÐ¥ÑĥÐ¶Ðµ": 5430,
      "ÐµÐ²Ð¸": 5431,
      "ÐµÐ²ÑĪÐ¸Ð¹": 5432,
      "ĠÐ·Ð°ÑīÐ¸": 5433,
      "ĠÐ·Ð°Ð¸Ðº": 5434,
      "ĠÐ·Ð°ÑĪÐ¸Ð¿": 5435,
      "Ð¸ÑĤÐ°Ð½": 5436,
      "Ð¸ÑĤÑĭÐ¹": 5437,
      "ĠÐºÐ°ÐºÐ¸Ðµ": 5438,
      "ĠÐłÐ°Ñģ": 5439,
      "ĠÐłÑıÐ´": 5440,
      "Ð°Ð½Ð½Ð¾Ð¹": 5441,
      "Ð°Ð½ÑĤÐ°": 5442,
      "Ð°Ð½Ð½ÑĥÑİ": 5443,
      "ÑĤÐ¸ÐµÐ¼": 5444,
      "ÑĤÐ¸ÑĢÐ¾Ð²": 5445,
      "ÑĤÐ¸ÑĢÐ°Ñı": 5446,
      "Ð°ÑģÑĪÐµÐ´": 5447,
      "ĠÑıÐ¸": 5448,
      "ĠÑıÑĢÐ¾Ðº": 5449,
      "Ð¸Ð½ÑģÑĤÐ²": 5450,
      "ĠÐ¶Ð¸ÑĤÑĮ": 5451,
      "ĠÐ¶ÐµÑģÑĤ": 5452,
      "ĠÐ¶Ð°Ð´Ð½Ð¾": 5453,
      "ĠÐ¶Ð´Ð°Ð»": 5454,
      "ĠÐ¶Ð´Ð°ÑĤÑĮ": 5455,
      "ĠÐ¶Ð´ÐµÑĤ": 5456,
      "ĠÐ½Ð¾ÑģÐ°": 5457,
      "ĠÑĤÐ¾ÑģÐºÐ¾Ð¹": 5458,
      "ĠÑģÑĤÐ¾Ð¹": 5459,
      "ĠÑģÑĤÐ°Ð²": 5460,
      "ĠÑģÑĤÑĢÐµÐ¼": 5461,
      "ĠÑģÑĤÑĥÐº": 5462,
      "ĠÑģÑĤÐ°ÐºÐ°Ð½": 5463,
      "ĠÐ¸Ð·Ð½ÑĥÑĤÑĢÐ¸": 5464,
      "ÐºÐ°ÑĤ": 5465,
      "...-": 5466,
      "ĠÐ¿ÑĢÐ¸Ñĩ": 5467,
      "ĠÐ¿ÑĢÐ¸Ð¿": 5468,
      "ĠÐ¿ÑĢÐ¸ÑıÑĤ": 5469,
      "ĠÐ¢Ðµ": 5470,
      "ĠÑħÐ¾ÑĢÐ¾Ð¼": 5471,
      "ĠÑħÑĢÑĥÑģÑĤ": 5472,
      "ÑĢÑĭÑģ": 5473,
      "ĠÑĪÐµÑİ": 5474,
      "ĠÑĪÐ²ÑĭÑĢÐ½ÑĥÐ»": 5475,
      "ĠÐ¿Ð¾Ð´Ð°Ð»ÑĮ": 5476,
      "ÐºÑĥÑĪ": 5477,
      "Ð¾Ð·Ð°": 5478,
      "ÐµÐºÐ°Ñı": 5479,
      "ĠÐ¾Ð±ÐµÑĢ": 5480,
      "ĠÐ¾Ð±Ñī": 5481,
      "ĠÐ¾Ð±ÑĢÐ°Ð´": 5482,
      "ĠÐ¾Ð±ÑĢÑĥÑĪ": 5483,
      "ĠÐ¾Ð±ÑħÐ²Ð°": 5484,
      "ĠÐ¾Ð±Ð´ÑĥÐ¼": 5485,
      "ĠÑģÐ¿ÐµÑĪ": 5486,
      "ĠÑģÐ¿ÑĥÑĤ": 5487,
      "ĠÑģÐ¿Ð¾Ñħ": 5488,
      "ĠÑģÐ¿Ð°ÑģÑĤÐ¸": 5489,
      "ĠÑģÐ¿Ð¾Ð»Ð·": 5490,
      "ĠÑģÐ¿ÐµÑĢÐ²Ð°": 5491,
      "ĠÑģÐ¿ÐµÑĢÐµÐ´Ð¸": 5492,
      "ĠÑģÐ¿ÑıÑĤÐ¸Ð»": 5493,
      "ĠÑģÐ¿ÑĥÑģÑĤÐ¸Ð»Ð¸ÑģÑĮ": 5494,
      "ĠÑģÐ»Ð¾Ð½": 5495,
      "ĠÑģÐ»ÑĥÐ¶": 5496,
      "ĠÑģÐ»Ð¾Ð¶Ð½Ð¾": 5497,
      "ÐµÐ½ÑĮÐºÐ¾Ð¹": 5498,
      "ĠÑĢÐ°Ð·Ñĥ": 5499,
      "ĠÑĢÐ°Ð·Ð²": 5500,
      "ĠÑĢÐ°Ð·Ð¾Ð±": 5501,
      "ĠÑĢÐ°Ð·ÑĢÐ°Ð·": 5502,
      "ĠÑĢÐ°Ð·Ð¼Ð°Ñħ": 5503,
      "ĠÑĢÐ°Ð·ÑĬÑı": 5504,
      "Ð°ÑĤÑĭÐ¹": 5505,
      "ÐµÑģÑĤÐ°": 5506,
      "ÐµÑģÑĤÐ¸ÑĤÑĮ": 5507,
      "ĠÐ³Ð¾Ð½Ñı": 5508,
      "ĠÐºÐ¾ÑģÑĤ": 5509,
      "ÑĥÑĩÐ¸": 5510,
      "ÑĥÑĩÐ¸Ð»Ð¸": 5511,
      "Ð¸Ð¼Ð¾Ðµ": 5512,
      "ĠÐ¿ÐµÑĢÐ²Ð¾Ðµ": 5513,
      "ĠÐ¿ÐµÑĢÑĮÐµÐ²": 5514,
      "ÑģÐºÐ°Ñı": 5515,
      "Ð´Ð¾ÑĢÐ¾Ð²Ð¾": 5516,
      "ĠÐ°ÑĤÐ°Ðº": 5517,
      "ĠÐ°Ð»Ñħ": 5518,
      "Ð¾ÑĩÐ°": 5519,
      "Ð¾ÑĩÐ½Ð¾": 5520,
      "Ð¾ÑĩÐºÐ¾Ð¹": 5521,
      "Ð°Ð»ÑĮÐ½ÑĭÑħ": 5522,
      "ÑĥÑĤÐ¸Ð»ÑģÑı": 5523,
      "ĠÐ¯ÑĢ": 5524,
      "Ð½ÐµÐ»Ð¸": 5525,
      "ĠÐ¿Ð¾Ð»Ð°": 5526,
      "ĠÐ¿Ð¾Ð»Ð½Ð°": 5527,
      "Ð²Ð¸Ð·": 5528,
      "Ð²Ð¸Ð»Ð¸ÑģÑĮ": 5529,
      "ÑĥÐ¼Ð°Ð»": 5530,
      "ÐµÑĩÐµÐ¹": 5531,
      "ÐµÑĩÐºÐ°": 5532,
      "ÑīÐµÐµÑģÑı": 5533,
      "Ð´ÐµÐ»Ð¸": 5534,
      "ĠÑĤÑĭÑģÑı": 5535,
      "ĠÑĤÑĭÐºÐ²": 5536,
      "ÐµÐ»ÑĮÑı": 5537,
      "Ð¸ÑģÐ¸": 5538,
      "Ð¸ÑģÐºÐ¸": 5539,
      "Ð¸ÑģÐ¼ÐµÐ½ÑĤ": 5540,
      "Ð¾ÑģÐ¸Ð¿": 5541,
      "ĠÐĳÑĭ": 5542,
      "ĠÐĳÑĢÐ¾Ñģ": 5543,
      "ĠÐĳÑĭÐ»": 5544,
      "ĠÐĳÐ»Ð¸Ð·Ð½Ðµ": 5545,
      "ĠÐĳÐµÑĢÑĤÐ¸": 5546,
      "ĠÐĳÐ¾ÑĤÑĤÐ°": 5547,
      "ÑĢÐ¾ÑģÑĤÐ¾": 5548,
      "ÑĢÐ¾ÑģÐ¸Ð»Ð°": 5549,
      "ÑĭÐ²Ð°Ð½Ð¸Ñı": 5550,
      "ÐµÐ»Ð¸Ð¹": 5551,
      "ÐµÐ»Ð¸Ð²Ð¾": 5552,
      "Ð»ÑĭÐ¼Ð¸": 5553,
      "ĠÐ¤Ð¸Ð³ÑĥÑĢÐ°": 5554,
      "ĠÐ¤ÑĢÐ¸Ð°ÑĢ": 5555,
      "ĠÐĹÐ²": 5556,
      "ĠÐĹÐ°Ð¼": 5557,
      "ĠÐĹÐ°Ð»Ðµ": 5558,
      "ĠÐĹÐ°ÑĩÐµÐ¼": 5559,
      "ĠÐĹÐ´Ð¾ÑĢÐ¾Ð²Ð¾": 5560,
      "ÑĩÐ¸Ðµ": 5561,
      "Ð¾Ð²Ð°ÑĤÐ¾": 5562,
      "ĠÐ£Ñħ": 5563,
      "ĠÐ£Ð¶": 5564,
      "ĠÐ£Ð´Ð°": 5565,
      "ĠÐ£ÑĢÐ¾Ðº": 5566,
      "ĠÐ¿Ð¾ÐºÐ¸": 5567,
      "ĠÐ¿Ð¾ÐºÑĢÑĭ": 5568,
      "ĠÐ¿Ð¾ÐºÑĢÑĭÐ²": 5569,
      "ĠÐ¿Ð¾ÐºÐ°Ð¶Ñĥ": 5570,
      "ĠÐ¿Ð¾ÐºÐ»ÑıÑģÑĤÑĮ": 5571,
      "ÑģÑĤÑĮÐµ": 5572,
      "ĠÐ¿Ð¾ÑģÐµÑĤ": 5573,
      "ÑĥÑİÑīÐ¸Ðµ": 5574,
      "ĠÐ¾Ð´Ð½Ð¾Ð¼": 5575,
      "ĠÐ¾Ð´Ð½Ð¾Ð¼Ñĥ": 5576,
      "ĠÐ¾Ð´ÐµÐ¶Ð´Ñĭ": 5577,
      "ĠÐ²Ð·Ð²": 5578,
      "ĠÐ²Ð·ÑĢÐ¾Ñģ": 5579,
      "ĠÐ²Ð·Ð»ÐµÑĤ": 5580,
      "ĠÐ²Ð·ÑĢÑĭÐ²": 5581,
      "ĠÐ²Ð·Ð´Ð¾Ñħ": 5582,
      "ĠÐ²Ð·Ð»Ð¾Ð¼": 5583,
      "ĠÐ²Ð·Ð¾ÑĢÐ²Ð°Ð»ÑģÑı": 5584,
      "ĠÐ²Ð·Ð²Ð¸Ð·": 5585,
      "ĠÐ§ÐµÐ¼": 5586,
      "ĠÐ§Ð¢Ðŀ": 5587,
      "ÑħÐ¾Ð´Ñı": 5588,
      "ĠÐ»Ð¸ÑĪ": 5589,
      "ÑıÑĤÐµÐ»ÑĮ": 5590,
      "ÑıÑĤÐ½Ð¸Ðº": 5591,
      "ĠÑĤÑĢÐ¾Ð½Ñĥ": 5592,
      "ĠÐĲÐ´": 5593,
      "ĠÐĲÐ±ÑģÐ¾Ð»ÑİÑĤÐ½Ð¾": 5594,
      "ĠÐ²Ð¸Ð´Ð¸ÑĤ": 5595,
      "ĠÐ²Ð¸Ð´Ð¸Ð¼Ð¾": 5596,
      "ĠÐ½Ð°Ð´ÐµÑĤÑĮ": 5597,
      "ĠÐĽÐµÐ²Ð¸": 5598,
      "ĠÐ·Ð°Ð¼ÐºÑĥ": 5599,
      "Ð´Ð¸ÑĥÐ¼": 5600,
      "ÑĥÑĪÐºÑĥ": 5601,
      "ÑĥÑĪÐµÐº": 5602,
      "ĠÐ·Ð½Ð°ÐµÐ¼": 5603,
      "ĠÐºÐ¾Ð½ÑĨÑĥ": 5604,
      "ĠÐ²Ð¾Ð·Ð¾Ð¿Ð¸Ð»": 5605,
      "ĠÐ²Ð¾Ð·Ð¼ÑĥÑī": 5606,
      "Ð°ÑħÐ°ÑĢ": 5607,
      "ÑĢÑıÐ»": 5608,
      "ĠÐ¸Ð¼ÐµÐ»": 5609,
      "ĠÐ¸Ð¼ÐµÑİ": 5610,
      "Ð¸ÑĢÐ¾Ð²Ð°Ð»": 5611,
      "Ð¸ÑĢÐ¿Ð¸": 5612,
      "ÑģÑĤÐ¾ÑıÑī": 5613,
      "ĠÐ¾ÑĩÐ°Ð³": 5614,
      "ĠÐ¿Ð¾Ð²ÐµÑĢÐ¸Ð»": 5615,
      "ĠÐ²Ð¾ÑĢÐ¾ÑĤ": 5616,
      "Ð¾Ð²Ð¾ÑĢÐ¸Ð»Ð°": 5617,
      "ÑĩÐ°Ð½Ð¸Ðµ": 5618,
      "ĠÐºÐ¾Ð¼Ð¼ÐµÐ½": 5619,
      "ĠÑģÐ°Ð¼Ð°Ñı": 5620,
      "ĠÑģÐ°Ð¼ÑĥÑİ": 5621,
      "ĠÑĩÐµÑĢÐ½Ð¾Ð³Ð¾": 5622,
      "ĠÑĩÐµÑĢÐ½ÑĭÑħ": 5623,
      "ĠÑĩÐµÑĢÐ½ÑĭÐ¼Ð¸": 5624,
      "ĠÑĩÐµÑĢÐ½Ð¾Ð²": 5625,
      "ĠÑģÐ¼ÐµÐ½Ð¸": 5626,
      "ĠÐ¾ÐºÐ°Ð·Ð°Ð»Ð¾ÑģÑĮ": 5627,
      "ĠÑĥÑģÐ°Ð¼Ð¸": 5628,
      "ĠÑĥÑģÑĭÐ¿": 5629,
      "Ð»ÑİÑī": 5630,
      "ĠÐ½Ð°Ð¿Ð°Ð´": 5631,
      "ĠÐ½Ð°Ð¿ÑĢÐ¸Ð¼ÐµÑĢ": 5632,
      "Ð¾Ð»Ð¶Ð¸Ð»": 5633,
      "ĠÐ»ÑİÐ´": 5634,
      "ĠÐ·Ð°Ð¿Ð¾Ð»": 5635,
      "ĠÐ·Ð°Ð¿ÑĭÑħ": 5636,
      "ĠÐ·Ð°Ð¿ÐµÑĢÑĤ": 5637,
      "ĠÐ¿ÑĢÐµÐ´ÑģÐº": 5638,
      "ĠÐ¿ÑĢÐµÐ´Ð¼ÐµÑĤ": 5639,
      "ĠÐ´ÐµÐ»Ð°ÐµÑĪÑĮ": 5640,
      "ĠÐ´ÐµÐ»Ð°ÐµÑĤÐµ": 5641,
      "ĠÑģÐ²ÐµÐº": 5642,
      "ĠÑģÐ²Ð°Ð»Ð¸Ð»ÑģÑı": 5643,
      "ĠÑģÐ²ÑıÑĤÐ¾Ð³Ð¾": 5644,
      "ĠÑģÐ²ÐµÑĩÐµÐ¹": 5645,
      "ĠÐ¿ÑĢÐ¾ÑĦÐµÑģÑģÐ¾ÑĢÑĥ": 5646,
      "ĠÐĿÐµÐ²Ð¸Ð»Ð»Ñİ": 5647,
      "Ð°Ð½Ð¸Ð¸": 5648,
      "ĠÑģÐ¾Ð²ÑıÑĤÐ½Ð¸Ðº": 5649,
      "ĠÐ³Ð»Ð°Ð·ÐºÐ¸": 5650,
      "ĠÑĦÐµÐ½Ð¸Ðº": 5651,
      "ĠÑĦÐ¾ÐºÑĥÑģ": 5652,
      "ÑĩÐ¸ÑĤÑģÑı": 5653,
      "ĠÐ¸ÑģÐ¿Ð°": 5654,
      "ÐŀÐĵ": 5655,
      "ĠÐ¿Ð¾ÑĢÑħ": 5656,
      "ĠÑĤÐµÐ¼Ð½ÑĭÐ¼": 5657,
      "ĠÑĤÐµÐ¼Ð½ÑĭÑħ": 5658,
      "ĠÑģÐµÑĢÐ´Ð¸ÑĤÐ¾": 5659,
      "ĠÐ²ÐµÑĢÐ½ÑĥÑģÑĮ": 5660,
      "ĠÐ¼ÐµÑĤÑĢÐ¾": 5661,
      "ĠÐ´ÑĢÑĥÐ³ÑĥÑİ": 5662,
      "ĠÐ´ÑĢÑĥÐ³Ð¸Ðµ": 5663,
      "ĠÐ´ÑĥÐ¼Ð°Ñı": 5664,
      "ĠÐ¿Ð¾ÐºÐ°ÑĩÐ°Ð»": 5665,
      "ĠÐ¿Ð¾Ð¼ÐµÑī": 5666,
      "ĠÐ¾Ð¿ÑĢÐµÐ´ÐµÐ»ÐµÐ½Ð½Ð¾": 5667,
      "ÐºÐ¾Ð»ÐµÐ¿": 5668,
      "ÐµÐ½Ð¸ÑıÐ¼Ð¸": 5669,
      "Ð¾ÑħÐ¾ÑĤ": 5670,
      "Ð¾ÑħÐ²Ð¾": 5671,
      "ĠÐ¿Ð¾Ð·Ð´Ð½Ð¾": 5672,
      "ĠÐļÐ°ÐºÐ¸Ð¼": 5673,
      "ĠÐ¿ÐµÑĢÐ²Ð¾Ð¼": 5674,
      "ÑĤÑıÐ±ÑĢÑı": 5675,
      "ĠÐ´Ð¾Ð»Ð¶Ð½Ð°": 5676,
      "ĠÐ·Ð°ÐºÐ»ÑİÑĩ": 5677,
      "ĠÐ¿ÑĢÐ°Ð²Ð°": 5678,
      "ĠÐ¿ÑĢÐ°Ð²Ð´Ñĥ": 5679,
      "ĠÐļÐ²Ð¸ÑĢÑĢÐµÐ»Ð»Ð¾Ð¼": 5680,
      "ÑĥÐ½Ð²Ð¾Ð»": 5681,
      "ÑĬÐµÐ¼": 5682,
      "Ð°ÑĪÐ°": 5683,
      "ĠÐ¼Ð°Ð»ÑĮÑĩÐ¸ÐºÐ¸": 5684,
      "ĠÐ¸Ð³ÑĢÐ°Ð»": 5685,
      "ĠÑģÐ»ÐµÐ´Ð¾Ð¼": 5686,
      "ĠÑģÐ»ÐµÐ´Ð¸Ð»": 5687,
      "ÐµÐ»Ð°ÑģÑĮ": 5688,
      "ĠÐ¿Ð¾Ð½ÑıÐ»Ð¸": 5689,
      "ĠÐ¿Ð¾Ð»ÑĥÑĩÐ°Ð»": 5690,
      "ĠÐ¿Ð¾Ð»ÑĥÑĩÐ¸Ð»Ð°": 5691,
      "ÐµÐ½ÑĤÑĭ": 5692,
      "ĠÐ¿ÑĢÐ¾Ð±Ð¾Ð²Ð°Ð»": 5693,
      "ĠÐ¿ÑĢÐ¾Ð±Ð¾ÑĢÐ¼Ð¾ÑĤ": 5694,
      "ĠÐ¿Ð¾Ð¹Ð´ÐµÐ¼": 5695,
      "ĠÐ¿ÑĭÑĤÐ°Ð»Ð°ÑģÑĮ": 5696,
      "ĠÐłÐ¾Ð½Ð°Ð½Ð°": 5697,
      "ĠÑģÑĤÐ°ÑĢÑĪÐµ": 5698,
      "ĠÑģÑĤÐ°ÑĢÑĥÑİ": 5699,
      "ĠÑĥÐ±ÑĢÐ°Ð»": 5700,
      "ĠÑĤÐ¾Ð»ÐºÑĥ": 5701,
      "ĠÐ¾ÑģÐ¼ÐµÐ»Ð¸": 5702,
      "ĠÐ»ÑİÐ±Ð¾Ð²": 5703,
      "ĠÐ»ÑİÐ±ÑıÑĤ": 5704,
      "ÐŀÐľ": 5705,
      "Ð°ÑĩÑĥ": 5706,
      "ÑĤÐ¾ÑĢÐ¾Ð¿": 5707,
      "ĠÑĤÐ²Ð¾ÐµÐ¼": 5708,
      "ĠÐĶÐ¶Ð¾Ð½ÑģÐ¾Ð½": 5709,
      "Ð¸Ð±ÑĢÐ¸ÑĢÐ¾Ð²": 5710,
      "ĠÐ¿Ð»ÐµÑĤ": 5711,
      "ĠÐ¿Ð¸ÑģÑĮÐ¼Ð¾Ð¼": 5712,
      "ĠÐºÐ°ÑĢÑĤÐ¸": 5713,
      "ĠÐ¿ÑĢÐ¾ÑĪÐ»Ð°": 5714,
      "ĠÐ¿ÑĢÐ¾ÑĪÐ»Ð¾Ð¹": 5715,
      "ĠÐ¿ÑĢÐ¾Ð¸Ð·Ð²": 5716,
      "ĠÐ¼Ð°Ð»ÑĭÑĪ": 5717,
      "ÐķÐ¡": 5718,
      "ÐķÐĶ": 5719,
      "ÐķÐĽ": 5720,
      "ÐķÐĿ": 5721,
      "ÑĢÐ°Ð¶Ð´Ð°Ñİ": 5722,
      "Ð½ÐµÐ¹ÑĪÐ¸Ñħ": 5723,
      "Ð»Ð°ÑģÐ¸Ð»": 5724,
      "ĠÑģÐ´ÐµÐ»Ð°Ð»Ð°": 5725,
      "ĠÐ¾Ð³ÑĢÐ°Ð±": 5726,
      "ĠÐŁÐµÑĤÑĥÐ½Ð¸ÐµÐ¹": 5727,
      "Ð½Ð¾Ð²Ð°ÑĤÑĮ": 5728,
      "ĠÐ¿ÑĢÑıÐ¼": 5729,
      "ÐĲÐĽÐ¬": 5730,
      "ĠÐ½ÐµÐ´ÐµÐ»Ð¸": 5731,
      "ĠÐ½ÐµÐ´ÐµÐ»Ñı": 5732,
      "ĠÐ½ÐµÐ´ÐµÐ»Ðµ": 5733,
      "ĠÐ¼Ð¾Ñı": 5734,
      "ĠÐºÐ¾Ð»ÐµÐ½Ð¸": 5735,
      "ĠÑģÐ»ÑĭÑĪÐ½Ð¾": 5736,
      "ĠÑģÐ»ÑĭÑĪÐ°ÑĤÑĮ": 5737,
      "ĠÐ´Ð¾Ð±Ð°Ð²": 5738,
      "ĠÐ´Ð¾Ð±Ð¸ÑĤÑĮÑģÑı": 5739,
      "ĠÐ¾ÑĤÐºÑĢÑĭÑĤÑĮ": 5740,
      "ĠÐ¾ÑĤÐºÑĢÑĭÐ»Ð°": 5741,
      "ĠÐ¿ÑĢÐ¾Ð²Ð¾Ð·Ð³": 5742,
      "ĠÐ¿Ð¾ÑģÐ»ÐµÐ´Ð¾Ð²Ð°Ð»": 5743,
      "ĠÐºÐ½Ð¸Ð³Ð°": 5744,
      "ĠÐ³Ð¾Ð»Ð¾ÑģÐ¾Ðº": 5745,
      "ĠÐ²ÑĭÑģÑĥ": 5746,
      "ĠÑģÐ»ÑĥÑĩÐ°Ð»Ð¾ÑģÑĮ": 5747,
      "ĠÑģÐ»ÑĥÑĩÐ¸ÑĤÑģÑı": 5748,
      "ĠÑĥÐ»ÑĭÐ±Ð°Ð»ÑģÑı": 5749,
      "ĠÑĥÐ»ÑĭÐ±ÐºÐ¾Ð¹": 5750,
      "ĠÑĥÐ»ÑĭÐ±Ð°ÐµÑĤÑģÑı": 5751,
      "ĠÑģÐºÐ²Ð°Ð¶": 5752,
      "ĠÐ¸ÑģÑĩÐµÐ·Ð»Ð¸": 5753,
      "ÐĿÐĺ": 5754,
      "ĠÐ½Ð¾ÑģÑĥ": 5755,
      "ĠÐ¨Ð¸Ð¿": 5756,
      "ĠÐ½Ð°Ð·Ð²Ð°": 5757,
      "ĠÐ¼Ð¸Ð½ÑĥÑĤÐºÑĥ": 5758,
      "ĠÑģÑĤÑĢÐ°Ð½Ð½ÑĭÐµ": 5759,
      "ĠÑģÑĤÑĢÐ°Ð½Ð½ÑĭÐ¼": 5760,
      "ĠÐ´Ð»Ð¸Ð½Ð½Ð¾Ð¼": 5761,
      "ĠÐ´Ð»Ð¸Ð½Ð½ÑĥÑİ": 5762,
      "ĠÐ¼Ð°Ð»ÐµÐ½ÑĮÐºÑĥÑİ": 5763,
      "ĠÐ¼Ð°Ð»ÐµÐ½ÑĮÐºÐ¾Ð³Ð¾": 5764,
      "ĠÐ½ÐµÐ²ÑĭÐ½Ð¾Ñģ": 5765,
      "ĠÑģÑĤÐ¾Ð»Ð°Ð¼Ð¸": 5766,
      "ĠÐ¸ÑģÐ¿ÑĭÑĤ": 5767,
      "ĠÐ²ÐµÐ»Ð¸Ðº": 5768,
      "ĠÐ²ÐµÐ»Ð¸ÐºÐ°Ð½": 5769,
      "ĠÐ²ÐµÐ»Ð¸ÐºÐ¾Ð»ÐµÐ¿": 5770,
      "ĠÐ·Ð²Ñĥ": 5771,
      "ĠÐ·Ð²Ð°Ð»Ð¸": 5772,
      "ĠÐ¤Ð¸Ð»ÑĩÐµÐ¼": 5773,
      "ĠÐ¸ÑģÐºÐ°Ð»Ð¸": 5774,
      "ĠÐ±Ð¾ÑıÑĤÑĮÑģÑı": 5775,
      "ĠÐ³ÑĢÐ¾Ð¼Ð°Ð´": 5776,
      "ĠÐ²ÑĭÐ³Ð»ÑıÐ´Ñı": 5777,
      "ĠÐ²ÑĭÐ³Ð»ÑıÐ´Ð¸ÑĤ": 5778,
      "ĠÐ¿Ð¾Ð²ÐµÑĢÑħ": 5779,
      "ĠÐ²Ð¾Ð¿Ð»ÑĮ": 5780,
      "ĠÐ¿ÑĢÐ¸ÑģÐµÐ»": 5781,
      "ĠÐ¿ÑĢÐ¸ÑģÐ»Ð°Ð»": 5782,
      "Ð¾ÑĤÐ¾ÑĢÐ¾Ðµ": 5783,
      "ĠÐ½Ð¾Ð²Ð¾Ð¹": 5784,
      "ĠÐ½Ð¾Ð²ÑĭÐµ": 5785,
      "ĠÐ½Ð°ÑĢÐ¾ÑĩÐ½Ð¾": 5786,
      "ĠÐºÐ¾ÑĢÐ¸Ð´Ð¾ÑĢÐ°Ð¼": 5787,
      "Ð¡Ðļ": 5788,
      "ĠÑĥÑģÐ¿ÐµÐ»Ð¸": 5789,
      "ĠÐ½ÐµÑģÑĩÐ°ÑģÑĤ": 5790,
      "ĠÐ½ÐµÑģÑĩÐ°ÑģÑĤÑĮÑİ": 5791,
      "ĠÐ½ÐµÑģÐ¼Ð¾ÑĤÑĢÑı": 5792,
      "ĠÑĢÐ¾Ð´Ðµ": 5793,
      "ĠÑĢÐ¾Ð´ÑģÑĤÐ²ÐµÐ½": 5794,
      "ĠÐ¿ÑĢÐ¸ÑĪÐ»Ð°": 5795,
      "ĠÐ¾Ð±ÑĬÑıÐ²": 5796,
      "ĠÐ¾ÑģÑĤÐ°Ð½Ð¾Ð²Ð¸Ð»Ð¸ÑģÑĮ": 5797,
      "ĠÐ¾ÑģÑĤÐ°Ð½Ð¾Ð²Ð¸Ð»Ð°ÑģÑĮ": 5798,
      "ĠÑĥÐ¶Ð°ÑģÐ°": 5799,
      "ĠÐ½Ð°Ð²ÑģÐµÐ³Ð´Ð°": 5800,
      "ÐµÑģÑĤÐ²Ðµ": 5801,
      "ĠÑģÐµÑĢÐµÐ±ÑĢÐ¾Ð¼": 5802,
      "ĠÑģÐµÑĢÐµÐ±ÑĢÐ¸ÑģÑĤ": 5803,
      "ĠÐ¼Ð¸ÑģÑĤÐµÑĢÐ°": 5804,
      "ĠÐ½Ð¾Ð³Ð°Ð¼Ð¸": 5805,
      "ĠÐ¿ÑĢÐ¾ÑģÐ¸Ð»": 5806,
      "ĠÐ¿ÑĢÐ¾ÑģÐ½ÑĥÐ»ÑģÑı": 5807,
      "Ð°ÑİÑīÐ°Ñı": 5808,
      "ĠÐ¤ÑĢÐµÐ´Ð¾Ð¼": 5809,
      "ĠÐļÐ²Ð¸Ð´Ð´Ð¸ÑĩÐµ": 5810,
      "ĠÑģÑĩÐ¸ÑĤÐ°ÑĤÑĮ": 5811,
      "ĠÑģÑĩÐ¸ÑĤÐ°Ð»Ð°": 5812,
      "ĠÑģÑĩÐ¸ÑĤÐ°ÐµÑĤ": 5813,
      "ĠÑģÑĩÐ¸ÑĤÐ°ÐµÑĤÐµ": 5814,
      "Ð²ÐµÑģÑĤÐ¸": 5815,
      "ĠÐ¡ÐºÐ²Ð¾Ð·ÑĮ": 5816,
      "ĠÐ½Ð°Ð¿ÑĢÐ°Ð²Ð¾": 5817,
      "ĠÐŁÐ»Ð°ÑīÐ¾Ð¼": 5818,
      "Ð¸ÑĢÐ°ÐµÑĤ": 5819,
      "ĠÑĤÐµÐ»ÐµÑģÐº": 5820,
      "ĠÐ·Ð°ÑģÐ¼Ðµ": 5821,
      "ĠÑģÐµÐ¼ÑĮÐµ": 5822,
      "ĠÐ²Ð½Ð¸Ð·Ñĥ": 5823,
      "ĠÑĥÑĢÐ¾ÐºÐµ": 5824,
      "ĠÐ»ÐµÐ¶Ð°": 5825,
      "ĠÐ»ÐµÐ¶Ð°Ð»Ð°": 5826,
      "ÑıÑīÐµÐ¹": 5827,
      "ÑıÑīÐµÐ³Ð¾": 5828,
      "ĠÐºÑĢÑĭÐ»Ð¾": 5829,
      "ĠÐºÑĢÑĭÐ»ÑĮ": 5830,
      "ÐµÑĢÐ¶Ð°ÑĤÑĮÑģÑı": 5831,
      "ĠÐ¼Ð°Ð¼Ñĥ": 5832,
      "ĠÐ³Ð¾ÑĢÐ´": 5833,
      "ĠÐ³Ð¾ÑĢÐ»Ð¾": 5834,
      "Ð°Ð¹ÑĤÐµÑģÑĮ": 5835,
      "ĠÐ´ÐµÑĢÐ¶Ñĥ": 5836,
      "ĠÐ´ÐµÑĢÐ¶Ð°Ð»": 5837,
      "ĠÐ´ÐµÑĢÐ¶Ð°ÑĤÑĮÑģÑı": 5838,
      "ĠÐºÐ°Ð¶Ð´Ð¾Ð³Ð¾": 5839,
      "ĠÐ¶Ð¸Ð²ÐµÑĤ": 5840,
      "ĠÑĤÐµÐ¼Ð½Ð¾ÑĤÐµ": 5841,
      "ĠÑĤÐµÐ¼Ð½Ð¾ÑĤÑĥ": 5842,
      "ĠÐ¾Ð±ÑĬÑıÑģÐ½Ð¸Ð»": 5843,
      "ĠÐ¾Ð±ÑĬÑıÑģÐ½ÑıÑĤÑĮ": 5844,
      "ĠÐ¾Ð±ÑĬÑıÑģÐ½ÑıÐ»": 5845,
      "Ġ(\"": 5846,
      "ĠÐ½Ð°ÑħÐ¾Ð´Ð¸ÑĤÑĮÑģÑı": 5847,
      "ĠÐ½Ð°ÑħÐ¾Ð´Ð¸Ð»Ð¸ÑģÑĮ": 5848,
      "ĠÐ¶ÐµÐ»Ð°Ñı": 5849,
      "ĠÑĪÐ°Ð³Ð¾Ð²": 5850,
      "ĠÐĺÐ·Ð²Ð¸Ð½Ð¸": 5851,
      "ĠÐ¼Ð¾ÑĢÐµ": 5852,
      "ĠÑĢÐ°Ð±Ð¾ÑĤÐ°ÐµÑĤ": 5853,
      "ĠÑģÐºÐ°Ð¶Ð¸": 5854,
      "ĠÑģÐºÐ°Ð¶ÐµÑĪÑĮ": 5855,
      "ÑĤÐ°ÑīÐ¸ÑĤÑĮ": 5856,
      "ĠÐ¿ÑĢÐ¾Ð´Ð¾Ð»Ð¶Ð°ÑĤÑĮ": 5857,
      "ĠÐĶÐ¶Ð¾ÑĢÐ´Ð¶ÐµÐ¼": 5858,
      "ĠÐ´Ð°Ð²Ð½Ð¾": 5859,
      "ĠÐ¡Ð¿ÑĢÐ°ÑĥÑĤ": 5860,
      "ĠÑĤÑıÐ½Ñĥ": 5861,
      "ĠÑĢÐµÑĪÐ¸Ð»Ð¸": 5862,
      "ĠÐ²ÑĭÐ±Ð¸ÑĢÐ°ÐµÑĤ": 5863,
      "Ð»ÑıÑĤÑĮÑı": 5864,
      "ĠÐ·Ð°Ð¿Ð¸ÑģÐºÐ¸": 5865,
      "ĠÐ·Ð°Ð¿Ð¸ÑģÐºÐ°": 5866,
      "ĠÐ¿Ð»Ð°ÑĤÐ¾Ðº": 5867,
      "ĠÐ½Ð°Ð¹Ð´ÐµÑĤ": 5868,
      "ĠÑĤÐ¸ÑħÐ¸Ð¹": 5869,
      "ĠÐ¼Ð½Ð¾Ð¶": 5870,
      "ĠÐ¼Ð½ÐµÐ½Ð¸Ñİ": 5871,
      "ĠÐ¾ÑĤÐ²Ð»ÐµÑĩÑĮ": 5872,
      "ĠÐ¿ÑĢÐ¾ÑĩÐ¸Ð¼": 5873,
      "ĠÐ¿ÑĢÐ¾ÑĩÐµÑģÑĤÑĮ": 5874,
      "ĠÑħÐ¾Ð»Ð¾Ð´Ð½ÑĭÐ¹": 5875,
      "ĠÑħÐ¾Ð»Ð¾Ð´Ð½Ð¾Ð¹": 5876,
      "ĠÑģÐ¿Ð°Ð»ÑĮÐ½Ñı": 5877,
      "Ð´ÐµÑģÑıÑĤÐ¸": 5878,
      "ĠÑĨÐµÐ»ÑĥÑİ": 5879,
      "ĠÐ¿Ð¾Ð¶Ð°Ð»Ð¾Ð²Ð°ÑĤÑĮ": 5880,
      "ĠÑīÐµÐº": 5881,
      "ĠÐ²ÐµÑĤÑĢÐ°": 5882,
      "ĠÐ±ÐµÑģÐ¿Ð¾Ð»ÐµÐ·Ð½Ð¾": 5883,
      "ĠÑĤÐµÑĢÐ¿": 5884,
      "ĠÑĤÐµÑĢÑıÑĤÑĮ": 5885,
      "ĠÑħÐ»Ð¾Ð¿Ð°Ñı": 5886,
      "ĠÑħÐ»Ð¾Ð¿Ð½ÑĥÐ»": 5887,
      "ĠÐ¾Ð³ÑĢÐ¾Ð¼Ð½ÑĭÐ¹": 5888,
      "ĠÐ¾Ð³ÑĢÐ¾Ð¼Ð½Ð¾Ðµ": 5889,
      "ĠÐ´Ð¾ÑĢÐ¾Ð³Ðµ": 5890,
      "ĠÐ±Ð°ÑĢÐ¼ÐµÐ½": 5891,
      "ÑģÑıÑĩÐ¸Ð¹": 5892,
      "ĠÑĥÐ»Ð¸ÑĨÑĥ": 5893,
      "ĠÑĢÐµÐ·ÑĥÐ»ÑĮÑĤ": 5894,
      "ĠÐŁÐ¾Ð¼Ð½Ð¸": 5895,
      "ĠÐ³Ð¾Ð²Ð¾ÑĢÑİ": 5896,
      "ĠÐ²ÑģÑİÐ´Ñĥ": 5897,
      "ĠÐ¿ÑĢÐµÐ´ÑģÑĤÐ°Ð²Ð¸Ð»ÑģÑı": 5898,
      "ĠÐ¿ÑĢÐµÐ´ÑģÑĤÐ°Ð²Ð»ÑıÐ»": 5899,
      "ĠÑģÐµÑĢÐµÐ±ÑĢÑıÐ½ÑĭÐ¼Ð¸": 5900,
      "ĠÐ·Ð¾Ð»Ð¾ÑĤÐ¾Ð¼": 5901,
      "ĠÐ·Ð¾Ð»Ð¾ÑĤÑĭÑħ": 5902,
      "ĠÐ½ÐµÐºÐ¾ÑĤÐ¾ÑĢÐ¾Ðµ": 5903,
      "ĠÐºÐ»Ð°ÑģÑģÐ°": 5904,
      "ĠÐ²ÑĭÐ¸Ð³ÑĢÐ°": 5905,
      "ĠÑģÐ¾Ð±Ð¸ÑĢÐ°ÐµÑĤÑģÑı": 5906,
      "ĠÑģÐ¾Ð±Ð¸ÑĢÐ°ÐµÑĪÑĮÑģÑı": 5907,
      "ĠÑģÐ¾Ð±Ð¸ÑĢÐ°ÐµÐ¼ÑģÑı": 5908,
      "ĠÑģÐ¾Ð±Ð¸ÑĢÐ°ÑİÑģÑĮ": 5909,
      "ĠÐ¿Ð»Ð°ÑĤÑĦÐ¾ÑĢÐ¼Ñĥ": 5910,
      "ĠÑģÑĭÐ½Ð°": 5911,
      "ĠÑģÐ²Ð¸Ñģ": 5912,
      "ĠÑģÑĥÐ¼Ð°ÑģÑĪÐµÐ´": 5913,
      "ĠÑĥÐ³ÑĢ": 5914,
      "ĠÐŁÐ¾Ð´Ð¾Ð¶Ð´Ð¸": 5915,
      "Ð´Ð°Ð½ÑĤ": 5916,
      "ĠÐ¿ÑĢÐ¾ÐºÑĢÐ°Ð»Ð¸ÑģÑĮ": 5917,
      "ĠÐ¿ÑĢÐ¾ÐºÑĢÐ¸ÑĩÐ°Ð»": 5918,
      "ĠÐºÐ¾ÑĪÐµÐº": 5919,
      "ĠÐ³Ð»ÑĥÐ±Ð¾Ðº": 5920,
      "ĠÑĦÑĥÑĤÐµ": 5921,
      "ĠÑĩÑĥÐ»Ð°Ð½": 5922,
      "ĠÐ½Ð°Ð³ÑĢÐ°Ð¶Ð´Ð°Ñİ": 5923,
      "ĠÐ±ÐµÐ»ÑĭÑħ": 5924,
      "ĠÐĶÑĥÐ¼Ð°ÐµÑĪÑĮ": 5925,
      "ĠÐ¿ÑĢÐµÐºÑĢÐ°ÑģÐ½Ð°Ñı": 5926,
      "ĠÑģÐ¿Ð°ÑģÐ»Ð¸": 5927,
      "ĠÐ¼Ð°Ð³Ð°Ð·Ð¸Ð½Ñĭ": 5928,
      "ĠÐ¼Ð°Ð³Ð³Ð»ÑģÐºÐ¸Ñħ": 5929,
      "ĠÐ¿Ð»Ð°ÑīÐ¾Ð¼": 5930,
      "ĠÐ¿Ð»ÐµÑĩÐ¸": 5931,
      "ĠÐĳÐ»Ð°Ð´Ð¶ÐµÑĢÑĭ": 5932,
      "ĠÐ¾Ð³Ð»ÑıÐ´ÐµÐ»ÑģÑı": 5933,
      "ĠÐ¾Ð³Ð»ÑıÐ´ÑĭÐ²Ð°ÑıÑģÑĮ": 5934,
      "ĠÐ½Ð°ÑĪÐµÐ¼": 5935,
      "ĠÑĢÐ°Ð´Ð¾ÑģÑĤÐ¸": 5936,
      "ĠÐ·Ð°Ð½ÑıÑĤ": 5937,
      "ĠÑģÑĤÐ°Ð½ÐµÑĪÑĮ": 5938,
      "ĠÑĪÐµÐ»Ð¾Ñħ": 5939,
      "ĠÑĢÐ°Ð·Ð±ÑĥÐ´Ð¸ÑĤÑĮ": 5940,
      "ĠÐ¿ÐµÑĢÐµÐ²ÐµÑĢ": 5941,
      "ĠÐ¿ÐµÑĢÐµÐ²ÐµÑĢÐ½ÑĥÐ»ÑģÑı": 5942,
      "ĠÐĹÐµÑĢÐºÐ°Ð»Ð°": 5943,
      "ĠÑĥÑĩÐµÐ½Ð¸ÐºÐ¸": 5944,
      "ĠÑģÐ¾Ð¾Ð±ÑīÐ¸ÑĤÑĮ": 5945,
      "ÑĢÐµÐ½ÐºÐ°": 5946,
      "ĠÐ¿ÑıÑĤÐ°ÑĩÐ¾Ðº": 5947,
      "ĠÑĤÑĢÐ¾ÑģÑĤÑĮ": 5948,
      "ĠÑĤÑĢÐ¾ÑģÑĤÑĮÑİ": 5949,
      "Ð¸Ð»ÑĮÐ½Ð¾": 5950,
      "ĠÐ¿Ð¾Ð´Ð°ÑĢÐºÐ°": 5951,
      "ĠÐ½Ð°Ð¿Ð¾Ð¼Ð¸Ð½": 5952,
      "ĠÐ²ÐµÑģÑĮÐ¼Ð°": 5953,
      "ĠÐ½Ð°Ð±Ð»ÑİÐ´Ð°Ð»": 5954,
      "ĠÐ½Ð°Ð±Ð»ÑİÐ´Ð°Ð»Ð¸": 5955,
      "ĠÐĸÐ¸Ð·Ð½Ð¸": 5956,
      "ĠÑģÐ¾ÑĤÐ²Ð¾ÑĢÐ¸": 5957,
      "ĠÐ±Ð°ÑĪÐ½Ñİ": 5958,
      "ĠÐ»Ð¾Ð´ÐºÐ¸": 5959,
      "ĠÐ»Ð¾Ð´ÐºÑĥ": 5960,
      "ĠÑĤÐ¾ÑĩÐ½Ð¾ÑģÑĤÐ¸": 5961,
      "ĠÐ¿ÐµÑĢÐµÑģÑĤÐ°Ð»": 5962,
      "ĠÐĽÐ¾Ð²ÑĨÐ°": 5963,
      "ĠÐĽÐ¾Ð²ÑĨÐ¾Ð¼": 5964,
      "ĠÐ·Ð°Ð¼ÐµÑĩÐ°ÑĤÐµÐ»ÑĮÐ½Ð¾": 5965,
      "ĠÑģÐ²Ð¸ÑĤÐ¾Ðº": 5966,
      "ĠÐĿÐ¸ÐºÐ¾Ð»Ð°ÑģÐ¾Ð¼": 5967,
      "ĠÑģÐµÑģÑĤÑĢÐ¸": 5968,
      "ĠÑģÐµÑģÑĤÑĢÑĭ": 5969,
      "ĠÐ´ÑĥÑį": 5970,
      "ĠÑĦÐ¾ÑĢÐ¼Ñĥ": 5971,
      "ĠÐ¾Ð±Ð»ÐµÐ³ÑĩÐµÐ½Ð¸Ñİ": 5972,
      "ĠÐ¿Ð¾ÑĢÑĤÑĢÐµÑĤÐ¾Ð¼": 5973,
      "ĠÐ²ÐµÐ»Ð¾ÑģÐ¸Ð¿": 5974,
      "ĠÐ´Ð¾ÑģÐºÐ¸": 5975,
      "ĠÐ¼ÐµÑģÑĤÑĥ": 5976,
      "ĠÐ²ÑģÐºÐ°Ðº": 5977,
      "ĠÑģÐ»ÑĥÑĪÐ°Ð»": 5978,
      "ĠÑĢÐ°Ð·Ð²ÐµÑĢÐ½ÑĥÐ»ÑģÑı": 5979,
      "ĠÐ´Ð¾ÑģÑĤÐ°Ð»": 5980,
      "ĠÑģÐ¾Ð±Ð°ÐºÐ¸": 5981,
      "ĠÑģÐ¾Ð±Ð°ÐºÑĥ": 5982,
      "ĠÑįÑĤÐ°Ð¶Ð°": 5983,
      "ĠÑĥÐ´Ð°Ð»Ñı": 5984,
      "ĠÐ¿Ð¾Ð±ÐµÐ´Ð¸Ð»": 5985,
      "ĠÐ²ÑģÑĤÑĢÐµÑĩÐ¸": 5986,
      "ĠÐ½Ð°ÑĢÑĥÑĪÐ¸ÑĤÑĮ": 5987,
      "ĠÑĤÑİÑĢÐ±Ð°Ð½Ð°": 5988,
      "Ð°ÑīÐµÐ³Ð¾": 5989,
      "ĠÐºÐ»ÑİÑĩÐµÐ¹": 5990,
      "ĠÐ´Ð°Ð¼Ð°": 5991,
      "ĠÐ¿Ð¾ÑĤÑıÐ½ÑĥÐ»ÑģÑı": 5992,
      "ĠÐ¿Ð¾ÑĤÑıÐ³Ð¸Ð²Ð°ÑıÑģÑĮ": 5993,
      "ĠÐ¡ÑĤÐ¾ÑĥÐ½Ð²Ð¾Ð»": 5994,
      "ĠÐľÐ°ÑĢÐºÑĥÑģ": 5995,
      "ĠÐ¶ÐµÐ½ÑīÐ¸Ð½Ðµ": 5996,
      "ĠÐ¿ÑĢÐ¸Ð²Ð¸Ð´ÐµÐ½Ð¸Ñı": 5997,
      "ĠÐ´ÑĢÐ¾Ð¶Ð°": 5998,
      "ĠÐ½ÐµÐ½Ð°Ð²Ð¸Ð´Ð¸ÑĤ": 5999,
      "ĠÑģÐ¾Ð»Ð½Ðµ": 6000,
      "ĠÑģÑĥÐ´Ñı": 6001,
      "ĠÑģÑĥÐ´Ð¾ÑĢÐ¾Ð¶Ð½Ð¾": 6002,
      "ĠÐŁÐ°ÑĢÐ²Ð°ÑĤÐ¸": 6003,
      "ĠÐ¾ÑĤÑģÑİÐ´Ð°": 6004,
      "ĠÐ¾ÑĤÑĭÑī": 6005,
      "ĠÑĪÐµÐ²ÐµÐ»Ñı": 6006,
      "ĠÑĪÐµÑģÑĤÑĮÐ´ÐµÑģÑıÑĤ": 6007,
      "ĠÑģÐ¿ÑĢÑıÑĤÐ°ÑĤÑĮ": 6008,
      "ĠÐ¿ÑĢÐµÐ´Ð»Ð¾Ð¶Ð¸Ð»Ð°": 6009,
      "ĠÑĥÑĩÐµÐ±Ñĭ": 6010,
      "ĠÐ²Ð¾Ð·Ð²ÑĢÐ°ÑīÐ°Ð»Ð¸ÑģÑĮ": 6011,
      "ÑĥÑģÐºÐ°Ñı": 6012,
      "ĠÐ²Ð¾Ð´Ðµ": 6013,
      "ĠÐ²ÑħÐ¾Ð´Ð½Ð¾Ð¹": 6014,
      "ĠÐ²ÐµÑīÑĮ": 6015,
      "ĠÐ²ÐµÑīÐµÐ¹": 6016,
      "ĠÐºÐ»ÑİÑĩÐ¸": 6017,
      "ĠÐ´Ð¸Ð²Ð°Ð½Ð°": 6018,
      "ĠÐ±ÐµÐ¶Ð°Ð»Ð°": 6019,
      "ĠÐ¼ÐµÐ½ÑĮÑĪÐµÐ¹": 6020,
      "ĠÐ¼ÐµÑĩÑĤÐ°Ð»": 6021,
      "ĠÐ·Ð´Ð¾ÑĢÐ¾Ð²Ð¾": 6022,
      "ĠÐ·ÑĥÐ±Ñĭ": 6023,
      "Ð¾Ð»Ð¾ÑģÑĭÐ¹": 6024,
      "ÑİÑīÐµÐ¹": 6025,
      "ĠÐ»Ð°Ð¼Ð¿Ð°": 6026,
      "ĠÐ»Ð°Ð´Ð¾Ð½Ð¸": 6027,
      "ĠÐ¾ÑĤÐºÐ°Ð·Ð°Ð»": 6028,
      "ĠÐ³ÑĥÐ±Ñĭ": 6029,
      "ĠÑħÐ²Ð°ÑĤÐ¸ÑĤ": 6030,
      "ĠÑħÐ¾ÑĢÐ¾ÑĪÐµÐ¹": 6031,
      "Ð°Ð¶ÑĥÑģÑĮ": 6032,
      "ĠÑĤÑĢÐµÑĤÑĮÐµÐ¼": 6033,
      "ĠÑĤÑĢÐµÑĤÑĮÐµÐ³Ð¾": 6034,
      "ĠÐ¿Ð¾Ð¼Ð¾Ð³Ð°Ð»": 6035,
      "ĠÐºÐ¾Ð»Ð´ÑĥÐ½ÑĮÑı": 6036,
      "ĠÐ½ÐµÐ¿Ð¾Ð´Ð°Ð»ÐµÐº": 6037,
      "ĠÐºÐ°ÑĢÐ¼Ð°Ð½Ð°Ñħ": 6038,
      "ĠÐºÐ°Ð½Ð¸ÐºÑĥÐ»": 6039,
      "ĠÑĢÐ¸Ð½ÑĥÐ»ÑģÑı": 6040,
      "ĠÐ¿Ð¾Ð»ÑĮÐ·Ð¾Ð²Ð°ÑĤÑĮÑģÑı": 6041,
      "ĠÐ²ÐµÑģÐ½Ñĥ": 6042,
      "ĠÐºÑĢÑĥÐ¿": 6043,
      "ĠÐ¼Ð»Ð°Ð´ÐµÐ½": 6044,
      "ĠÐ¼Ð°ÑĪÐ¸Ð½Ñĥ": 6045,
      "ĠÑģÐºÐ¾ÑĢÐµÐµ": 6046,
      "ĠÐ²ÑĭÐ¹Ð´ÐµÑĪÑĮ": 6047,
      "ĠÐ²ÑĭÑĢÐ²Ð°Ð»Ð¾ÑģÑĮ": 6048,
      "ĠÐ¿ÑĢÐ¸Ð½ÐµÑģÐ»Ð°": 6049,
      "ĠÑĪÐ¸ÑĢÐ¾Ðº": 6050,
      "ĠÑģÐ¿ÑĢÐ°Ð²Ð¸ÑĤÑĮÑģÑı": 6051,
      "ĠÑģÐ¿ÑĢÐ°ÑĪÐ¸Ð²Ð°Ð»": 6052,
      "ĠÐĽÑıÐ³ÑĥÑĪÐºÑĥ": 6053,
      "ĠÐ·Ð°Ð¿ÐµÑĢÑĤÐ°": 6054,
      "ÐĲÐĲÐĲÐĲ": 6055,
      "ĠÐ»ÐµÐ³ÐºÐ¾ÑģÑĤÑĮÑİ": 6056,
      "ĠÐŀÐ´Ð½Ð°ÐºÐ¾": 6057,
      "ĠÐ½Ð°Ð»ÐµÐ²Ð¾": 6058,
      "ĠÐ¸ÑģÑĤÐ¾ÑĢÐ¸Ñİ": 6059,
      "ĠÐ´Ð¾ÑĤÑĢÐ¾Ð½Ñĥ": 6060,
      "ĠÐĿÐ°Ð²ÐµÑĢÐ½Ð¾Ðµ": 6061,
      "ĠÐ³ÑĢÑĥÐ´ÑĮ": 6062,
      "ĠÐ²ÑģÐºÐ¾ÑĩÐ¸Ð»Ð¸": 6063,
      "ĠÐ·Ð°ÑīÐ¸ÑĤÑĥ": 6064,
      "ĠÐ¿ÑĢÐ¸Ð·ÐµÐ¼Ð»Ð¸": 6065,
      "ĠÐ¢Ð¸Ð³Ð»ÑĮ": 6066,
      "ĠÐ¢Ð¸Ð³Ð»Ðµ": 6067,
      "ĠÑħÐ¸Ð¶Ð¸Ð½Ð°": 6068,
      "ĠÑĢÐ°Ð·Ð¼ÐµÑĢÐ¾Ð¼": 6069,
      "ĠÐ³Ð¾ÑģÐ¿Ð¾Ð´": 6070,
      "ĠÐ¿Ð¾ÐºÑĥÐ¿Ð°ÑĤÑĮ": 6071,
      "ĠÑĤÑĢÐ¾Ð¿Ðµ": 6072,
      "ĠÐ·Ð°Ð¼ÐµÑĢÐ·": 6073,
      "ĠÐ½Ð°Ð¿Ð¸ÑģÐ°Ð½Ð¾": 6074,
      "ĠÐŁÑĢÐ¾ÑĤÐµÐºÑĪÐ¸Ð¹": 6075,
      "ĠÐŁÑĢÐ¾ÑĤÐµÐºÑĪÐµÐ¼": 6076,
      "ĠÐ´Ð¾Ð¼Ð°ÑĪÐ½Ð¸Ñħ": 6077,
      "ĠÑģÐ¼Ð¾ÑĤÑĢÐ¸ÑĤÐµ": 6078,
      "ĠÑĤÐ¾Ð»Ð¿Ð¾Ð¹": 6079,
      "ĠÐ¿Ð»Ð°ÐºÐ°Ð»": 6080,
      "ĠÐ¨Ð¾ÐºÐ¾Ð»Ð°Ð´Ð½ÑĭÑħ": 6081,
      "ĠÐ²ÐµÐ»Ð¸ÑĩÐ¸Ð½Ð¾Ð¹": 6082,
      "ĠÑĤÐµÐ»ÐµÐ¶ÐºÑĥ": 6083,
      "ĠÐ¿Ð¾ÑģÐ¿ÐµÑĪÐ¸Ð»Ð¸": 6084,
      "ĠÐ²ÑģÑħÐ»Ð¸Ð¿ÑĭÐ²Ð°Ð»": 6085,
      "ĠÐ½Ð¾Ð·Ð´ÑĢÐ¸": 6086,
      "ĠÐ²Ð¸Ð½Ð¾Ð²Ð°ÑĤ": 6087,
      "ĠÐ²Ð¸Ð½ÑĤÐ¾Ð²Ð¾Ð¹": 6088,
      "ĠÑĩÐµÑģÑĤÐ½Ð¾": 6089,
      "ĠÐĴÑģÐµÐ³Ð¾": 6090,
      "ĠÐĴÑģÐµÐ³Ð´Ð°": 6091,
      "ĠÐ¿ÑĢÐ¾ÑĤÑıÐ½ÑĥÐ»Ð°": 6092,
      "ĠÐ¿ÐµÑĢÐµÑģÐ¾Ñħ": 6093,
      "ĠÐ£ÑĩÐµÐ½Ð¸": 6094,
      "ĠÐ·Ð°Ð²Ð¸Ð·Ð¶Ð°Ð»": 6095,
      "ĠÐ»ÑİÐ±Ð¾Ð¿ÑĭÑĤÐ½Ð¾": 6096,
      "ĠÐ»ÑİÐ±Ð¾Ð¿ÑĭÑĤÑģÑĤÐ²Ð¾Ð¼": 6097,
      "ĠÐ¿Ð¾ÑģÐ¼Ð¾ÑĤÑĢÐ¸Ð¼": 6098,
      "ĠÐ½ÐµÐ´Ð¾ÑģÑĤÐ°ÑĤÐ¾ÑĩÐ½Ð¾": 6099,
      "ĠÐ±ÐµÐ·Ð¾Ð¿Ð°ÑģÐ½Ð¾ÑģÑĤÐ¸": 6100,
      "ĠÐ·Ð²ÐµÐ·Ð´Ñĭ": 6101,
      "ĠÑģÐ¾ÑģÑĤÐ¾ÑıÐ½Ð¸Ð¸": 6102,
      "ĠÐĹÐ°ÑĤÐºÐ½Ð¸ÑĤÐµÑģÑĮ": 6103,
      "ĠÐ¿Ð¾Ð²ÑĤÐ¾ÑĢÑıÑĤÑĮ": 6104,
      "ĠÐ¿ÑĢÐµÐ´ÑĥÐ¿ÑĢÐµÐ´Ð¸Ð»": 6105,
      "ĠÑĤÐ¸ÑĪÐ¸Ð½Ð°": 6106,
      "ĠÐ¿Ð¾Ð´Ð¿ÑĢÑĭÐ³Ð½ÑĥÐ»": 6107,
      "Ð¸ÑĢÐ°ÑıÑģÑĮ": 6108,
      "ĠÐ¿ÑıÑĤÐ¸Ð´ÐµÑģÑıÑĤÐ¸": 6109,
      "ĠÑģÐ¾Ð´ÑĢÐ¾Ð³": 6110,
      "ĠÑģÐ¾Ð´ÐµÑĢÐ¶": 6111,
      "ĠÐºÐµÐºÑģÑĭ": 6112,
      "Ð¾ÑĢÐ°ÑĩÐ¸Ð²Ð°ÑıÑģÑĮ": 6113,
      "ĠÐ¡Ð»ÐµÐ´ÑĥÑİ": 6114,
      "ĠÑģÐ»ÐµÐ·Ð°Ð¼Ð¸": 6115,
      "ĠÐ°ÐºÐºÑĥÑĢÐ°ÑĤÐ½Ð¾": 6116,
      "ĠÐ¾ÑģÑĤÐ°Ð½ÐµÑĤÑģÑı": 6117,
      "ĠÐ¾ÑģÑĤÐ°Ð½Ð°Ð²Ð»Ð¸Ð²": 6118,
      "ĠÑĤÑĢÐµÐ¿ÑĭÑħ": 6119,
      "ĠÑĥÑģÐ»ÑĭÑħÐ°Ð»": 6120,
      "ĠÑģÐ¾Ð±ÑģÑĤÐ²ÐµÐ½Ð½Ð¾": 6121,
      "ĠÐ·Ð°ÐºÑĢÑĭÐ»": 6122,
      "ĠÐ½ÐµÑĤÐµÑĢÐ¿ÐµÐ»Ð¸Ð²Ð¾": 6123,
      "Ð°ÑİÑīÐ¸Ð¼Ð¸ÑģÑı": 6124,
      "ĠÐ½ÐµÐ±Ð¾Ð»ÑĮÑĪÐ°Ñı": 6125,
      "ĠÑĥÑĩÐ¸ÑĤÐµÐ»ÑĮÑģÐºÐ¾Ð¹": 6126,
      "ĠÐ³Ð¾Ð»Ð¾Ð´ÐµÐ½": 6127,
      "ĠÐ¾Ð¶Ð¸Ð´Ð°Ð½Ð¸Ð¸": 6128,
      "ĠÑģÑĩÐ°ÑģÑĤÐ»Ð¸Ð²ÑĭÐ¹": 6129,
      "ĠÐ¾ÑĤÑĭÑģÐºÐ°ÑĤÑĮ": 6130,
      "ĠÐ´Ð¾Ð³Ð°Ð´Ð°Ð»ÑģÑı": 6131,
      "ĠÐ¿ÑĢÐ¸ÑģÐ¾ÐµÐ´Ð¸Ð½Ð¸Ð»Ð¸ÑģÑĮ": 6132,
      "ĠÐ¿Ð¸ÐºÐµ": 6133,
      "ĠÐ¿Ð»Ð¾ÑīÐ°Ð´": 6134,
      "ĠÑģÑĢÐ°Ð¶Ð°Ð»Ð¸ÑģÑĮ": 6135,
      "ĠÐ²ÑĨÐµÐ¿Ð¸Ð»ÑģÑı": 6136,
      "ĠÐ´Ð¾Ð½ÐµÑģ": 6137,
      "ĠÐ±Ð°Ð»Ð»Ð°Ð¼Ð¸": 6138,
      "ĠÐ±ÑĥÐºÐ²": 6139,
      "ĠÐ¼Ð¾Ð½ÐµÑĤ": 6140,
      "ĠÐ¼ÑĥÑģÐ¾ÑĢ": 6141,
      "ĠÐ¼ÑĢÐ°Ð¼Ð¾ÑĢÐ½Ð¾Ð¹": 6142,
      "ĠÐ¿Ð¾ÑĪÐµÐ²ÐµÐ»Ð¸": 6143,
      "ĠÐĶÐ¸Ð°Ð³Ð¾Ð½Ð°Ð»ÑĮ": 6144,
      "ĠÐ»ÐµÐ´Ñı": 6145,
      "ĠÐ¾ÑĤÑĢÐµÐ·Ð°Ð»": 6146,
      "ĠÐ³ÑĥÑģÑĤÑĭÐµ": 6147,
      "ĠÐ¿ÑĢÐµÐ¿Ð¾Ð´": 6148,
      "ĠÐ²ÑĭÐ»ÑĥÐ¿": 6149,
      "ĠÐ²ÑĭÑĢÐ°Ð¶ÐµÐ½Ð¸Ðµ": 6150,
      "ĠÐľÐ°Ð¼Ð°": 6151,
      "ĠÐ¸Ð·Ð¾Ð±ÑĢÐ°Ð¶": 6152,
      "ĠÐ¿ÑĢÐ¸Ð»Ð°Ð²": 6153,
      "ĠÑħÐ¾ÑĢÐ¾ÑĪÐ¸Ðµ": 6154,
      "ĠÐ¡Ð½Ð°Ð´Ð¾Ð±Ð¸Ð¹": 6155,
      "ĠÑģÐ¼Ð¾Ð¶ÐµÐ¼": 6156,
      "ĠÐŁÑĢÐ¾ÑĪÐ»Ð¾": 6157,
      "ĠÐ·Ð°Ð±ÑĭÐ²Ð°Ð¹ÑĤÐµ": 6158,
      "ĠÐ·Ð°Ð´ÑĥÐ¼Ð°Ð»ÑģÑı": 6159,
      "ĠÐ·Ð°Ð´ÑĭÑħÐ°ÑıÑģÑĮ": 6160,
      "ĠÐ¿ÑĢÐ¸ÑģÐ»ÑĥÑĪÐ¸Ð²Ð°ÑıÑģÑĮ": 6161,
      "ĠÐ¿Ð»Ð°ÑĤÑĦÐ¾ÑĢÐ¼Ð°Ð¼Ð¸": 6162,
      "ĠÐ´Ð¾ÑģÐ¿ÐµÑħÐ¸": 6163,
      "ĠÑĥÑģÑĤÑĢÐµÐ¼Ð¸Ð»ÑģÑı": 6164,
      "ĠÐ¿Ð¾Ð´ÑĤÐ²ÐµÑĢÐ´Ð¸Ð»": 6165,
      "Ð½ÐµÑĢÐ³Ð¸": 6166,
      "ĠÑģÑĥÐ±Ð±Ð¾ÑĤÑĥ": 6167,
      "ĠÐ²ÐµÐºÐ°": 6168,
      "ĠÐºÐ¾Ð¶Ð°": 6169,
      "ĠÐ´Ð¶ÐµÐ¼": 6170,
      "ĠÐ¼Ð³Ð½Ð¾Ð²ÐµÐ½Ð¸Ðµ": 6171,
      "ĠÐĵÐ¾ÑĤÐ¾Ð²": 6172,
      "ĠÑĥÑĩÐ°ÑģÑĤÐºÐµ": 6173,
      "ĠÑĢÑıÐ²ÐºÐ½ÑĥÐ»Ð°": 6174,
      "ĠÐŁÑĥÑĪÐ¾Ðº": 6175,
      "ĠÐĶÐ¾Ð»Ð¶Ð½Ð¾": 6176,
      "ĠÐ¾ÑĤÑĪÐ°ÑĤ": 6177,
      "ĠÐ²ÑĭÐ¼Ð¾Ð»Ð²Ð¸Ð»": 6178,
      "ĠÐłÐ°Ð·Ð´Ð°Ð»ÑģÑı": 6179,
      "ĠÐ¿Ð¾Ð´Ð´ÐµÑĢÐ¶": 6180,
      "ĠÑģÐ¿Ð¾ÑĤÐºÐ½ÑĥÐ»ÑģÑı": 6181,
      "ĠÐ°Ð´ÑĢÐµÑģ": 6182,
      "ĠÐĹÐ½Ð°Ð¼ÐµÐ½Ð¸": 6183,
      "ĠÐ¿Ð¾ÑģÐ»Ð°ÑĤÑĮ": 6184,
      "ĠÐĽÑĥÑĩÑĪÐµ": 6185,
      "ĠÐ·Ð°Ð¿Ð¸ÑħÐ¸Ð²Ð°Ñı": 6186,
      "ĠÑĦÐ¸Ð³ÑĥÑĢÑĭ": 6187,
      "ĠÐ¿Ð¾ÑĢÐ¾Ð³Ðµ": 6188,
      "ĠÐ²ÐµÑĢÐµÐ²ÐºÐ¸": 6189,
      "ĠÐ¿ÐµÑĢÐ²Ð¾ÐºÑĥÑĢÑģ": 6190,
      "ĠÐ¾Ð³Ð»ÑıÐ½ÑĥÐ»ÑģÑı": 6191,
      "ĠÐ½ÐµÐ¿Ð»Ð¾ÑħÐ¾": 6192,
      "ĠÐ¨Ð»ÑıÐ¿Ð°": 6193,
      "ĠÐ½ÐµÐ²ÐµÑĢÐ¾ÑıÑĤ": 6194,
      "Ð¡Ð¢ÐĴ": 6195,
      "ĠÐ½Ð°ÑģÑĤÐ¾ÑıÑīÐµÐµ": 6196,
      "ĠÐ´ÑİÐ¶Ð¸Ð½Ñĭ": 6197,
      "ĠÐ³ÑĢÐ¸ÑĦÑĦÐ¸Ð½Ð´Ð¾ÑĢÑĨÑĭ": 6198,
      "ĠÐ½ÐµÐ¿Ð¾Ð´Ð²Ð¸Ð¶Ð½Ð¾": 6199,
      "ĠÐ¿Ð°ÑģÑĤÐ¸Ð»ÐºÐ¸": 6200,
      "ĠÐ¿ÑĢÐ¾ÑĤÐ¸Ð²Ð¾Ð¿Ð¾Ð»Ð¾Ð¶Ð½Ð¾Ð¹": 6201,
      "ĠÑģÐµÐ½ÑĤÑıÐ±ÑĢÑı": 6202,
      "ĠÐ½ÐµÐ»Ð¾Ð²ÐºÐ¾": 6203,
      "ĠÐ´ÑĥÐ´ÐºÑĥ": 6204,
      "ĠÐ¼ÐµÐ´Ð»ÐµÐ½": 6205,
      "ĠÐ¼ÑĥÐ·Ñĭ": 6206,
      "ĠÐ½ÐµÐ¸Ð·Ð²ÐµÑģÑĤ": 6207,
      "ĠÐ½Ð°Ð¸Ð±Ð¾Ð»ÐµÐµ": 6208,
      "ĠÐĶÐ¾ÑĢÐ¾Ð³Ð¾Ð¹": 6209,
      "ĠÐ³Ð°ÑĢÐºÐ½ÑĥÐ»": 6210,
      "ĠÐ³ÑĢÑĥÐ´Ð¸": 6211,
      "ĠÐ²ÑĭÐ½ÑĥÐ¶Ð´ÐµÐ½": 6212,
      "ĠÐ¿ÑĢÐ¾ÑħÐ¾Ð¶Ð¸Ðµ": 6213,
      "ĠÐľÐµÑĤÐ»Ð°": 6214,
      "ĠÐľÐ°Ð»ÑĮÑĩÐ¸Ðº": 6215,
      "ĠÑģÑĤÑĭÐ´Ð½Ð¾": 6216,
      "ĠÐ¿Ð¾Ð´Ð¼Ð¸Ð³Ð½ÑĥÐ»": 6217,
      "ĠÐ£Ð±Ð¸ÑĢ": 6218,
      "ĠÐĲÐ½Ð¶ÐµÐ»Ð¸": 6219,
      "ĠÑĩÐµÑĢÐ½Ð¸Ð»Ð°Ð¼Ð¸": 6220,
      "ĠÐºÐ¾ÑĢÐ¾Ð»ÐµÐ²Ð°": 6221,
      "ĠÐľÐ°Ð³Ð¸ÑĩÐµÑģÐºÐ¸Ñħ": 6222,
      "ĠÑĪÐµÑĢÐ±ÐµÑĤÐ°": 6223,
      "ĠÐ½Ð°Ð´Ð¿Ð¸ÑģÑĮÑİ": 6224,
      "ĠÐ¿Ð¾Ð±Ð»ÐµÑģÐºÐ¸Ð²Ð°Ð»Ð¸": 6225,
      "ĠÑģÐ¾ÑģÑĢÐµÐ´Ð¾ÑĤÐ¾ÑĩÐ¸ÑĤÑĮÑģÑı": 6226,
      "ĠÐłÑĥÐ¼ÑĭÐ½Ð¸Ð¸": 6227,
      "ĠÐ¤Ð¸Ð½Ð½ÐµÐ³Ð°Ð½": 6228,
      "ĠÐ²Ð½Ð¾Ð²ÑĮ": 6229,
      "ÐºÐ¾Ð½ÑģÑĤÑĢÐ¸Ðº": 6230,
      "ĠÐ¾ÑĢÐ°Ð½Ð¶ÐµÐ²": 6231,
      "ĠÐ±ÑĢÐµÐ½Ð´Ð¸": 6232,
      "ĠÐ¼Ð¾Ð·Ð³Ð¸": 6233,
      "ĠÐ·Ð¸Ð³Ð·Ð°Ð³": 6234,
      "ĠÑĥÐ²Ð¸Ð¶Ñĥ": 6235,
      "ĠÐŀÐºÐ¾Ð»Ð¾": 6236,
      "ĠÐĶÐ¸Ð³Ð³Ð»": 6237,
      "ĠÐĶÐµÐ´Ð°Ð»ÑĥÑģ": 6238,
      "ĠÐłÑıÐ´Ð¾Ð¼": 6239,
      "ĠÐ¿Ð¾Ð´Ð°Ð»ÑĮÑĪÐµ": 6240,
      "ĠÐ°Ð»ÑħÐ¸Ð¼Ð¸": 6241,
      "ĠÐ¿Ð¾ÐºÐ»ÑıÑģÑĤÑĮÑģÑı": 6242,
      "ĠÐ¾Ð³ÑĢÐ°Ð±Ð¸ÑĤÑĮ": 6243,
      "ĠÐ¨Ð¸Ð¿Ð¾ÑħÐ²Ð¾": 6244,
      "ĠÑĤÐµÐ»ÐµÑģÐºÐ¾Ð¿": 6245,
      "ĠÐ²ÐµÐ»Ð¾ÑģÐ¸Ð¿ÐµÐ´": 6246,
      "ĠÐ½ÐµÐ¿Ð¾Ð´Ð°Ð»ÐµÐºÑĥ": 6247,
      "ĠÐĲÐ½Ð¶ÐµÐ»Ð¸Ð½Ð°": 6248,
      ".\"": 6249,
      ".-": 6250,
      "©Ðĺ": 6251,
      "Ġ4": 6252,
      "Ð¾Ñı": 6253,
      "Ð¾ÑģÑĤ": 6254,
      "Ð¾Ð°ÑĢ": 6255,
      "Ð¾ÑģÑĤÑĮ": 6256,
      "Ð¾ÑħÐ¾Ð´": 6257,
      "Ð¾ÑģÑĤÐ¸": 6258,
      "Ð°ÑĩÐ°": 6259,
      "ÐµÐµÑĤ": 6260,
      "ÐµÑĥÑģ": 6261,
      "Ð¸ÑĢÐ¸": 6262,
      "Ð¸Ñİ": 6263,
      "Ð¸ÑĢÑĥ": 6264,
      "Ð¸Ð¾Ð»ÐµÑĤ": 6265,
      "ÑĤÑĥÑİ": 6266,
      "Ð»Ð°Ðº": 6267,
      "Ð»Ð°Ð¼": 6268,
      "Ð»Ð¾Ð³Ð¾": 6269,
      "Ð»Ð°Ð±": 6270,
      "Ð»ÑĥÑħ": 6271,
      "Ð»Ð´Ð¶": 6272,
      "Ð»ÐµÐ½Ð½ÑĭÐ¹": 6273,
      "Ð»ÐµÐ½Ð¸Ð¹": 6274,
      "ÑĢÑģ": 6275,
      "ÑĢÐµÐº": 6276,
      "ÑĢÐ°Ð¿": 6277,
      "ÑĢÐµÑģÑĤÐ¸": 6278,
      "ÑĢÐµÐ¿ÐºÐ¾": 6279,
      "ÑģÐµÑĢ": 6280,
      "ÑģÐµÐº": 6281,
      "ÑģÐ¸Ð²": 6282,
      "ÑģÐ¸Ð¼": 6283,
      "ÑģÐ»Ð¾Ð¹": 6284,
      "Ð½Ð°Ð·": 6285,
      "Ð½Ð°Ð»Ð°": 6286,
      "Ð½Ð°Ð¼Ð¸": 6287,
      "Ð½ÐµÐ»Ð¾": 6288,
      "Ð½ÐµÑģÑĤÐ¸": 6289,
      "Ð½Ð¾Ð³Ð¸Ðµ": 6290,
      "ÑĥÐ²": 6291,
      "ÑĥÑĤÐ¸": 6292,
      "ÑĥÐ²ÐµÑĢ": 6293,
      "ÑĥÑīÐ¸Ð¹": 6294,
      "ÑĥÐ·Ð°": 6295,
      "ÑĮÐ¼": 6296,
      "ÑĮÑģÑı": 6297,
      "ÑıÐ¶": 6298,
      "ÑıÐ½ÑĥÐ»": 6299,
      "ÑıÐµÑĤÑģÑı": 6300,
      "ÑıÐ½ÑĥÑĤÑĮ": 6301,
      "ÑıÑīÐ¸Ðµ": 6302,
      "ÑĭÐ»ÑĮ": 6303,
      "ĠÐ¿Ð»Ð¸": 6304,
      "ĠÐ¿Ð¸Ð»": 6305,
      "ĠÐ¿Ð°Ð¼": 6306,
      "ĠÐ¿Ð°Ñģ": 6307,
      "ĠÐ¿Ð¾Ð»ÑĮ": 6308,
      "ĠÐ¿ÑĭÑĪ": 6309,
      "ĠÐ¿ÑĥÑħ": 6310,
      "ĠÐ¿Ð°Ñĩ": 6311,
      "ĠÐ¿Ð¸Ñī": 6312,
      "ĠÐ¿Ð¸ÑģÐº": 6313,
      "ĠÐ¿ÑĭÑĤÐ°ÐµÑĤÑģÑı": 6314,
      "ĠÐ¿ÑĭÐ»ÑĮ": 6315,
      "ĠÑģÑģ": 6316,
      "ĠÑģÑĤÐ¸": 6317,
      "ĠÑģÑħÐ¾Ð´": 6318,
      "ĠÑģÑĥÐ¿": 6319,
      "ĠÑģÐ²Ð¸Ð´": 6320,
      "ĠÑģÑĥÐ¶": 6321,
      "ĠÑģÐ½Ð¸Ðº": 6322,
      "ĠÑģÐ°Ð½Ð´": 6323,
      "ĠÑģÐµÐ´ÑĮ": 6324,
      "ĠÑģÐ¸Ñı": 6325,
      "ĠÑģÐ¶Ð°Ð»": 6326,
      "ĠÑģÐ¸ÐºÐ»": 6327,
      "ĠÑģÑĤÐ¸Ñħ": 6328,
      "ĠÑģÑĩÐ°ÑģÑĤÑĮÑı": 6329,
      "ĠÑģÐ½Ð¸Ð·Ñĥ": 6330,
      "ĠÑģÐ°ÑħÐ°ÑĢ": 6331,
      "ĠÐ½ÐµÐ³": 6332,
      "ÑĩÐ°ÑĤÑĮ": 6333,
      "ÑĩÐ½Ð¾Ð³Ð¾": 6334,
      "ÑĩÐ½ÑĭÐµ": 6335,
      "ÑĩÐ½ÑĭÐ¼": 6336,
      "ÑĩÐ½ÑĭÑħ": 6337,
      "ÑĩÐ°Ð»Ð¸ÑģÑĮ": 6338,
      "ÑĩÐ°Ð»Ð¾": 6339,
      "ÑĩÐ½Ð°Ñı": 6340,
      "ÑĩÐ°Ð»Ð°ÑģÑĮ": 6341,
      "ÑĩÐµÐ½Ð½ÑĭÐ¹": 6342,
      "ĠÐ²Ð»Ð¸": 6343,
      "ĠÐ²Ð°ÑĢ": 6344,
      "ĠÐ²Ð±": 6345,
      "ĠÐ²ÐµÐ´": 6346,
      "ĠÐ²Ð»Ð°": 6347,
      "ĠÐ²ÐµÐ¶": 6348,
      "ĠÐ²ÑĢÐ°Ñī": 6349,
      "ĠÐ²Ð¸Ð½Ð°": 6350,
      "ĠÐ²Ð°Ð³Ð¾": 6351,
      "ĠÐ²Ð¾ÑĢÐ²": 6352,
      "ĠÐ²Ð°ÑĪÐ¸": 6353,
      "ĠÐ²ÐµÑĢÐ¸ÑĤÑĮ": 6354,
      "ĠÐ²ÐµÐ´ÐµÑĤ": 6355,
      "ĠÐ²Ð¾ÑĢÐ²Ð°Ð»ÑģÑı": 6356,
      "ĠÐ²Ð¸Ð±ÑĢÐ¸ÑĢÐ¾Ð²": 6357,
      "ÐºÐµÑĤ": 6358,
      "ÐºÐ½ÑĥÑĤÑĮÑģÑı": 6359,
      "ÐºÐ½ÑĥÐ²ÑĪÐ¸ÑģÑĮ": 6360,
      "ÐºÐ°Ð½ÑĮÐµ": 6361,
      "Ð´ÑĢÐ°Ð²": 6362,
      "Ð´ÑĨÐµ": 6363,
      "Ð´ÐµÐ½Ð¸ÐµÐ¼": 6364,
      "Ð²ÑĤÐ¾": 6365,
      "Ð²Ð¾ÑĤ": 6366,
      "Ð²Ð°Ñı": 6367,
      "Ð²ÐµÑĩ": 6368,
      "Ð²ÐµÐ¶": 6369,
      "Ð²Ð°ÑĤÑĮÑģÑı": 6370,
      "Ð°Ð»Ñĭ": 6371,
      "Ð°Ð»Ð¾Ð¼": 6372,
      "ĠÐ¾Ð²": 6373,
      "ĠÐ¾ÑĪÐµÐ»": 6374,
      "ĠÐ¾Ð³Ð»ÑĥÑĪ": 6375,
      "ÑĢÐ¸ÑĨ": 6376,
      "ÑĢÐ¸ÑĥÐ¼": 6377,
      "ÑĢÐ¸ÑģÑĤÐ¾": 6378,
      "ÑĢÐ¸ÑĤÐ¾ÑĢÐ¸": 6379,
      "Ð¼Ð°ÑĢ": 6380,
      "Ð¼ÐµÑħ": 6381,
      "Ð¼Ð°ÑĢÑĭ": 6382,
      "Ð¼Ð¾ÑĩÐ°": 6383,
      "Ð¼ÑĥÑĤÐ¸Ð»ÑģÑı": 6384,
      "ĠÐ¸ÑģÑĤ": 6385,
      "ĠÐºÐ¾Ðº": 6386,
      "ĠÐºÐ»Ð¾": 6387,
      "ĠÐºÑĥÐ±": 6388,
      "ĠÐºÐ°ÑĢÑĤ": 6389,
      "ĠÐºÐ¸Ð¿": 6390,
      "ĠÐºÐ¾Ð¿ÑĭÑĤ": 6391,
      "ĠÐºÑĢÐ¸ÑĩÐ°Ð»Ð°": 6392,
      "ĠÐºÑĢÐ¸ÑĩÐ°Ð»Ð¸": 6393,
      "ĠÐºÐ¸ÑĢÐ¿Ð¸": 6394,
      "ÑĪÐ°": 6395,
      "ÑĪÑĥ": 6396,
      "ÑĪÐ¸Ð²": 6397,
      "ÐµÑĢÐ±": 6398,
      "ÑħÐ¼": 6399,
      "ÑħÐ¾Ð¼": 6400,
      "ÑħÐ»ÑĭÑħ": 6401,
      "Ð»Ð¸Ð¸": 6402,
      "Ð»Ð¸Ðº": 6403,
      "Ð»Ð¸ÑĨ": 6404,
      "Ð»Ð¸ÐºÐµ": 6405,
      "Ð»Ð¸ÑĪÐºÐ¾Ð¼": 6406,
      "ĠÐ´Ð»Ð¸": 6407,
      "ĠÐ´Ð¾Ðº": 6408,
      "ĠÐ´ÐµÐ¹": 6409,
      "ĠÐ´ÑĢÐµÐ»": 6410,
      "ĠÐ´Ð°ÐµÑĤ": 6411,
      "ÑģÑĤÑĢÐ¾Ð½": 6412,
      "ÑģÑĤÑıÐ¼Ð¸": 6413,
      "Ð½Ð¸Ñģ": 6414,
      "Ð½Ð¸ÑĨÑĭ": 6415,
      "Ð½Ð¸Ð½Ð³": 6416,
      "ĠÐ±Ð¾Ð´": 6417,
      "ĠÐ±Ð°Ð³": 6418,
      "ĠÐ±Ð¸ÑĤ": 6419,
      "ĠÐ±Ð°Ñģ": 6420,
      "ĠÐ±ÐµÑĪ": 6421,
      "ĠÐ±ÑĢÐ¾Ð´": 6422,
      "ĠÑĤÑī": 6423,
      "ĠÑĤÐµÐ¼Ñĥ": 6424,
      "ĠÑĤÑĥÐ½": 6425,
      "Ð¾Ð²Ð¾Ð³Ð¾": 6426,
      "Ð¾Ð²Ð°Ð½": 6427,
      "Ð¾Ð²ÑĭÐ¹": 6428,
      "Ð¾Ð²Ð°Ð»Ð¸ÑģÑĮ": 6429,
      "Ð¾Ð²Ð¾Ð»ÐµÐ½": 6430,
      "Ð°ÑĢÐ´Ð¸ÑĥÐ¼": 6431,
      "ÐµÑĤÐµÐ»ÑĮ": 6432,
      "ĠÐ¼Ð¾Ðº": 6433,
      "ĠÐ¼ÑĥÐ´": 6434,
      "ĠÐ¼Ð¸Ð»Ð¾": 6435,
      "ĠÐ¼Ð¾Ð·Ð³": 6436,
      "ĠÑĩÐµÐ»": 6437,
      "ĠÑĩÐµÑģ": 6438,
      "ĠÑĩÐµÐ¿": 6439,
      "ĠÑĩÐ°Ñİ": 6440,
      "ĠÑĩÐ¸Ñģ": 6441,
      "ĠÑĩÑĥÐ¶": 6442,
      "ĠÑĩÐ°ÑģÑĤ": 6443,
      "ĠÑĩÐ¸Ð¿": 6444,
      "ĠÐĵÐ¾Ð»": 6445,
      "ĠÐĵÐ»ÑıÐ´": 6446,
      "ĠÐĵÐ¾Ð²Ð¾ÑĢÐ¸Ð»": 6447,
      "ĠÐĵÐłÐĺÐ¤Ð¤ÐĺÐĿÐĶÐŀÐł": 6448,
      "ĠÐ·Ð°ÑĢ": 6449,
      "ĠÐ·Ð´Ð°": 6450,
      "ĠÐ·Ð°Ð»Ðµ": 6451,
      "ĠÐ·Ð°ÑĢÑĭ": 6452,
      "ĠÐ·ÐµÐ»ÑĮÐµ": 6453,
      "ĠÐ·ÑĢÐµÐ½Ð¸Ñı": 6454,
      "Ð½Ð¾ÑĢÐ¸ÑĢÐ¾Ð²": 6455,
      "Ð½Ð¾ÑĪÐµÐ½Ð¸Ñı": 6456,
      "Ð¾Ð¼Ð¾Ð½": 6457,
      "Ð¿ÑĢÐ¸": 6458,
      "Ð¿ÑĢÐ¾": 6459,
      "Ð¿Ð¸Ð½": 6460,
      "Ð¿Ð¸Ð»Ð¸ÑģÑĮ": 6461,
      "Ð¿ÑĢÐµÐ¶": 6462,
      "Ð¾Ð»ÑĤ": 6463,
      "Ð¾Ð»Ðº": 6464,
      "Ð¾Ð»Ð´": 6465,
      "Ð¾Ð»Ð³Ð¾": 6466,
      "ÑİÑĢ": 6467,
      "ÑİÑīÐ¸Ð¼Ð¸": 6468,
      "Ð¾Ð½Ð¾Ðº": 6469,
      "ÐµÐ½Ð°Ñı": 6470,
      "ÐµÐ½Ð½ÐµÐ¹": 6471,
      "ÐµÐ½ÑģÑĤÐ²Ð¾": 6472,
      "ĠÐ½ÐµÐ¾Ð´Ð¾Ð±": 6473,
      "ĠÐ½ÐµÑĥÐ¶ÐµÐ»Ð¸": 6474,
      "ĠÐ½ÐµÑĥÐ²ÐµÑĢ": 6475,
      "Ð±Ðµ": 6476,
      "Ð±Ð¾Ð²": 6477,
      "Ð±ÐµÐ»": 6478,
      "Ð±Ð»Ð¸Ð·Ð½Ðµ": 6479,
      "ĠÑĥÐ²": 6480,
      "ĠÑĥÐ»Ð¾Ð²": 6481,
      "ĠÑĥÑĢÐ¾Ð²": 6482,
      "ĠÑĥÐ¿Ð°": 6483,
      "ĠÑĥÑĪÐ»Ð°": 6484,
      "ĠÑĥÑģÐºÐ°Ðº": 6485,
      "Ð·Ð°Ð»": 6486,
      "Ð°Ð·Ð°": 6487,
      "ÑĢÐ¾ÑĤÐ°": 6488,
      "ĠÐ½Ð°ÑĤÐ¾Ð»": 6489,
      "ĠÐ½Ð°ÑĤÑıÐ½ÑĥÐ»": 6490,
      "ĠÐ½Ð°ÑĪÐ¸Ñħ": 6491,
      "Ð¾ÑĢÑĭ": 6492,
      "Ð¾ÑĢÑī": 6493,
      "Ð¾ÑĢÐ¾Ðº": 6494,
      "Ð¾ÑĢÑıÐ´": 6495,
      "ĠÐµÐ´Ñĥ": 6496,
      "Ð³ÑĢÐ¾Ð¼": 6497,
      "Ð½ÑĥÑĤÐ°": 6498,
      "Ð¾Ð´Ðµ": 6499,
      "ĠÐ¿Ð¾ÐµÐ´": 6500,
      "ĠÐ¿Ð¾ÑģÐº": 6501,
      "ĠÐ¿Ð¾ÑĤÑĥ": 6502,
      "ĠÐ¿Ð¾ÐµÑħ": 6503,
      "ĠÐ¿Ð¾ÑĤÑıÐ½ÑĥÐ»": 6504,
      "ĠÐ¿Ð¾ÑģÐºÐ¾Ð»ÑĮ": 6505,
      "ĠÑĢÐ°": 6506,
      "ĠÑĢÐ¾Ð²": 6507,
      "ĠÑĢÐ¾Ð³": 6508,
      "ĠÑĢÐµÐ²": 6509,
      "ĠÑĢÐµÐ¿": 6510,
      "Ð¶ÐµÐ½": 6511,
      "Ð¶ÐºÐ°": 6512,
      "ĠÐ±ÑĭÐ²": 6513,
      "ĠÐ±ÑĭÐ²Ð°ÐµÑĤ": 6514,
      "ÑīÐ°": 6515,
      "ÑīÑĥ": 6516,
      "Ð½ÑĭÑĢ": 6517,
      "Ð½Ð°ÑĩÐ°": 6518,
      "Ð½Ð°ÑĩÐ°Ð»Ð°": 6519,
      "Ð½Ð°ÑģÑĤÐ¾ÑıÑī": 6520,
      "Ð¾Ð³Ð¾Ð²": 6521,
      "ÑĦÐµ": 6522,
      "Ð°Ð´ÐµÐ´": 6523,
      "Ð°Ð´Ð¸ÑĤÑĮ": 6524,
      "Ð°Ð´Ð½Ð¾Ð¹": 6525,
      "Ð°Ð´Ð°Ñĩ": 6526,
      "ÑįÐ½Ð´": 6527,
      "ĠÐŁÐ¾Ðº": 6528,
      "ĠÐŁÐ¸Ð½": 6529,
      "ĠÐŁÑĭÑĤ": 6530,
      "ĠÐŁÐ¸ÑģÑĮ": 6531,
      "ĠÐŁÑĮÑİ": 6532,
      "ĠÐŁÐµÑĢÐµÐ´": 6533,
      "ĠÐŁÑĢÐ¸Ð²": 6534,
      "ĠÐŁÑĢÐ¾ÑģÑĤÐ¾": 6535,
      "ĠÐŀÐ¢": 6536,
      "ĠÐŀÑĨÐµÐ¿": 6537,
      "Ð°Ð²Ð°Ð»Ð¸": 6538,
      "Ð°Ð²ÑĭÐ¹": 6539,
      "Ð°Ð²Ð°Ð¹ÑĤÐµ": 6540,
      "Ð°Ð²ÑĪÐ¸ÐµÑģÑı": 6541,
      "ĠÐĿÐµÐ±": 6542,
      "ĠÐĿÐ¾Ð³Ð¸": 6543,
      "ĠÐĿÐµÐ½Ð°Ð²": 6544,
      "ĠÐĿÑĥÐ¶Ð½Ð¾": 6545,
      "ĠÐĿÐ°Ð·Ð°Ð´": 6546,
      "Ð¾ÑĤÐ½Ð¸": 6547,
      "Ð¾ÑĤÐºÑĢÑĭ": 6548,
      "ĠÐĶÐ²Ð°": 6549,
      "ĠÐĶÐ¸ÑĢÐµÐºÑĤÐ¾ÑĢ": 6550,
      "ĠÐĶÐ°Ð²Ð°Ð¹ÑĤÐµ": 6551,
      "Ð¾Ð±ÑĢÐµÑĤ": 6552,
      "ÑĨÐ²ÐµÑĤ": 6553,
      "ÑĨÐ°Ñħ": 6554,
      "Ð´Ð°ÑİÑĤ": 6555,
      "Ð´Ð°ÑĤÑĮÑģÑı": 6556,
      "Ð°Ð³Ð¼Ð¸": 6557,
      "Ð»Ð°ÑĤ": 6558,
      "Ð»Ð°Ð½": 6559,
      "ĠÐ»Ð¾Ð±": 6560,
      "ĠÐ»Ð°Ð½": 6561,
      "ĠÐ»ÐµÐ·": 6562,
      "ĠÐ»Ð¾Ñģ": 6563,
      "ĠÐ»ÑĥÐ¿": 6564,
      "ĠÐ»Ð¾Ð³Ð¸": 6565,
      "ĠÐ»Ð¾ÑĪ": 6566,
      "ĠÐ»ÑıÐ³ÑĥÑĪ": 6567,
      "ĠÐ»ÑĥÐ¿Ð¸Ð»": 6568,
      "ĠÐ»ÐµÐ½ÑĤÐ°": 6569,
      "ĠÐĴÐ°Ñģ": 6570,
      "ĠÐĴÐµÑĩ": 6571,
      "ĠÐĴÐ¾Ñģ": 6572,
      "ĠÐĴÐ½ÐµÐ·Ð°Ð¿": 6573,
      "ĠÐĴÐ«": 6574,
      "ĠÐ¾ÑĤÐ¼": 6575,
      "ĠÐ¾ÑĤÐ¾Ð´": 6576,
      "ĠÐ¾ÑĤÑĤÐ¸": 6577,
      "ĠÐ¾ÑĤÑĩÐµÐ³Ð¾": 6578,
      "ĠÐ¾ÑĤÑĢÐ°Ð·": 6579,
      "ĠÐ¾ÑĤÐ½Ð¾Ñģ": 6580,
      "ĠÐ¾ÑĤÑĨÑĥ": 6581,
      "ĠÐ¾ÑĤÐ²ÐµÑģÑĤÐ¸": 6582,
      "ĠÐ¾ÑĤÐ½Ð¾ÑĪÐµÐ½Ð¸Ñı": 6583,
      "ĠÐ³Ð²": 6584,
      "ĠÐ³Ð°Ð»": 6585,
      "ĠÐ³Ð¸Ð±": 6586,
      "ĠÐ³Ð»Ð°ÑģÐ¸Ð»Ð°": 6587,
      "ĠÐ³Ð°Ð´Ð¾ÑģÑĤÐ¸": 6588,
      "Ð¾Ð¶Ð½ÐµÐµ": 6589,
      "ĠÐ¡Ð»ÑĭÑĪ": 6590,
      "ĠÐ¡ÑĩÐ°Ñģ": 6591,
      "ĠÐ¡ÑİÐ´Ð°": 6592,
      "ĠÐ¡ÐŁ": 6593,
      "ĠÐ¡ÑĤÐ¾Ð»": 6594,
      "ĠÐ¡Ð¾Ð²Ñĭ": 6595,
      "ĠÐ¡ÐµÐ¼ÑĮ": 6596,
      "ĠÐ¡Ð»Ð¸ÑĪÐºÐ¾Ð¼": 6597,
      "ĠÐ¿ÑĢÐµ": 6598,
      "ĠÐ¿ÑĢÐµÑģ": 6599,
      "ĠÐ¿ÑĢÐ¾Ð²Ð°Ð»": 6600,
      "ĠÐ¿ÑĢÑĭÑģ": 6601,
      "ĠÐ¿ÑĢÐµÑĦÐµÐº": 6602,
      "ĠÑįÐ½ÐµÑĢÐ³Ð¸": 6603,
      "ĠÑģÐºÐ¸": 6604,
      "ĠÑģÐºÐ»Ð°Ð´": 6605,
      "ĠÑģÐºÑĢÐµÑī": 6606,
      "ÐºÐ¸ÑĢÐ¾Ð²": 6607,
      "ÑĢÐ°ÑĩÐ½ÑĭÐ¹": 6608,
      "ÑĢÐ°ÑĢÐ¸ÑĥÐ¼": 6609,
      "ĠÐ²ÑĭÑĢÑĭÐ²": 6610,
      "ĠÐ²ÑĭÑģÐºÐ¾Ð»ÑĮÐ·": 6611,
      "ĠÐ²ÑĭÐ·Ð²": 6612,
      "ĠÐļÐ¾Ð³Ð¾": 6613,
      "ĠÐļÐ¾Ð»ÑĮ": 6614,
      "ĠÐļÑĢÑĭ": 6615,
      "ĠÐļÐ°Ð¿": 6616,
      "ĠÐļÑĢÐ¾Ðº": 6617,
      "ĠÐļÐ»ÑİÑĩ": 6618,
      "ĠÐ¿ÑĢÐ¾ÑĨ": 6619,
      "ĠÐ¿ÑĢÐ¾ÑıÐ²": 6620,
      "ĠÐ¿ÑĢÐ¾ÑĢÐ²": 6621,
      "ĠÐ¿ÑĢÐ¾ÑģÐºÐ¾Ð»ÑĮÐ·": 6622,
      "ĠÐ¿ÑĢÐ¾ÑĪÐ¸Ð¿": 6623,
      "Ð»ÑıÐ¹": 6624,
      "Ð»ÑıÐ½ÑĥÐ»Ð¸ÑģÑĮ": 6625,
      "Ð»ÑıÐ»Ð°ÑģÑĮ": 6626,
      "Ð»ÑıÑıÑģÑĮ": 6627,
      "Ð»ÑıÑİÑīÐ¸Ð¹": 6628,
      "ÐµÑģÐºÐ¸": 6629,
      "ĠÐ²ÑģÐ»ÑĥÑħ": 6630,
      "ĠÐľÐ¾Ð¶": 6631,
      "ĠÐľÐ¸ÑģÑģ": 6632,
      "ĠÐľÐµÐ´Ð»ÐµÐ½Ð½Ð¾": 6633,
      "ĠÐ¥Ð¾ÑĢÐ¾": 6634,
      "ĠÐ¥ÐĲÐ¤Ð¤": 6635,
      "Ð¾Ð³Ð¾Ð»Ð¾Ð²": 6636,
      "ÐµÐ²ÑĪÐ¸ÑģÑĮ": 6637,
      "ĠÐ·Ð°Ð¸Ð½ÑĤÐµÑĢÐµÑģ": 6638,
      "Ð¸ÑĤÑĭÑħ": 6639,
      "ĠÐºÐ°ÐºÐ¾Ð³Ð¾": 6640,
      "ĠÐºÐ°ÐºÐ¸Ð¼Ð¸": 6641,
      "ĠÐłÑĥÐ±": 6642,
      "ĠÐłÐĲÐ": 6643,
      "ÐµÐ±Ñı": 6644,
      "Ð°Ð½Ð½Ð¾Ð¼": 6645,
      "Ð°Ð½Ð½Ð°Ñı": 6646,
      "ĠÐ½Ð¸Ð¶Ðµ": 6647,
      "ĠÐ½Ð¸ÑĩÐµÐ¼": 6648,
      "Ð°ÑģÐºÐ¸Ð²": 6649,
      "Ð¸Ð½ÐºÐ¸": 6650,
      "Ð¸Ð½ÐºÐ°": 6651,
      "Ð¸Ð½ÐºÑĥ": 6652,
      "Ð¸Ð½ÑĮÑİ": 6653,
      "Ð¸Ð½ÑģÑĤÐ²Ð¾": 6654,
      "Ð¸Ð½Ð½ÐµÑĤ": 6655,
      "ÑĥÐ´ÑĥÑĤ": 6656,
      "ĠÐ¶ÑĥÑĢ": 6657,
      "ĠÐ¶Ð°Ð»Ðµ": 6658,
      "ĠÐ¶Ð´Ð°Ð»Ð°": 6659,
      "ĠÐ¶Ð¸Ð²Ð¾": 6660,
      "ĠÐ½Ð¾ÑģÐºÐ¾Ð²": 6661,
      "ĠÐ½Ð¾ÑģÑıÑĤÑģÑı": 6662,
      "ÐµÐ·Ð½": 6663,
      "ÐµÐ·Ð½Ð¾Ð¹": 6664,
      "ÐµÐ·Ð½ÑĭÐµ": 6665,
      "ĠÑģÑĤÑĢÐ¾": 6666,
      "ĠÑģÑĤÑĢÐµÐ»": 6667,
      "ĠÑģÑĤÐ°Ð´Ð¸": 6668,
      "ĠÑģÑĤÑĢÑıÑģ": 6669,
      "ĠÑģÑĤÑĢÐ¾Ð³Ð¾": 6670,
      "ĠÑģÑĤÑĢÐ¸Ð¶": 6671,
      "ĠÐ¸Ð·Ð´ÐµÐ²": 6672,
      "ÐºÐ°ÑİÑĤ": 6673,
      "ĠÐłÐ¾Ð½Ð°Ð»ÑĮ": 6674,
      "ĠÐ¿ÑĢÐ¸ÑĩÐ¸": 6675,
      "ĠÐ¿ÑĢÐ¸Ð½Ð¸Ð¼": 6676,
      "ĠÐ¿ÑĢÐ¸Ð½Ñİ": 6677,
      "ĠÐ¿ÑĢÐ¸Ð¿Ð¾Ð´": 6678,
      "ĠÐ¿ÑĢÐ¸Ð¼ÐµÑĢ": 6679,
      "ĠÐ¿ÑĢÐ¸ÑıÑĤÐ½Ð¾": 6680,
      "ĠÐ¿ÑĢÐ¸Ð¶Ð°Ð»": 6681,
      "ĠÐ¿ÑĢÐ¸Ð³Ð¾ÑĤÐ¾Ð²": 6682,
      "ĠÐ¿ÑĢÐ¸ÑħÐ¾Ð¶": 6683,
      "ĠÐ¿ÑĢÐ¸ÐºÐ¾Ñģ": 6684,
      "ĠÐ¢ÐµÑĢ": 6685,
      "ĠÐ¢Ð¾Ð¼": 6686,
      "ĠÐ¢ÑĥÐº": 6687,
      "ĠÐ¢ÑĢÐµÐ²": 6688,
      "ĠÐ¢ÑĢÐ°Ð½ÑģÑĦÐ¸Ð³ÑĥÑĢÐ°": 6689,
      "ĠÑħÐ½Ñĭ": 6690,
      "ĠÑħÐ¾Ð·": 6691,
      "ĠÑħÐ¾Ð³Ð²Ð°ÑĢÑĤ": 6692,
      "ÐµÐ½Ð¸Ð»Ð¸": 6693,
      "Ð²Ð¾ÑģÑĤÐ¾": 6694,
      "ĠÑĪÐ»Ð°": 6695,
      "ĠÑĪÐ¾Ðº": 6696,
      "ĠÑĪÐ°ÑĤ": 6697,
      "ĠÑĪÐ°Ð¹": 6698,
      "ĠÑĪÐ¾ÑĢÐ¾": 6699,
      "ĠÑĪÐ°ÑģÑĤ": 6700,
      "ĠÑĪÐ¼Ñĭ": 6701,
      "ĠÑĪÐ¸Ð¿": 6702,
      "ĠÑĪÐ½ÑĭÑĢÑı": 6703,
      "ĠÐ¿Ð¾Ð´Ðº": 6704,
      "ĠÐ¿Ð¾Ð´Ð²": 6705,
      "ĠÐ¿Ð¾Ð´Ð¾Ð³": 6706,
      "ĠÐ¿Ð¾Ð´Ð°Ð²": 6707,
      "ĠÐ¿Ð¾Ð´ÑĬ": 6708,
      "ĠÐ¿Ð¾Ð´Ð²Ð¸Ð¶": 6709,
      "ĠÐ¿Ð¾Ð´ÑĢÑĥÐ¶": 6710,
      "ĠÐ¿Ð¾Ð´ÑĢÑıÐ´": 6711,
      "ĠÐ¾Ð±Ñģ": 6712,
      "ĠÐ¾Ð±Ð°Ð»": 6713,
      "ĠÐ¾Ð±ÑĢÐµÐ»": 6714,
      "ĠÐ¾Ð±ÑģÑĤÐ¾": 6715,
      "ĠÐ¾Ð±Ð¾Ð¹ÑĤÐ¸": 6716,
      "ĠÐ¾Ð±Ð½ÑıÐ»": 6717,
      "ĠÐ¾Ð±ÐµÑģÐ¿Ð¾ÐºÐ¾": 6718,
      "Ð°Ð¿Ð¸Ð²": 6719,
      "Ð¸Ð²Ð°ÑĤÑĮÑģÑı": 6720,
      "Ð¸Ð²Ð°ÐµÑĤÑģÑı": 6721,
      "Ð¸Ð²ÑĪÐ¸Ð¹ÑģÑı": 6722,
      "Ð°Ð¶Ð¸": 6723,
      "Ð°Ð¶Ð¸Ð²": 6724,
      "Ð°Ð¶Ð¸Ð²Ð°Ð»": 6725,
      "ĠÑģÐ¿Ð¸Ð½Ðµ": 6726,
      "ĠÑģÐ¿Ð¸ÑģÐº": 6727,
      "ĠÑģÐ¿ÑĥÑģÐº": 6728,
      "ĠÑģÐ¿Ð¾ÑĢÐ¸": 6729,
      "ÑĢÑĥÐ½": 6730,
      "ĠÑģÐ»Ð°Ð´": 6731,
      "ĠÑģÐ»Ð¾Ð½Ð°": 6732,
      "ĠÑģÐ»Ð°Ð´Ð¾ÑģÑĤÐ¸": 6733,
      "ÐµÐ½ÑĮÐºÐ¸Ð¼": 6734,
      "ÐµÐ½ÑĮÐºÐ°Ñı": 6735,
      "ĠÑĢÐ°Ð·Ð°": 6736,
      "ĠÑĢÐ°Ð·Ð½Ð¾": 6737,
      "ĠÑĢÐ°Ð·Ð¾ÑĢ": 6738,
      "ĠÑĢÐ°Ð·Ð¾Ð·": 6739,
      "ĠÑĢÐ°Ð·Ð½ÑĭÐ¼Ð¸": 6740,
      "ĠÑĢÐ°Ð·Ð½Ð¸ÑĨÐ°": 6741,
      "Ð°ÑĤÐ¾Ð³Ð¾": 6742,
      "Ð°ÑĤÑĭÑħ": 6743,
      "Ð°ÑĤÑĭÐµ": 6744,
      "Ð°ÑĤÑĭÐ¼Ð¸": 6745,
      "ĠÐ³Ð¾ÑĤ": 6746,
      "ÑĥÑĩÐ°": 6747,
      "ÑĥÑĩÐ¸ÑĤ": 6748,
      "ÑĥÑĩÐ¸Ñħ": 6749,
      "ĠÐ¿ÐµÑĢÐµÑĢ": 6750,
      "ĠÐ¿ÐµÑĢÐµÐ½": 6751,
      "ĠÐ¿ÐµÑĢÐµÐ¹": 6752,
      "ĠÐ¿ÐµÑĢÐµÑĩ": 6753,
      "ĠÐ¿ÐµÑĢÐµÐ»Ð¸": 6754,
      "ĠÐ¿ÐµÑĢÐµÑħ": 6755,
      "ÑģÐ»Ð¸ÑģÑĮ": 6756,
      "ÑģÐºÐµ": 6757,
      "ÑģÐºÐ°Ð·Ð°Ð»": 6758,
      "ÑģÐºÐ°Ð»Ð°": 6759,
      "ÑģÐºÐ°Ð»ÑĮ": 6760,
      "Ð°Ð±Ñĭ": 6761,
      "ĠÐ°ÑģÑĤÑĢÐ¾Ð½": 6762,
      "Ð¾ÑĩÐºÐ¾Ð¼": 6763,
      "Ð¾ÑĩÐ½ÑĥÑİ": 6764,
      "Ð°Ð»ÑĮÑĤÐ¸": 6765,
      "ÑĥÑĤÐ¸Ð»": 6766,
      "ĠÐ¯ÑģÐ½Ð¾": 6767,
      "ĠÐĺÐĽÐĺ": 6768,
      "ĠÐĺÐ³ÑĢÐ°": 6769,
      "ĠÐ¿Ð¾Ð»Ð°Ð³": 6770,
      "ĠÐ¿Ð¾Ð»Ð½ÑĭÐ¹": 6771,
      "ĠÐ¿Ð¾Ð»Ð½ÑĭÐ¼": 6772,
      "ĠÐ¿Ð¾Ð»Ð½Ð°Ñı": 6773,
      "ĠÐ¿Ð¾Ð»ÑĥÐº": 6774,
      "Ð²Ð¸ÑĩÐ¸": 6775,
      "Ð²ÐµÑĢÐ¶": 6776,
      "ÑĥÐ¼Ð°ÑĤÑĮ": 6777,
      "ÐµÑĩÐµÐ½Ð¸Ðµ": 6778,
      "ÐµÐ¶Ð°Ð²": 6779,
      "ÐµÐ¶Ð°ÑĤÑĮ": 6780,
      "ÑīÐµÐ½Ð¾": 6781,
      "Ð½ÑıÑĤÑĮÑģÑı": 6782,
      "ĠÑģÑĤÐ¾Ð»Ð¾Ð²": 6783,
      "ĠÑģÑĤÐ¾Ð»Ðµ": 6784,
      "ĠÑģÑĤÐ¾Ð»ÐµÑĤ": 6785,
      "ĠÑģÑĤÐ¾Ð¸Ð»Ð¾": 6786,
      "ĠÑģÑĤÐ¾ÑĢÐ¾Ð¶": 6787,
      "ÐµÐ»ÑĮÐ½ÑĭÐµ": 6788,
      "Ð°Ð¹ÐºÑĥ": 6789,
      "ĠÐĳÐ¾": 6790,
      "ĠÐĳÐ¾Ð¶Ðµ": 6791,
      "ĠÐĳÑĢÐ°Ð·": 6792,
      "ĠÐĳÑĭÐ»Ð¸": 6793,
      "ĠÐĳÐ¸Ð½Ð½": 6794,
      "ÑĭÐ²Ð°Ð»Ð°": 6795,
      "ÑĭÐ²Ð°ÑĤÑĮÑģÑı": 6796,
      "ĠÐĹÐĲ": 6797,
      "ĠÐĹÐĲÐ": 6798,
      "ĠÐĹÐ¾Ð»Ð¾ÑĤ": 6799,
      "ĠÐĹÐµÐ»Ð¸Ð¹": 6800,
      "ÐµÐ³Ð°Ð»": 6801,
      "Ð¾Ð²Ð°ÑĢÐ¸": 6802,
      "Ð¾Ð²Ð°Ð½Ð°": 6803,
      "Ð¾Ð²Ð°Ð½Ð¸Ð¹": 6804,
      "ĠÐ£Ð·": 6805,
      "ĠÐ£Ð¶Ðµ": 6806,
      "ĠÐ£ÑĩÐ°": 6807,
      "ĠÐ£Ð»ÑĭÐ±": 6808,
      "ĠÐ£Ð§": 6809,
      "ĠÐ¿Ð¾ÐºÐ¾Ñģ": 6810,
      "ĠÐ¿Ð¾ÐºÐ»Ð¾Ð½": 6811,
      "Ð¼ÑĥÑĢÐ¸Ð»ÑģÑı": 6812,
      "ĠÐ¿Ð¾ÑģÐ»ÑĥÑĪ": 6813,
      "ĠÐ¿Ð¾ÑģÐ»Ð°Ð»": 6814,
      "ĠÐŃÑĤÐ¾Ð³Ð¾": 6815,
      "Ð²ÐµÑĤÑģÑı": 6816,
      "ĠÐ¾Ð´Ð½Ð¸Ð¼": 6817,
      "ĠÐ¾Ð´ÐµÐ¶Ð´Ñĥ": 6818,
      "ĠÐ²Ð·Ð²Ð¾Ð»": 6819,
      "ĠÐ¾ÑģÑĤÐ°ÑĤ": 6820,
      "ĠÐ¾ÑģÑĤÑĢÐ¾Ðº": 6821,
      "ĠÐ¾ÑģÑĤÐ°Ð»Ð°ÑģÑĮ": 6822,
      "ĠÐ¾ÑģÑĤÑĢÐ°Ñı": 6823,
      "ĠÐ¾ÑģÑĤÑĢÑĭÐµ": 6824,
      "ĠÐ§ÐµÑĤ": 6825,
      "ĠÐ§ÑĥÑĪÑĮ": 6826,
      "ĠÐ¡Ð½Ð¾Ð²Ð°": 6827,
      "Ð»Ð¾Ð²Ð½Ð¾": 6828,
      "ĠÐ´Ð¾ÑģÑĤÐ°": 6829,
      "ĠÐ´Ð¾Ð½Ð¾Ñģ": 6830,
      "ĠÐ´Ð¾ÑħÐ»ÑĭÑħ": 6831,
      "ĠÐ»Ð¸ÑģÑĤ": 6832,
      "ĠÑĤÑĢÑı": 6833,
      "ĠÑĤÑĢÐ¾Ð³": 6834,
      "ĠÑĤÑĢÐµÑģÐº": 6835,
      "ĠÐĲÐ»Ð´Ð¶": 6836,
      "ĠÐ²Ð¸Ð´Ñı": 6837,
      "ĠÐ²Ð¸Ð´Ñĭ": 6838,
      "ĠÐ²Ð¸Ð´Ð°Ð»": 6839,
      "ĠÐ½Ð°Ð´ÐµÐ²": 6840,
      "ĠÐ½Ð°Ð´ÐµÐ¶": 6841,
      "ĠÐ½Ð°Ð´ÐµÐ¶Ð½Ð¾": 6842,
      "ĠÐĽÐµÐ³": 6843,
      "ĠÐ·Ð°Ð¼Ñĭ": 6844,
      "ĠÐ·Ð°Ð¼Ð°Ñħ": 6845,
      "ĠÐ·Ð°Ð¼ÐºÐµ": 6846,
      "Ð²Ð°ÑĢÐ¸": 6847,
      "ÑĥÑĪÐµÐ²": 6848,
      "ĠÐŃÑĤÐ¾ÑĤ": 6849,
      "ÐµÑĢÐ¸ÐºÐ°": 6850,
      "ĠÐºÐ¾Ð½ÑĦ": 6851,
      "ĠÐºÐ¾Ð½ÑĤÐ°Ðº": 6852,
      "ĠÐ²Ð¾Ð»Ð´Ñĭ": 6853,
      "ĠÐ²Ð¾Ð»ÐºÐ¾Ð´": 6854,
      "ĠÐ²Ð¾Ð·Ð³": 6855,
      "ĠÐ²Ð¾Ð·Ð¸Ð»ÑģÑı": 6856,
      "ĠÐ²Ð¾Ð·ÑĢÐ°Ð¶": 6857,
      "ĠÐ²Ð¾Ð·ÑĢÐ°Ð·Ð¸Ð»": 6858,
      "ĠÐ²Ð¾Ð·ÑĮÐ¼Ð¸": 6859,
      "ĠÐ²Ð¾Ð·ÑĢÐ°Ð·Ð¸ÑĤÑĮ": 6860,
      "ĠÐ²Ð¾Ð·Ð¼ÑĥÑĤÐ¸Ð»ÑģÑı": 6861,
      "ĠÑĢÐ°ÑģÑģÐµ": 6862,
      "ÑĢÑıÑģÑĮ": 6863,
      "ĠÐ¸Ð¼ÐµÐ»Ð¸": 6864,
      "Ð¸ÑĢÐ°Ð»": 6865,
      "Ð¸ÑĢÐ¾Ð²Ð°Ð»Ð¸": 6866,
      "ĠÐ¾ÑĩÐºÐ°Ð¼Ð¸": 6867,
      "ĠÐķÐ´": 6868,
      "ĠÐķÑģÑĤÑĮ": 6869,
      "ĠÐķÐĵÐŀ": 6870,
      "ÑģÑĤÐ¸ÐºÐ¾Ð²": 6871,
      "ĠÐ¼Ð¾Ð¶ÐµÑĤÐµ": 6872,
      "ĠÐ¼ÑĭÑĪÑĮ": 6873,
      "ĠÐ¼ÑĭÑĪÐµÐ¹": 6874,
      "ĠÐ¿Ð¾Ð²Ð¸": 6875,
      "ĠÐ¿Ð¾Ð²ÐµÑģ": 6876,
      "ĠÐ¿Ð¾Ð²ÑĢÐµÐ´": 6877,
      "ĠÐ²Ð¾ÑĨÐ°": 6878,
      "ĠÐ²Ð¾ÑĪÐ»Ð°": 6879,
      "ĠÐ²Ð¾ÑĢÐ¾ÑĤÐ°": 6880,
      "ÑĢÐµÐ¼ÐµÐ»": 6881,
      "ÐµÐ½ÑıÐ¼": 6882,
      "ÐµÐ½ÑıÑħ": 6883,
      "ĠÑģÐ°Ð¼Ð¾Ð¿": 6884,
      "ĠÑģÐ°Ð¼ÑĭÑħ": 6885,
      "ĠÑģÐ°Ð¼ÑĭÐµ": 6886,
      "ĠÑģÐ°Ð¼Ð¾Ð¼Ñĥ": 6887,
      "ĠÑĩÐµÑĢÐ½ÑĭÐ¹": 6888,
      "ĠÑĩÐµÑĢÑĤÐ¾Ð²": 6889,
      "ĠÑģÐ¼ÐµÐ¹": 6890,
      "ĠÑģÐ¼ÐµÐ½Ñı": 6891,
      "Ð¸Ð³Ð°Ñı": 6892,
      "ĠÐ¾ÐºÐ°Ð·ÑĭÐ²": 6893,
      "ĠÑĥÑģÐ¼ÐµÑħ": 6894,
      "ĠÐŁÐ¾ÑĤÑĢÐµÐ±": 6895,
      "Ð½ÑĥÑĤÑĭ": 6896,
      "ĠÐ·Ð°Ð¿ÑĢÐµ": 6897,
      "ĠÐ·Ð°Ð¿ÑĢÐµÑī": 6898,
      "ĠÐ·Ð°Ð¿Ð»Ð°Ðº": 6899,
      "ĠÐ¿ÑĢÐµÐ´Ð¾ÑģÑĤÐ°Ð²": 6900,
      "ĠÐ¿ÑĢÐµÐ´Ð½Ð°Ð·": 6901,
      "ĠÐ´ÐµÐ»Ð°Ð»": 6902,
      "ĠÐ´ÐµÐ»Ð°Ñı": 6903,
      "ĠÐ´ÐµÐ»Ð°Ð»Ð¸": 6904,
      "Ð»ÐµÐ½Ð¾": 6905,
      "ĠÑģÐ½ÐµÐ¶": 6906,
      "ĠÑģÐ½ÐµÐ³": 6907,
      "ĠÑģÐ²Ð°Ð»Ð¸": 6908,
      "ĠÑģÐ²Ð¸Ð½ÑĮÑİ": 6909,
      "Ð°Ð½Ð¸Ð»": 6910,
      "Ð°Ð½Ð¸ÐµÐ¼": 6911,
      "ĠÐ´Ð²Ð¾ÑĢ": 6912,
      "ĠÐ¿Ð¾Ð¿Ð¾Ð»": 6913,
      "ĠÐ¿Ð¾Ð¿ÑĢÐ¾ÑģÐ¸Ð»": 6914,
      "ĠÐ¿Ð¾Ð¿ÑĭÑĤÐ°ÐµÑĤÑģÑı": 6915,
      "ĠÐĿÐµÑĥÐ´Ð¸Ð²Ð¸ÑĤÐµÐ»ÑĮÐ½Ð¾": 6916,
      "ĠÐ¿Ð¾ÑĩÑĤÑĭ": 6917,
      "ĠÐ³Ð»Ð°Ð·Ð°Ð¼": 6918,
      "ĠÐŁÑĢÐ¾ÑĢÐ¾Ðº": 6919,
      "ĠÑĦÐ°Ð¼Ð¸": 6920,
      "ĠÑĦÐ¸Ð¾Ð»ÐµÑĤ": 6921,
      "ÑĩÐ¸ÑĤÑĭÐ²Ð°Ð»": 6922,
      "ÐºÐ¾Ð¼Ñĥ": 6923,
      "ÐŀÐ½": 6924,
      "ĠÐ¿Ð¾ÑĢÐ°Ð´": 6925,
      "ĠÐ¿Ð¾ÑĢÐ°Ð¶": 6926,
      "ÐĲÐĵ": 6927,
      "Ð¾ÑĢÐ¾ÑģÑıÑĩÐ¸Ð¹": 6928,
      "ÑĥÑģÑĤÐ¾Ð¹": 6929,
      "ÑĥÑģÑĤÐ¸Ð»Ð°": 6930,
      "Ð½Ð¸ÐºÐ°Ð¼Ð¸": 6931,
      "ĠÑĤÐµÐ¼Ð½Ð¾Ð¼": 6932,
      "ĠÑĤÐµÐ¼Ð½ÑĥÑİ": 6933,
      "ĠÐ²ÐµÑĢÐ½ÑĥÑĤÑĮ": 6934,
      "ĠÑħÐ¾ÑĤÐ¸ÑĤÐµ": 6935,
      "ÐķÐ¶ÐµÐ´Ð½ÐµÐ²": 6936,
      "ĠÐ´Ð¾Ð¼Ð¸": 6937,
      "ĠÐ´Ð¾Ð¼Ð°Ð¼": 6938,
      "ĠÐ´ÑĢÑĥÐ³Ñĥ": 6939,
      "ĠÐ´ÑĢÑĥÐ³Ð¸Ð¼": 6940,
      "Ð¼Ð¾ÐµÐ¼Ñĥ": 6941,
      "ÑĥÐ´ÑĮÑĤÐµ": 6942,
      "ÐµÑĢÑĮÑİ": 6943,
      "ĠÐ´ÐµÑĢÐ¶Ð¸": 6944,
      "ĠÐ´ÐµÑĢÐ½ÑĥÐ»Ð°ÑģÑĮ": 6945,
      "ĠÐ´ÑĥÐ¼Ð°ÑĤÑĮ": 6946,
      "ĠÐ´ÑĥÐ¼Ð°ÐµÑĤ": 6947,
      "ĠÑģÑĤÑĢÐ°ÑħÐ°": 6948,
      "ĠÐĵÑĢÐ¸ÑĦÑĦÐ¸Ð½Ð´Ð¾ÑĢÑĥ": 6949,
      "ÐĺÐĺ": 6950,
      "ÐĺÐĽ": 6951,
      "ĠÐ¿Ð¾Ð¼Ð¾Ñī": 6952,
      "ĠÐ¾Ð¿ÑĥÑĤ": 6953,
      "ĠÐ·Ð°Ð±Ð¾Ð»": 6954,
      "ĠÐ·Ð°Ð±Ð¸ÑĤÑĮ": 6955,
      "ĠÐ·Ð°Ð±ÑĢÐ°Ð»": 6956,
      "ĠÐ·Ð°Ð±ÑĭÐ»Ð¸": 6957,
      "ĠÐ·Ð°Ð±ÑĭÑĤÑĮ": 6958,
      "ĠÐ·Ð°Ð±Ð°ÑĢÐ°Ð±": 6959,
      "ĠÐ´ÑĢÐµÐ²": 6960,
      "ĠÐ´ÑĢÐµÐ»Ð¸": 6961,
      "ĠÐ´ÑĢÐ¾Ð¶Ð°Ð»": 6962,
      "ĠÐ·Ð°Ð¼ÐµÑĤÐ¸Ð»Ð°": 6963,
      "ĠÐ½Ð°ÑĩÐ°Ð»Ð¸ÑģÑĮ": 6964,
      "ĠÐ½Ð°ÑĩÐ°Ð»Ð¾ÑģÑĮ": 6965,
      "ÐµÐ½Ð¸ÑıÑħ": 6966,
      "ÑĥÑĢÐµÑĤ": 6967,
      "ĠÐ¿Ð¾Ð·Ð²Ð°Ð»": 6968,
      "ĠÐ´ÑıÐ´Ñİ": 6969,
      "ĠÐ´ÑıÐ´ÑİÑĪ": 6970,
      "ĠÐļÐ°ÐºÐ¾Ð¹": 6971,
      "ĠÐļÐ°ÐºÐ°Ñı": 6972,
      "ĠÐ¿ÐµÑĢÐ²ÑĭÐµ": 6973,
      "ĠÑĥÐ´Ð°ÑĢ": 6974,
      "ĠÐ²Ð¿ÑĥÑģÑĤÐ¸Ð»": 6975,
      "ĠÐ²Ð¿ÑĢÐ°Ð²Ð´Ñĥ": 6976,
      "ĠÐ²Ð¿ÐµÑĩÐ°ÑĤ": 6977,
      "Ð»Ð¸Ð½Ð³": 6978,
      "ĠÐ·Ð°ÐºÑĢÐ¸ÑĩÐ°Ð»Ð°": 6979,
      "ĠÐ·Ð°ÐºÑĢÐ¸ÑĩÐ°Ð»Ð¸": 6980,
      "ĠÐ¿ÑĢÐ°Ð²Ð¸Ð»Ð¾": 6981,
      "ĠÑĨÐ¾Ðº": 6982,
      "ĠÑĨÐµÐ¿": 6983,
      "ĠÐ¿Ð»Ð°ÑĩÐµÑĤ": 6984,
      "ĠÑĩÑĥÑĪÐ¸": 6985,
      "ĠÑĥÐ²Ð¸Ð´Ð°Ð»": 6986,
      "ĠÑĥÐ²Ð¸Ð´ÐµÐ²": 6987,
      "ĠÑģÐ´ÐµÑĢÐ¶": 6988,
      "ÑģÑĤÑĢÐ¾Ð¸Ð»": 6989,
      "ĠÐ¼Ð°Ð»ÑĮÑĩÐ¸ÑĪÐºÑĥ": 6990,
      "ĠÐ¸Ð³Ð»Ñĭ": 6991,
      "ĠÐ¸Ð³ÑĢÐµ": 6992,
      "ĠÐ¸Ð³ÑĢÐ¾Ð¹": 6993,
      "ĠÑģÐ»ÐµÐ´Ð¾Ð²Ð°ÑĤÑĮ": 6994,
      "Ð¢ÐķÐł": 6995,
      "ĠÐ¿Ð¾Ð½ÐµÑģ": 6996,
      "ĠÐ¿Ð¾Ð±ÐµÐ³": 6997,
      "ĠÐ¿Ð¾Ð±Ð»ÐµÐ´": 6998,
      "ĠÐ¿Ð¾Ð»ÑĥÑĩÐ¸ÑĤ": 6999,
      "ĠÐ¿Ð¾Ð»ÑĥÑĩÐ°ÐµÑĤ": 7000,
      "ĠÐ¿Ð¾Ð»ÑĥÑĩÐ°Ð»Ð¾ÑģÑĮ": 7001,
      "ĠÑģÐ¸Ð»Ñĥ": 7002,
      "ĠÐ»ÑĥÑĩÑĪÐ¸Ð¹": 7003,
      "ĠÐ»ÑĥÑĩÑĪÐ°Ñı": 7004,
      "ĠÐ»ÑĥÑĩÑĪÐµÐ¼Ñĥ": 7005,
      "ĠÐ¿Ð¾Ð¹Ð´ÐµÑĤ": 7006,
      "ĠÐ¿ÑĭÑĤÐ°ÑİÑĤÑģÑı": 7007,
      "ĠÐ²ÑģÑĤÐ°Ð»Ð°": 7008,
      "ĠÐ²ÑģÑĤÑĥÐ¿": 7009,
      "ĠÐ²ÑģÑĤÑĢÐµÐ²": 7010,
      "ĠÑģÑĤÐ°ÑĢÑĭÐ¹": 7011,
      "ĠÑģÑĤÐ°ÑĢÐ°ÑİÑĤÑģÑı": 7012,
      "ÑĥÑħÐ°": 7013,
      "ĠÑģÐµÐ¼ÐµÑģÑĤ": 7014,
      "ĠÑģÐµÐ¼ÐµÐ¹ÑģÑĤÐ²": 7015,
      "ĠÐ²Ð´Ð°Ð»ÐµÐº": 7016,
      "Ð»Ð¸Ð²Ð°Ð»": 7017,
      "ĠÑĥÐ±Ð¸Ð²Ð°ÑĤÑĮ": 7018,
      "ĠÐ¾ÑģÑĥÐ¶": 7019,
      "ĠÐ¾ÑģÐ¼Ð¾ÑĤÑĢÐµÐ»": 7020,
      "Ð°Ð´ÑĨÐ°ÑĤÐ¸": 7021,
      "ĠÐ»ÑİÐ±Ð¾Ð¼": 7022,
      "ĠÐ»ÑİÐ±Ð¸ÑĤ": 7023,
      "ĠÐ»ÑİÐ±ÑĥÑİ": 7024,
      "ĠÐ»ÑİÐ±Ð»Ñİ": 7025,
      "ĠÐ»ÑİÐ±ÑĭÐµ": 7026,
      "Ð»Ð¸ÑĦÐµÑĢÐ¸Ð½": 7027,
      "ĠÑĤÐ²Ð¾Ñİ": 7028,
      "ĠÑĤÐ²Ð¾Ð¸Ð¼": 7029,
      "ĠÑĤÐ²Ð¾ÐµÐ¼Ñĥ": 7030,
      "ĠÐ¡Ð»Ð¸ÑĦÐµÑĢÐ¸Ð½Ñĥ": 7031,
      "ĠÐ¡Ð»Ð¸ÑĦÐµÑĢÐ¸Ð½Ð¾Ð¼": 7032,
      "ĠÐ³Ð¾Ð»Ð¾ÑģÐ°": 7033,
      "ĠÐ³Ð¾Ð»Ð¾ÑģÐºÐ¾Ð¼": 7034,
      "ĠÐ¿ÐµÑĢÐµÐ´ÐµÑĢ": 7035,
      "ĠÑĥÐ¿Ð°Ð»Ð°": 7036,
      "ĠÑĥÐ¿Ð°ÐºÐ¾Ð²": 7037,
      "ĠÐ¿Ð¸ÑģÑĮÐ¼Ðµ": 7038,
      "ĠÐļÐ°Ð¼Ð½Ðµ": 7039,
      "ĠÐļÐ°Ð¼Ð½ÐµÐ¼": 7040,
      "ĠÐ¿ÑĢÐ¾Ð¸Ð·Ð½Ð¾ÑģÐ¸ÑĤÑĮ": 7041,
      "ĠÐ¾Ð´Ð¸Ð½Ð°ÐºÐ¾Ð²": 7042,
      "ĠÐ·Ð°Ð´Ð°ÑĤÑĮ": 7043,
      "ĠÐ·Ð°Ð´ÐµÑĢÐ¶": 7044,
      "ĠÐ·Ð°Ð´Ð½ÐµÐ¼": 7045,
      "ĠÐ·Ð°Ð´Ð°Ð²Ð°Ð¹": 7046,
      "ĠÐ·Ð°Ð´Ð°Ð½Ð¸Ð¹": 7047,
      "ĠÐ·Ð°Ð´Ð°ÑĩÐ°": 7048,
      "ÐµÐ»ÑıÐ¼": 7049,
      "Ð»Ð°ÑģÑģ": 7050,
      "ĠÐ»ÐµÑĤÐ¾Ð¼": 7051,
      "ĠÑģÐ´ÐµÐ»Ð°ÐµÑĤ": 7052,
      "ĠÐ¾Ð³ÑĢÑĭÐ·": 7053,
      "ĠÑĤÑĢÐ¸Ð±Ñĥ": 7054,
      "ĠÑĤÑĢÐ¸Ð¶Ð´Ñĭ": 7055,
      "ĠÐ¿Ð¾ÑģÐ¼Ð¾ÑĤÑĢÑİ": 7056,
      "ÐĲÐ¯": 7057,
      "ÐĲÐĻ": 7058,
      "ÐĲÐĿ": 7059,
      "ÐĲÐ©Ðĺ": 7060,
      "ĠÐ½ÐµÐ´Ð¾Ð»ÑİÐ±": 7061,
      "ĠÐ½ÐµÐ´Ð¾Ð²Ð¾Ð»ÐµÐ½": 7062,
      "ĠÐ±ÐµÐ·ÑĥÑģ": 7063,
      "ĠÐ¼Ð¾ÐµÐ¼Ñĥ": 7064,
      "ĠÐºÐ¾Ð»Ð¾ÑĤ": 7065,
      "ĠÐºÐ¾Ð»ÐµÐ½ÑıÑħ": 7066,
      "ĠÐ¿ÑĢÐ¾ÑģÑĤÐ¾Ð½Ð°Ð»": 7067,
      "ĠÑģÐ»ÑĭÑĪÐ°Ð»Ð¾ÑģÑĮ": 7068,
      "ĠÐ´Ð¾Ð±ÐµÐ¶Ð°Ð»Ð¸": 7069,
      "ĠÐŁÐ¾ÐµÐ·Ð´": 7070,
      "ĠÐ¾ÑĤÐºÑĢÑĭÑĤÐ¾Ð¹": 7071,
      "ĠÐ¾ÑĤÐºÑĢÑĭÑĤÐ¾Ðµ": 7072,
      "Ð°Ð½Ð´Ð°ÑĢÑĤ": 7073,
      "ĠÐ¿Ð¾ÑģÐ»ÐµÐ´Ð½Ð¸Ð¼": 7074,
      "ĠÐ¿Ð¾ÑģÐ»ÐµÐ´Ð¾Ð²Ð°Ð»Ð¸": 7075,
      "ĠÐ¿Ð¾ÑģÐ»ÐµÐ´Ð½ÐµÐ³Ð¾": 7076,
      "ĠÐ¿Ð¾ÑģÐ»ÐµÐ´Ð½ÑİÑİ": 7077,
      "ĠÐ¾ÑģÑĤÐ°Ð²Ð¸ÑĤÑĮ": 7078,
      "ĠÐ¾ÑģÑĤÐ°Ð²Ð¸Ð»Ð°": 7079,
      "Ð²Ð¸Ð´Ð´Ð¸Ñĩ": 7080,
      "ĠÐºÐ½Ð¸Ð³Ð°Ð¼Ð¸": 7081,
      "ĠÑģÐ²ÐµÑĤÐ¸Ð»Ð¸ÑģÑĮ": 7082,
      "ĠÑģÐ²ÐµÑĤÐ»ÑĭÐµ": 7083,
      "ĠÐ½ÐµÐ¿ÑĢÐ°Ð²": 7084,
      "ĠÐºÑĢÐ°Ð¿Ð¸Ð²": 7085,
      "ĠÐ·Ð°Ð³Ð°Ð´": 7086,
      "ĠÐ·Ð°Ð³Ð»ÑıÐ´": 7087,
      "Ð¶Ð¸Ðµ": 7088,
      "ĠÐ²ÑĭÑģÐ¾ÑĤ": 7089,
      "ĠÐ²ÑĭÑģÐºÐ¾": 7090,
      "ĠÐ²ÑĭÑģÐ¾ÐºÐ¾Ð¹": 7091,
      "ĠÐ´ÑĢÐ°ÐºÐ¾Ð½Ñĭ": 7092,
      "ĠÐ¿Ð°ÑĢÐ°Ð´Ð½Ð¾Ð¹": 7093,
      "Ð½Ð¸ÑĤÑģÑı": 7094,
      "ĠÑĥÑĩÐ¸ÑĤÑĮ": 7095,
      "ÑĤÐ¸Ð²Ð½ÑĭÐµ": 7096,
      "ĠÐ¸ÑģÑĩÐµÐ·Ð»Ð¾": 7097,
      "ÐĿÐµ": 7098,
      "ÐĿÐ«": 7099,
      "ĠÐ½Ð¾ÑģÑĭ": 7100,
      "ĠÐ½Ð¾ÑģÐ¾Ð²Ð¾Ð¹": 7101,
      "ĠÐ½Ð°Ð·Ð½Ð°": 7102,
      "ĠÑĢÐ°ÑģÑģÐºÐ°Ð¶Ñĥ": 7103,
      "ĠÐ¼Ð¸Ð½ÑĥÑĤÑĭ": 7104,
      "ĠÑģÑĤÑĢÐ°Ð½Ð½ÑĭÑħ": 7105,
      "ÑĢÐ¾Ð´Ð¸Ð²": 7106,
      "ĠÐ½Ð°ÐºÑĢÑĭ": 7107,
      "ĠÐ½Ð°ÐºÐ¸Ð½ÑĥÐ»": 7108,
      "ĠÐ´Ð»Ð¸Ð½Ð½ÑĭÑħ": 7109,
      "ĠÐ´Ð»Ð¸Ð½Ð½Ð°Ñı": 7110,
      "ĠÐ´Ð»Ð¸Ð½Ð½ÑĭÐ¼Ð¸": 7111,
      "ĠÐ¼Ð°Ð»ÐµÐ½ÑĮÐºÐ¾Ð¼": 7112,
      "ĠÐ¼Ð°Ð»ÐµÐ½ÑĮÐºÐ¾Ð¹": 7113,
      "ĠÐ¼Ð°Ð»ÐµÐ½ÑĮÐºÐ¸Ñħ": 7114,
      "ĠÐ¼Ð°Ð»ÐµÐ½ÑĮÐºÐ¸Ð¼": 7115,
      "ÐļÐŀÐĽ": 7116,
      "ĠÐ½ÐµÐ²Ð°Ð¶Ð½Ð¾": 7117,
      "ĠÐ³Ð»ÑıÐ´ÐµÐ»": 7118,
      "ĠÐ³Ð»ÑıÐ´Ð¸ÑĤÐµ": 7119,
      "ĠÐ¿Ð¾Ð´Ð½ÑıÐ»Ð°": 7120,
      "ĠÐ¿Ð¾Ð´Ð½ÑıÑĤÐ¾Ð¹": 7121,
      "ĠÑģÑĤÐ¾Ð»ÐºÐ½ÑĥÐ»ÑģÑı": 7122,
      "ĠÑģÑĤÐ¾Ð»ÐºÐ½Ð¾Ð²": 7123,
      "ĠÑģÑĤÐ¾Ð»Ð¿Ð¸Ð»Ð¸ÑģÑĮ": 7124,
      "ĠÐ¸ÑģÐ¿ÑĥÐ³Ð°Ð½": 7125,
      "ĠÐ²ÐµÐ»Ð¸ÐºÐ¸Ð¹": 7126,
      "ĠÐ¸Ð½ÑģÑĤ": 7127,
      "ĠÐ¸Ð½Ð´ÐµÐ¹": 7128,
      "ĠÑģÑĤÐ¾ÑıÐ»Ð¾": 7129,
      "ĠÐ±Ð¾Ð°": 7130,
      "ĠÐ±Ð¾Ð»Ð¸ÑĤ": 7131,
      "ĠÐ±Ð¾ÑıÑĤÑģÑı": 7132,
      "ĠÑĩÐ°ÑģÐ°Ð¼Ð¸": 7133,
      "ĠÐŁÑĢÐ¸Ð²Ð¸Ð´": 7134,
      "ĠÐŁÑĢÐ¸Ð½ÐµÑģ": 7135,
      "ĠÐĿÐ¾ÑĢÐ²ÐµÐ¶": 7136,
      "ĠÐ¿Ð¾Ð²ÐµÑĢÐ½ÑĥÐ»": 7137,
      "ĠÐ¿Ð¾Ð³Ð»Ð¾": 7138,
      "ĠÐ¿Ð¾Ð³Ð°Ñģ": 7139,
      "ĠÐ¿Ð¾Ð³ÑĢÑĥÐ·": 7140,
      "ĠÐ¿Ð¾Ð³Ð¾Ð²Ð¾ÑĢÐ¸ÑĤÑĮ": 7141,
      "ĠÐ½ÑĥÐ¶Ð½ÑĭÐ¹": 7142,
      "ĠÐ¿ÑĢÐ¸ÑģÐ¼Ð°ÑĤÑĢÐ¸Ð²": 7143,
      "ĠÐ¿Ð¾Ð´ÑĥÐ¼Ð°Ð»Ð¸": 7144,
      "ĠÐ¾ÑģÑĤÐ°Ð»ÑĮÐ½Ð¾Ðµ": 7145,
      "ĠÐ²Ð¾Ð·Ð´ÑĥÑĪ": 7146,
      "ĠÐ½Ð¾Ð²Ð¾Ð³Ð¾": 7147,
      "ĠÐ½Ð¾Ð²ÑĥÑİ": 7148,
      "ĠÐ½Ð¾Ð²ÑĭÑħ": 7149,
      "ĠÐ½Ð¾Ð²ÑĭÐ¼": 7150,
      "ĠÐ´ÐµÐ²ÑıÑĤ": 7151,
      "ĠÐ¼ÐµÑĢÑĤÐ²": 7152,
      "ĠÐºÐ¾ÑĢÐ¸Ð´Ð¾ÑĢÐµ": 7153,
      "ĠÐĶÐ¶Ð¾ÑĢÐ´Ð°": 7154,
      "Ð¡ÐĽÐĺ": 7155,
      "ÐĽÐŀÐ": 7156,
      "ÐĽÐŁ": 7157,
      "ÐĽÐ¬": 7158,
      "Ð¸ÑĪÑĮÑģÑı": 7159,
      "ÑħÐ²Ð°ÑĤÐ¸Ð»Ð°": 7160,
      "ĠÑģÑĤÐµÐ½Ð¾Ð¹": 7161,
      "ĠÑĥÑģÐ¿ÐµÑħ": 7162,
      "ĠÑĥÑģÐ¿ÐµÐ»Ð°": 7163,
      "ĠÐ¼Ð°ÑĤÑĩÐ°": 7164,
      "ĠÐ¼Ð°ÑĤÑĩÐµ": 7165,
      "Ð¾Ð»Ð¾Ð´Ð½ÑĭÐ¹": 7166,
      "ĠÐ½Ð¾ÑĩÐ°Ð¼": 7167,
      "ĠÐ¾ÑģÑĤÐ°Ð½Ð¾Ð²Ð¸ÑĤ": 7168,
      "ĠÑĥÐ¶Ð°ÑģÑĥ": 7169,
      "ÐŁÐ¾Ð¶Ð°Ð»ÑĥÐ¹ÑģÑĤÐ°": 7170,
      "Ð¼ÑĭÑģ": 7171,
      "ĠÐºÐ¾ÑĢÐ·": 7172,
      "ĠÐºÐ¾ÑĢÐµÐ½ÑĮ": 7173,
      "ĠÐºÑĥÐ¿Ð¸Ð»Ð¸": 7174,
      "ĠÐ¼Ð¾Ð¼ÐµÐ½ÑĤÐ°": 7175,
      "ĠÑĥÐ²ÐµÑĢÐ½ÑĥÐ»ÑģÑı": 7176,
      "ĠÐµÐ´Ñĭ": 7177,
      "ĠÐ²ÑĭÐ¿Ð°Ð»Ð¸": 7178,
      "ĠÐ²ÑĭÐ¿Ð¸ÑĤÑĮ": 7179,
      "ĠÐ²ÑĭÐ¿ÑĥÑĩ": 7180,
      "ĠÐ²ÑĭÐ¿Ð¾Ð»Ð·": 7181,
      "ÐµÑģÑĤÐ²ÐµÐ½Ð½Ð¾": 7182,
      "ĠÐĿÐ¸ÑĩÑĤÐ¾": 7183,
      "ĠÐ¿ÑĢÐ¾ÑģÐ½ÑĥÐ²ÑĪÐ¸ÑģÑĮ": 7184,
      "ĠÐ¿ÑĢÐ¾ÑģÐ²Ð¸ÑģÑĤ": 7185,
      "Ð°ÑİÑīÐ¸Ð¼": 7186,
      "ĠÑģÐ²Ð¾Ð¹ÑģÑĤÐ²": 7187,
      "ÑĥÑīÐ¸Ð¼": 7188,
      "ĠÑģÑĩÐ¸ÑĤÐ°Ð»Ð¸": 7189,
      "Ð¾Ð²Ð¾Ð»ÑĮÐ½Ð¾": 7190,
      "ĠÐ¿Ð¾ÑģÑĤÐµÐ»Ð¸": 7191,
      "ĠÐ¡ÐºÐ°Ð¶Ð¸": 7192,
      "ĠÐ¾Ð±ÑĭÐºÐ½Ð¾Ð²": 7193,
      "ĠÐ¿Ð¾Ð¿ÑĭÑĤÐºÐ¸": 7194,
      "ĠÐ¿Ð¾Ð¿ÑĭÑĤÐ°ÑĤÑĮÑģÑı": 7195,
      "ĠÐ¿Ð¾Ð¿ÑĭÑĤÐ°ÑİÑģÑĮ": 7196,
      "Ð¸ÑĢÐ°ÐµÑĤÑģÑı": 7197,
      "ĠÐ½Ð°Ð±Ð¾ÑĢ": 7198,
      "ĠÐºÑĢÐ¾Ð²ÑĮÑİ": 7199,
      "ĠÑĥÑħÐ¼ÑĭÐ»": 7200,
      "ĠÐ·Ð°ÑģÐ»ÑĥÐ¶": 7201,
      "ĠÑģÐµÐ¼ÑĮÐ´ÐµÑģÑıÑĤ": 7202,
      "ĠÑĥÑĢÐ¾ÐºÐ°Ñħ": 7203,
      "ĠÐ»ÐµÐ¶Ð°Ð»Ð¾": 7204,
      "ĠÐ»ÐµÐ³ÐºÐ¾Ð³Ð¾": 7205,
      "ĠÑģÐµÐºÑĥÐ½Ð´Ð°Ð½ÑĤ": 7206,
      "ÑıÑīÑĥÑİ": 7207,
      "ĠÐ²Ð¾ÑģÑģÑĤ": 7208,
      "ĠÐ²Ð¾ÑģÐµÐ¼ÑĮ": 7209,
      "ĠÐŁÑĢÐ¾Ð±": 7210,
      "ĠÐŁÑĢÐ°Ð´ÐµÐ´": 7211,
      "ĠÐ³Ð¾ÑĢÐ½ÑĭÐ¼": 7212,
      "ĠÐºÐ°Ð¶Ð´Ð¾Ðµ": 7213,
      "ĠÑģÑĤÐ°Ð»Ð°Ð³Ð¼Ð¸": 7214,
      "ĠÐ§Ð°ÑĢÑĭ": 7215,
      "ĠÐ½Ð°ÑħÐ¾Ð´Ð¸Ð»ÑģÑı": 7216,
      "ĠÐ·Ð°ÑģÑĤÐ°Ð²Ð¸Ð²": 7217,
      "ĠÐ¶ÐµÐ»ÑĥÐ´": 7218,
      "ĠÐ¶ÐµÐ»ÑĤÐ¾Ð²": 7219,
      "ĠÑĢÐ°ÑģÐ¿Ð¸Ñģ": 7220,
      "ĠÐ±Ð°Ð»Ð»Ð°": 7221,
      "ĠÐ¼Ð¾ÑĢÐ³": 7222,
      "ĠÐ¼Ð¾ÑĢÐ¾Ð¶ÐµÐ½": 7223,
      "ĠÑĢÐ°Ð±Ð¾ÑĤÐ°ÑĤÑĮ": 7224,
      "ÑĦÐ¾ÑĢÐ´": 7225,
      "ĠÐ»ÐµÑģÑĤÐ½Ð¸ÑĨÐ°": 7226,
      "ĠÐ¿ÑĢÐ¸Ð²Ð¾Ð´": 7227,
      "ĠÐ¿ÑĢÐ¸Ð²ÑıÐ·": 7228,
      "ĠÑĩÐµÑĤÑĭÑĢÐµÑħ": 7229,
      "ĠÑĩÐµÑĤÑĭÑĢÐµÑģÑĤÐ°": 7230,
      "ĠÐ¼Ð½Ð¾Ð³Ð¾Ðµ": 7231,
      "ĠÐŀÑĤÑĤÑĥÐ´Ð°": 7232,
      "ĠÐŀÑĤÐºÑĥÐ´Ð°": 7233,
      "ĠÐŀÑĤÐ»Ð¸ÑĩÐ½Ð¾": 7234,
      "ĠÐĿÐ°Ð¿ÑĢÐ¾ÑĤÐ¸Ð²": 7235,
      "ĠÐ¡Ð¿Ð¸Ð½Ð½ÐµÑĤ": 7236,
      "ĠÐ¿ÑĢÐ¸Ð±ÑĭÐ»": 7237,
      "Ð¾Ð²Ð°ÑĢÐ¸Ð²Ð°Ð»": 7238,
      "ĠÑĥÐ·Ð½Ð°ÐµÐ¼": 7239,
      "ĠÑĥÐ·Ð½Ð°ÐµÑĪÑĮ": 7240,
      "ĠÐ¤Ð»Ð°Ð¼ÐµÐ»ÐµÐ¼": 7241,
      "ĠÐ²Ð¾Ð¿ÑĢÐ¾ÑģÐ¾Ð¼": 7242,
      "ÐĴÑĭ": 7243,
      "ÐĴÐĲÐł": 7244,
      "ÐĶÐĺ": 7245,
      "ÑĩÐµÑģÐºÐ¸Ðµ": 7246,
      "ĠÑĢÐµÑĪÐ¸ÑĤÑĮ": 7247,
      "ĠÐ²ÑĭÐ±Ð¾ÑĢÐ°": 7248,
      "ĠÐ²ÑĭÐ±ÑĢÐ°Ð»ÑģÑı": 7249,
      "ĠÐ¿ÑĢÐ¾ÑħÐ¾Ð´Ñı": 7250,
      "ĠÐ¿ÑĢÐ¾ÑħÐ¾Ð´Ð¸Ð»": 7251,
      "ĠÐ¢ÐµÐ¼Ð½ÑĭÐµ": 7252,
      "ĠÑĢÐ°ÑģÑģÐ¼Ð¾ÑĤÑĢÐµÑĤÑĮ": 7253,
      "ĠÑĢÐ°ÑģÑģÐµÐºÐ°Ñı": 7254,
      "ĠÑģÐ¼Ð¾Ð³Ð»Ð¸": 7255,
      "ĠÑģÐµÑĢÐ´ÑĨÐ°": 7256,
      "ĠÐ²Ð¾Ð»ÑĪÐµÐ±Ð½Ð¸ÐºÐ°Ð¼Ð¸": 7257,
      "ĠÐ¿ÑĥÑģÑĤÑĭÐµ": 7258,
      "ĠÐ²ÑģÑıÐºÐ¸Ñħ": 7259,
      "ĠÐ²ÑģÑıÐºÐ¾Ðµ": 7260,
      "ĠÐ´ÐµÑģÑıÑĤÐ¸": 7261,
      "ĠÐ¾ÑĤÐ²ÐµÐ»": 7262,
      "Ð´ÐµÑģÑıÑĤÑĮÑİ": 7263,
      "ĠÐ¿ÑĢÐµÐ´Ð¿ÑĢÐ¸": 7264,
      "ĠÑĥÐ´Ð¸Ð²Ð¸Ð»ÑģÑı": 7265,
      "ĠÑĨÐµÐ»Ð¾Ðµ": 7266,
      "!\",": 7267,
      "ĠÐ²ÐµÑĤÐ²Ð¸": 7268,
      "ĠÐºÐ°Ð¿Ð»Ð¸": 7269,
      "ĠÐºÐ°Ð¿Ð¸ÑĤÐ°Ð½": 7270,
      "ĠÐºÐ°Ð¿ÑĥÑģÑĤÐ¾Ð¹": 7271,
      "ĠÐºÑĢÐ°ÑģÐ½Ðµ": 7272,
      "ĠÐºÑĢÐ°ÑģÐ½Ð¾Ð³Ð¾": 7273,
      "ĠÐºÑĢÐ°ÑģÐ½ÑĭÐµ": 7274,
      "ĠÑĤÐµÑĢÑı": 7275,
      "ĠÑĤÐµÑĢÑĢÐ¸ÑĤÐ¾ÑĢÐ¸": 7276,
      "ĠÑĤÐµÑĢÑĢÐ°ÑĢÐ¸ÑĥÐ¼": 7277,
      "ĠÐ¡ÑĤÐ°ÑĢ": 7278,
      "ĠÐ¿ÑĢÐ¾Ð³Ð»Ð¾ÑĤ": 7279,
      "Ð¸ÑĤÐµÐ»ÑĮÐ½ÑĥÑİ": 7280,
      "ĠÑħÐ»Ð¾Ð¿Ð½ÑĥÐ»Ð°": 7281,
      "ĠÑħÐ»Ð¾Ð¿Ð°Ð½ÑĮÐµ": 7282,
      "ĠÐ¾Ð¿Ð°ÑģÐ½Ð¾ÑģÑĤÑĮ": 7283,
      "ĠÐ¾Ð³ÑĢÐ¾Ð¼Ð½Ð¾Ð¹": 7284,
      "ĠÐ¾Ð³ÑĢÐ¾Ð¼Ð½ÑĭÑħ": 7285,
      "ĠÐµÐ´Ð¸Ð½Ð¾ÑĢÐ¾Ð³Ð¾Ð²": 7286,
      "ĠÐ±Ð»ÐµÐ´Ð½Ð¾Ð³Ð¾": 7287,
      "ĠÑĢÑĭÐ¶ÐµÐ²": 7288,
      "ĠÑĢÑĭÑĩÐ°Ð½Ð¸Ðµ": 7289,
      "ĠÑĢÐ°ÑģÑĤÑı": 7290,
      "ĠÐ¶Ð°Ð±Ð¾": 7291,
      "ĠÐ¶Ð°Ð±Ð°": 7292,
      "ĠÐĳÐ¾Ð»ÑĮÑĪÐ¾Ð¼": 7293,
      "ĠÐĳÐ¾Ð»ÑĮÑĪÐ¾Ðµ": 7294,
      "ĠÐ¿ÑĢÐµÐ´ÑģÑĤÐ°Ð²Ð»ÑıÑı": 7295,
      "ĠÑĢÐ°Ð·Ð³Ð¾Ð²Ð°ÑĢÐ¸Ð²Ð°ÑĤÑĮ": 7296,
      "ĠÑģÐµÑĢÐµÐ±ÑĢÑıÐ½Ð¾Ð¹": 7297,
      "ĠÑģÐµÑĢÐµÐ±ÑĢÑıÐ½ÑĭÐµ": 7298,
      "ĠÐ·Ð¾Ð»Ð¾ÑĤÑĭÐµ": 7299,
      "ĠÐĳÐ»Ð°Ð´Ð¶ÐµÑĢÐ°": 7300,
      "ĠÐºÐ»Ð°ÑģÑģÐµ": 7301,
      "ĠÐĶÑĢÐ°ÐºÐ¾Ð½": 7302,
      "ĠÐ²ÑĭÐ¸Ð³ÑĢÑĭ": 7303,
      "ĠÐ²ÑĭÐ¸Ð³ÑĢÐ°Ð»Ð¸": 7304,
      "ĠÑıÑĢÐ¾ÑģÑĤ": 7305,
      "ĠÐ½Ð¸ÐºÐ°ÐºÐ¾Ð³Ð¾": 7306,
      "ĠÐ¸Ð½ÑĤÐµÑĢÐµÑģÐ¾Ð¼": 7307,
      "ĠÐ¿Ð»Ð°ÑĤÑĦÐ¾ÑĢÐ¼Ðµ": 7308,
      "Ð¯Ð¢": 7309,
      "ĠÑģÑĥÐ¼ÐºÑĥ": 7310,
      "ĠÐ±Ð¾ÑĢÑĮ": 7311,
      "ĠÐ±Ð¾ÑĢÐ¼Ð¾ÑĩÐ°": 7312,
      "ĠÑĥÐ³Ð»Ð°": 7313,
      "ĠÐ¿Ð¾ÑĤÐ¾Ð»ÐºÑĥ": 7314,
      "ĠÐŁÐ¾Ð´ÑĬÐµÐ¼": 7315,
      "ĠÐ¿ÑĢÐ¾ÐºÐ»Ñı": 7316,
      "ĠÐ¿ÑĢÐ¾ÐºÐ»ÑıÑĤÑĮÐµ": 7317,
      "ĠÐºÐ¾ÑĪÐ¼Ð°ÑĢÑĭ": 7318,
      "ĠÐ³Ð»ÑĥÐ±Ð¸Ð½Ðµ": 7319,
      "ĠÑĦÑĥÑĤÐ±Ð¾Ð»": 7320,
      "ĠÑĦÑĥÑĤÐ±Ð¾Ð»ÑĮ": 7321,
      "ĠÑģÐ²ÐµÑĢÑĤÐºÐµ": 7322,
      "ĠÐŀÐ»Ð»Ð¸Ð²Ð°Ð½Ð´ÐµÑĢÐ°": 7323,
      "Ð£Ðľ": 7324,
      "ĠÑģÐ±Ð¸Ð²": 7325,
      "ĠÑģÐ±ÑĢÐ¾ÑģÐ¸ÑĤÑĮ": 7326,
      "ĠÐ½Ð°Ð³Ð½ÑĥÐ»ÑģÑı": 7327,
      "ĠÐ½Ð°Ð·ÑĭÐ²Ð°Ð»": 7328,
      "ĠÐ½Ð°Ð·ÑĭÐ²Ð°Ð»Ð¸": 7329,
      "ĠÐ¾Ð¶Ð¸Ð´Ð°ÑĤÑĮ": 7330,
      "ÑģÑĤÑĢÐµÑĩ": 7331,
      "ĠÐ±ÐµÐ»ÑĭÐµ": 7332,
      "ĠÑĥÐ´Ð°ÑĩÐ½Ð¾": 7333,
      "ĠÑĢÐ°Ð´Ñĭ": 7334,
      "ĠÐ¿ÑĢÐ¾ÑĤÐ¸Ð²Ð½ÑĭÐ¼": 7335,
      "ĠÐ¶ÑĥÑĤÐºÐ¾": 7336,
      "ĠÑħÐ¾Ð´Ð¸Ð»": 7337,
      "ĠÑħÐ¾Ð´Ð¸ÑĤÑĮ": 7338,
      "ĠÑģÐ¿Ð°ÑģÐ°Ñı": 7339,
      "ĠÐ¼Ð°Ð³Ð°Ð·Ð¸Ð½": 7340,
      "ĠÐ¼Ð°Ð³Ð°Ð·Ð¸Ð½Ðµ": 7341,
      "ĠÐ¼Ð°Ð³Ð³Ð»Ð°Ð¼Ð¸": 7342,
      "ĠÐ²ÑģÑĤÑĢÐµÑĤÐ¸Ð»": 7343,
      "ĠÐ²ÑģÑĤÑĢÐµÑĤÐ¸Ð»Ð¸": 7344,
      "ĠÐ²ÑģÑĤÑĢÐµÑĤÐ¸ÑĤÑĮÑģÑı": 7345,
      "ĠÐ¡Ð¸Ð¼ÑĥÑģÐ°": 7346,
      "ĠÐ¤Ð»Ð¸ÑĤÐ²Ð¸ÐºÐ°": 7347,
      "ĠÐºÑĥÑħÐ¾Ð½": 7348,
      "ĠÐ½Ð°ÑĪÐ°": 7349,
      "ĠÐ²ÑĭÑħÐ¾Ð´Ð°": 7350,
      "ĠÐ²ÑĭÑħÐ¾Ð´Ð¸ÑĤÑĮ": 7351,
      "ĠÐ·Ð°Ð½ÑıÐ»ÑģÑı": 7352,
      "ĠÑĪÐµÐ»ÐµÑģÑĤ": 7353,
      "ĠÑĪÑĢÐ°Ð¼Ð°": 7354,
      "ĠÐĹÐ½Ð°ÐµÑĪÑĮ": 7355,
      "ĠÐĹÐ½Ð°ÐµÑĤÐµ": 7356,
      "ĠÐĽÐµÑģÐ°": 7357,
      "ĠÑĥÑĩÐµÐ½Ð¸ÐºÐ°Ð¼": 7358,
      "ĠÑģÐ»ÐµÐ´ÑĥÑİÑīÐ¸Ð¼": 7359,
      "ĠÑģÐ¾Ð½Ð½Ð¾": 7360,
      "ĠÑĤÑĢÐ¾Ð¸Ñħ": 7361,
      "ĠÑĤÑĢÐ¾ÑģÑĤÐ¸": 7362,
      "ĠÐ·Ð¼ÐµÐ¸": 7363,
      "ĠÐ·Ð¼ÐµÑİ": 7364,
      "ĠÐ·ÐµÐ»ÐµÐ½ÑĭÐµ": 7365,
      "ĠÑģÑĤÑĥÐ¿ÐµÐ½ÑıÐ¼": 7366,
      "ĠÐ¿Ð¾Ð´Ð°ÑĢÐºÐ¸": 7367,
      "ĠÑĢÑĥÐºÐ°Ð²": 7368,
      "ĠÑĢÑĥÐºÐ°Ð²Ð°": 7369,
      "ĠÐ½Ð°Ð¿Ð¾Ð¼Ð¸Ð½Ð°": 7370,
      "ĠÐ½Ð°Ð¿Ð¾Ð¼Ð½Ð¸Ð»Ð¾": 7371,
      "ĠÐ½Ð°Ð±Ð»ÑİÐ´Ð°Ñı": 7372,
      "Ð¬Ðľ": 7373,
      "ĠÐĸÑĥÑĤ": 7374,
      "ĠÐ±Ð°ÑĪÐµÐ½": 7375,
      "ĠÐ±Ð°ÑĪÐ½Ðµ": 7376,
      "ĠÑĩÐ¸ÑĤÐ°Ð»Ð°": 7377,
      "ĠÐ»Ð¾Ð´Ð¾ÑĩÐºÐ¸": 7378,
      "ĠÐ¿ÑĢÐ¾Ð¿ÑĥÑģÑĤÐ¸Ð»": 7379,
      "ĠÐļÐ»ÑĭÐºÐ°": 7380,
      "ĠÐ·Ð°Ð½Ð¸Ð¼Ð°ÑİÑĤÑģÑı": 7381,
      "Ð¸Ð½Ð³Ð°ÑĢÐ´Ð¸ÑĥÐ¼": 7382,
      "ĠÐ¿Ð¾Ð´Ð¾ÑĪÐ»Ð°": 7383,
      "ĠÐ·Ð°Ð¼ÐµÑĩÐ°Ð»": 7384,
      "ĠÐºÐ¾Ð¼Ð¿Ð¾ÑģÑĤÐµÑĢ": 7385,
      "ĠÐºÐ¾Ð¼Ð°Ð½Ð´Ðµ": 7386,
      "ĠÐ¼ÐµÑĤÐ»Ð°Ñħ": 7387,
      "ĠÐĿÐ¸ÐºÐ¾Ð»Ð°ÑģÐ°": 7388,
      "ĠÑģÐµÑģÑĤÑĢÐ°": 7389,
      "ĠÑģÐµÑģÑĤÑĢÐµÐ½ÐºÐ°": 7390,
      "ÑĩÑĮÐµÐ¹": 7391,
      "ĠÐ¸Ð´Ð¸Ð¾ÑĤ": 7392,
      "ĠÐ´ÑĥÑĪÐ¸": 7393,
      "ĠÐ´ÑĥÑĪÐµ": 7394,
      "ĠÑĤÐ¸Ð¿Ð°": 7395,
      "ĠÐ·Ð°ÐºÐ¾Ð½ÑĩÐ¸Ð»": 7396,
      "ĠÐ»ÐµÑģÑĥ": 7397,
      "ĠÑģÐºÐ¾ÑĢÐ¾ÑģÑĤÑĮ": 7398,
      "Ð»Ð¾Ð½Ð¸Ð»ÑģÑı": 7399,
      "ĠÑģÐ¿ÑĥÑģÑĤÐ¸Ð»ÑģÑı": 7400,
      "ĠÐĳÑįÐ¹Ð½Ð°": 7401,
      "ĠÐ²Ð¾Ð·Ð¼Ð¾Ð¶Ð½Ð¾ÑģÑĤÑĮ": 7402,
      "ĠÐºÐ½Ð¸Ð¶ÐºÑĥ": 7403,
      "ĠÑģÐ¸Ð´ÐµÐ½ÑĮÑı": 7404,
      "ĠÑģÐ²Ð¸ÑģÑĤÐµÐ»": 7405,
      "ĠÐ·Ð½Ð°Ð¼ÐµÐ½Ð¸ÑĤÑĭÐ¹": 7406,
      "ĠÐ·Ð½Ð°Ð¼ÐµÐ½Ð¸ÑĤÑĭÐ¼": 7407,
      "ĠÑģÑĬÐµÐ»Ð¸": 7408,
      "ĠÐ²ÐµÐ»ÐµÐ»Ð°": 7409,
      "ĠÐ¾Ð·Ð½Ð°ÑĩÐ°": 7410,
      "ĠÐ¾Ð·Ð°Ð´Ð°Ñĩ": 7411,
      "ĠÐ¾ÑĪÐ¸Ð±ÐºÐ¸": 7412,
      "ĠÐ¾ÑĪÐ¸Ð±ÐºÐ°": 7413,
      "ĠÐºÐ¸Ð²Ð½ÑĥÐ»Ð¸": 7414,
      "ĠÐŁÐ¸ÑĢÐºÑģ": 7415,
      "ĠÐ¿ÑĢÐµÐ²ÑĢÐ°ÑĤ": 7416,
      "ĠÐ¿ÑĢÐ°Ð·Ð´Ð½Ð¾Ð²Ð°ÑĤÑĮ": 7417,
      "ĠÐ²ÑģÐºÑĢÐ¸": 7418,
      "ĠÐĳÑĥÐ·Ð¸Ð½Ð½Ð¾Ð³Ð¾": 7419,
      "ĠÐ¿Ð¾ÐºÐ°Ð·Ð°Ð»ÑģÑı": 7420,
      "ĠÐ´Ð¾ÑģÑĤÐ°ÑĤÑĮ": 7421,
      "ĠÐĽÐ¸ÑĨÐ¾": 7422,
      "ĠÐ¿Ð¾Ð±ÐµÐ´Ð¾Ð¹": 7423,
      "ĠÐ¤Ð¸Ð»Ð¾ÑģÐ¾ÑĦÑģÐºÐ¾Ð³Ð¾": 7424,
      "ĠÐ¤Ð¸Ð»Ð¾ÑģÐ¾ÑĦÑģÐºÐ¾Ð¼": 7425,
      "ĠÐºÐ°ÑĢÐ¼Ð°Ð½Ñĭ": 7426,
      "ĠÑģÐµÐºÑĢÐµÑĤÐ½ÑĭÐµ": 7427,
      "ĠÑģÐµÐ¹ÑĦÐµ": 7428,
      "Ð°ÑīÐ¸Ð¼": 7429,
      "ĠÐ½ÐµÐ·Ð°Ð¼": 7430,
      "ĠÐ½ÐµÐ·Ð°ÑĩÐµÐ¼": 7431,
      "ĠÐ²Ð¸ÑģÐµÐ»": 7432,
      "ĠÐ²Ð¸ÑģÐµÐ²": 7433,
      "ĠÐ²Ð¸ÑģÐµÐ»Ð°": 7434,
      "ĠÐºÑĢÑĥÐ³Ð¾Ð¼": 7435,
      "ĠÐºÑĢÑĥÐ³Ð°Ð¼Ð¸": 7436,
      "ĠÐ±Ð°Ð½ÐºÐµ": 7437,
      "ĠÑĤÑĥÐ»Ð¾Ð²": 7438,
      "ĠÑĤÑĥÐ°Ð»ÐµÑĤ": 7439,
      "ĠÐľÐ°ÑĢÑģ": 7440,
      "ĠÐ¸Ð·ÑĥÑĩÐ°ÑĤÑĮ": 7441,
      "ĠÐ¸Ð·ÑĥÑĩÐ°Ð»Ð¸": 7442,
      "ĠÐ¿ÑĢÐ¸Ð´ÑĥÐ¼Ð°ÑĤÑĮ": 7443,
      "ĠÐ¿ÑĢÐ¸Ð·Ð½Ð°Ð»ÑģÑı": 7444,
      "ĠÐ¿ÑĢÐ¸ÑħÐ¾Ð´Ð¸ÑĤÑģÑı": 7445,
      "ĠÑħÐ²Ð¾ÑģÑĤÐ°": 7446,
      "ĠÐ¿Ð¾Ð´Ð±Ð¸ÑĢÐ°ÑĤÑĮ": 7447,
      "ĠÐ¾Ð±ÑĢÐ°ÑīÐ°ÑĤÑĮ": 7448,
      "ĠÐ¤Ð»Ð¸Ð½ÑĤÐ°": 7449,
      "ĠÐ¼Ð°Ð³Ð¸Ñİ": 7450,
      "Ð°Ð´ÑĨÐ°ÑĤÐ¾Ð³Ð¾": 7451,
      "ĠÑīÐµÐ»ÐºÐ½ÑĥÐ»Ð°": 7452,
      "ĠÐĽÐ¾Ð½Ð´Ð¾Ð½Ðµ": 7453,
      "ĠÐ²Ð¾ÑģÑĤÐ¾ÑĢÐ³Ð°": 7454,
      "ĠÐ²Ð¾ÑģÑĤÐ¾ÑĢÐ³Ð¾Ð¼": 7455,
      "ĠÑģÐ¾Ð¿ÑĢÐ¾ÑĤÐ¸Ð²": 7456,
      "ĠÐ½ÐµÑĢÐ²Ð½Ð¸": 7457,
      "ĠÐºÐ»ÐµÑĤÐºÑĥ": 7458,
      "ĠÐºÐ»ÐµÑĤÐºÐµ": 7459,
      "ĠÑĥÑģÑĤÐ°Ð»": 7460,
      "ĠÐ¿Ð¾ÐµÐ·Ð´Ð°": 7461,
      "ĠÐĶÐ¾ÑĢÐ¸Ñģ": 7462,
      "ĠÐ¾ÑĤÑģÐ²ÐµÑĩ": 7463,
      "ĠÑĪÐµÐ²ÐµÐ»ÑĮ": 7464,
      "ĠÑĪÐµÑģÑĤÑĮÑģÐ¾ÑĤ": 7465,
      "ĠÐ¿Ð¾Ð´ÑģÐºÐ¾": 7466,
      "ĠÐ¿Ð¾Ð´Ð¾Ð±ÑĢÐ°Ð»": 7467,
      "ĠÑģÐ¿ÑĢÑıÑĤÐ°Ð½": 7468,
      "ĠÑĤÑĢÐµÑħÑģÐ»Ð¾Ð¹": 7469,
      "ĠÐ½Ð°Ð´ÐµÑıÐ»ÑģÑı": 7470,
      "ĠÐ½Ð°Ð´ÐµÑıÐ»Ð¸ÑģÑĮ": 7471,
      "ĠÑģÐ¼ÐµÑģÑĮ": 7472,
      "ĠÑģÐ¼ÐµÑıÐ»Ð¸ÑģÑĮ": 7473,
      "ĠÑģÐ¾Ð±ÑģÑĤÐ²ÐµÐ½Ð½ÑĥÑİ": 7474,
      "ĠÐ¿Ð¾Ð·Ð°Ð±ÑĭÑĤÑĮ": 7475,
      "ĠÐ¸Ð³ÑĢÐ¾ÐºÐ¸": 7476,
      "ĠÐ¸Ð³ÑĢÐ¾ÐºÐ¾Ð¼": 7477,
      "ĠÐ²ÑĭÑģÐ¾ÐºÐ¸Ñħ": 7478,
      "ĠÑĥÑĩÐµÐ±Ð½Ð¾Ð³Ð¾": 7479,
      "ĠÑĥÑĩÐµÐ±Ð½Ð¸ÐºÐ¸": 7480,
      "ĠÐ²Ð¾Ð·Ð²ÑĢÐ°ÑīÐµÐ½Ð¸Ðµ": 7481,
      "ĠÑĤÑĢÐµÐ½Ð¸ÑĢÐ¾Ð²Ð°ÑĤÑĮÑģÑı": 7482,
      "ĠÐĵÐµÐ´Ð²Ð¸Ð³Ñĥ": 7483,
      "ĠÐĵÐµÐ´Ð²Ð¸Ð³Ð¾Ð¹": 7484,
      "ĠÐºÐ°Ð¿ÑİÑĪÐ¾Ð½Ð°Ñħ": 7485,
      "ĠÐ¿ÐµÑĩÐ°Ð»ÑĮÐ½Ð¾": 7486,
      "ĠÐ²Ð¾Ð´Ñĭ": 7487,
      "ĠÐ²ÑģÑĤÐ°Ð²Ð¸Ð»": 7488,
      "ĠÐºÐ»ÑİÐ²Ðµ": 7489,
      "ĠÐºÑĢÐ¾ÑĪÐµÑĩÐ½ÑĭÑħ": 7490,
      "ĠÐ±Ð¾ÐºÑĥ": 7491,
      "ĠÐ±Ð¾ÐºÐ°Ð¼": 7492,
      "ĠÐ·ÑĥÐ±Ð°Ð¼Ð¸": 7493,
      "ĠÐĶÐ¾Ð±ÑĢÐ¾": 7494,
      "ĠÐ»Ð°Ð¼Ð¿Ñĥ": 7495,
      "ĠÐ»Ð°Ð¼Ð¿Ð¾Ñĩ": 7496,
      "ĠÐ¾ÑĤÑĢÐ°Ð¶ÐµÐ½Ð¸Ñı": 7497,
      "ĠÐ²ÑĭÐ´ÐµÑĢÐ¶": 7498,
      "ĠÑıÑīÐ¸ÐºÐ°": 7499,
      "ĠÑĤÐ¾Ð½ÐºÐ¸Ð¼": 7500,
      "ĠÐ¢ÑĢÐ¸Ð´ÑĨÐ°ÑĤÑĮ": 7501,
      "ĠÑħÐ¾ÑĢÐ¾ÑĪÐµÐ³Ð¾": 7502,
      "ÑĥÑİÑĤÑģÑı": 7503,
      "ĠÐ¾ÐºÐ¾Ð½ÑĩÐ°": 7504,
      "ĠÐ·Ð°Ð²ÑĤÑĢÐ°ÑĪ": 7505,
      "ĠÐ¿ÑĢÐ¾Ð²Ð¾Ð´Ð¸ÑĤÑĮ": 7506,
      "ĠÐ¿ÑĢÐ¾Ð²Ð¾Ð´Ð¸Ð»Ð¸": 7507,
      "ĠÐ½Ð°ÐºÐ°Ð·Ð°Ð½": 7508,
      "ĠÐ¿Ð¾Ð³Ð»ÑıÐ´ÐµÐ»": 7509,
      "ĠÑĢÐ°Ð·Ð³Ð¾Ð²Ð¾ÑĢÐ°": 7510,
      "ĠÑĢÐ°Ð·Ð³Ð¾Ð²Ð¾ÑĢÐ¾Ð²": 7511,
      "ĠÐ±Ð¾ÑĢÐ¾Ð´Ñĭ": 7512,
      "ĠÐ±Ð¾ÑĢÐ¾Ð´Ð¾Ð¹": 7513,
      "ĠÑįÐºÐ·Ð°Ð¼ÐµÐ½Ð°Ð¼": 7514,
      "ĠÑĤÑıÐ¶ÐµÐ»ÑĭÐ¹": 7515,
      "ĠÐºÐ°ÑĢÐ¼Ð°Ð½Ðµ": 7516,
      "ĠÑģÐ°Ð´ÑıÑģÑĮ": 7517,
      "ĠÐ½ÑĢÐ°Ð²Ð¸Ð»Ð¾ÑģÑĮ": 7518,
      "ĠÐ²Ð¸ÑģÑı": 7519,
      "ĠÐ²ÐµÑģÐµÐ»": 7520,
      "ĠÐºÑĥÑĢÑĤÐºÐ¸": 7521,
      "ĠÐ´ÑĭÑĪÐ°ÑĤÑĮ": 7522,
      "ĠÐ±ÑĢÐ°ÑĤÑĮÑıÐ¼Ð¸": 7523,
      "ĠÐ½Ð°ÑĩÐ¸Ð½Ð°ÐµÑĤÑģÑı": 7524,
      "ĠÐ½Ð°ÑĩÐ¸Ð½Ð°ÑİÑĤ": 7525,
      "ĠÐµÑħÐ°Ð»Ð¸": 7526,
      "ĠÑĢÑĥÑĩÐºÑĥ": 7527,
      "ĠÐŀÐ±Ð°": 7528,
      "ĠÐ¾ÑĤÑĩÐ°ÑıÐ½Ð¸Ð¸": 7529,
      "ĠÐ¿ÑĢÐ¾Ð¼ÐµÐ»ÑĮ": 7530,
      "ĠÐ²ÑĭÑĢÐ²Ð°Ð»ÑģÑı": 7531,
      "Ð¸Ð½Ð¾ÐºÐ°Ð¼": 7532,
      "ĠÑģÐ¿ÑĢÐ°Ð²Ð°": 7533,
      "ĠÑĢÐ°Ð·Ð³Ð»ÑıÐ´ÑĭÐ²Ð°Ñı": 7534,
      "ĠÐĺÐ½Ð¾Ð³Ð´Ð°": 7535,
      "ĠÐ²Ð·Ð±Ð¸ÑĢÐ°Ð»Ð¸ÑģÑĮ": 7536,
      "ĠÑĤÑĢÐ°Ð²Ñĥ": 7537,
      "ĠÐ·Ð°Ð¿ÐµÑĢÐµÑĤÑĮ": 7538,
      "ĠÐĴÐ¾Ð»ÑĪÐµÐ±Ð½Ð¸Ðº": 7539,
      "ĠÑĥÐºÐ°Ð·Ð°Ð»Ð°": 7540,
      "ĠÐĿÐ°Ð¿Ð°Ð´Ð°ÑİÑīÐ¸Ðµ": 7541,
      "ĠÐĿÐ°Ð¿Ð°Ð´Ð°ÑİÑīÐ¸Ð¹": 7542,
      "Ð½Ð°Ð´ÑĨÐ°ÑĤÐ¾Ð³Ð¾": 7543,
      "ĠÐ¿Ð¸ÑģÐ°Ð»": 7544,
      "ĠÐ½Ð°Ð»Ð¾Ð¶": 7545,
      "ÑĩÑĥÑĤÑĮ": 7546,
      "ĠÐ²Ð»Ð°Ð¶": 7547,
      "ĠÐ²Ð»ÐµÐ²Ð¾": 7548,
      "ĠÐ¾ÑīÑĥÑĤÐ¸Ð»": 7549,
      "ĠÐ¸ÑģÑĤÐ¾ÑĢÐ¸Ð¸": 7550,
      "ĠÐ¸ÑģÑĤÐ¾ÑĢÐ¸Ñı": 7551,
      "ĠÐ´Ð¾Ð²ÐµÑĢ": 7552,
      "ĠÐ´Ð¾Ð²ÐµÑĢÑı": 7553,
      "ĠÑĤÐ°Ð±Ð»Ð¸Ñĩ": 7554,
      "ĠÑĤÐ°Ð±ÑĥÑĢÐµÑĤ": 7555,
      "ĠÐ¼Ð¸Ð»ÑĭÐ¹": 7556,
      "ĠÐ¼ÑĥÐ¶ÐµÑģÑĤÐ²Ð¾": 7557,
      "ĠÑĩÐ°Ð¹Ð½Ð¸Ðº": 7558,
      "ĠÑĢÐ²Ð°Ð½ÑĥÐ»ÑģÑı": 7559,
      "ĠÐŀÑģÑĤÐ°Ð»Ð¾ÑģÑĮ": 7560,
      "ĠÐĶÐ²Ð°Ð´ÑĨÐ°ÑĤÑĮ": 7561,
      "Ð°Ð³Ð¾Ð´Ð°ÑĢÐ¸": 7562,
      "ĠÐ¾ÑĤÐ´ÑĭÑħ": 7563,
      "ĠÐ¾ÑĤÑĢÑĭÐ²Ð°Ð»": 7564,
      "ĠÐ¾ÑĤÑĢÑĭÐ²Ð°Ñı": 7565,
      "ĠÐ³Ð°Ð·ÐµÑĤÑĭ": 7566,
      "ĠÐ²ÑĭÐ³Ð¾Ð²Ð¾ÑĢÐ¸Ð»": 7567,
      "ĠÐļÑĢÐ¾Ð²ÑĮ": 7568,
      "ĠÐ·Ð°ÑīÐ¸ÑĤÐ¸ÑĤÑĮ": 7569,
      "ĠÑıÐ¹ÑĨÐ°": 7570,
      "ĠÑħÐ¸Ð¶Ð¸Ð½Ñĥ": 7571,
      "ĠÑħÐ¸Ð¶Ð¸Ð½Ñĭ": 7572,
      "ĠÑĪÐ°Ð½ÑģÐ¾Ð²": 7573,
      "ĠÑĪÐµÑģÑĤÑĮÑİ": 7574,
      "ĠÑĢÐ°Ð·Ð»Ð¸ÑĩÐ½ÑĭÐµ": 7575,
      "ĠÐ¿ÐµÑĢÐµÐ¿Ð¾Ð»": 7576,
      "ĠÐ¿ÐµÑĢÐµÐ¿ÑĥÐ³Ð°Ð½": 7577,
      "ĠÐ¿ÐµÑĢÐµÑģÐ¿ÑĢÐ¾ÑģÐ¸Ð»Ð°": 7578,
      "ĠÐ¿Ð¾Ð»Ð¾Ð²Ð¸Ð½Ð¾Ð¹": 7579,
      "ĠÐ²Ð·Ð¼Ð°ÑħÐ½ÑĥÐ»": 7580,
      "ĠÑĤÑĢÐ¾Ð¿Ñĭ": 7581,
      "ĠÐ²ÐµÑĢÑħÐ¾Ð¼": 7582,
      "ĠÐ¿Ð»Ð°ÐºÐ°ÑĤ": 7583,
      "ĠÑĥÐ¿ÑĢÐ°Ð²Ð»ÐµÐ½Ð¸ÐµÐ¼": 7584,
      "ĠÐ¨Ð¾ÐºÐ¾Ð»Ð°Ð´Ð½ÑĥÑİ": 7585,
      "ĠÐ½Ð°ÐºÐ»Ð¾Ð½Ð¸Ð»ÑģÑı": 7586,
      "ĠÐ¿ÑĢÐµÐ´Ð¿Ð¾Ð»Ð°Ð³": 7587,
      "ĠÐ¿Ð¾ÑģÐ¿ÐµÑĪÐ½Ð¾": 7588,
      "ĠÑĤÑİÑĢÐ±Ð°Ð½Ðµ": 7589,
      "ĠÑģÐ½Ð¸Ð¼Ð°Ð»Ð¸": 7590,
      "ĠÐ½Ð¾Ð·Ð´ÑĢÑıÐ¼Ð¸": 7591,
[...]
